#version: 0.2
Ġ d
Ġ e
Ġd e
Ġ a
r a
Ġ p
o s
Ġ c
n t
e s
e r
a s
o r
Ġ s
a d
i n
i s
a r
Ã £
Ġc o
Ã£ o
r e
i a
Ġ o
Ġ n
Ġ m
Ã §
i c
q u
a l
Ġ f
Ġ t
a n
r o
e nt
Ã ©
i d
u m
e n
i t
e m
Ġ qu
i o
Ġco m
Ġ A
e l
Ġd o
a m
s t
Ġ C
Ã ¡
d o
Ġ um
Ġe m
Ã§ Ã£o
Ġd a
i m
Ã Ń
Ġ S
Ġ 1
Ġqu e
i l
Ġ P
Ġ "
a t
Ġ (
Ġ E
a ra
o n
Ġ M
Ġ v
u l
Ġs e
o l
Ġ re
Ġn o
Ġ l
t a
e i
Ġ 2
u n
ad o
i v
Ã ³
o u
Ġ B
Ġ R
i g
n c
ent e
Ã ª
u t
e c
Ġ O
Ġ L
Ġp ara
u s
d e
Ġ D
Ġ F
Ġum a
Ġ T
o m
Ġ b
r es
is t
Ġ g
e t
Ġ N
Ġ in
Ġn a
Ġf o
ic a
Ġ Ã©
Ġe st
Ġp or
r i
Ġ2 0
a nt
Ã µ
a is
Ãµ es
Ġs u
id ad
Ġ1 9
s e
Ġ G
h a
o c
ad a
Ġco n
Ġ I
d a
Ġp ro
l e
a Ã§Ã£o
a c
Ġe s
i r
Ġa s
Ġ J
i z
u ra
Ġfo i
t e
h o
Ġ os
io n
Ġe x
Ġ Ã
Ġcom o
Ġ j
idad e
t o
e ra
Ã§ Ãµes
g u
i p
Ġp r
ra s
Ġ V
id o
Ġ H
Ġp el
an do
ent o
e d
s o
Ġp o
p o
i nt
â Ģ
Ãª nc
Ġd os
Ã© m
e g
ra m
o g
Ã º
i as
Ġa l
it o
Ġa t
or m
ic o
Ġa n
Ġde s
ra n
ad os
a g
ei ro
Ġ h
Ġ -
er n
Ġa p
a v
" ,
o b
u r
i f
r io
r ia
Ġp ar
Ġ U
Ġn Ã£o
r os
Ġs er
Ġe nt
o v
a b
a i
Ġa o
Ġco nt
Ġm ais
id a
Ġ20 1
0 0
ia l
am b
er s
or es
r u
a p
Ġa r
Ġ âĢ
ĠR e
ĠE m
v e
Ġa c
Ġsu a
ei ra
f er
u b
m o
Ġ W
h e
Ġ20 0
m ente
is ta
ĠÃ ł
en s
Ã§ a
Ġo u
o d
Ġt em
amb Ã©m
nt e
c o
es t
Ġt er
Ġd as
o t
Ġ int
Ġse u
Ã ¢
p l
Ġp er
d u
en do
or t
c e
Ġt ambÃ©m
Ġes p
Ġe l
in a
č Ċ
in g
Ġo ut
ĠE st
) ,
a Ã§Ãµes
am ente
) .
an d
em b
as s
i b
i Ã§Ã£o
e z
ĠA l
Ãªnc ia
Ãªnc ias
m e
Ãª s
o ra
Ġpr im
Ġcom p
Ġ res
or n
a z
Ġ im
Ġ K
es s
ul o
o nt
Ġe n
ion al
ad as
Ġt ra
Ġs ob
ia n
Ġ 3
ras il
ÃŃ t
Ġpel a
Ã© c
u d
m in
Ġd is
e v
" .
Ġes c
Ã ´
e u
Ġf orm
Ġpel o
Ġ Ã¡
Ġp os
en d
Ġent re
qu e
ĠM ar
v el
Ã¡ rio
ic as
i os
Ġe le
u g
Ġpar t
Ġ or
am ento
ÃŃ c
p res
p e
es so
u al
t er
fer Ãªncias
Ġs Ã£o
Ġc h
ul t
im ento
Ġp re
Ġf il
Ġa b
in o
ĠC om
ic os
c l
p os
i re
c a
ĠU n
oc al
un d
r it
Ġsob re
Ġm as
emb ro
c h
Ġas s
Ġ1 8
1 9
ĠRe ferÃªncias
Ġo b
Ġa m
Ã§ o
un do
Ġm u
iv o
in c
Ã¡ ri
or te
ad or
i u
Ġ ha
id os
ant o
Ġm es
Ġno v
Ġex t
ĠI n
o p
e b
at o
Ġo f
an o
ara m
Ġre g
l a
ent es
Ġa nt
Ġar t
Ġm ar
s a
ad e
Ġs em
ĠC on
j a
in al
Ġcon s
in ha
i ra
Ġc ar
p er
g o
Ġ us
idad es
Ġc as
ent os
en c
ĠN o
2 0
s Ã£o
ĠE s
Ã³ s
ĠA s
ÃŃ s
Ġc l
Ġ19 9
Ġan os
h ec
it u
v ol
ig o
er t
Ġ 4
m a
an Ã§
. .
ĠB rasil
f orm
b l
Ġn os
Ġo n
ĠC h
iv ers
Ġn as
ant es
Ġre c
Ġe ra
ra v
ĠA n
i k
d er
i Ã£o
ĠD e
Ã¢ n
Ã³ ria
ra f
i e
ĠA r
Ġp res
Ġc or
ar t
ÃŃ n
b al
l ia
iv a
ĠO s
an a
ĠP a
if ic
r Ã¡
Ġco l
u nt
av a
Ã© r
Ġfo ram
er o
Ġt e
Ġ 5
u st
Ġre l
ĠC ar
Ġa g
Ġpr inc
Ġa d
as e
Ġe nc
Ã© d
ar ia
ra nc
Ġat Ã©
Ã´ n
it os
in do
Ġde st
el h
an h
Ġ ro
ar d
ĠL ig
Ġj og
ai x
ul ar
p re
er ra
Ġm ai
os t
Ġse g
u ro
it a
Ġse us
en as
Ġqu al
Ġest Ã¡
ra l
ĠâĢ ¢
im a
ĠS Ã£o
Ġv ez
Ġal g
ran s
Ġc am
o do
v a
Ġp ass
Ġse gu
ag em
Ã¡ri os
as t
ern as
Ġint er
Ġm il
in h
Ġ Q
ra t
Ġno me
Ġp ol
ĠV er
Ġon de
em a
Ġprinc ip
ĠA m
ura nte
Ġtem po
ran de
Ġco nc
Ġim p
Ġd ire
Ġt orn
ant e
it e
ra d
", "
Ġf az
is mo
l o
Ġ19 8
j et
Ġc idade
id as
po is
Ġv er
or d
v er
Ġcon st
m an
Ġe d
era l
Ã³ p
Ġpos s
Ġl ocal
Ã³ r
Ġha b
ra da
ĠJ o
Ġd ia
Ġre al
i x
Ġcon hec
Ġdes c
es a
Ġtra bal
ĠLig aÃ§Ãµes
raf ia
Ġext ernas
2 00
ĠÃ º
Ġsu b
Ġp l
Ġmes mo
el a
Ġ X
Ġmai or
nt es
ri b
or re
ul a
Ġo c
Ġc ap
Ġqu ando
in da
Ġan o
es te
ĠG u
Ġ 6
T C
iz aÃ§Ã£o
ic ip
ec t
ĠQ u
Ġpar te
ĠC am
Ã© s
ist as
Ġa ut
Ġp esso
Ãº s
ac ional
Ġp a
it ar
v ia
Ġt od
ei ros
Ġd u
ĠF o
ub l
Ġpo p
is Ã£o
ad ores
ĠS u
Ã¡ t
Ġcont ra
im o
U TC
Ġprim eiro
g l
Ġm e
u gu
f e
el o
d em
Ġt rans
Ġin d
i or
Ġh ist
Ġt r
ĠP ro
Ġs endo
ic ial
an eiro
Ġpo de
Ġ 0
h er
ov ern
Ã© ri
Ġl anÃ§
er c
Ġ19 7
ĠâĢ ĵ
Ġout ros
en h
Ġ 7
u p
Ã¡ g
is c
ĠP or
Ġin cl
Ġdo is
Ġ k
du z
u c
er ic
p on
Ġsu as
Ġj Ã¡
Ġprim eira
Ġa os
Ãº bl
un s
ĠS t
Ġ Y
is s
Ġ ra
a y
ig n
Ġe qu
id e
it al
Ãª m
Ã© t
Ġhab it
ĠP r
ica Ã§Ã£o
Ġ 8
ÃŃ p
ÃŃ vel
ia is
Ġf am
ir m
d io
re a
Ġmu ito
v i
vol v
Ġd urante
Ġprincip al
g a
g e
Ġc r
ol a
ĠA p
Ġde pois
ia m
n e
Â º
Ġv ol
ce b
ĠC l
Ã§ as
i Ã§Ãµes
Ġenc ont
at eg
Ġ is
ÃŃ st
Ġ1 7
Ġch am
ateg or
u do
ĠP ort
b o
in as
Ġ1 5
Ġ 9
Ġa inda
p era
Ġpa ÃŃs
r ig
c on
Ġg ru
ĠA t
ĠÃ ī
Ġd ist
ĠP ara
id era
Ġ19 6
Ġa f
Ġf al
Ġdes en
gu a
Ġf inal
o f
Ġap enas
r il
g an
Ġart igo
ĠN a
nc ia
Ġesp ec
el e
l t
res ent
an ha
un da
Ġ( "
in e
Ġc an
ra Ã§Ã£o
ar es
ĠPa ulo
l u
ĠE le
Ġform a
er v
ĠS e
um a
g ram
Ġg rande
ĠE l
iz ado
Ġ Z
Ġap resent
Ġc a
c om
ÃŃc io
Ġpro c
Ãº m
Ġ r
Ġcom e
Ġde f
en a
Ġ1 0
ĠE x
an da
Ġd if
ĠR io
un c
ĠL e
ol og
ÃŃ lia
Ġg overn
Ġhabit antes
Ġ1 6
ĠI nt
Ġ un
Ġap Ã³s
l io
r ito
at ro
Ġc er
Ġb rasil
iv os
p a
Ãª n
Ġincl u
id ente
Ġf e
Ġm en
Ġpor t
el ho
l b
ra r
d es
du Ã§Ã£o
Ġp e
ip e
Ġel a
ul aÃ§Ã£o
Ġin f
ĠA nt
Ġre t
I I
r ic
Ġcon f
ian o
il l
os to
d os
Ġin st
Ġpro v
Ġm at
ĠS ant
ve is
.. .
Ġpro f
ult ura
iz ada
Ġor ig
Ġpo der
t or
Ġf or
nt o
an c
us sÃ£o
ĠFo i
Ġde c
Ã©ri e
Ã³ rio
Ġl iv
ut il
it as
Ã¡ s
" )
ĠP ar
Ġm Ãºs
Ġt he
Ġg u
ĠN ov
at e
el l
Ġpol ÃŃt
ic e
Ġm od
ĠD es
n a
qu er
Ġd iv
ubl ic
Ġtr Ãªs
ĠâĢ Ķ
eb ol
1 8
Ġpart icip
pres ent
Ġe v
Ã¡ ria
Ã¡ vel
in ho
Ġm a
Ġf ic
Ġest e
Ã³ g
Ġa v
ra do
Ġde z
or do
Ġre ceb
ĠM a
Ã©d ia
Ġtod os
Ġ util
or ta
er g
Ġh om
n o
Ġk m
Ġl ev
j e
Ġm ed
at a
pe on
Ġm an
1 3
Ġout ras
Ġdu as
ig os
elh or
Ġs ol
ĠW ik
Ġc ri
ul os
Ġb em
Ġent Ã£o
rib u
ro u
Ġ1 2
em pl
Ġs Ã©c
ĠAs s
Ġin v
Ġs ist
âĢ Ŀ
ut ebol
ĠÃ¡ lb
ent al
Ġm et
e x
Ġs ido
Ġf re
Ã³ l
Ġs im
s on
Ã¡ri as
era m
ÃŃ m
ro p
ĠL u
ĠUn ivers
oc a
Ġex ist
h os
ĠL ocal
Ġm un
Ġ1 4
Ġ19 5
Ġde v
unt o
Ġs oc
Ã³ n
Ġfil me
ut o
d ade
ec e
t ura
is a
Ġ19 4
Ġin form
Ã¢ m
p ort
t as
Ġconst ru
ĠA b
Ġa qu
ers on
Ġgru po
ig u
Ġsegu int
Ġdif er
peon ato
es se
Ġest ado
al l
Ġis so
Ġcons idera
ul ho
Ġt o
Ġ ho
im in
c io
ĠT he
Ġdis c
ĠÃ ģ
an os
ei ras
Ġc ria
re ira
r y
Ġch eg
en se
ĠâĢ ľ
Ġposs u
ion ais
Ġcom un
ro n
Ġb ase
Ġpesso as
Ġre present
Ġcon v
ĠC ol
T he
Ġdesen volv
Ġan d
Ġseg undo
Ġ1 3
t os
un ho
m it
ĠB ar
Ġcome Ã§
os a
ĠO l
Ġpel os
qu anto
Ġn Ãºm
ub ro
ĠÃ¡ rea
ev er
ĠÃł s
Ġem pres
ĠH ist
g rafia
ĠJ os
Ġc ent
ĠEs p
at al
l es
Ġpro p
ĠÃº lt
i es
âĢ ĵ
ĠÃ¡lb um
Ã© rio
ĠE n
z a
Ġpro gram
Ġport ugu
r ut
Ġs Ã©rie
ĠsÃ©c ulo
re n
se gu
Ġreg iÃ£o
at ura
Ġt ÃŃt
olog ia
Ġm in
em ente
d or
Ġdes de
d as
h as
Ġass im
og o
i ar
Ġin gl
an g
Ġpr Ã³p
es ta
Ġc ada
ĠS eg
i ado
ub e
ag ens
il idade
ian a
iv as
d ia
1 0
ug al
u ta
ic ÃŃp
Ġp al
Ġap ar
ĠA c
ĠEst ados
Ġest re
j o
Ġc in
im e
c ional
ĠO r
Ġp es
Ġf und
m os
Ġesp Ã©c
ual mente
Ġin s
d ic
er to
Ġ19 3
Ã§ os
Ġpo dem
Ġpart ir
p ut
Ã¡g ina
Ġl on
ac h
Ġalg um
Ġse t
Ġt inha
le x
ĠUn idos
Ġant es
Ġp ou
et o
g re
Ã´ m
ĠF l
Ġl ug
Ã¡ l
Ġv ida
Ġp Ãºbl
av am
Ã¢ ncia
. "
g em
i ent
Ġhist Ã³ria
Ġ1 1
ed ade
ĠI s
Ġte ve
Ġor gan
Ġ201 0
Ġpop ulaÃ§Ã£o
ĠPort ugal
Ġsu c
Ġfam ÃŃlia
Ġ w
ic al
Ġex empl
Ġ200 8
Ġv al
ategor y
Ġno t
Ġof icial
t on
Ġat rav
ic h
ou r
ĠF ranc
l os
Ġest ava
ĠE d
ĠU m
Ġs Ã³
en de
Ġde r
min ist
Ġde ix
Ġh Ã¡
Ġpro jet
it y
ed ia
a k
Ġ200 9
ĠS ul
Ġre p
ab el
et e
er ia
ever eiro
Ġ il
ĠI m
Ġmun icÃŃp
u a
ĠE nt
Ġalg uns
Â ²
isc ussÃ£o
og rafia
Ġcont in
ig a
ĠP er
ÃŃ f
Ġm undo
il o
ec ess
v o
io u
Ġg rav
ĠF il
in s
ĠJ aneiro
ĠnÃºm ero
Ġj aneiro
ĠP re
Ġs a
Ġd ivers
ĠE uro
Ġ200 6
Ġam b
Ġha via
Ġsist ema
ĠC or
Ġde m
Ġac ordo
ĠB o
200 0
Ġel es
Ġap ro
io l
Ġtrabal ho
im entos
Ġv ers
Ġ200 7
an e
Ġp ublic
ist o
Ġre fer
em as
Ġimp orta
an Ã§a
Ġd iz
Ġmar Ã§o
is sÃ£o
Ġcon d
p end
Ġvez es
Ġt endo
Ġint ern
p h
Ġn um
o k
on a
Ġingl Ãªs
Ġ .
p t
Ġre v
Ġv o
ĠmÃºs ica
Ġma io
f f
Ġm elhor
re t
ĠM an
Ġg eral
h n
Ġdez embro
Ġfaz er
ĠG e
ĠO ut
Ġgovern o
Ġc u
Ġsu per
Ġin c
Ġ id
Ġe ram
ia Ã§Ã£o
ara c
d iscussÃ£o
at iva
Ã³ ri
Ã© l
p ara
ot al
Ġen quanto
Ġatrav Ã©s
Ġ201 1
ec eu
Ġest Ã£o
Ġaut or
Ġn orte
Ġt ip
ac k
rÃ¡ f
en Ã§a
Ġespec ial
as c
re d
1 5
Ġa po
Â ª
Ġv oc
Ġout ubro
ĠÃ© p
Ġal Ã©m
Ġ201 2
Ġd Ã©c
1 2
Ġset embro
e de
ĠtÃŃt ulo
Ġab ril
Ġn eg
Ġc ur
Ã³ d
Ġest a
Ġjog o
Ġv is
Ġlug ar
Ġs al
Ġc ant
ĠF ran
Ġp erson
it or
re do
Ġem b
Ġse ja
iv e
Ġ /
en Ã§Ã£o
Ġper ÃŃ
i ente
Ġag osto
ĠN acional
Ġ201 3
ta Ã§Ã£o
or r
Ġh um
Ġv Ã¡rios
Ġj ulho
Ġcon segu
ul her
Ġcol oc
ĠJos Ã©
Ġt ent
ĠUnivers idade
os ta
Ġf ez
ce u
Ġb anda
ÃŃ do
iz ar
il a
1 7
Ġj unho
Ġnov o
Ġca us
r ica
Ġa j
h t
ĠÃº n
Ġmar c
und ial
Ã¡t ica
Ġform ula
s os
Ġt ar
u Ã§Ã£o
Ġn ecess
ar o
ĠJo Ã£o
Ġmil h
00 0
z e
is co
on g
st itu
Ġt otal
ĠInt ern
en ho
ac e
ĠÃ©p oca
Ġnov embro
x im
ĠN e
Ġde n
Ġin ic
ĠA d
em in
Ġpo is
Ġin ÃŃcio
n Ã§a
en o
Ġm ov
ic amente
i Ãªncia
Ġest ud
u re
Ġpre c
um ent
if icaÃ§Ã£o
h ar
Ġpro duz
ĠA g
re g
eric ano
Ġ ,
Ġesc ol
du c
Ġout ro
Ġm us
ĠT ra
1 6
Ġl e
m es
ĠS a
Ġp ra
ĠEs c
ĠT h
d ut
ĠCam peonato
on s
Ġe u
Ġexempl o
Ġs ign
ar i
Ġtempo rada
ĠR ec
Ġqu atro
ĠP ol
Ġob jet
ĠC op
Ġdest a
Ġf ranc
Ġesc rit
gu e
Ġpe qu
Ġres ult
Ġf evereiro
Ġtorn ou
ĠEst ado
ĠS al
Ġm ost
ĠMar ia
Ġpo nt
Ġseguint e
ri z
Ġ ir
at os
ad r
ĠC r
Ġconhec ido
Ġp ap
ĠperÃŃ odo
Ġcas o
Ġ2 5
am entos
ib lio
Ġp ed
t h
ro m
Ġex pl
Ġv e
ĠHist Ã³ria
ĠmunicÃŃp io
ĠM o
ĠP l
es es
Ġ201 4
1 4
ura s
Ġt odo
re m
Ġme io
Ġcer ca
ĠT e
Ġqual quer
Ġ3 0
ĠM us
ĠC o
ĠU ma
Ã£ os
Ġs om
arac ter
on d
or e
Ġbrasil eiro
iv amente
i ram
ĠN Ã£o
Ġ2 2
c os
iv al
Ġres pon
ĠNov a
ĠR om
Ġed iÃ§Ã£o
u da
ĠC as
19 9
b a
es ar
re ve
ĠR eg
Ġt el
Ġmen os
t ar
Ġcl ass
Ġ201 6
c ia
ĠCom o
ec er
orn al
is e
as se
Ġe t
Ġcomp et
l y
Ġqu ais
Ġt ur
Ġm ant
Ġex p
il h
Ġl ado
ĠI I
Ġe p
c ar
i er
Ġl ig
Ġ2 1
Ġ2 3
ĠWik ip
ĠAn d
ĠM in
if ica
Ġfil ho
Ġseg unda
ĠG rande
Ġ201 5
ĠC ont
Ġdev ido
ĠP al
Ġ irm
Ġv Ã¡rias
Ã©c n
en da
Ġm ulher
ĠC at
Ġdesenvolv imento
Ġcont ro
ĠAp Ã³s
Ġent anto
s as
ĠL a
ru z
ÃŃ da
Ġf un
Ġm ud
i el
Ġar qu
Ġp Ã¡gina
Ġs ab
on hec
Ġs ent
Ġs itu
on e
Ġter c
ent emente
Ġf im
Ġ ig
in os
Ġtod as
Ã©r ica
Ġo pera
Ġt al
Ġ19 2
p r
Ġf er
Ġco b
av al
Ġte x
en so
iv er
Ġc ultura
Ġpro bl
ĠC an
aix a
Ġd ias
Ġre n
aix o
Ġat u
Ġm orte
s u
Ġf l
o w
Ġ2 4
Ġde nt
ĠC ent
Ġalgum as
in gu
Ġnov a
Ġv ia
Ġpres idente
Ġser ia
Ġoc orre
Ġg ran
t t
Ġ '
ĠP res
Ġsu r
ĠV al
Ġ rÃ¡
iz a
er os
am os
at ion
Ġa ta
i ro
Ġant er
m as
Ġel imin
ĠS il
ĠSant a
f ic
ĠS oc
Ġg ol
Ġde l
ĠCon s
res c
Ġser vi
ĠC al
ĠP art
ĠI t
Ġad minist
Ġ20 00
ĠGu erra
Ġe con
Ġpr Ã³
l and
Ġequ ipe
ĠcomeÃ§ ou
n do
1 1
Ġequ ip
ĠCop a
Ġmu itos
ĠlanÃ§ ado
Ġpro duÃ§Ã£o
Ġm ot
a x
Ġ z
Ġtar de
ac ion
Ġt om
ĠP ed
ĠÃ¡ gua
Ġdesc ob
Ġs ul
ol Ã³g
a f
Ġcom pl
Ġ200 5
Ġg en
k e
Ġg ra
Ġdef in
Ġf utebol
Ġt re
ĠespÃ©c ie
Ġus o
Ġes se
Ġg anh
ĠEst e
Ġcontin u
ĠAr t
Ã¡ veis
ĠS h
ĠRe p
Ġac ab
or ia
Ġpossu i
Ġ201 7
Ġpass ou
ĠO b
Ġprogram a
Ġvers Ã£o
Ġmes ma
i Ãµes
Ġl eg
os o
Ġm on
Ġcas a
Ġre f
i edade
ĠG l
Ġcom b
Ġcon j
ÃŃst icas
Ġes sa
ĠJo hn
Ġl ib
Ġorig inal
em p
qu es
Ġliv ro
Ġc aracter
Ġat iv
Ġse x
Ġna cional
v al
ul g
Ġj unt
Ġe r
Ġmilh Ãµes
ag o
g er
um ento
ĠF ede
Ġint eg
Ġde ve
Ġb as
Ġcon qu
ĠLocal idades
Ġprojet o
am es
Ġvoc Ãª
ta nto
Ġpro dut
Ãºbl ica
ĠR ob
ĠB io
' s
Ġpes qu
or g
al a
Ġat ual
ic k
2 1
t enc
Ġf ac
ÃŃ veis
ĠE la
Ġmil itar
Ġpor que
Ġqu em
Ġproc esso
Ġc al
Ġest abel
de pend
ran do
am p
Ġportugu Ãªs
Ġsem pre
pos ta
a ir
era Ã§Ã£o
ar do
Ġal em
ĠI gre
Ġl ÃŃn
ĠSeg undo
ĠL ista
Ġrel aÃ§Ã£o
ĠC ap
Ġcar reira
p ect
Ġs of
er ta
om ia
Ġ201 8
Ġcr ÃŃt
Ġse c
in ado
ĠF re
u x
s ia
Ġ ru
st ant
ĠM as
Ġ Â
im ent
Ġan im
ĠEnt re
ĠpaÃŃs es
ĠdÃ©c ada
Ġempres a
Ã©r c
s es
en ha
i ada
Ġn uma
Ġl im
Ġf in
Ġprincip ais
ab ora
Ġreg ist
ar e
ĠP o
orm ente
ĠG o
av or
ĠD em
ĠAl Ã©m
Ġdis so
ens Ã£o
Ġter rit
Ġinclu indo
f in
Ã³ t
Ġ &
ĠCar los
m ov
iz ados
ir c
Ġp ai
am a
ĠS ub
ad es
Ġgran des
Ġo p
i ormente
t ou
Ġtip o
ĠB iblio
Ġb o
ir ig
Ġ200 4
pres s
g res
Ġmu itas
ĠC ast
Ġpou co
im os
c el
Ġter min
bo a
c k
Ã¡ c
ĠM at
ĠIgre ja
fe ito
Ġinform aÃ§Ãµes
om e
Ġmaior ia
est Ã£o
or to
Ã ¼
Ġcan Ã§Ã£o
ĠIn st
Ġtrabal h
Ġcham ado
ess or
ra g
Ġt ec
is boa
ĠF igu
u ais
c ion
rut ura
Ġpop ular
Ġc ab
u v
Ġf unc
ĠpolÃŃt ica
ĠB e
Ġout ra
ĠAn g
Ġper man
a h
Ġho je
Ġ2 8
ul as
u de
b ol
Ġde cl
Ġt Ã©cn
Ġ2 6
qu ia
ĠFran Ã§a
ĠN os
Ġreceb eu
Ġm Ã©d
Ġvol ta
Ġ201 9
Ġap l
Ãªm io
ÃŃ de
Ġpel as
Ġlon go
Ġcl ube
le g
ÃŃc ia
w s
ĠAm Ã©rica
Ġb ar
ec ut
pos iÃ§Ã£o
Ġinf lu
p anh
Ġcor re
Ġt ro
ess a
un g
Ġdifer entes
le y
Ġob ra
Ġest ad
Ġd irig
Ġcin co
oc k
es e
Ġ2 7
ĠD urante
Ã© n
Ġde ter
Ġc ategor
ĠM undial
an as
emb ros
ado ra
ĠW il
Ġj ornal
Ġsuc esso
or k
Ã´n ia
Ġ19 13
ĠC and
Ġal t
Ã¡g inas
om b
ag e
Ġrel ig
at ivo
ĠN orte
g io
rad as
Ġob s
ĠD ire
ĠA o
l et
ez a
Ġdis se
Ġn atura
Ġdent ro
al h
5 0
w w
ĠSu a
ĠpÃºbl ico
Ġto da
Ġac ont
ad eira
ert os
Ġpont os
Ġd ados
Ã¡ b
Ġan unc
rit Ã¢n
ro nt
ĠQu ando
ĠFigu ei
ĠPr im
Ġjog os
Ġimporta nte
pe Ã£o
rad os
Ã³ri as
ĠPa ul
Ġcor po
) ;
ĠPor to
Ġgu erra
in k
Ġo l
ĠH ar
ĠDe pois
Ġcont a
Ġf avor
Ġd i
am e
ad amente
Ġpal av
Ġser v
Ġep is
og os
Ġsim pl
m ar
Ġcap ital
ÃŃst ica
Ġpo nto
Ġrel acion
in d
ĠSu per
ent a
ĠV ol
Ġaqu i
k i
Ġde t
ĠL isboa
ur g
Ġpos iÃ§Ã£o
an n
Ġpar c
al mente
Ġt Ãªm
Ġconst itu
k a
Ġa do
Ġaf irm
u z
us Ã£o
ĠFiguei redo
Ġm Ã¡
Ġprof iss
iv il
Ġesp a
Ġv it
re as
Ġinter pre
ĠM il
Ġ19 0
ec a
Ã©rc ito
Ġdis put
ĠAl em
ĠEuro pa
r im
Ġoc up
Ġen s
Ġrespon s
Ġ2 9
r is
ĠI l
Ġc ient
. ,
Ġl it
ĠEst a
Ġpap el
Ġm om
Ġrec onhec
i ores
ĠM e
in aÃ§Ã£o
_ _
inh as
ica Ã§Ãµes
Ġper mit
or ge
ic l
Ġ ide
c ategory
ĠT V
ĠWikip Ã©dia
f al
Ġfic ou
ÃŃ l
ar c
19 8
Ġfo ra
ĠT er
ra c
3 0
i que
Ġfre qu
ĠAl b
ĠS er
ar Ã¡
Ġart igos
Ġpro te
ĠF er
el as
Ġdo c
Ġdo m
en e
Ġconstru Ã§Ã£o
ĠMar t
Ġind iv
Ġre i
Ġb at
ĠS p
Ġl inha
ĠS eu
Ġex per
ĠT ambÃ©m
Ġsub stitu
ĠM un
u el
Ġn orm
Ġtex to
Ġder ro
Ġf os
ru e
Ġl at
Ã´n io
ific ado
v io
era is
ĠG al
Ã©t ica
Ġus u
Ġal c
ĠPed ro
el es
Ġm embros
Ġl ÃŃ
Ġprincipal mente
ÃŃ a
Ġ20 20
Ġsoc ial
en ce
Ġqu ase
t ado
Ġinv est
Ġ ...
ĠX V
il e
Ġ :
Ġm o
ĠprÃ³p rio
Ġj ov
f o
i ados
ar g
Ġ18 9
inh os
Ġob ras
et ro
b y
ĠP at
A r
l as
2 8
Ġn enh
Ġc at
an ce
ĠR es
Ã¡ lia
Ġn ÃŃvel
um e
ĠCand ido
ĠF ern
ĠAl g
Ġemb ora
end er
ĠH er
ic ion
Ġposs ÃŃvel
ur so
st ria
ĠR a
ĠRep Ãºblica
ĠP ra
Ġhist Ã³r
iz ou
ĠM ed
duc aÃ§Ã£o
it uto
ei x
Ġp int
en n
Ġ200 3
ÃŃ nc
z o
Ġcom erc
Ġest im
Ġconhec ida
ĠR o
Ġprim eiros
ol d
ĠF utebol
Ġn e
Ġdeter min
ĠFranc isco
Ġid ent
Ġdest e
Ġv ot
Ġret orn
Ġter ra
Ġass oc
un a
ac a
/ /
ĠD u
ĠP os
Ġt anto
t rue
Ã£ e
Ġp at
Ġtel ev
Ġfunc ion
Ġ x
or o
ÃŃ ncia
Ġqu ar
ĠIntern acional
ĠD av
e p
2 2
ĠS te
ĠLocal idade
ÃŃ g
Ġpor Ã©m
on st
ĠRe ino
ĠM ont
Ġen f
em os
Ġcomp os
Ġind ic
Ġprop ri
Ġorig em
: //
Ãº de
Ġpesso a
ern a
ĠB l
as h
Ġv enc
an s
Ġj unto
Ġo fer
y s
Ġ rio
x imo
ĠS c
Ġpos ter
ĠH en
Ġ200 1
Ġ idade
Ġ200 2
et r
Ã¢n e
Ġfe ito
Ġsimpl es
ĠBiblio grafia
ĠÃºlt imo
ta nte
Ġrel at
Ġl oc
ec h
Ġ1 00
ĠlÃŃn gua
icip al
ern o
Ġv iz
2 9
ĠD om
Ġconqu ist
Ã¡ cio
is as
it ado
ÃŃn io
Ġ ital
ĠA f
Ġ- -
ÃŃm p
Ġin depend
i entes
ĠS ou
Ġbrasil eira
ĠL ib
Ã¢n ia
es ia
Ġin icial
ele Ã§Ã£o
ĠA v
Ġapro xim
Ġf ato
Ġg Ãªn
Ġdis p
Ġar m
Ġl ista
ing le
ĠNe w
p art
reve u
Ġcont ribu
de fin
Ġcent ro
Ġro m
Ġl a
Ġconj unto
s h
Ã¡s s
Ġf ase
ĠrÃ¡ p
Ġdist ribu
E S
Ġm erc
ĠT om
Ġag ora
iz adas
Ã¡ r
Ġt rop
em ia
Ġat ing
Ġn em
Ġqu anto
ĠJ ap
Ġcom um
Ġval or
in i
b e
S B
Ġar g
Ġde ver
ĠA lex
ĠH e
Ġnas c
A l
int o
ag n
ĠpolÃŃt ico
ri os
ĠT em
r ist
ic ular
l er
p ira
ĠM al
w n
Ġv ai
ap a
n g
Ġlocal izada
ent ar
Ġel em
Ġm orre
Ġqu er
ur b
gu as
Ġmet ros
Ã³ dio
Ġgru pos
ol e
un ca
ÃŃc ias
ĠN ot
Ġobs erv
v es
ĠFede ral
Ġex ib
Ġele ito
ĠB u
Ġper tenc
t amente
ĠAlem anha
ant as
ip l
ac o
Ġencont ra
Ġser Ã¡
is h
Ġter mo
Ġf ort
ut os
t ion
en co
Ġb ritÃ¢n
Ġs on
ĠC a
Ġpo vo
ran g
ĠIn gl
Ġel ei
" ),
Ġv iol
Ġdire ito
Ġc irc
Ġcria Ã§Ã£o
Ġc resc
eric ana
Ã¢m ara
Ġinst itu
c ul
Ġmat er
Ġam pl
Ġf emin
Ġ18 8
en os
ĠS an
Ġmom ento
ho w
h am
m et
Ġdes ign
Ġa st
Ġseguint es
Ġdivers os
Ġb us
Ġmov imento
Ġest udo
Ġdivers as
tt p
Ġl ogo
at es
ĠP e
stant ivo
ec imento
Ġest ar
Ġh ttp
ĠD o
Ġm ont
Ġde u
pres sÃ£o
Ġcham ada
Ġ =
Ġro man
Ã£ es
os p
itu de
et t
Ġqu ad
Ã¢ nt
Ġus ado
Ġv iv
ĠF ac
um b
) :
el mente
Ġm odo
Ġv end
Ġespa Ã§o
Ġfil ha
Ġc idades
ĠÃºn ico
Ġnov amente
4 0
Ġmes es
o ta
Ġac e
Ġl he
l d
atal ha
ig ht
n d
Ġse de
and id
Ġperson agem
Ġg e
Ġinst al
Ġim pl
ant a
ĠT a
Ġc he
Ġig re
Ġp ens
Ġest rutura
ĠGl ob
ĠS ch
ĠG r
A m
Ġse is
ĠM u
st e
ĠlanÃ§ amento
Ġterrit Ã³rio
es c
ĠJ e
Ġal te
ĠR od
ĠSil va
2 5
ĠT ur
ĠB ro
ĠS anto
ĠMin ist
at ivas
i qu
ĠM ic
e ta
Ġest ilo
Ġem pre
is l
Ġfo ntes
Ã£ s
Ġam ericano
Ġt udo
Ġdec id
ra Ã§Ãµes
ĠIm p
Ġtelev isÃ£o
Ġb air
Ġesc ola
d en
ĠEsp anha
ĠR os
19 7
de u
Ġcam po
i Ãªncias
Ġh er
p orte
Ġconsidera do
Ġv ari
Ġpres ente
ĠG ru
ĠespÃ©c ies
Ġ199 9
ĠÃ¡ reas
if e
ĠS ol
Ġm embro
f il
Ġfranc Ãªs
Ġre vel
do n
Ġtrans form
w ard
ĠPar is
vol uÃ§Ã£o
ĠJ ogos
Ġc andid
ura Ã§Ã£o
b r
y l
ĠX I
Ġg al
Ġdis pon
ab ilidade
Ġmai ores
g enh
ĠF or
ĠprÃ³p ria
Ġden om
ĠInst ituto
id Ãªncia
A R
Ġgeral mente
ĠB ra
Ġm Ã£e
ĠM on
ĠB en
ei as
ĠÃºlt ima
Ġdist rito
Ġpro t
Ġ5 0
ica is
Ġf ica
6 0
II I
Ġc el
Ġfil hos
Ġmulher es
Ġm and
Ġm al
Ġcaus a
Ġil ha
ĠB el
Ġprobl emas
Ġesp anh
Ġfun Ã§Ã£o
Ġn unca
um entos
Ġm Ã©dia
Ã¡t ico
Ġt enha
p anha
Ġjog ador
ib ilidade
Ġ199 8
ap on
ĠC ruz
ĠPort ugu
ara n
Ġest avam
ĠG ra
c ri
rÃ¡ s
ĠD iv
aix as
Ġp ag
Ġapo io
ĠAss oc
ĠM c
2 3
j am
Ġar te
ĠS im
ĠUn iÃ£o
Ġre un
it aÃ§Ã£o
ĠM ais
og ia
ac idade
Ġcr ist
Ġres ta
Ġcient ÃŃf
Ġcheg ou
ĠEm b
Ġaj ud
erg ia
Ġad v
est ival
ĠM undo
ĠAss im
ĠRe al
Ġg l
ĠÃºn ica
Ġa er
Ġex ecut
Ġ199 0
Ġv ir
Ġproc ura
Ġa ument
Ã³ri os
il le
Ġdire tor
im as
Ġprec is
Ġf ÃŃs
Ġass um
ĠM ac
ĠT od
ne y
ur sos
Ġnatura l
ĠAr g
v am
og rÃ¡f
Ġen volv
Ġb ranc
enc ial
Ġalc anÃ§
Ġs ite
E R
it es
Ġex c
or ld
Ġl Ã¡
Ġsign ific
Ġcategor ia
Ġprov ÃŃncia
Ġresult ado
A S
Ġ18 7
Ġhom ens
Ã¡ st
Ġl uta
id er
ĠA ust
Ã ¶
Ġrev ista
ĠSant os
ĠAp esar
ĠM or
ĠI r
i et
ito ra
el os
e io
Ġp adr
Ġpro mov
ĠDe us
n ia
ura nÃ§a
st o
Ġparticip aÃ§Ã£o
ec ido
Ġac ima
ĠT r
ĠD an
Ġre de
us s
Ġcar go
Ġprofiss ional
Ġf orn
Ġterc eiro
Ġt iv
2 4
Ġdiv id
Ġ3 1
is so
Ġun ivers
Ġcas os
ram a
it ura
Ġt ri
Ġm ora
Ġ â
Ġmus ical
ĠCas a
ĠP h
n er
Ġhom em
Ġprof essor
Ġtra t
i us
fal se
âĢĿ ,
Ġmod elo
ro v
ĠS et
Ġac om
ura l
s ol
r or
est re
Ġt est
ĠH ol
Ġcompl et
ar em
at ional
Ġcont e
Ġelimin aÃ§Ã£o
Ġc rit
y a
Ġconc e
ou t
l am
Ġj apon
lia m
ĠE u
ĠÃ į
Ġe uro
it h
Ġor dem
Ġl ei
ĠBio grafia
Ġc ategory
Ġtra dic
Ġcompet iÃ§Ã£o
Ġform aÃ§Ã£o
a in
Ġ199 6
b re
Ġqu ant
Ġse para
Ġfre nte
ĠBrasil eira
Ġdest ac
Ġnot category
Ġdisc ussÃ£o
Ġdire Ã§Ã£o
Ġob rig
Ġl ut
ã ĥ
ĠC ultura
p Ã§Ã£o
le ta
Ã©t ico
p ar
Ã³n io
inh am
Ġv ÃŃde
Ġ4 0
ĠAc ad
Ġloc ais
Ġc ost
il ha
Ġf ut
Ġpre v
ĠlÃŃ der
ur go
j as
Ġganh ou
Ġac red
Ġpart icular
Ġv en
Ġpl ane
ĠIt Ã¡lia
re v
Ġnov os
Ġconte Ãº
al e
Ġd ar
Ġsem elh
Ġfil mes
ĠF orm
ĠCh ar
Ġservi Ã§o
re nt
Ġv el
Ġesc rito
ĠB r
Ġrelig ios
ĠG en
ĠJap Ã£o
ul dade
a u
d ios
Ġj ust
ĠAt l
Ġcomun idade
ro g
Ġda ta
al ha
qu i
ist e
Ã´n ica
Ġt Ã£o
Ġev ento
ĠS ec
Â °
Ġintern acional
ĠL eg
Ġsom ente
Ġanter ior
SB N
Ġcri ado
int a
Ġest Ãº
Ġesp era
k y
Ġf ront
Ġele v
Ġm inha
ĠPart ido
Ġres pe
et er
Ġobjet ivo
Ġarqu it
ĠI II
ĠB er
ĠL ou
at Ã³rio
im es
Ġaut om
Ġra p
an ho
ĠC ab
ĠM ag
Ġtre in
ĠCl ube
a ug
Ġres ol
ĠO c
Ġsur g
un o
Ġpoder ia
Ġqual idade
ĠU S
Ġac esso
ĠJ Ã¡
Ġcomp anh
Ġs el
Ġass in
ĠL uc
it ores
Ġ199 7
Ã© ria
Ġexist e
4 5
ĠB an
form a
ĠC ha
iz ando
Ġfin anc
se qu
Ġirm Ã£o
Ġv aria
Ġimporta ntes
at or
Ġtec n
m ent
Ġm ens
in ais
Ġl et
ĠE nc
Ġv i
Ã¢n dia
Ġcri ar
ĠE v
ida e
ei r
Ġs i
ĠL iv
is po
Ġd ig
Ġant igo
Ġint ro
s c
2 7
f rica
Ġat ualmente
id es
unda Ã§Ã£o
Ġfos se
Ġnov as
Ġfor Ã§a
Ġf ig
Ġliv re
ul ado
Ġant iga
am ericano
Ġinform aÃ§Ã£o
- -
Ġb and
Ġp rat
Ġb om
Ġre b
h an
Ġalem Ã£o
i Ã§a
Ġorgan izaÃ§Ã£o
n Ã§as
ĠgÃªn ero
ert ura
Ġet c
r Ã©
ov i
Ġn at
Ġho ras
Ġestud os
ĠGru po
ar m
Ġfl ores
o od
Ġh ip
ĠR ib
ĠL ei
fer Ãªncia
ĠM ad
Ġcontro le
re to
t ica
ific ar
res pon
at erra
ĠG overn
Ġdis co
Ġinter ess
it ou
le o
ĠS am
ĠCon c
ĠT erra
Ġh ou
elh ores
ĠP Ã¡gina
Ġl idera
b ra
i um
Ġportugu esa
ĠWil liam
Ġvit Ã³ria
y n
Ġman eira
Ġ198 0
gram a
ĠS o
ÃŃc ios
C h
ĠImp Ã©rio
ac ionais
Ġdu pl
ĠC osta
Ġn ada
Ġv ice
ĠX X
Ġepis Ã³dio
Ġpesqu isa
Ġm ort
Ġservi Ã§os
ĠY ork
Ġnas ceu
Ġfaz endo
Ġmen or
Ġ y
ĠAlex and
qu ele
Ġfe ita
ĠIn f
Ġcam peÃ£o
Ġe f
Ġex cl
ĠRec ord
ĠUn ido
ent ina
Ġativ idades
ĠE r
Ġcent ral
ub es
a e
et ros
anÃ§ as
Ġapl ic
2 6
ĠW al
Ġconsegu iu
Ġen ergia
i en
Ġac t
ÃŃ du
ĠÃģ frica
p or
Ġc enso
ĠI SBN
la y
Ġm ass
Ġf orte
ĠC Ã¢mara
d ado
Ġ Ã³r
Ġsign ifica
ĠSeg unda
d ores
Ġoc orr
Ġ rad
ri r
Ġfor Ã§as
ian os
ĠIngl aterra
ĠLu ÃŃs
ĠCar reira
ĠMus eu
om as
Ġesc reveu
ra is
Ã³l ica
ĠCom un
Ġdesen vol
Ġter ia
t es
ag a
Ġigre ja
Ġap esar
g on
ĠF inal
Ġdire itos
Ġdes se
g ar
Ġg ara
Ġ18 6
ist Ãªncia
Ġimp ort
ĠT rans
Ġser em
ic iais
Ã© to
Ġse qu
Ġproc ess
ĠEsc ola
Ġt ime
Ġg era
Ġ199 5
or i
ĠCh ina
ĠB at
Ġsoc iedade
I n
Ġna v
Ġterc eira
Ġes qu
3 5
Ġ199 4
Ã© g
Ġhom en
Ġs us
Ġfo nte
Ġal go
A N
Ġliv ros
ĠG ar
Ġp Ã¡ginas
Ã¢ nc
e f
Ġv ista
Ġsem ana
Ã¡t icas
on es
ĠAr m
Ġsuper ior
Ġal ta
ÃŃnc ipe
Ã© u
ĠD ist
Ġlocal izado
Ġaj uda
ÃŃst ico
ĠV ic
Ġecon Ã´m
ĠCom p
Ġ Ð
do u
Ġdiv isÃ£o
ĠCons elho
ĠBrasil eiro
4 8
3 7
Ġbair ro
inh eiro
Ġed if
Ġn este
ĠW orld
Ġ i
Ġem p
A s
ĠB ol
rit os
ĠJ ust
ĠDes de
ĠR el
ĠJ es
Ãº c
ĠM elhor
Ġes f
Ġp ais
Ġapro v
u ÃŃ
U A
g ens
Ġdes emp
Ġa da
Ġp ubl
F A
Ġcant ora
5 6
ÃŃ r
ĠL ond
Ġav al
Ġfe de
un id
Ġbas tante
Ġm undial
Ġt rib
ĠDem ografia
Ġdes sa
) "
enho ra
ĠrÃ¡p ida
Ġcap acidade
ĠT o
Ġempres as
Ã¡ dio
Ġamb os
ĠRom a
id amente
b er
Ġmin ist
ĠS em
al o
Ġpart es
Ġde put
Ġob t
Ġprobl ema
Ġa Ã§Ã£o
Ġdecl ara
l oc
Ġcob ertos
Ġcas t
ran d
Ġl ingu
âĢ Ļ
Ġim agem
Ġm ult
Ġnome ado
part amento
Ġdest ru
Ġesp osa
Ġreal izado
Ġt oc
x ico
ta b
ar da
ĠHen ri
ĠconteÃº do
ora Ã§Ã£o
Ġapresent a
ĠEl es
c as
ĠIn d
Ġinter ior
Ġmin utos
Ġf iz
Ġ197 0
ÃŃ lio
ec em
Ġcomerc ial
x ima
Ġt ais
ĠV ila
Ġus ar
Ġmorre u
p ro
Ġvot os
Ġper m
Ã ¨
Ġde dic
Ġjov em
iv idade
Ġrespons Ã¡vel
ĠD el
Ġcor respon
or y
ĠDav id
3 8
om a
Ġens ino
Ã© is
am ar
Ġparticip ou
ĠH a
co nt
am ent
Ġ199 2
ĠEmb ora
Ġal tura
Ġm elhores
ĠH o
" ).
Ġrepresent a
k er
Ġviz inh
Ġra z
Ġaproxim adamente
Ġno mes
me a
19 6
4 7
ĠOr dem
Ġt inham
it ada
Ġpr Ã©
ular es
Ġw ik
ri as
Ã³ f
5 7
Ġtra z
ĠMun icipal
Ġpres enÃ§a
Ġpesso al
Ġcomp lex
Ãºs sia
id ental
Ġg re
" :
ĠG re
Ġg er
ĠIs so
Ġfo to
Ġelem entos
Ġperson agens
Ġsent ido
Ġop in
Ġm eu
Ġat riz
ĠestÃº dio
it ivo
Ġvizinh anÃ§a
ap ar
ĠInt er
Ġocorre u
Ġat or
3 6
Ġreg iÃµes
c ionais
Ġs at
Ġconf irm
ĠD is
ĠPr Ãªmio
Ġou ro
Ġacab ou
ĠlanÃ§ ou
5 9
Ġel as
ĠprÃ³ ximo
al idade
ing ton
Ġb aixo
Ġat ribu
res t
Ġpop ul
Ġcu jo
il i
e y
Ġde se
Ġenf rent
re ver
Ġc ust
ĠD a
k s
fe itos
ura do
an ia
pos to
ĠY ou
eg a
b erg
Ġimp era
Ġcol abora
Ġmas cul
av e
ed or
Ġn esta
O S
ÃŃ b
Ã³ c
et os
is Ãµes
3 9
ĠGe ografia
Ġ |
Ġtem a
nt a
ĠFern ando
Ġp ac
A M
5 8
Ġfal ta
ĠB as
p ol
ov e
ã ģ
Ġ urb
Ġcom ent
Ġver dade
Ġ isto
ĠLig a
Ġposter iormente
es as
enh or
ra ntes
Ã© xico
ei os
ĠSub stantivo
em ent
ĠP op
Ġcab e
Ġde les
ĠAt ualmente
j os
Ġtrabal hos
Ġno ite
Ġper to
rit a
Ġap ren
Ã©c ia
Ġcam panha
Ġt ax
Ġsegu ida
gres so
s g
Q u
Ġespecial mente
Ġex Ã©rcito
Ġ199 3
ĠPre defin
ĠÂ «
Ġclass ific
Ġr us
Ã ±
Ġret ira
v ista
Ġro t
Ġev entos
Ġconf l
ha el
ĠOl iv
it t
ĠMan uel
Ġqu est
g n
Ġsa Ãºde
Ġest aÃ§Ã£o
7 8
ĠG on
a qu
ar s
Ġm Ã©to
ĠLond res
iz aÃ§Ãµes
ĠG eral
Ġpalav ra
ĠA st
Ġinvest ig
it ando
eg o
Â »
Ġtem pera
ĠH Ã¡
Ġb io
Ġmater ial
on o
Ġs an
ĠM et
4 6
al d
Ã¡l ise
Ġp s
it er
ĠAr qu
ra p
ende u
h i
Ġsitu aÃ§Ã£o
Ġcan al
Ġacom panh
Ġusu Ã¡rio
Ġt ab
Ġrefer Ãªncia
Ġde le
Ġac us
Ġter mos
S t
ĠvÃŃde o
u i
Ġse te
of ia
Ġf aixa
gu esia
Ġmerc ado
Ġin aug
Ġal to
ĠC in
Ġd in
Ġv ivo
ure za
Ġcri ada
ĠD r
ĠC ur
Ġalg uma
p ec
um o
s em
Ġconhec imento
ã Ĥ
ri u
ĠCent ro
Ġsu p
Ġ20 21
Ġim agens
Î ±
Ġm ist
Ð °
Ġlev ou
ĠJes us
Ġequip es
5 5
Ġres pect
ud io
Ġcria nÃ§as
ĠMar c
unid ense
N A
it ed
av elmente
Ã³d igo
Ġm em
ib il
ĠD ev
Ġpart ida
Ã¢n ica
ĠOl ÃŃmp
ĠCr ist
ĠP an
Ġreal izada
Ġf undo
Ġv ig
Ġconc lu
ĠA le
ĠC O
ĠF estival
or da
Ġc aval
is ion
ol o
Ġt am
3 3
on y
ĠV en
Ġ199 1
0 8
Ġmant er
Ġqu estÃ£o
el ha
Ġd Ã¡
osp ital
t i
ian do
Ġcin ema
o z
Ġanim ais
Ġdec isÃ£o
Ġass ass
ur os
Ġgu itar
Ġprim eiras
ÃŃ dos
l in
Ġestre ia
ĠS ob
Ġab aixo
ve z
is o
Ġbo a
Ġm Ãªs
Ġver d
Ġsol o
Ġte oria
4 9
Ġart ista
Ġpart ido
ĠJ u
Ġf ra
on el
Ġen vi
l ing
ĠD ou
Ġinter esse
Ġnenh um
ĠT el
ÃŃ d
en Ã§as
Ġdiv ulg
ĠB a
ĠJ orge
Ġespec ÃŃf
ec ion
Ġan al
ĠJ Ãº
Ġc ul
d iÃ§Ã£o
Ġsist emas
Ġgara nt
Ġcom and
Ġf ol
om o
l he
ĠXI X
ĠS en
ĠM inas
re c
Ã©d io
w a
Ġpre para
Ġindiv ÃŃdu
Ã ¤
Ġescrit a
ĠJ ulho
ess Ã£o
ĠM Ã©xico
Ġide ia
ĠS enhora
ĠPres idente
E st
Ġm ac
du stria
Ġs t
Ġsab er
Ġre duz
Ġab ando
Ġre dor
le v
Ġc ruz
ĠH el
Ġdem onst
ĠB ah
Ġpalav ras
Ġpr iv
ĠJ ul
Ġdeix ou
ram ente
Ġmar ca
Ġalt ern
Ġcond iÃ§Ãµes
Ġden s
ĠS in
ĠEs sa
Ġcor r
m b
u f
ĠJ ames
C A
âĢĿ .
Ġpass a
ĠO ri
ĠD ez
Ġe ducaÃ§Ã£o
ic s
Ġ198 8
p s
Ġcom ando
Ġsoc iais
Ġed iÃ§Ãµes
Ġcl Ã¡ss
ĠmÃºs icas
ĠE ra
ĠCh rist
ĠA ra
io c
ĠRob ert
Ġ198 9
Ġs ingle
Ġa umento
" ;
Ġoc as
Ġpar ece
w are
ĠMinist Ã©rio
Ġpequ ena
ÃŃt io
Ġpublic ado
ĠL at
Ġinst r
ia t
Ġcl asse
Ġmost ra
Ġc ert
ĠRe de
Ġpor tanto
ĠAssoc iaÃ§Ã£o
f ord
r b
Ġus ada
Ġutil izado
Ġprodut os
ĠS eleÃ§Ã£o
Ġrec ursos
Ġde b
or c
Ġtorn ando
ĠN as
Ġ6 0
Ġ196 0
w ay
ww w
Ġdev em
v ida
Ġcam peonato
Ġfer ro
Ġf lu
Ġve ja
Ġ198 6
Ġv isto
"," ","
T V
igu el
Ġseg uranÃ§a
ĠV i
Ġco le
Ġdiz er
Ġc ivil
g os
Ġest es
Ġo ito
Ġtorn ar
ĠM od
Ġcaracter ÃŃsticas
ar ina
ĠD i
oc idade
et as
ĠM en
ĠAb ril
gu Ã©m
ĠA ugu
ĠAnt Ã´nio
Ġexist em
Ġcomp re
Ġprinc ÃŃp
Ġam or
ĠMa io
Ġl o
3 4
ic ar
Ġinicial mente
Ġo este
ĠJ er
it Ã£o
ora do
ĠF am
ĠV ida
ĠPrim eira
Ġus ando
ĠD ia
Ġes ses
ĠM el
era tura
Ġ it
Ġent rada
u ito
Ġdo min
Ġcont rat
Ġen genh
op orto
ĠEst at
ĠPr inc
Ġpadr Ã£o
p eu
Ġco isa
ĠpÃºbl ica
re l
et h
Ġform as
ĠAcad emia
v en
on ia
ad Ã¡
ol as
0 9
Ġ +
ĠPro f
Ã³d ios
on as
Ġsuper f
int e
Ġass ist
Ġtrabal har
Ġm ec
Ġcomp ara
Ġcas amento
ĠPos su
d endo
ix o
Ġart istas
Ġpro posta
ont es
ĠPa ÃŃs
. )
Ġpr Ã¡tica
ec endo
O s
Å į
ĠNos sa
Ġindiv id
Ġqu il
k o
ĠT rib
ĠSet embro
ord en
ĠAg osto
ĠNot as
Ġestim ada
Ġint el
form e
Ġquar to
t il
ĠAlg uns
Ġre ce
N ot
Ġb lo
eric anos
ĠT al
3 2
S P
am ental
ĠJ ack
Ġinflu Ãªncia
Ã©r cio
Ġcome Ã§a
il la
Ġsu ger
I D
Ġex ig
Ġmu dou
Ġelei Ã§Ãµes
Ġcap az
Ġdirig ido
res s
ĠL et
ĠD ec
Ġs ac
Ġex erc
ĠCent ral
ĠE UA
Ġpro va
ra el
Ġjunt amente
Ġnecess Ã¡rio
Ġd ific
Ġp ers
ĠEx Ã©rcito
in ada
v os
Ġa z
Ġconc ent
Ġdens idade
l ine
Ġf ab
ĠA inda
Ãªm ios
Ã© re
ĠA ward
era s
Ġtradic ional
5 4
Ġa leg
ĠM iss
Ġanunc iou
ĠAl l
r ico
g as
ĠAnt on
Ġman if
ĠOut ubro
rat iva
Ġdem ais
A n
Ġver m
Ġcol et
Ġimport Ã¢ncia
Ġper c
3 1
ĠF el
Ġm ol
Ġtip os
unt os
ĠCon stitu
0 7
Ġcur so
Ġ ÃŃn
ĠCon dado
h y
Ġvol tou
ĠR ich
in ar
0 6
Ġpequ eno
ed ades
z es
ĠB ranc
Ġel Ã©t
ic ina
Ġsegu ir
ĠTra bal
Ġcont r
B C
ur n
un al
or de
Ġhou ve
Ã¡ n
Ġb an
ag es
ĠSoc ial
Ã©ri os
Ġata que
4 4
r imento
Ġes sas
ĠG ab
Ã³r ico
Ġven ceu
ĠR ei
et es
Ġresult ados
I N
Ġl uz
d ice
il ar
Ġprogram as
ĠIn form
ĠArg entina
ĠC idade
Ġ198 7
ĠCam p
Ġescol h
Ġc rio
ad re
ĠM iguel
Ġjog adores
gres s
j ect
ĠD isc
Ġcol on
Ġgol s
ĠcrÃŃt ica
Ġrespe ito
id ores
ĠEs se
ĠhistÃ³r ico
ĠA ut
ĠGlob o
Ġincl us
Ġquant idade
0 1
ia Ã§Ãµes
ĠO n
ĠAm b
Ġamb iente
c am
h ou
ĠB al
Ġcontra to
ve u
t ada
Ġco isas
un os
ĠSal v
Ġa mea
p ace
ort al
ĠEn quanto
Ġem isso
ĠV ir
Ġ198 5
olÃ³g ico
ĠtÃŃt ulos
Ġdesta que
ĠR ed
Ġsobre v
ĠB and
Ġcl ubes
Ġc ha
Ġs how
ĠQu e
ĠS ist
ĠMar Ã§o
C ar
Ġpertenc ente
ĠF al
ĠH om
k m
Ġent rou
Ġleg isl
Ġnenh uma
Ġest at
ĠMic hael
ĠC D
Ġav anÃ§
te ve
ĠN eg
Ġencont rar
i adas
O R
enc ion
ĠE qu
u e
pre n
ĠUn ited
Ġind Ãº
Ġad icion
Ġgen eral
Ġs in
ĠJ unho
Ġcan Ã§Ãµes
ĠM es
Ġe ta
pos tas
ĠW h
x o
5 3
l ar
on so
ĠD on
__ __
Ġl este
Ġp en
Ġbase ado
Ð ¾
Ġj ur
Ġest ados
us a
Ġtorn a
Ġz ona
er dade
Ġv em
Ð ¸
fic iente
w e
ĠÃºlt imos
ĠBar b
Ġar mas
Ġde pend
ĠB ern
I A
Ġor ient
ĠI nc
p as
ir st
Ġtempera tura
ĠW ar
ĠF az
Ġdisp uta
Ġestad unidense
ug by
ĠHenri que
ÃŃ rito
5 2
Ġpl ano
ab il
ar k
Ġh on
ÃŃc ie
ĠAnt Ã³nio
rÃ¡f ico
Ġgovern ador
u ri
enc ia
ĠP ont
Ġdifer ente
Ġmilitar es
ÃŃ das
ĠDiv isÃ£o
I S
ĠlanÃ§ ada
Ġtermin ou
Ġfemin ino
Ġn Âº
P Ã¡ginas
Ġal iment
Ġins pira
Ġconsidera da
Ġapar ece
Ġm elho
ĠOliv eira
Ġnat ureza
or iz
Ġfun Ã§Ãµes
ĠV it
c ulo
era r
Ġcomp ut
Ġmed ida
ĠE ducaÃ§Ã£o
Ġtrans fer
Ġescrit or
ĠPor Ã©m
pe ia
Ġv est
Ġdever ia
Ġativ idade
ĠCal if
io ca
ĠSec ret
Ġb atalha
t en
ĠPossu i
ol is
ov a
ĠR Ãºssia
0 4
Ġv ocal
Ġdeix ar
t eca
ing s
ĠNov o
Ġass unto
u k
at er
un ha
Ġig ual
Ġd ado
Ġestre ou
Ġital iano
ĠW e
Ġconce ito
ĠE du
Ġres t
Ã¡ x
m er
Ġf ech
ÃŃt ica
ĠR en
Ġm ap
ĠJ ac
ai u
o nte
ĠM y
Ġs ens
Ġ 000
ĠG erais
ĠE con
at h
Ġvo taÃ§Ã£o
Ġata c
ĠE g
ern os
Ã´n imo
id ado
Ġecon omia
ĠA er
Ġtrans m
Ġabando n
ĠPaul ista
Ġc um
ĠG a
m y
T A
ĠN ic
Ġa Ã§Ãµes
ig as
Ġc Ã©l
os ofia
Ġim edia
Ġmud anÃ§a
0 5
Ġs ou
Ã³ m
i j
Ġc Ã³p
Ġcons erv
enh am
ĠT or
ĠA z
ifica Ã§Ãµes
rÃ¡ lia
Ġpossu em
Ġbus ca
Ġint it
ex to
Ġa ud
Ġcresc imento
Ġest rang
Ãªn io
t s
ĠNov embro
elh os
il iar
Ġs en
Ġres id
Ġper ceb
Ġtur n
Ġb al
Ġpass ado
Ġprop or
Ġn esse
Ġrel aÃ§Ãµes
Ġat enÃ§Ã£o
Ġter ras
Ġafirm ou
ĠFl or
4 3
x e
ĠO f
Ġtra duz
N ota
ist em
Ġm ic
Ġl ink
ĠB ras
Ġa de
ec Ã§Ã£o
4 2
e k
Ġfic ar
ĠC P
Ġcam inho
ĠPortugu esa
g ra
Ġh id
F F
Ġac ad
Ġsex o
E N
ĠI V
ÃŃt ulos
ĠPro v
I C
os os
Ġcomp ort
Ġpre t
Ġinclu i
Ġinic iou
ian Ã§a
it s
ĠDez embro
Ġtorn eio
ĠS ab
Ġhum anos
ĠAss emb
Ã³r m
Ġ198 2
Ġl ic
ĠOut ros
or que
ĠcientÃŃf ica
Ġcontr Ã¡rio
Ġfront eira
ĠÃ ¢
ia go
Ġtam anho
Ġpass ar
Ã¢n ico
Ġ ram
Ġas c
com o
Ġ8 0
ĠPar que
Ġfre guesia
L a
ec ida
Ġdistribu iÃ§Ã£o
Ġl inhas
d f
5 1
Ġconquist ou
Ġhomen agem
Ġmat em
Ġ198 4
ĠGe orge
rad or
Ġre vol
ĠAl f
Ġfac il
Ġtrans mit
Ġint ens
Ġd imin
Ġel etr
Ġinclu em
Ġprojet os
c ho
ĠMus ic
ram ento
Ġperm ite
ĠÃ³r g
Ġrec up
ĠCom m
Ġtem pos
Ġun idades
om es
t u
ĠGovern o
on de
ĠDire ito
Ġdef esa
Ġch in
4 1
ĠP od
b ia
ĠpolÃŃt icas
id or
Ġepis Ã³dios
Ġprov avelmente
Ġcant or
d ivers
ed ores
Ġpre m
Ġtiv eram
Ã´n ico
ĠB ot
t ico
ac to
E s
end Ãªncia
pren sa
iel d
Ġes quer
at ivos
Ġed itor
0 3
Ġespanh ol
Ġintro duz
ĠWikip edia
rav a
ĠAust rÃ¡lia
ut e
ĠT ec
Ġ Î
Ġfund ada
as so
ers Ã£o
Ġdeput ado
ĠH um
ĠD in
ĠL ima
Ã¡t icos
le ia
ĠÃį n
Ġsu st
Ġajud ar
ĠmunicÃŃp ios
ĠC el
Ġcon sequ
Ġvel ocidade
it Ã¡rio
Ġmet ade
an i
Ġclass ificaÃ§Ã£o
Ġcomun icaÃ§Ã£o
Ġpropri edade
Ġcu ja
r v
Ġf ug
Ã´ s
ul ta
Ġat rÃ¡s
Ġ198 3
Ġexist Ãªncia
Ġper gu
olÃ³g ica
ĠV oc
Ġsub st
ĠCan adÃ¡
ei Ã§Ã£o
ro l
Ġn ar
ĠMil itar
Ġve ÃŃc
Ġestad ual
Ġimpera dor
ul l
M ar
8 0
Ġdo ut
Ġ" "
Ġg ost
Ġcoloc ar
Ġc icl
Ġs int
ic ado
ĠH ou
Ġd inheiro
Ġche fe
Ġusu Ã¡rios
Ġcont Ã©m
Ġam igo
ĠReg iÃ£o
Ġv ila
o a
Ġver b
Ġtrop as
s er
Ġcomp osta
Ã© st
Ġcheg ar
Ġab ertura
Ġlon ga
ĠFil ho
Ġrec om
Ã© gio
ÃŃl ias
Ġre mov
Ġres posta
dustria l
Ġcultura l
ĠB ill
Ġb ilh
Ġdes enh
i res
Ġ197 9
ÃŃm bol
Ġco unt
oc up
ĠIn v
Ġparc ial
ra gem
Ġraz Ã£o
ĠLu iz
ĠCl ub
Ġblo que
re u
Ġform ato
ĠS ha
ard im
R e
cri Ã§Ã£o
ĠR ua
ĠT our
or po
en Ã¡rio
ĠB on
Ġtrans porte
Ġcrio u
Ġel enco
Ġfut uro
ar n
Ġun idade
cion Ã¡rio
Ġcabe Ã§a
gu ai
ĠS y
Ġa ux
a gue
Ġedif ÃŃcio
Ġf a
ac t
ei ramente
ĠP es
Ġm agn
ul d
Ġescol as
Ġdist Ã¢ncia
h es
ĠS Ã©rie
d uto
Ġmass a
ĠR ock
! !
Ġdoc ument
Ġped ido
Ġjov ens
iss Ãµes
Ġreg ras
Ġm encion
ĠBah ia
or ial
A D
l or
Ġpres id
t Ã³rio
Ġval ores
em at
Ġb aixa
Ġof iciais
ublic ado
w ik
Ġinclus ive
Ġreceb er
Ġcar ro
qu ela
ĠI orque
Ġte atro
fe itura
c ha
ĠP en
ÃŃt ulo
Ġal guÃ©m
und os
Ġ195 0
Ġexcl us
ub a
ĠPara n
Ġ197 4
ĠA Ã§
Ð µ
ĠE p
9 9
' ,
h Ã£o
ĠM os
Ġder iv
i ental
Ġve io
rat Ã©g
re i
ĠOlÃŃmp icos
Ġanter iores
Ġcas ou
Ġor den
Ġan Ã¡lise
ĠrÃ¡ dio
iol ogia
Ġcel eb
ĠS erra
Ġtrabalh ou
Ġtrat amento
um as
Ġb ol
Ġaer on
er va
Ġal unos
ĠEx t
Ġdecid iu
est ra
Ġe feito
Ġmascul ino
E l
tab le
ÃŃm ica
Ġm sg
ĠG il
ord este
e ia
Ġpr Ãªmio
ĠR ugby
0 2
ĠS ite
ib a
est er
c i
Ġm issÃ£o
it z
oc ra
ura r
ĠV as
Ġre ferÃªncias
Ġesp ort
Ġl emb
av o
ĠC orre
Ġob teve
Ġadminist raÃ§Ã£o
ou nt
Ġesf or
orm e
Ġoriginal mente
at as
L e
ĠUnivers ity
ip o
in ense
an al
Ã¢ne a
ĠÃįn dia
ik e
Ġtorn o
Ġac resc
of f
C on
ed ido
Ġmot or
s al
ĠMo nte
D e
ĠF I
Ġfede ral
ĠJ un
ĠAn a
G C
Ġt ele
ĠTe atro
ĠFac uldade
Ġart es
Ġrap idamente
es to
ir ma
ĠbritÃ¢n ico
Ġc idad
ĠFran k
Ġesc rav
ĠEdu ardo
ĠtÃ©cn ica
Ġs eleÃ§Ã£o
Ġ197 5
Ġf aixas
Ġ197 8
ĠA ntes
ec eram
du Ã§Ãµes
Ã³ st
ĠCr isto
it iva
Ġfrequ entemente
is mos
v ar
B A
ĠF ontes
ĠH ot
Ġsem anas
ĠLe on
ta gon
ed es
Ġreal izar
ĠAt Ã©
ol it
ĠWik cionÃ¡rio
ĠC iÃªncias
Ġcomp osto
Ġt it
Ġest as
Ġ ult
Ġre mo
st er
Ġnecess idade
Ġopin iÃ£o
Ġex press
M D
Ġ7 0
ĠAr te
ĠSalv ador
ÃŃ dia
Ġse jam
Ġv isÃ£o
at t
ĠT ro
Ġb ot
ĠJe an
l ig
Ãµ e
Ġlocal idades
M A
ĠM ich
t ando
Ġpre feito
ĠN or
Ġcomun a
Ġef et
ĠG er
ĠM i
Ġutil iz
ĠPer eira
asc ul
Ġc ort
C am
ĠAle gre
u co
á ĥ
Ġam igos
ĠOl Ã¡
Ġdom ÃŃnio
v ille
Ġproduz ido
Ġa ust
C om
ĠL os
ĠF in
Ã§ ado
orr er
val ho
Ġpopul acional
Ġno vel
ĠC ivil
ĠnÃºm eros
Ã³ is
ĠV e
ĠT orn
Ġro ck
Ġconstru ÃŃdo
el la
Ġre lev
Ġfranc esa
w ood
ĠAm az
ÃŃ bl
ĠDan iel
ĠcomeÃ§ aram
Ġparticip ar
Ġcap tura
Ġelei Ã§Ã£o
Ġou v
Ġ198 1
Ã³g ica
Ġra io
Ġext rem
Ġsec ret
per ial
Ġprodut or
Ġpl ata
ĠL or
ĠChar les
Ġ197 6
Ġdo enÃ§a
Ġest ou
f l
r id
Ġmud anÃ§as
Ġm ÃŃn
ĠR am
emp or
ĠBio divers
ĠM ov
p i
Ġdig ital
Ġsuperf ÃŃcie
Ġast ero
ĠL o
Ġen vol
rig u
Ã¢nc ias
t ware
Ġlig aÃ§Ã£o
Ġp Ã³s
Ġsobrev iv
ĠHar ry
Not ÃŃcias
Ġarquit et
uro u
Ġpe Ã§as
Ġj ulg
Ġbrasil eiros
Ġroman ce
Ġe feitos
Ġext ra
ĠF evereiro
Ġemisso ra
it am
Ġde la
ĠO p
ac ia
Ġesc rever
Ġcontinu ou
Ġexper iÃªncia
Ġsab e
er e
Ġin fer
raf o
Ġam ar
d ados
Ġl iga
Ġ9 0
ĠCat arina
E C
ĠN este
ĠL op
Ġcomb ate
t al
ou s
Ġc osta
Ġindepend ente
ĠRob erto
Ġautor idade
Ġal i
J o
Ġoficial mente
ĠS port
ĠR on
Ġsequ Ãªncia
Ġtotal mente
Ġ Ã³
Ġ3 6
m ina
Ġmap as
ĠM erc
as ta
Ġin im
p ages
Ġil ust
Ãºs ica
P ro
Ġro d
R A
Ġpou cos
ul ada
oc rÃ¡
ĠCl ass
ĠEst ad
Ġfaz em
Ġreg ular
Ġn Ã³s
7 0
Ġcon forme
l im
ĠP apa
Ġb iblio
ĠPh il
ios o
ĠPres s
ĠEl enco
an y
ĠIl ha
Ar t
it ais
Ã³r nia
ĠB atalha
ĠCast elo
en volv
Ġs ÃŃmbol
Ġmed alha
ura da
Ġv ide
ĠEd itora
ĠMart in
ĠmÃ©d io
Ġdis pos
Ġe duc
se g
Ġobjet o
Ġnorm almente
pl o
ist Ã£o
ĠG ol
Ġdet alh
emin ino
Ġb Ã¡s
ens es
ĠR ic
o to
Ġper t
ĠW est
en ida
Ġes s
S S
E m
Ġpass ando
Ġtecn ologia
on ly
Ġb r
Ġdes ses
ĠSoc iedade
c he
Ġs table
id Ã£o
ĠO t
M ain
ĠR oc
ĠindÃº stria
Ġeste ve
Ġfig ura
Ġev itar
Ġn ames
Ġvo z
n os
ĠArt es
P ublicado
iam ento
Ġform ado
man n
Ġmand ato
Ã³p olis
ĠpolÃŃt icos
Ġs ing
Ġcompos itor
amb a
k ing
Ġcar ta
l ado
Ġre d
Ġ197 7
Ġsemelh ante
Ġdire tamente
Ġm Ã£o
ĠO pera
Ġmens agem
Ã© rea
Ġfinal mente
ĠEstat ÃŃsticas
ĠS Ã©r
Ġ5 00
Ġpor ta
ific ada
Ġstable pages
ĠRich ard
ĠEst re
Ġex ce
ĠAb ra
Ġlev a
Ġpro tagon
n Ã£o
Ġpo t
Ġ196 8
ig h
ir os
ĠParan Ã¡
ĠP ac
jet o
Ã³ i
Ġcons ider
à ¤
Ġpre ocup
Ġs inal
Ġnatura is
Ġjornal ista
at us
ĠL ife
ĠF a
p p
Ġ197 3
Ġpres erv
Ġent rar
Ġreal mente
Ġ197 2
ĠC e
ĠK ar
ĠCom issÃ£o
Ġapresent ou
eric an
Ġgra du
Ġb a
Ġd Ã³l
Ġpesqu is
ĠFer ro
Ã© ia
ĠCon v
Ġtent ativa
ĠM ach
Ġgl ob
i ev
Ġpara l
Ġcond ado
Ġlingu agem
Ġant igos
Ġre form
Ġfil m
ĠP ass
Ġv on
ĠSa Ãºde
Ġnames pace
Ġpo tenc
Ġfam ÃŃlias
ĠOr gan
er ror
ort h
ĠEntre tanto
Ġcomp rimento
Ġcer to
Ġplane j
9 0
Ġ193 0
Ġ196 9
ĠXV III
Ġus a
ĠTod as
r ina
Ġdesc onhec
Ġade qu
r ÃŃc
Ġse Ã§Ã£o
ia nte
Ġ196 4
ĠO uro
Ã³l ogo
oc l
g raf
P A
Ð ½
Ã³rm ula
ar ou
8 8
ant il
ĠGu il
ĠTrib unal
ra to
Ġirm Ã£os
s en
Ġcont exto
ĠEsp ec
ĠmÃ©d ico
b urg
j i
Ġpart idas
bo ard
ĠG ro
Ã³n ia
aria m
Ġha ver
Ġv ÃŃt
ĠT im
V D
ĠCalif Ã³rnia
ĠÃ¡ rv
U n
at s
Ġest ratÃ©g
panh ia
ĠSt ates
ĠIs rael
ĠB ur
Ġdupl a
Ġvia gem
Ġt enho
g en
ĠTod os
Ġintern acionais
Ġturn Ãª
us o
Ġpe Ã§a
Ġobjet os
Ġper d
ĠAd minist
Ġt enham
Ġimp ed
Ġpublic ada
ĠF undaÃ§Ã£o
ascul ino
ĠCh amp
Ġl ar
Ġc ores
or ou
ĠprÃ³ xim
ÃŃc il
ĠRod rigu
Ġd Ãº
Ġex pressÃ£o
Ã¢m ica
Ġsimples mente
ass em
Ġfe itas
Ġprov oc
F C
Ġf en
ĠAssemb leia
d ate
y cl
ĠFede raÃ§Ã£o
es p
ĠTh omas
Ġpro duto
Ġpr isÃ£o
int ura
Ġvers Ãµes
Ġtax a
ĠMar k
ĠN asc
ĠtÃ©cn ico
ol l
port un
Ġd ando
ch i
rop olit
Ġdisc ut
ĠA ir
Ġesp ect
ĠT re
y m
ĠCon gresso
ste in
Ġtra ta
Ġirm Ã£
Ġcompanh ia
qu is
Ġrep et
Ġg Ã©n
s or
ĠAnton io
id ar
Ġvia j
Ġno ta
Ġc ir
og le
Ġer ro
Ġhum ano
Ġtab ela
Ġg eraÃ§Ã£o
ÃŃs s
20 10
Ġc Ã³digo
Ġper deu
Ġfal a
ĠcrÃŃt icas
ar y
ĠRecord s
ion s
Ġneg oc
ĠJust iÃ§a
Ġpro m
Ġv Ã¡l
ĠOb rig
ĠmÃ©to do
op h
ĠS el
Ġb ene
Ġins er
Ġac ess
Ġ )
Ñ Ģ
Ġcom em
Ġv ar
Ġinstitu iÃ§Ã£o
Ġ #
ĠO rig
os as
Ġgu er
ern amb
Ġat ra
ĠFil m
it ivos
ĠAnd rÃ©
Ġgre go
, "
Ġinc orpo
ĠFer reira
Ġtem as
Ġutil izada
Ġlug ares
ĠS om
icl op
aria mente
Ġlit eratura
C O
Ġhavia m
uc le
ĠIs abel
ĠEst ud
8 9
Ġencont ram
Ġp ud
Ġsel ecion
Ġre des
ogrÃ¡f ica
Ã¢nt ico
ĠW eb
ĠPro c
ov o
ĠE t
ĠPart icip
ĠIntern et
eb ra
ĠLe ague
Ġcom Ã©rcio
Ġ 00
ĠV I
Ġex ter
ÃŃ ram
ĠlÃŃn guas
ak e
Ġhist ori
ol ina
Ġconhec idos
Ġrep ro
Ã ī
ĠC aval
Ġ197 1
Ġd ipl
ĠHist Ã³rico
Ġmar ido
ĠVal e
ec o
is p
Ġb eb
Ġada pt
ĠfÃŃs ica
ĠCar valho
Ġcomp art
Ġpass agem
Ġpequ enas
ĠF e
Ġdif ÃŃcil
Ġfer ram
Ġus ados
Ġcas as
mit h
ĠN et
ioc ese
Ġt h
ĠDist rito
Ġme ados
7 6
Ġpres sÃ£o
Ġent ra
Ġ0 1
uv ent
ar ca
uc ion
Ġent end
i i
ĠSist ema
ad ura
ent ou
ĠI ta
ĠindivÃŃdu os
re am
ĠGen eral
Ġrefer e
ĠCast ro
e a
Ġno ve
Ġverd ad
Ġdire c
Ġpubl icaÃ§Ã£o
iver so
Î ¿
Ġrespect ivamente
Ġn essa
ĠM ora
Ġdimin u
it ava
Ġprogram aÃ§Ã£o
Ġc orte
Ġse d
Ġdiz endo
ir l
ĠPo de
Ġob ter
ĠDe partamento
Ġf ix
ĠCat Ã³lica
ur y
ĠC er
Ġacont eceu
ĠPredefin iÃ§Ã£o
ĠC he
Ġinv as
m ed
ÃŃ dio
Ġcont ato
Ġopera Ã§Ãµes
Ġo portun
Ġ196 7
Ġhist Ã³rias
ĠR et
Ġmun icipal
Ġassum iu
Ġbranc o
Ġcar reg
Ġfal ar
Ġru a
ĠmÃ¡ qu
ĠDe f
ec to
ac ial
ovi Ã©tica
ow n
ĠcÃ©l ulas
ric h
ul s
Ġcond en
E L
ĠprÃ³ xima
lo w
Ġco orden
20 11
ĠAf onso
Ġmot ivo
Ġcomplet amente
um es
ĠBras ÃŃlia
Ã¡ cia
Ġdes af
Ġreal idade
Ġb el
rea u
Ġopera Ã§Ã£o
ilo to
Ġqu is
ens a
Ġcl ara
is f
ĠDes envolv
Ġalt itude
Ġtra diÃ§Ã£o
ĠBl ack
ec k
Ġaz ul
ĠJ a
Ġc ic
ar te
Ġ rit
Ġconfl ito
ĠPaÃŃs es
ec ia
ĠAÃ§ ores
Ġind ÃŃg
Ġna cionais
ĠAng eles
Ġgal Ã¡x
ĠCom panhia
ĠdÃ³l ares
Ġab sol
Ġreg ime
ĠH am
Ġfund amental
Ġsol dados
Ġmarc ou
Ġsup press
Ġext ensÃ£o
ic ou
p et
Ġprocess os
ĠLop es
error s
Ġqu art
Ġsuppress errors
Ġb ispo
Ġad df
category date
irst categorydate
Ġaddf irstcategorydate
ĠB us
ert as
ĠP Ãºbl
Ġvir t
ĠC ity
ash ington
m en
Ġde p
ĠN esse
Ġmus icais
ĠÃ¡ ra
ĠFam ÃŃlia
m ento
ĠV an
ĠI sto
pe Ãµes
Ġparc eria
Ġempre g
ĠS ur
Ġmet al
Ġlet ras
Ġ194 0
is sa
Ġlib erdade
ĠGon Ã§
ron ze
Ġg estÃ£o
Ġeta pa
g ica
l ov
Ġpequ enos
Ġim prensa
Ġdesemp enho
ĠH on
Ġdes p
Ġam ericana
Ġcom uns
Ġpre fer
Ġanter iormente
Ġadv og
e ph
Ġdes apar
Ġpint ura
Ġpro ib
Ġsub s
Ġpublic ou
ĠBiodivers ity
Ġcategor ias
Ġaut o
ĠR u
Ġ196 6
n y
os s
6 6
or ro
ra de
ĠSe us
Ġinflu enc
Ġmem Ã³ria
b ro
Ġaut ores
end as
Ġex ec
Ġb y
Ġpl antas
9 7
ĠCon de
Ġsa ÃŃda
ru p
Ġ194 5
de ia
Ġdes f
Ġv Ã£o
Ġcar t
Ġhum ana
Ã³c ios
Ġps ic
Ġpres entes
ĠIntern ational
ĠSou sa
ĠM ot
Ġcl aro
Ġv eg
oc h
ĠtÃ©cn icas
ĠcÃ³p ias
sh ip
ĠPal Ã¡cio
ĠR ad
Ġvis ual
Ġapar eceu
it Ã¡ria
Ġtra duÃ§Ã£o
Ġre ais
F I
Ãº n
ĠAlexand re
Ġequ ival
ĠC ens
Ġreal izou
C l
ĠRodrigu es
ĠL ove
Ġna vio
udo u
ĠM ai
Ġarm az
ĠestÃ¡ dio
ent as
p es
ĠP eter
ĠBu reau
d ata
Ġprofiss ionais
Ġt ira
it ados
ĠGlob al
Ġminist ro
Ġmanif esta
Ġfund ado
Ġl og
Ġm Ã£os
ĠAugu sto
at icamente
Ġd im
ri el
Ġfiz eram
ell i
Ġquest Ãµes
Ġapo nt
un es
Ġho ra
ent ais
ĠSa int
era do
Ġper da
Ġte or
Ã§ ada
Ġs ho
Ġser Ã£o
it ch
se x
f eira
Ġad ic
ĠM er
Ġdia grama
w in
ĠN aÃ§Ãµes
ĠJo aqu
ĠPr ÃŃncipe
T P
Ġ196 5
im p
r Ã£o
Ġsex ual
Ġapresent ar
v Ã£o
Ġdescob erta
Ġtrabal ha
Ġ å
Ġm adeira
7 5
ĠEstad ual
Ġim pos
Ġl es
n aval
Ġm er
ito ral
8 5
Ġcompos iÃ§Ã£o
Ġentre vista
Ġ3 5
Ã©ri as
Ġconstru ÃŃda
Ġrelig iÃ£o
ĠM ass
E x
Ġquar ta
ir it
Ġwik ip
Ġcandid ato
Ġproc ed
Ġprec isa
ess em
ĠEx istem
Ġcon duz
Ġespec ific
el iz
Ġcomp on
N e
Ġm im
Ġtent ar
ĠN atal
ĠC ro
Ġpos sa
Ġfin ais
Ġfo go
8 6
Ġab erto
Ġaf et
Ġatu ou
ĠTra ta
Ġperman eceu
Ġp az
ĠdÃ©c adas
Ġital iana
s ingle
Ġj orn
Ġ196 2
Ġquil Ã´m
ĠU ru
ios a
Ġapresent aÃ§Ã£o
and ro
t ivo
ĠCam po
Ġguitar ra
Ġb omb
Ġfutebol ista
p est
ĠR us
ru Ã§Ã£o
anh Ã£
Ġmud ar
Ġdes sas
r igo
ĠAward s
Ġb l
Ġel abora
: !
ĠW ashington
Ġparticip antes
Ġse i
A L
R O
ĠM ay
ros s
ĠBranc o
Ġdel as
uta Ã§Ã£o
in ados
Ġposs ibilidade
ĠF ab
ĠD ar
b io
Ã© lio
Ġpol ÃŃcia
Ġlev ant
ÃŃf ico
or f
Ġinstitu iÃ§Ãµes
Ġpass aram
ĠGuil her
ab a
ĠDesenvolv imento
ĠCam pos
ing o
Ġdesenvolv ido
Ġpro mo
rut uras
an sÃ£o
Ġil has
ib us
ĠEst es
Ġapresent ado
me ida
ta Ã§Ãµes
ot os
ingu Ã©m
Ġtex tos
Ġprote g
ĠAlg umas
ĠK e
ic idade
9 6
ĠOut ras
Ġl arg
ĠM ur
200 7
Ġcorrespon d
c t
Ġ ros
Ġb ra
ĠP et
Ġmater iais
200 6
v ers
ĠPrim eiro
m ira
Ġform ada
ĠM adeira
Ġjapon Ãªs
Ġr isco
Ġderro ta
pres idente
Ġmod elos
ĠV o
ĠVer de
Ġintern et
ĠN at
les c
i Ã¡rio
Ġ0 2
Ġf at
ĠVit Ã³ria
Ġform ar
Ġac ho
c ou
ri Ã§Ã£o
Ġcomport amento
p ia
Ġsus p
Ġcer im
Ġa us
c Ã£o
ĠA qu
Ġrus so
l amento
v is
Ġpos to
Ġrec us
7 7
Ġ3 2
Ġrec orde
Ġencont rada
b on
Ġcontin ua
ĠG omes
Ġbase ada
Ġdescob erto
Ġc iÃªncia
aix ada
ĠÃģ sia
p at
Ġlev ar
Ġmov imentos
d in
ĠS ara
ric ultura
Ġsuc ess
Ġestre las
ĠM em
ĠAl c
Ġaf irma
Ġpass ag
do ra
idad os
ĠprincÃŃp io
Ġcorr ida
Ġdifer enÃ§a
ĠDev ido
if er
Ġsec und
Ã©r ito
ĠB om
ob o
Ġnav ios
Ġc ena
ĠB ru
Ã¢ne o
ĠRe voluÃ§Ã£o
gu es
Ġcons iste
Ġesquer da
as es
Ġper segu
Ġac idente
ĠEst Ã¡
ĠS w
ri f
ĠCor po
Ġex posiÃ§Ã£o
ĠCin ema
Ġpotenc ial
Ġ" (
ĠAng ola
Ġpa ul
ĠL ev
ĠH an
is on
ĠPar k
ĠSc ho
it i
ĠM Ãºsica
Ġqu eria
im ar
ĠJ an
E M
am ericana
Ġtal vez
uld ades
af a
ĠCens us
ĠS eb
ĠT erc
ov er
Ġim ig
Ġn Ãºc
? )
l i
ch er
9 8
ĠC u
Ã³ qu
ing a
Ġtrein ador
us c
est as
ĠIn depend
Ġfam oso
Ġgra u
C B
Ġc ult
Ġcont empor
ĠConstitu iÃ§Ã£o
Ġj ude
p se
in n
ir ia
ĠVic tor
Ġpr ÃŃncipe
aix os
ĠC re
iv elmente
ĠG ran
Ġ $
Ġv elho
ri qu
or s
R el
S Ã£o
g ia
Ġcoloc ado
ens Ãµes
ĠLet ras
ĠMa ur
ĠsÃ©c ulos
adr id
ĠL inha
Ġ196 3
Ġm orto
Ġdispon ÃŃvel
Ġata ques
ĠEnt Ã£o
P S
u ela
ĠP S
Ġdire to
ĠCor eia
ĠR og
ust ria
el s
Ġaqu eles
ĠN ev
Ġconv ers
Ġser iam
ĠÃ¡lb uns
Ġlat im
en g
Ã¢n d
ast ia
ĠAer oporto
p al
Ġlocal iza
Ġanunc iado
Ġis ol
v as
ĠD VD
Ġtransm issÃ£o
ĠS co
Ġcr ise
Ġtem os
Ġc ity
ÃŃn a
Ġsat Ã©l
ra nte
Ġn ÃŃveis
ĠprÃ³p rios
ec imentos
ĠAl meida
Ġ195 8
Ġportugu eses
y r
ĠVoc Ãª
Ġmort os
Ġpra ta
Ġid io
9 5
Ġesc ala
ĠÃ ĵ
Ġdesc end
b it
Ġp ad
ĠTem po
Ġestre la
Ã¡st ica
Ġtrop ical
Ġvol tar
Ġmen ores
Ġp eix
ĠS ÃŃtio
port es
Ġm ag
ycl op
Ġvol ume
ĠObrig ado
Ġespec iais
Ġreconhec imento
ĠS ac
200 8
ĠR em
bal l
g h
Ġsu ficiente
Ġtele f
Ġindepend Ãªncia
ult ado
re iro
G u
Ġp il
200 9
ĠAlb erto
d iv
ĠL ogo
at Ã³ria
Ġpes o
ĠK ing
Ġprote Ã§Ã£o
Ġto po
ĠT ax
is m
M S
20 12
ĠFre der
ĠP ic
Ġintel ig
Ġencont rado
Ġal f
ĠHen ry
Ġsan gue
av es
Ġson ora
Ġ196 1
ut enÃ§Ã£o
ĠD ias
ĠP lay
T h
ĠquilÃ´m etros
Ġpos se
ĠCon st
ĠLe e
il d
ĠS ing
ĠpÃºbl icos
Ġdest es
ĠC ada
ĠGuilher me
Ġprof und
Ġcria nÃ§a
Ġescol ha
im b
ÃŃr us
Ġpropri et
Ġband eira
Ġalem Ã£
Ã§ ar
Ġdeix ando
ĠPra ia
ĠV is
an ismo
ĠC amb
Ġse tor
ĠP ernamb
ĠTa Ã§a
Ġlet ra
Ġro do
ĠXV I
ĠSer vi
ĠVer Ã£o
Ġcam pos
ĠS P
ĠEst Ã¡dio
Ġin Ãºm
u aÃ§Ã£o
ĠS on
s ul
ĠH all
Ġdefin iÃ§Ã£o
ĠAm or
T O
Ġres to
ros so
Ġf undaÃ§Ã£o
ĠP ubl
Ã§ ou
am en
Ġcomp rom
ĠEn genh
Ã ł
Ġco dice
Ġre m
enc iais
Ġcomp leta
Ġlit er
Ġsol uÃ§Ã£o
Ġacad Ãªm
ĠPl ant
cl am
R E
ĠI b
ĠPol ÃŃcia
Ġem it
ria n
% ).
or Ã¡rio
ĠP esso
Ġserv iu
Ġvo to
ĠT ÃŃtulos
ĠGo i
iz ant
ĠA re
Ġin dustrial
ĠSu Ã©cia
ĠC ant
% .
Ġnos sa
ĠS mith
ian s
ĠL ago
ĠN orm
pect os
Ġproduz ir
P a
ĠalcanÃ§ ou
Ġo posiÃ§Ã£o
Ġra inha
Ġda quele
ĠEst aÃ§Ã£o
Ġvenc edor
l Ã¢ndia
Ġv inte
Ġ19 20
Ġat end
ĠRib eiro
A t
Ġcur sos
Ġest rada
Ġir ia
Ġapren d
ĠFI FA
Ġad qu
in ou
orn o
ĠÃ¡ guas
ĠT w
Ġt ÃŃp
Ġper form
Ġb loc
Ġconqu ista
6 7
q Ã¼
empl o
ed ral
ob il
Ġar ran
ag os
Ġno bre
Ġconc elho
Ġretorn o
Ġm el
Ġpl anta
ĠT ex
Ġcome Ã§o
ic ano
t ra
Ġsol ic
Ġnav eg
Ġev id
Ġdesenvol ver
Ġp iloto
az z
20 13
ĠEg ito
ur s
ĠEuro peia
ĠRo y
A nt
ĠP i
ĠS ino
ĠPer u
Ġh ospital
Ġaf ast
Ġque da
Ġque b
ÃŃ Ã§a
Ġre ino
Ġcas al
Ġada p
Ġl ist
ĠCon stant
u Ã¡rio
ĠMa x
Ġdecl arou
Ġb anc
Ġamb as
Ġp atro
ec idos
ĠPra Ã§a
Ġter re
Ã¡l ogo
ian as
Ġexp ansÃ£o
O L
Ġdesc rita
A C
ĠN ational
Ġtem pest
Ġme ta
Ġestud antes
Ġde co
j or
Ã©m io
let as
Ġde us
Ġcons um
ĠOc idental
A d
r ÃŃ
c ol
Ġap os
Ġsurg iu
Ãº lt
ĠÃģ ustria
Ġcheg ada
Ġab rig
Ġcond iÃ§Ã£o
uvent ude
t el
et te
Ġmu ita
ĠLu is
Ġdire ita
Ġm ÃŃdia
Ġado lesc
ou ra
Ġ194 3
ĠL ÃŃn
Ãªn ia
Ġnorm al
ĠS i
Ġpar que
oriz onte
Ġfund ador
Ġreb el
Ġdef end
M I
al do
ĠN av
et s
Ġnovel a
Ġb e
Ãº nc
Ġinfer ior
ĠLeg isl
Ġm eios
ĠOs car
Ġver Ã£o
Ġ0 3
ĠmÃ¡ ximo
Ġplane ta
Ã©t icos
8 7
ĠC la
ric k
Ġatu aÃ§Ã£o
n ome
Ġcomplex o
ĠAv enida
ĠMar inha
ent ado
Ġpesqu isas
ante ve
Ġtro ca
A c
Ġc ima
Ġg ram
Ġnot ÃŃcias
Ġpodem os
ĠBan co
il y
Ġfe itos
ĠSuper ior
Ġnos so
Ġgrav aÃ§Ã£o
Ġregist ro
Ġaf ric
Ġt ub
Ġtar ef
ĠJ im
ĠU s
Ġel og
ĠJu an
Ġutil izaÃ§Ã£o
Ġant igas
Ã ģ
ĠCont udo
Ġap el
ĠÃ Ģ
Ġcat Ã³l
ol and
. :
ĠDis ney
Ġjog ar
Ġautor idades
Ġintit ulado
ĠRic ardo
ĠM adrid
ĠL in
Ġde partamento
Ġautom aticamente
ĠR osa
en z
ĠM ill
? ?
ÃŃn as
and al
ĠT ri
Ġpassag eiros
Ġpergu nt
ĠR Ã¡dio
ire m
Ġsal a
ĠJ ardim
Ġconc l
Ġle is
y o
O r
Ġmat Ã©ria
il os
Ġatu ais
ĠL ar
9 2
ĠCh ile
âĢ ¦
Ġ194 4
ĠS enhor
y e
Ġp un
ĠI P
Ġesc al
Ġmed idas
ĠQ ual
ar os
Ġencont ro
200 5
Ġreg ul
ĠBro wn
ĠJoaqu im
Ġcur ta
od os
ug o
Ġform ou
Ġbat eria
Ġexpl ora
ĠChamp ion
ĠO ce
rim Ã´nio
v idas
Ġm m
r um
Ġped ra
ĠPop ular
Ġdia nte
ĠPal m
Ġapl icaÃ§Ã£o
on om
Ġfil osofia
it iba
Ġviol Ãªncia
ĠMes mo
Ġin com
Ġmist ura
ĠEsp ÃŃrito
Ġalte raÃ§Ãµes
rat ado
ĠL y
ed iÃ§Ã£o
z er
ie w
Ġna quele
Ġreal izaÃ§Ã£o
Ã©s ia
Ġapro ve
Ġutil izar
b ert
est rutura
Ġvo o
ĠBand eira
ĠH ospital
Ġsegu e
Ġmes mos
Ġenc er
ĠcrÃŃt icos
Î ½
Ġide al
ĠSeb ast
ĠP ap
B S
Ġor g
in Ã¡rio
Ġconv oc
ĠTra duÃ§Ã£o
Ã¡ ter
Ġarg ument
ĠFor Ã§a
in Ã¡ria
ĠF ar
ont ade
Ġre inado
r icas
Ġb ronze
Ġhum an
Ġfo tos
Ġ3 7
ro ta
d ens
Ã©s ar
Ġv Ãª
Ġpl an
Ġcham ados
Ġindivid ual
Ġd ada
is se
ĠpÃºbl icas
ĠD E
Ġext re
Ġ195 9
Ġa to
ÃŃn s
ĠVer m
con s
Ġar que
Ġe cl
Ġconstru ir
Ġver de
Ġe voluÃ§Ã£o
ĠT op
6 8
f ield
in Ã§Ã£o
ic ada
al idades
Ġb on
200 4
Ġconc urso
S ub
Ġpo eta
o ok
ĠB rit
Ġter Ã¡
Ġsof tware
uc k
b res
Ä ģ
Ġc ara
Ġexter ior
ed er
ĠMar co
Ġm anteve
ĠM end
ĠBar cel
Ġdoc umentos
ens is
Ġpl ac
ĠPrinc ip
ĠAl ves
Ġinic iat
ÃŃst icos
Ġn ucle
Ġid eias
ĠB or
ĠCultura l
I B
Ġher d
Ġfic ando
ament ais
Art igos
o qu
Ġdent re
Ġconv enc
ess ores
S e
Ġj ud
ĠA gu
ĠS at
Ġcomput ador
ĠS oviÃ©tica
Ġverb ete
Ġnasc imento
rar y
Ġvend as
Ġplata forma
Ġcons ist
n es
ĠTec n
Ġmus eu
ĠTr Ãªs
l anda
ĠD ent
O N
Ġc enas
Ġtr ilha
Ġc res
ĠAm erican
t om
Ñ ģ
ĠOf icial
Ġhab il
ud es
Ġproduz ida
Ãº r
t iva
Ġres istÃªncia
Ġpropri edades
ia ram
Ġan g
Ġinter v
olÃ³g icos
it antes
Ġv enda
Ġconsegu ir
Ġ3 8
Ġcole Ã§Ã£o
t udo
ĠL on
Ġdipl om
ĠG reg
Ġme x
ĠLou is
ĠVe ja
Ġjur ÃŃd
ĠSen ado
Ġc intura
Ġespecific amente
Ġv il
Ġrelacion ados
S A
Ġtest es
Ġs ag
ĠL i
N o
ĠMart ins
ac ho
Ġ4 5
Ġren ov
Ã³ veis
Ġcl ima
ĠAn o
Ġcons enso
Ġarmaz en
Ġarquitet ura
ific ados
Ġreceb e
Ġf Ã¡b
Ġaqu ele
Ġref or
Ġsitu ada
ĠDu que
Ġtom ar
Ġev ent
Ġprop ag
Ġsof reu
ar qu
Ġt este
Ã´n icos
Ġp ec
de al
im bra
Ġt en
Ġw eb
Ġa re
Ġest aÃ§Ãµes
Ġmod erna
Ġfort es
ĠPre m
Ã ĥ
Ġdist int
Ġval e
Ġconsegu e
t ados
Ġor qu
Ñ Ĥ
Ã¢nt ica
I nt
Ġ rios
Ġutil izados
Ġreal izadas
Ġman utenÃ§Ã£o
Ġvoc ais
ÃŃs mo
ios os
Ġcompl eto
Ġdis s
ĠOut ro
b es
ĠJ ud
Ġper i
ĠbritÃ¢n ica
fe de
ĠR ot
ĠH ill
Ġw ith
ĠD ig
Ġv iu
Ġv ul
rad ores
Ġ195 4
Ġpopular es
Ġf esta
Ġv an
C I
ĠScho ol
Ġlev ando
Ġadv ers
Ë Ī
Ġ194 2
Ġas pectos
er b
Ġating iu
Ġassass in
ĠDo is
ica go
Î ¹
Ġpo dendo
d i
Ġ3 00
9 3
Ġganh ar
Ġvari edade
Ġa gu
Ã©ri es
ĠSob re
a ut
Ġrom ano
e us
B rasil
ĠB ÃŃbl
Ġmelho rar
ed ida
Ġapresent am
olÃ³g icas
un e
ĠN GC
ĠveÃŃc ulos
h al
Ġf Ã£s
Ġfrequ Ãªncia
Ġencont rados
rÃ¡f ica
d j
Ġre forma
E u
9 4
Ġcomerc iais
Ġver e
Ġsof r
Ġpres o
Å Ĥ
Ġ ur
Ġtent ou
c r
ĠMar y
Ġdesen ho
ÃŃ ba
ĠS Ã³
Ġs enhor
Ã¡c il
ĠN ob
ĠU N
ĠPr Ãªmios
Ġqu adr
Ġverm elho
ĠD oc
Ġim ag
s i
Ġreg ra
Ġcontro l
Ġastero ide
ĠP el
ent ino
Ġadminist rativa
ĠF ri
ing os
ĠeconÃ´m ica
ocra cia
ĠTel ev
Ġexec uÃ§Ã£o
Ġcontinu ar
Ġretorn ou
ĠK im
ĠY o
ĠC Ã©sar
Ġter em
Ġt orc
ĠG old
Ġab orda
do min
Ġcons c
ĠÃ¡ c
ĠJos eph
Ġqu inta
am i
ĠD at
Ãª nt
Ġor to
Ġp Ã©
Ġe vol
ĠW ill
T E
ĠDes c
h en
ĠC ara
Ġquad ro
7 2
Ġdef ens
ĠOb ras
end Ã¡rio
Ġconst ante
ĠGr Ã©cia
Ġcon de
t ro
ĠLe Ã£o
ĠMu itos
ĠSu ÃŃÃ§a
Ġr ival
ĠAtl Ã©tico
ĠB ay
Ġpal Ã¡cio
ĠS and
Ġtur no
U m
ĠC irc
ult ados
Ġgrav adora
Ġquest ion
f Ã©
Ġad qui
Ġem erg
un Ã§Ã£o
ĠSu as
pe us
Ġpl anos
ĠD ay
Ġestudo u
ĠEnc yclop
Ġn am
ĠDes ta
u o
ĠJ ornal
olog ias
pe Ã£
ĠI v
Ġelem ento
ĠP ou
m at
t he
ĠSt ud
Ġconf ig
Ġband as
e da
Ġn atal
Ġ195 5
f t
Ġpro l
Ġro up
Ġ195 6
"," -
n ibus
ĠFl ores
Ġocas iÃ£o
Ġposs ibil
Ġanal is
on ha
Ġol ÃŃmp
Ġsu g
Ġc ru
Ġn inguÃ©m
ĠFo ram
U C
Ġjog ou
Ġ194 8
Ġf ran
qu Ãªs
Ġdispon ÃŃveis
Ġru as
Ġrod ada
6 5
Ġcont ou
Ġres erv
Ġanim al
ortal eza
G e
x a
Ġcultura is
Ġcap itÃ£o
u Ã§Ãµes
v u
Ġcust o
Ġv ontade
Ġv et
Ġpre j
ĠN esta
iz am
Ġ194 1
Ġprov as
Ġl uc
Ġâ Ĩ
ĠCont in
6 4
200 1
ric idade
Ġimpl ement
Ġol hos
Ġseg undos
ace ae
Ġsa ir
Ã³ vel
Ġg ar
Ġcheg a
Ġingl esa
it aÃ§Ãµes
Ġglob al
re y
it ion
ĠSino pse
t am
Ġfort al
ril h
Ġalem Ã£es
k in
ar ch
ĠR odo
Ġd it
Ġc red
ĠC atal
ĠChampion ship
ĠEspec ial
ĠR ece
te is
ĠL it
ĠCol Ã©gio
r ing
Ġl ago
Ġtro no
indo ws
Ġpromov er
y d
B T
oro este
ĠVen ez
Ġd ram
ĠOut ra
Ġfaz ia
ĠSt ar
9 1
Ï Ħ
s ite
ik a
erv o
pr im
Ġtradic ionais
Ġterrit Ã³rios
Ġa le
ĠR afa
ter iormente
200 3
Ġpo vos
ĠS ud
ĠF C
ĠComm ons
Ġ193 9
Ġdese j
Ġrepresent aÃ§Ã£o
Ġv ou
Ġjunt os
ĠT est
ĠsÃŃmbol o
ian ismo
Rel atÃ³rio
ĠD er
ĠHo je
f era
Ġf Ã¡cil
te za
Ã©re o
c er
un as
Ġacab a
Ġcrit Ã©rios
Ġcar Ã¡ter
Ġcic lo
Ġpr Ãªmios
Ġequip a
Ġt Ã©r
Ġinvestig aÃ§Ã£o
Ġvit Ã³rias
Ï ĥ
Ġsu pera
b el
Ġc aixa
orre u
eir Ã£o
Ġdeix a
ĠEr n
ĠÂ ·
v in
Ġcontribu iÃ§Ãµes
Ġban co
s ch
Ġv iver
ĠFil ip
Ġtri p
Ï ģ
ĠVic ente
Ġleg al
Ġest ruturas
Ġmont anh
ĠÃ ´
Ġfos sem
Ġtorn aram
ra ria
ĠReg ional
ĠP ier
Ġen v
er ica
Ġnasc ido
f a
Ġsu je
ĠI dade
Ġint enÃ§Ã£o
Ġ194 6
do m
ĠSil v
ĠB ob
G E
Ġsobre tudo
Ġorgan izaÃ§Ãµes
Ġ195 7
Ġcast elo
ĠPredefin i
Ð¾ Ð
Ġc enÃ¡rio
Ġqu into
ific ou
ĠS how
ĠIr landa
Ġimedia tamente
em it
ron omia
Ġp Ã©s
Ġident idade
Ġf ins
Ġpor to
Ġt op
ch os
ĠBer lim
Ġsho ws
Ã¢m etro
Ġtrabalh adores
Ġt ran
Ġt end
ĠÃ ļ
it Ãª
ĠhistÃ³r ica
ĠO u
Ġaument ar
A P
ult os
st on
ĠA do
Ġf ar
ĠCar l
Ġrelat ivamente
ĠB lu
ot es
Ġexempl os
Ġrot eiro
Ġneg Ã³cios
s ki
ĠCab o
ĠFl ora
! "
z i
jet ivo
w ork
ch as
oc o
Ġap ag
ĠSou za
az er
ĠVir g
ĠAd v
Ġf usÃ£o
Ġexp and
ĠB elo
oc ol
ĠS ho
int er
ado ras
Ġv ira
ru pÃ§Ã£o
ĠM ara
Ġassoc iaÃ§Ã£o
esso ra
Ã§ ul
Ġs aiu
Ġc re
ter o
Ġdetermin ado
ĠH orizonte
ĠFil ipe
Ġc e
ĠIm pera
ĠB ritÃ¢n
Ġ195 2
s k
ĠA FI
Ġcheg ando
t ec
pos iÃ§Ãµes
m asculino
Ġed itora
ĠfÃŃs ico
Ġdetalh es
dj vu
ĠE P
Ġfic aram
and es
Ġpr os
Ġan ual
re al
Ġcorre nte
Ġsubstitu ÃŃdo
Ġcolabora Ã§Ã£o
ĠLat ina
u per
ĠPo nte
Ġ ib
Ġan ex
Ġ Ã³p
Ġpr Ã©dio
Ġequip amentos
ĠCe arÃ¡
Ġme ia
ĠAl to
Ġv ac
iv is
Ġf rom
Ġcar ga
ĠlÃŃder es
ĠJack son
ĠMich el
Ġsust ent
ĠLib ert
ĠP ia
ĠF und
Ãĥ O
Ġprat icamente
ion e
Ġcomand ante
nc e
minist ro
ĠR y
Ġreg ional
ĠAn n
Ġg a
Ġimpl ant
ĠÃ³rg Ã£o
Ġv ert
Ġir Ã¡
qu ete
Ġest iv
1 00
ĠPortugu Ãªs
ĠG ust
Ġassin ou
Ġdesenvol veu
Ġ195 3
Ġs il
ÃŃ ria
Ġtest em
Ġam ost
Ġd uraÃ§Ã£o
Ġtit ular
Ġl er
Ġempres Ã¡rio
ant emente
Ġk g
Ġreun iÃ£o
Ġ194 7
Ġac h
Ġm ig
8 4
Ġv ant
20 14
Ġpoder iam
Ġpos iÃ§Ãµes
Ġengenh eiro
Ġ3 3
Ġconsidera dos
ĠmÃ©to dos
on omia
Ã³ cio
Ġgol pe
Ġant i
ur t
Ġus adas
Ġc m
Ġoc idental
ĠConstant ino
Ġd rama
Ġenc iclop
ĠCo imbra
Ġentre tanto
Ġcheg aram
Ġacont ece
ĠOrgan izaÃ§Ã£o
Ġen orme
ĠCam peÃ£o
Ġcaracter ÃŃstica
Ġpoder Ã¡
Ġrelacion amento
Ġmatem Ã¡tica
Ġrec Ã©m
Ġdisc ipl
Ġrec entemente
Ġescolh ido
ĠPernamb uco
Ġ ?
ĠJ og
Ġat ua
Ġf rag
Ġcon ver
Ġlidera nÃ§a
Ġv ag
ĠP az
Ġ0 4
u iz
ic ana
id entes
ĠPro duÃ§Ã£o
Ġa ÃŃ
ĠMar cos
Ġcr ime
Ġco raÃ§Ã£o
uv en
erta in
ĠC aracter
ĠP ot
po t
urg ia
Ġ193 8
m on
Ġpint or
F l
ĠCon f
Ġadqu ir
ĠUn idas
ĠPro jeto
l ist
Ġcompet iÃ§Ãµes
ĠVol ume
re et
Ġadvog ado
Ġobrig ado
ip Ã©l
Ġcer ta
ĠR ay
Ġter ror
rat ion
Ġav ent
ĠEncyclop edia
Ġass untos
Ġcom Ã©dia
ĠR ap
ĠD en
Ġg ente
k et
Ġint era
ĠW indows
Ġcham ou
ÃŃns ula
ĠLÃŃn gua
ĠM ulher
at ar
de x
Ġt i
p le
ĠSco tt
Ġm it
it adas
ĠÃ¢ mb
ĠGr Ã£
ĠrÃ¡p ido
ĠSant iago
Ġarqu ivos
7 9
Ã³s ito
Ġse p
ĠN ight
Ġin ov
ĠRe v
g eral
Ġper der
Ġreceb ido
as to
ur u
ĠnÃºc leo
Ġextrem amente
um p
ĠIt al
Ġsim ilar
Ġon line
ĠG ram
Ġparticular mente
Ġper de
ĠBiblio teca
as o
Ġcomp ost
Ġasc ensÃ£o
Ġbilh Ãµes
Ġunivers idade
az ar
em po
. --
Ġfra se
Ġestud ar
Ġpra zo
ivers Ã¡rio
Ġfuncion Ã¡rios
Ã¡ via
Ġjude us
ĠCom e
200 2
Ã¡st ico
Ġtra tado
Ġ195 1
Ġtent a
ĠPos teriormente
Ġparcial mente
ĠTorn eio
Ġre je
ip es
land Ãªs
Ġqu ÃŃm
ĠF ortaleza
Ġsu porte
en ov
n asc
ĠP om
ĠB ig
ĠBo a
Ġpal co
Ġadminist rat
Ġt rou
Ġcons ult
Ġvenc er
Ġfac to
ogrÃ¡f ico
l iga
Ġre quer
Ġating ir
al has
P r
ĠPes qu
ĠBarcel ona
ra ram
ol ha
Ġdisput ou
int h
on i
Ġfen Ã´m
E d
ĠBÃŃbl ia
Ġ9 78
il ton
Ġess encial
Ã´n imos
t y
Ġal deia
Ġde leg
ĠM Ã¡rio
Ġ4 8
Ġjapon esa
Ġmic ro
al i
ĠprincÃŃp ios
a w
Ġob ject
Ġcons ol
Ġreligios a
ĠInt eg
pl a
Ġcap ela
ĠRe is
ĠEcon omia
ÃŃs ica
Ġver bo
m ond
Ġcor e
Ġcoloc aÃ§Ã£o
Ġtem plo
ra y
der e
ĠPro grama
Ġc Ã¡l
pres a
Ġhip Ã³t
ĠK o
Ġm ad
Ġcomun idades
ĠgÃ©n ero
Ġpro n
ĠT Ã©cn
Ġcor o
S T
Ã©c ulo
Ġexist entes
Ġs Ã©t
Ġtempo radas
Ġind ica
Ã´m bia
ĠIl has
ra te
Ġed itores
Ġlocal idade
ĠH av
Ġperi Ã³d
6 2
Ġprecis o
Ġdest ino
Ġpoder es
ĠEst as
ĠDisc ografia
ĠAd am
ĠDe put
Ġhttp s
er do
ĠM ato
ĠR ub
ĠL im
ĠEstud os
Ġmilh Ã£o
s ur
Ġinstr umentos
R io
ĠLib rary
ĠS ug
Ġle itura
Ġtre cho
ĠRom ano
Ġpadr Ãµes
Ġj an
Ġrec ente
ĠcomeÃ§ ar
Ġenc erra
ĠMach ado
ĠMai or
Ġmot ivos
Ġgost aria
um inense
Ã§ u
Ġped iu
ĠMarc elo
Ã©t rica
c ore
u ar
Ġres idÃªncia
Ġ4 00
amb igu
Ġd or
Ġreal izados
ili ares
ab ase
ĠclÃ¡ss ico
ipÃ©l ago
ran ge
rat os
ĠEn s
ĠD ados
v ido
atura l
Ġlim ite
Ġent ender
Ġt or
ant aria
Ġs p
Ġco p
Ġcont endo
ĠÃ¡ra be
ĠV ia
l ad
ĠN ap
icial mente
Ġcan cel
ional mente
Ġg ast
Ġpermit ir
N Ã£o
ĠDin amar
Ġd ito
el son
ĠBe at
Ã´n icas
Ġtempest ade
ĠT ab
Ġter rest
o que
Ġo ce
Ġ193 6
ĠGab riel
Ġconhec idas
Ġequ il
g rÃ¡fico
ĠSp ec
ertain ment
Ġinv Ã©s
ĠJÃº n
ĠÃ´ nibus
Ġbo as
ĠXV II
Ġedif ÃŃcios
Ġcons ecut
th ur
ĠB re
ĠCas o
ĠprÃ³p rias
at i
ĠEs ses
p us
t ic
Ġferro vi
C C
Ġg o
Ġprinc esa
iss ion
ĠRec ife
ĠH al
Ġm estre
Ġutil izando
Ġdific uldades
Ġmost rar
ĠZ el
ĠPe qu
Ġinf Ã¢ncia
Ġ193 4
Ġ3 4
Ġfat ores
ĠJ r
R I
al ves
Ġexib ido
D A
ĠU E
ĠL es
ĠB ento
ĠCh icago
C ategory
s erv
ard as
ĠLu z
de z
Ġf i
Ġdes loc
Ġf rac
ĠVenez uela
Ġsus pe
ĠG irl
Ġfranc eses
b ilidade
ab e
Ġsemelh antes
a o
Ġorig inais
od y
Ġimp acto
ĠBar ros
ĠMinist ro
Ġg rat
Ġed itar
Ġs o
Ġrec onst
ĠRod rigo
t ambÃ©m
7 4
j u
Ġpro b
ĠmÃŃn imo
Ġprof essores
ĠMed icina
Ġt rÃ¡s
Ġemb arc
m or
Ġaval iaÃ§Ã£o
ĠHom em
og a
b ar
d y
Ġd anÃ§a
Ġb ens
Ġer ros
Ġcham ar
Ġcham a
in Ã©
d el
at u
po p
Ġc ad
W ik
Ġ ;
Ġcas ado
Ġdoc umento
8 3
Ġpl ant
Ãº l
ing er
ĠLuc as
ĠDat abase
ĠSecret aria
Ġf rut
eg al
Ġlib ert
Ġp p
adr Ã£o
ro c
b urgo
amen go
ĠL an
ĠSeg uranÃ§a
ĠS r
Ġrom ana
am as
Ġpossu ÃŃa
ĠPÃºbl ico
6 3
ap e
Ġintro duÃ§Ã£o
Ġdo enÃ§as
Ġcandid atos
ĠF M
ĠM orte
j ecto
it amente
ara s
Ġex cel
ĠÂ °
ĠV ice
Ġarqu ivo
on c
7 3
ĠAnd re
ta c
Ð º
re ta
Ġ193 7
Ġro ub
Ġgra Ã§as
Ġsex ta
ĠOri ental
Ã©r ico
ĠLiv ro
H ist
Ġlocal izaÃ§Ã£o
Ġaer oporto
7 1
i Ã³n
ĠW at
ĠMend es
ic am
ĠOri ente
Sub stantivo
Ġcont ÃŃn
20 15
Ġrepresent ando
Ġsitu ado
Ġ193 3
Ġbat er
Ġ ign
Ġp ul
id ez
199 9
an Ã§o
Ġf r
do este
Ġofer ece
Ġsign ificado
ĠS k
Ġeuro peu
ĠComp any
Ġ193 2
r Ã©s
Ġsecret Ã¡rio
Ãºlt ip
ĠBra ga
Ġ194 9
E I
ation s
N U
ĠJ ones
Ġv az
l ie
or it
Ġinvas Ã£o
Ġb izant
Ġtiv esse
ĠP s
ou ro
elh as
m entos
ĠSu pre
Ġmilh ares
8 1
in f
r ista
w an
Ġpou cas
Ġinc ent
Ġtom ou
icion Ã¡rio
Ġindic ado
f utebol
us h
Ã©l gica
Ġt orre
mo nt
Ġm anhÃ£
Ġocup aÃ§Ã£o
ĠA ires
ĠAp ar
Ġ Å
E T
ĠV ista
if orm
Ġav iÃ£o
ĠÃ³rg Ã£os
Ġoportun idade
Ġre ver
Ġt ela
ĠK at
% ,
Ġo x
Ġpens amento
8 2
il has
Ġpesso ais
ĠL anÃ§
Ġverdad eiro
Ġsem if
6 1
ĠO x
Ġb reve
ĠÃ¢mb ito
S h
Ã³ cia
ĠÃģ l
Ġpo nte
Ġinterpre taÃ§Ã£o
ĠT ar
Ġestabel eceu
A g
Ġp eg
ĠGre en
Ġposs ÃŃveis
Ġpre defin
ow er
Ġac um
ĠAtl Ã¢ntico
Ġsegu ido
Ġorgan izado
Ġele g
or gan
ceb ispo
Ġdest as
ropolit ana
ĠAl i
Ġintel ect
ĠindÃŃg enas
ar Ã£o
Ġgu arda
Ġregist ros
ĠMc C
ĠS erg
ie ta
Ġfundo u
t riz
Ġat mos
ĠM aran
Ġtrans port
Ġlig aÃ§Ãµes
Ġocorr er
id ro
ĠB R
Ġsub t
Ġviv eu
ĠlÃŃ qu
of t
Ã¡c ulo
Ġaust ral
ant os
ĠP elo
n et
ĠV ide
ĠPro t
ĠU rb
Ġcidad Ã£os
ĠGonÃ§ alves
: "
ĠC ria
ĠRe vista
Ġd ura
Ġc ren
Ġart ilh
Ġautor ia
ĠJÃºn ior
ĠprÃ³xim os
Ġeuro peus
ĠC iÃªncia
ĠRes ultados
ĠIn s
ĠmÃºs ico
Ġser es
ĠEd ward
Cam peonato
Ġcar d
Ġs ovi
Ġinstal aÃ§Ã£o
V er
Ġb is
ĠW ol
Ġcar ros
Ġmar gem
ĠsatÃ©l ite
Ġab erta
Ġb or
Ġterre no
Ġdisput ada
Ġcompart ilh
ĠO este
ĠBo w
Ġvis ita
ĠGe org
em Ã¡tica
am o
Ġp ista
our n
6 9
Ġp ast
Ġest ran
ĠFo nte
t aram
ĠBo ok
ĠindivÃŃdu o
ĠB org
ust o
Ġpel e
ĠI B
k u
Ã³g ico
Ġag rÃŃc
Ġc Ã¢m
ĠJ on
Ġtrabalh ando
anc es
ĠAdminist raÃ§Ã£o
Ġp ion
ol i
Ġre duÃ§Ã£o
wik i
graf ias
Ã© lia
ĠF un
oc ar
ĠDem ocrÃ¡
rag Ã£o
Ġdef ender
Ġposter ior
Ġam ericanos
ĠB ell
Ãº st
Ġpre feitura
Ġh e
Ġcr Ã©d
ĠG io
Ġadap taÃ§Ã£o
ĠF Ã³rmula
Ġmu Ã§ul
Ġintern a
ĠCar olina
ĠMar gar
Ġfig uras
. ).
Ã¡ ce
Ġestabel ecer
ocl ipe
it ter
Ġa nc
Ġdo ze
Ġinf antil
ĠCur itiba
ĠMed alha
E P
ĠCol le
ĠVas co
l an
Ġco op
Ġroman os
l ei
ĠT y
Ġhistori ador
M an
% )
u ch
Ġdom Ã©st
c in
b at
pec to
ĠEs sas
z y
ĠCol Ã´mbia
ul ou
ĠG rosso
Ġvol unt
Ġ193 5
is es
Ġcor rig
Ġjorn ais
c ulos
ĠMov imento
Ġpr Ã¡ticas
Ġen g
Ġav es
peon atos
Ġesp alh
Ġesp acial
I V
? "
u va
Ä ĩ
Ã³p rio
Ġs Ã©ries
Ãº car
Ġres g
Ãº ncia
Ġmant Ã©m
ĠeconÃ´m ico
Ġlon ge
Ġ und
emb urgo
Ġserv ir
Ġelimin ar
Ġsing ular
Ġquis er
Ġpret end
ĠM ost
ĠVol ta
ĠJe ff
Ġart ÃŃstica
c an
Ġent idade
ret anha
ĠPol ÃŃtica
Ġap aix
ĠF eminino
Ġcan ad
iet n
ÃŃt ico
ĠEngenh aria
qu esa
ol h
ĠF ut
Ġcons umo
Ġa Ã§
Ġram o
Ġf Ã©
inth ians
Ġp asso
ÃŃnc ias
Ã©t icas
ĠB Ã©lgica
Ġag ricultura
st a
ĠS he
Ġcam inh
Ġdesc rito
ĠH ung
Ġdifer enÃ§as
w ell
ĠSo ares
Ġser ve
ĠTex as
Ġconv idado
bo x
Ġpert ence
k es
ĠL ink
ĠEst rada
ic ia
iz aram
Ġo it
Ġh oland
Ġgarant ir
Ġbloque io
ĠTerc eira
Ġrec entes
Ġencont rou
ĠPort al
ĠcrÃŃt ico
ĠInform ation
ĠH ip
ĠB art
Ġal vo
Ġespanh ola
Ġd ial
Ġco leg
Ġiniciat iva
Ġe fic
Ġrespons abilidade
ategor ia
Ġp an
at Ã³rias
Ġcab o
ib e
ĠEsp orte
ut h
Ġquadr inhos
c al
st em
Ġmed iev
____ ____
irit ual
ĠSÃ©r gio
Ġun iverso
r icos
ĠA os
ĠCh ris
ĠDinamar ca
ĠF ort
ĠT en
Ġc Ã¢mara
Ġpro xim
ĠClass ificaÃ§Ã£o
Ãª me
ĠMun icÃŃp
Ġinteress es
Ġaud iÃªncia
Ġat letas
b ita
ĠWal ter
Ġv in
Ã³g rafo
Ġpers pect
Ġfam osa
ĠgÃªn eros
Ġop Ã§Ã£o
Ġrespons Ã¡veis
ĠS erv
Ġin gress
Ã³ so
Ġcap a
Ġe g
ĠU r
Ġescrav os
ĠT an
ĠSe gu
Ġp ena
Ġar ma
Ġaut ora
Ġcomb ust
Ġpermit indo
Ġtraduz ido
Ġab ra
ĠB aixos
ade ia
ad y
Ġpap a
Ġf estival
Ġlim ites
Ġjust iÃ§a
Ġv ive
Ð »
ĠAl m
Ġd anos
Ġre aÃ§Ã£o
ar io
ĠWik i
Ġbair ros
el lo
Ġdenom inado
Ġv aga
Ġcol una
Ġcons elho
Ġsen ador
ĠRoc ha
id i
Ġcon ect
Ġentre v
ĠâĢ ł
Ġt a
B ill
ĠGo ogle
al t
ul to
ĠProf essor
ĠFo x
Ġalf ab
Ġc av
Ġinteg rantes
rop ri
Ġmora l
Ġpra Ã§a
ĠPod er
r in
Ġmod ern
ĠSte ph
Ġim press
Ġrepresent ante
ar quia
ĠBr uno
emit Ã©rio
Ã³ quia
Ġdispon ibil
ĠmÃ¡ xima
Ãª x
rim Ã³nio
Ġcomem ora
ĠDef esa
Ġigre jas
, #
ei bol
Ø §
ĠA Ã©rea
ĠP into
Ġpe da
ĠgalÃ¡x ia
Ġant ec
ran da
ĠPor tanto
ĠN ick
Ġc Ã´n
Ġpre domin
Ġche f
Ġcoment Ã¡rio
Ġinclu ir
Ġhum or
Ġg Ã¡s
Ġart ÃŃstico
rev endo
Ġb rig
ĠI MD
or os
Ġcomp il
Ã¢n g
b erto
ĠT orre
ĠFreder ico
Ġ uns
ĠT imes
Ġpermit iu
he im
Ã§ amb
ĠS ta
ĠFl amengo
Ġno tas
Ġlocal izados
ĠÃį nd
n ot
Ġassum ir
Ġsem i
no w
Ġult rap
ĠGoi Ã¡s
aix Ã£o
ur us
Ġampl amente
ĠAssoc ia
Ġdeb ate
ĠC hec
Ã³r ica
Ġflu xo
Ġne ut
Ġmarc ado
ĠV ill
h r
Ġe c
ĠDire tor
u ca
Ġassin atura
ĠD ra
ĠPara guai
ĠFern andes
ĠdÃº vida
Ġfuncion amento
Ġinv ad
Ġexpl oraÃ§Ã£o
Ġfol has
Ġco z
Ġs ai
min o
Ġmed alhas
Ġconc ord
Ġcrist Ã£os
ĠCor inthians
Ġs ÃŃtio
i ri
ve do
ion ado
ma il
ĠGal eria
Ġescrit os
Ġflores ta
era nte
ĠColle ge
Ġform ando
ĠUru guai
Ġg aro
g ada
ĠC ho
Ġmora dores
Ġren da
Ġp iano
Ġm est
rid ge
est os
Ġconf und
ĠvÃŃt imas
Ġrelacion adas
" "
ĠmÃ¡qu ina
ĠIr m
Ġim perial
ĠTr in
Ġindivid uais
M G
Ġaj udou
v ora
n i
ut as
Ġform al
Ġf antas
u Ã¡ria
ru d
Ġon da
Ġlon g
ĠSoc iet
Ġexper iment
I L
Ġre per
Ġcont udo
ĠW ay
ĠhistÃ³r icos
f im
Ġr ural
ĠelÃ©t rica
Ġfacil mente
gre g
ĠPol Ã´nia
Ġal imentos
Ġag rad
E D
Ġcon ex
o y
futebol ista
Ġf atos
in ete
iz ador
gu eira
Ã¼ r
pos tos
ĠI ra
Ġh osp
Ġaeron ave
ĠM elo
Ġutil iza
ĠSt an
ĠEuro peu
ĠQu anto
us e
ĠV ers
ĠRe vol
Ġpara da
Ġm Ãºltip
Ġdire ta
rest ling
Ġcum p
Ġa ulas
Ġdesc reveu
Ġaprov aÃ§Ã£o
er m
ĠN ordeste
ä º
Ã³ leo
Ġconfl itos
ĠEnt ertainment
Ġn ordeste
ĠT ay
isc al
Ġl ados
Ġpra ia
k ins
Ġ ÃŃ
Ġengenh aria
se y
ĠC orn
Ã³t ico
Ġhon ra
Ġig ualmente
ĠP ri
es i
ĠA present
ĠW W
Ġposs am
Ġdisc os
ĠOp en
Ġt imes
ĠI N
Ġd anÃ§
ĠS um
Ġdenom inaÃ§Ã£o
Ġsu d
ab eth
at ivamente
Ġfic Ã§Ã£o
Ġecon om
ĠS Ã¡
ÃŃ am
ĠAg ora
Ġrepresent antes
ĠNe ws
Ġultrap ass
' t
Ġp ri
Ġsat isf
Ġlink s
ĠV II
Ġ0 5
Ġdifer enc
Ġsegu indo
Ġt Ã³p
Ġan iversÃ¡rio
Ġrevel ou
Ġurb ana
er y
ĠM Ã©d
199 8
Ġferram entas
Ġin Ã©d
ed entes
Ġdec reto
Ġclass es
Ġfal eceu
Ġj e
olog y
in adas
Ġc ivis
Ġgrav ado
Ġres ist
Ġrev istas
Ġadminist rador
ĠHou se
ip s
Ġil um
ĠU lt
ĠL ic
ĠAr thur
Ã§ amento
el aÃ§Ã£o
Ġcompon entes
20 16
ĠJo e
ĠH ow
ell y
Ġg ig
ĠDom in
b il
Ġdes emb
Ġob st
ĠPre feitura
Ġequival ente
C ol
Ġp Ã´
Ġv indo
ĠAnd rade
Ã³t ica
Ġex at
ĠH ab
Ġen d
Ġfam iliar
Ġcontin ente
Ġmarc ada
Ġbranc a
ĠPer fil
Ġcob ertura
ĠC orte
Ġimpos s
it age
Ġcar tas
Ġpromo Ã§Ã£o
ht m
ĠTax onom
Ġat ores
Ġinf ra
Ġv c
Ġenvi ado
ĠEst ende
Ġexpl os
ĠRa inha
Ġper f
ĠÃ¡rv ores
Ġt rem
T e
Ġus ou
ĠalcanÃ§ ar
Ġmod erno
Ġcoloc ou
Ġcoment Ã¡rios
Ġc atal
ĠN elson
ĠK n
Ġtrop icais
Ġexclus ivamente
es co
ĠB ad
Ġl av
Ġ3 9
let ismo
ĠU p
ĠG rav
qu et
Ġb ola
Ġg reg
f ace
Ġus am
Ġpaul ista
as on
Ġinter val
Ġfemin ina
ĠG ot
Ġsegu iu
Ġpart idos
Ġ *
ĠCam peÃµes
et ria
P ort
Ġc aiu
ĠD al
m ais
f und
Ġobjet ivos
Ġcha ve
ĠV el
Ġmort es
Ġdisc urso
Ġref let
ĠFo ot
Ġpap Ã©is
ĠL Ãº
Ġs inais
ĠL ist
l l
Ġart ic
Ġreconhec ido
Ġprote ger
ĠO ne
Ġdivid ido
ĠWil son
p to
Å «
iv ais
Ġcons ag
Ġraz Ãµes
Ġdefin ido
ĠTur quia
Ġtrein amento
Ġpo dia
Ġelev ado
ĠP T
Ġdin astia
ĠRece pÃ§Ã£o
R S
ĠT ime
ĠO k
ĠEnc ont
A b
ĠZ ona
Ġdese jo
C ont
Ġc erc
e o
at ina
Ġra c
Ġfo co
ĠEv ang
Ï Ĥ
Ġest iver
Ġqu ÃŃmica
ĠFl uminense
Ġpromov ido
in es
Ġpart ÃŃc
ril ha
Ġ192 9
ĠCap itÃ£o
ĠT am
Ġ19 10
ĠG ame
ĠEsc Ã³cia
ai re
Ġag reg
Ġnecess Ã¡ria
Ġsitu aÃ§Ãµes
Ġaeron aves
E ste
j ar
Ġpo d
ĠGon z
h ann
Ġ19 18
Ġl abora
and er
ĠVi eira
Ġt onel
Ġexc eto
Ġacred ita
Ġconcl usÃ£o
Ġv ence
ĠOr to
ĠL Ã¡
Ġnum eros
Ġproduz iu
uss Ãµes
Ġinaug urado
Ġj uda
ĠAn os
unt a
Ġind icaÃ§Ãµes
Ġjunt ou
Ġform am
Ġpres idÃªncia
Ġtel enov
Ġresol ver
os e
Ġtent ando
Ġext erna
5 00
ĠK ong
Ġcor pos
Ġlegisl aÃ§Ã£o
Ġaqu ela
ĠCon fede
t ores
ĠP ens
ĠRoy al
p ed
Ġins etos
ic ismo
Ġcria ndo
ĠPa ula
Ġ1 20
ĠM edia
ĠG rand
Ġesp ÃŃrito
Ġdu que
ĠT ratado
Ġestrang eiros
u ega
ĠB ab
ĠP Ãºblica
om en
âĢ ľ
Ġpar lam
ĠBarb osa
P ara
Ã¡ ut
ĠWh ite
Ġfil Ã³so
Ġdenom inada
ly wood
b i
Ġor dens
Ġcur to
Ġtrans ferÃªncia
Ġesfor Ã§os
ura is
ĠWilliam s
ĠN orth
Ġac ha
ÃŃ fer
Ġperson alidade
Ġflores tas
il ia
Ġmom entos
Ġmed icina
Ã³n ica
F L
ĠC ra
ĠHer itage
Ġmost rando
f Ã©u
on na
Ġv s
k en
pl an
Ġv endeu
ĠC Ã³digo
ĠL ong
ad d
Ġesfor Ã§o
U S
ĠS endo
ĠmÃºs icos
ran o
Ġcompara Ã§Ã£o
Ġcar naval
Ġpo bre
em entar
ph y
Ġb iol
ĠIm perial
B ot
Ġexib ida
am ericanos
ĠUnivers al
Ġorgan izada
Ġmost rou
ĠIMD b
Ġpara das
ĠH igh
A T
Ġdist ritos
Ġconcent raÃ§Ã£o
ambigu aÃ§Ã£o
Ġassoc iado
etr Ã³leo
ke y
ac os
Ġinter rom
ĠRec eb
dos o
te d
Ġen dere
ec idas
Ġin do
ĠArqu it
Ġimig rantes
ent or
Ġanim aÃ§Ã£o
Ġaus Ãªncia
Å ¡
port ivo
ist er
Ġc ron
ug a
Ġatu ar
Ġverd adeira
ĠC os
Ġcr imes
m i
ĠCaracter ÃŃsticas
Ġmov iment
Ġvend ido
D B
ĠÃ© t
Ġl Ã³gica
ĠN essa
und iais
Ġ4 2
Ġmat riz
ĠA k
Ġcan ais
Ġespa Ã§os
ĠT eix
ĠFranc o
ĠRafa el
Ġl ine
Ġconce itos
id al
ut or
ĠCP I
Ġag ente
Ġh orÃ¡rio
Ġun iÃ£o
ĠChrist ian
ĠS ong
Ġdia gn
ĠGu arda
s oc
ap or
arg as
im edia
Ġcent ros
Ġped ir
Ġesc ultura
ĠQu em
Ġro b
C o
I m
et ano
Ġdesc riÃ§Ã£o
Ġ u
Ġdesc reve
c es
ĠE ug
ĠO ff
ĠJ ov
Ġretira da
qu ad
Ġna quela
Ġinc Ãªn
ĠTer esa
Ġassassin ato
Ġpre d
Ġd ubl
Ġclass ificado
ar reg
Ġca fÃ©
Ġpropor cion
ĠPar Ã¡
ĠCan al
Ã¢n io
Ġ19 17
Ġposs ivelmente
b ack
ĠSou th
nc h
f ogo
id ata
Ã¡ vio
Ã´m ica
Ġcontrat ado
Î µ
ĠveÃŃc ulo
d s
ic i
ĠÃºlt imas
Ġindepend entes
Ġcomp ra
ĠPr Ã©mio
",""," -
Ġvocal ista
E n
Ġinstal aÃ§Ãµes
it Ã¡rios
ĠC ri
ĠCl Ã¡
ĠM Ã©dio
ĠLe w
y er
Ġren ome
Ġcal or
ĠespecÃŃf ico
ĠSociet y
ĠSant ana
ĠTo da
Ġmes mas
ĠAlb ert
âĢ Ķ
Ġcont ar
Ġpos so
Ġampl a
ai os
ĠPar lamento
Ġ192 8
ĠFac il
h l
ip edia
Ġel et
ĠS us
Ġ4 9
ĠAm erica
Ġcr imin
Ġsim ult
ĠTrabal h
ĠPac ÃŃfico
ÃŃn d
ĠJÃº lio
Ġas seg
ul e
Ġest end
Ġh el
ĠFaz enda
Ġ19 19
Ġtra v
ĠS l
ĠS ev
199 7
ÃŃr culo
Ġv andal
D on
c ast
Ġs oz
Ġ193 1
Ġdis sol
ĠÃ¡c ido
Ġpre Ã§o
Ġest ando
ĠDes criÃ§Ã£o
y le
Ġret om
Ġcres ceu
ĠP C
t im
Ġrec ord
ze vedo
cont in
Ġex pres
Ġab re
ĠM ike
ĠH it
Ġsub met
Ġ7 5
Ġred ire
Ġcri ados
Ġa vi
Ġb aix
av i
ĠSt reet
ĠD io
ÃŃb rio
h u
Ġreligios o
Ġchin Ãªs
Ġcum pr
ĠNor uega
ad ia
ĠL us
ĠK a
ĠTrabal ho
Ġexce Ã§Ã£o
Ġqu in
Ġ19 14
Ġsob era
ett i
Ġal tas
Ġte at
ĠF u
Ġprotagon ista
Ġconsequ Ãªncia
ĠCat edral
Ġref lex
Ġdivulg aÃ§Ã£o
ĠAn im
it ivas
Ġprodut ores
Ġt iro
Ġapresent ando
Ġf rota
ĠCap ela
Ġ15 0
ĠMan ch
Ġtrou xe
Ġt an
do wn
pr Ã³prio
B l
Ġlo jas
ĠHung ria
Ġbene f
ĠP ira
te x
Ġenv iou
ĠH y
Ġtra tar
Ġ( -
Ġpint uras
P E
est ro
Ġpres s
Ġcap ÃŃtulo
Ġexp ediÃ§Ã£o
ĠGio v
Ġc anto
ĠK u
Ġder ru
ĠfÃ¡b rica
Ġsac erdo
ug h
ĠTe am
M a
el le
Ġapresent ada
Ġinic ia
ra ta
al Ã©m
Ġcerim Ã´nia
ĠAp enas
Ġim pres
ach ada
Ġ0 6
Ġm am
Ġconhec er
Ġc ens
Ġab sor
av era
Ġ192 2
ĠRib eira
Ġsud este
Ġcar ne
Ġsignific ados
ed as
Ġexper iÃªncias
I M
Ġnome adamente
ĠC uba
Ġempre go
ĠH u
ĠGu inÃ©
ĠSebast iÃ£o
B ar
rog as
A F
ĠCar ioca
Ġs Ã¡b
Ġrev isÃ£o
Ġincl inaÃ§Ã£o
ĠperÃŃ odos
icip ais
Ġh em
Ġutil izadas
Ġexat amente
Ġj uiz
po nt
ĠH ong
ĠR an
ĠÃ¡rv ore
. /
Ã§ ados
ĠC unha
ĠCol l
Ġsal v
Ġexecut ivo
in er
Ġresult ou
Ġ ran
Ġhabil idades
Ġ4 1
ĠTecn ologia
Ġcom issÃ£o
se is
Ġar co
Ġexib iÃ§Ã£o
Ġinstr umento
Ġrelat Ã³rio
Ġcl ientes
Ġrep ublic
Ġfl or
Ġdever iam
ĠTaxonom y
ter os
ĠFranc esa
Ġas pecto
ĠLa w
Ġmot iv
ar l
Ġpublic ados
ĠP erson
rÃ¡f icos
Ġbene fic
Ġat ivo
ĠCar ta
iv idades
V ID
Ġpo esia
od ia
Ġexp ul
ÃŃde os
en Ã§Ãµes
Ġcham adas
Ġhist or
ĠZel Ã¢ndia
Ġ4 7
Ġwik i
ĠBat ista
Ġp adre
Ġab riu
ĠProv ÃŃncia
S O
le d
20 17
ĠBu enos
Ġ192 6
f eminino
20 22
ĠbritÃ¢n icos
and emia
Ġs amba
ĠW ood
Ġ q
ĠdÃ©c imo
ĠTeix eira
at ual
Ġ4 6
ĠForm aÃ§Ã£o
Ġcom et
ĠMaran hÃ£o
iz ade
Ġdesemp enh
Ġsob r
ĠÃŃn dios
Ġpres t
Ġn oroeste
Ġtonel adas
Ġ5 5
ĠC le
Ġlev ado
Ġg erais
Ġv ÃŃrus
Ġmed ic
ane amente
Ġ19 12
Ġeste ja
v isÃ£o
ĠS Ã©culo
Ġpac ientes
Ġrevol ucion
ĠFranc is
ĠY e
ĠComun idade
Ġent erra
Ġor iental
ĠAr n
Ġenvolv endo
Ġhomen age
Ġinim igos
Bill board
Ġpol icial
Ġprov ÃŃncias
op a
Ġg elo
ĠDig ital
âĢ ĭ
ĠL ive
ĠG Ãªn
Ġbiblio teca
Ġorient aÃ§Ã£o
Ġr Ã©
Ġbrasil eiras
ar ta
Ġmar gens
ĠmÃ©d icos
ĠM ol
est es
Ġor b
Ġfort emente
Ġda ÃŃ
un n
Ġgrav ou
aca u
ĠB all
ĠEd iÃ§Ã£o
eric anas
ÃŃ via
ĠLe op
Ġmo de
Ġrepresent ar
199 6
Ġp lay
ĠGar cia
ĠDes ign
CB I
en ia
ĠT ak
ĠLon don
Ã ĩ
Ġo pt
ĠS m
Ġliv res
Ġesp orte
ff ff
Ġdific uldade
U N
Ġca Ã§a
ĠB lo
Ġfab rica
ĠW all
ist os
Ãº ng
cl u
Ġdescend entes
Ġtrans iÃ§Ã£o
Ġat os
Ġvir ia
Ġocorr ido
ĠK enn
ĠÃģ lb
Ġsu doeste
ĠA M
Ġl anÃ§a
Ġprej ud
ĠS ag
per o
Ġconhec eu
Ġtoc ar
Ġassist ente
ĠMu itas
Ġf ura
vi ado
Ġp se
Ġapar iÃ§Ã£o
ĠMic ros
Ãª ut
Ġb atal
ĠÃº til
Ġge om
Ġatrav ess
Ġinterv enÃ§Ã£o
Ġnot Ã¡vel
ÃŃde o
ĠN CBI
Ġres ulta
Ġvol umes
Ġapar ecer
ĠSte ve
Ġs Ã³l
Ġjulg amento
ut ion
on Ãªs
ĠM TV
ĠL ÃŃb
Ġapar entemente
d ire
ific adas
Ġ4 4
Ġperform ance
ĠAssocia tion
Ġad mit
Ġinterpre tou
ĠServi Ã§o
av ier
if f
Ġen redo
Ġdi Ã¢metro
ĠK an
Ġpos icion
Ġav is
j unto
Ġd ista
Ġsof re
Ġ riqu
Ġaltern ativa
E sc
Ġexist ente
ĠPre to
Ġdetermin ada
yl l
Ġinteress ante
Ġact ual
ĠX III
Ġin con
Ġcrist Ã£
ĠInst it
Ġsuc essor
Ġz onas
Ġalte raÃ§Ã£o
ĠÃŃn dice
lo ad
Ġport as
Ġres erva
Ġbus c
. ;
ex t
ĠIs land
Ġ192 4
ĠConc eiÃ§Ã£o
ĠFacil ity
et al
eb ook
Î ·
P R
Ġpl ural
ĠJohn son
Ġc adeia
ĠJ ord
Ġresta ntes
Ġ0 9
Ġcresc ente
ĠIn icialmente
ĠBern ardo
Ġnorm as
Ġgre ga
un st
Ã©r icas
ĠUE FA
A B
s el
ĠC ass
un h
Ġgrav aÃ§Ãµes
Ġecon Ã³m
Ġele itos
ĠGu er
Ġalt amente
Ġbloc o
Ġderro tou
Ġencont radas
ann i
Ġna Ã§Ã£o
up i
Ġprof essora
Ġp le
Ġpre to
ĠlanÃ§ ar
ĠLiv re
ĠcientÃŃf ico
ĠOb serv
ĠN ome
ar que
ĠFel ipe
ĠC up
Ġm issÃµes
Ã¡ pol
Ġ5 2
Ġcar b
Ġs orte
Ġre quis
Ġ4 3
Ġarquit eto
ĠNap ole
ĠF erra
Ġac el
Ġcap ac
Ġav iso
it ivamente
j Ã£o
Ġconf ront
Ġc ho
ĠG od
Ġestre l
ĠDec reto
S a
t ua
ÃŃ v
Ġev ang
Ġfab ric
ĠMos cou
ĠTay lor
d ent
Ġguitar rista
rei ras
ara l
Ġtom ada
ĠH ay
Ġlev aram
Ġamb iental
Ġdefin ir
eg as
ĠU FC
ã Ģ
G eral
ĠE ric
ĠQu ad
Ġesp iritual
ĠS un
Ġroup as
Ġ192 7
ĠPier re
Ġf ace
Ġcon fer
Ġfuncion a
Ġreceb eram
Ġapl icaÃ§Ãµes
Ãµ em
Ġres tante
ĠPara ÃŃba
Ġdec ide
Ġdescob riu
ĠS or
ĠM ate
Ġderro tado
Ġad ultos
Ġconsegu iram
ol ar
Ġof ens
Ġbas es
ĠC y
ap t
Ġesp et
Ġrefer ir
ina Ã§Ãµes
Ã³r gia
Ġdivid ida
Ġra Ã§a
Ġocorre m
ĠEns ino
P h
Ã «
Ġj o
Ġ rig
Ġexist ir
raf t
mo d
on der
Ġexpl ic
Ġsu ic
Est a
Ġamea Ã§a
er taÃ§Ã£o
ĠAlexand er
Ġer rado
Ġac ord
im ental
Ġvide oclipe
Ġsu f
ĠU su
ess Ãµes
ĠEn g
ĠCl ubes
Ġdefin ida
Ġl ou
199 5
Ġlig ado
ĠKar l
Ġt ido
Ġex er
Ġresol uÃ§Ã£o
ri Ã§Ãµes
Ġpopular idade
Ġc ura
ot as
Ġestad uais
ĠÃ³ leo
Ġag entes
Ġparticip aram
Ġdocument Ã¡rio
Ġle ite
ĠâĢ ĺ
ĠvÃŃde os
ad i
ĠM ir
Ġsa ud
orre nte
Ġf is
Ġmat ar
re e
Ġsuper iores
Ġinteg ral
Ġcal c
Ġcolon ial
ĠB ut
Ġfoto grafia
ĠOrig inal
ĠFil osofia
Ġm ente
I T
ru st
ĠclÃ¡ss ica
Ġal tos
itt le
Ġ æ
Ġcomput adores
U ma
ĠG ost
end ente
ĠDi ego
Ġit ens
Î ¼
ĠD C
Ġme do
Ġcost um
Ġlic enÃ§a
Ãªm ica
Ġapar ecem
Ġnecess idades
Ã³l ogos
Ġer gu
f ica
ĠÃģl v
r us
Ġ6 5
ĠT it
Ã§ am
Ã´n ias
Ġcer teza
Ġreceb endo
Ġesc lar
Ġgra ve
ĠImpera dor
Ġal uno
rÃ© ia
Ġb ordo
ĠBar Ã£o
ĠO h
S C
it ante
Ã¢n icos
Ġadic ionais
ĠG et
ĠC B
Ġinst ru
Ġna z
ĠX II
Ġf irm
Ã¡c ulos
ĠMi randa
Ġpot Ãªncia
um ental
en berg
un k
d iÃ§Ãµes
ĠN ik
Ġar rec
ĠD am
ce ae
id el
ĠJo hann
ĠYo ung
ĠN ig
Ġposter iores
il ares
Ġcapaz es
ĠP ela
az a
J os
ĠRe present
Ġapaix on
B retanha
Ã³l ico
ĠIngl Ãªs
h ist
Ġevent ualmente
Ġins c
Ã¢nc er
ĠF red
ĠM estre
if orme
ĠCom itÃª
ĠAc t
Ï Ģ
ĠV at
Ġcent enas
rÃ©s c
Ġret rat
Ġdist ingu
Ġdes m
ĠFor Ã§as
Ġdescob re
h at
ĠJ am
ĠR amos
Ġpro postas
ĠCon hec
Ġexc ent
R J
ÃŃm etros
ĠÃ³r bita
Ġprob abilidade
ĠG ard
ro me
ĠT av
ĠV argas
Ġcam ada
Ġrelacion ado
Ġat ras
Ġinv erno
ĠCar n
Ġlat eral
Ġviv em
Ġvant agem
h ol
Ġn erv
Ġh arm
Ġcorre to
cri pt
ĠEsp anh
Ġpopul aÃ§Ãµes
ĠN i
met ragem
ĠV in
C or
ĠJ uventude
ro z
Ġab rang
Ã± a
t adas
ĠC ov
ĠU F
Ġmot ores
Ġd urou
as a
ul ados
pos t
Ġforn ecer
imar Ã£es
ĠM Ã©dia
Ġdec isÃµes
Ġimp Ã©rio
Ġfunc ional
ĠHol lywood
P T
ĠAmaz onas
l ot
Ġa Ã©rea
ip os
ĠB os
ĠEl iz
Ġvel ha
Ġreligios as
via Ã§Ã£o
Ġmat a
ĠSc i
ug ar
Î »
j ac
Ġdispos itivos
Ã³ x
fe ita
Ġdesenh os
Ġlarg ura
Ġper igos
Ġt iver
en es
Ġrec urso
ĠPou co
ĠhipÃ³t ese
Ġan Ãºnc
Ġvari Ã¡vel
ĠvÃŃt ima
f ar
ĠL este
vel mente
ĠAc red
orr Ãªncia
Ġdetermin ar
S al
Ġapar Ãªncia
Ġsol ar
ĠV ar
Ġapresent aÃ§Ãµes
Ġan f
Ġ192 5
Ġbel eza
Ġaprend iz
er i
ÃŃt icas
Ġf ases
ĠD or
her e
ĠNeg ro
ĠinÃºm eras
ĠLit eratura
ĠV ietn
Ġreligios os
Ãªnc io
Ġ6 4
p in
Ġmens agens
f am
ĠL ula
id ou
Ġconserv aÃ§Ã£o
Ġlo ja
ĠPalm eiras
m ore
form as
Ġcaus ou
m ica
ĠN am
Ġf est
Ġcorrespon de
Ġb rilh
Ġpag ar
Ġinaug urada
C ap
he u
Ġdeclara Ã§Ã£o
Ġpud esse
ĠcÃ´n sul
ĠF Ã¡b
Ġcontribu iÃ§Ã£o
Ġcar gos
Ġdest aca
ĠlanÃ§ ados
panh as
Ġdedic ado
Ġenfrent ar
Ġexcent ricidade
ĠE c
ĠOl imp
iz adores
Ġport al
ĠCons erv
Ġace ita
Ġaborda gem
ĠCan Ã§Ã£o
ĠB rad
Ġperman ente
ĠTom Ã©
Ã§amb ique
ost on
Ġarg umento
ĠOx ford
Ġre iv
Ġconst elaÃ§Ã£o
ĠF is
Ġ5 9
ĠâĨ Ĵ
) ",
m el
Ġb aixas
Ġ0 8
tura s
M y
if a
Ġsal as
Ġcoleg as
u as
ĠL as
Ġvia gens
Ġcust os
ĠDu arte
Ġtri nta
ourn al
g ado
Ġg osta
Ġcl ÃŃn
ra qu
Ġc ertos
iv ar
Ġfic am
Ġpubl icaÃ§Ãµes
Ġ19 11
ĠL ut
Ġdisc ussÃµes
ess as
ĠRos s
ĠCO N
r Ã³p
ĠS ir
ĠMar io
Ġafirm ando
gan Ã§a
ĠP adre
ĠG all
Ã§ ando
Ġpr ivil
Ġprop Ã³sito
Ġpont uaÃ§Ã£o
Ġelev ada
ĠLu a
ĠB ase
ĠCar doso
Ġevid Ãªncias
Ġ192 1
ĠRel aÃ§Ãµes
20 18
Ġeleito ral
Ã¢m ico
i rou
Ġren unc
rav am
Ġemp ate
uven il
ÃŃ zes
ĠRep ublic
ec om
Ġassoc iados
Ġ5 1
Ġcast elh
Ġper dendo
ocra ta
p an
ĠM ess
Ġp av
ĠAf ric
Ġp etrÃ³leo
Ġeg ÃŃp
Ġenc om
Ã³p teros
Ġf ec
ĠP u
ÃŃn ios
our t
ĠFri ed
Ġn eu
Ġproduz idos
P l
il lo
Ġconf ianÃ§a
Ġs ites
Ġneg ros
ĠJer us
sex ual
Ġcanad ense
ce pt
Ġaltern ativas
I s
Ġal iados
Ġaj ust
Ġreg ionais
ĠLibert adores
em y
Ġd rogas
Ã´m ico
ĠB BC
Ġconhec e
Ġcoloc ada
Ġvari Ã¡veis
Ġd an
Ġt endÃªncia
ĠM ano
Ġch uv
Ġab rir
Ġpa in
Ġmontanh as
ĠB rig
ĠF ÃŃsica
sc he
ĠS Ã©
ora da
ĠHol anda
Ġre voluÃ§Ã£o
Ġ19 00
Ġint eiro
Ġinf in
Ġmant endo
Ġcon g
red ores
Ġferram enta
ĠA ud
ĠV elho
Ġdesc ul
ĠHist ory
Ġhid rog
Ġdescob rir
Ġdisput ado
ĠIl l
Ġha ja
Ġand ar
Ġjapon eses
Ġter iam
P er
o o
ĠN atural
Ġter mina
Ġprov en
Ġopera cional
Ġrevol ta
Ġidio ma
Ġm apa
ro b
Ġpou ca
Ġrad io
ĠDire itos
ĠT ony
est ar
Â» ,
ĠBel Ã©m
Ġrecus ou
ch en
b an
ä ¸
Ġcomp rov
Ġc ro
ĠTor res
ĠAbra Ã§os
Ġno tor
T ube
ĠI sa
ĠH ugo
Ġdef ic
ĠP io
ĠN eto
ur no
Ġ0 7
Ġt io
el ar
Ġexpl icar
Ġpriv ada
Ġenvol ve
Ġp ior
Ġd ÃŃ
Ġtaref a
Ġconsc iÃªncia
ĠâĢ ĭ
ĠFranc Ãªs
Ġl itoral
Ġna ve
ĠGu imarÃ£es
Ġdisput ar
ĠPhil ip
ĠSt one
ĠWik idata
Ġs essÃ£o
em an
Ġext ernos
ĠIn ic
ĠCruz eiro
Ġdestru iÃ§Ã£o
Ġopin iÃµes
Ġnos sos
C al
Ġg osto
ĠAr ch
Ġconsidera r
pr Ã©st
re at
ĠB em
Ġfam iliares
ĠEx ecut
ak i
ĠCons idera
Ġf ator
ĠBra z
Ġcorrespond ente
Ġ192 3
ĠFoot ball
ro t
Ã¡s ia
Ġc itado
N a
d ica
ĠBern ard
Ġmont anha
ro nto
ĠFo und
Ġretira r
Ġat leta
Ġemb aix
ĠestratÃ©g ia
Ġf asc
ĠV III
enc iamento
ĠAc ho
est ino
ĠB is
Ġhab ilidade
Ġind icaÃ§Ã£o
Ġf Ã³rmula
Ġcert as
Ġab st
ĠBar ra
ĠCap ital
Ġcaus ar
ÃŃ qu
ont o
enc iado
ĠHot el
S tar
ran a
Ġdes per
Ġunivers idades
Ġna o
ĠHar ris
ĠY our
Ġescol her
ĠRad io
ĠOpera Ã§Ã£o
Ã³qu io
b le
ĠMar ques
Ã© us
o x
Ġprot esta
Ġmu da
ĠSam uel
Ã³g io
Ġpr ision
Ġconstitu iÃ§Ã£o
ĠT udo
orre ntes
Ġadic ional
199 2
ĠVi ena
Ġestabel ecimento
lig aÃ§Ã£o
w er
id aÃ§Ã£o
s ub
f os
er ca
ĠP R
ĠÃ¡ l
Ġem oc
iz e
Ġcont am
Ġab ast
Ġart ific
Ġcas ada
Ã´n ios
Ġsex to
P ol
Ġcap it
Ġneg ro
Ġlut ar
Ġsu pl
Ġestud ante
ĠHel ena
Ġdesign aÃ§Ã£o
ĠH ans
ron s
Ġneg Ã³cio
ĠprÃ³xim as
Ġretorn ar
Ġtraz er
pira Ã§Ã£o
ĠLew is
ĠV inc
Ġreg ress
ĠCam ar
gu eiro
ĠGe Ã³rgia
ĠVerm elho
ĠG ama
Ġmod ernos
Ã³d ulo
Ġf ib
Ġcu jos
ĠS BT
ĠP ost
iv ado
Ġintern o
Ġc iÃªncias
A nd
ĠXI V
Ġest rÃ©ia
Ġag Ãªncia
Ġcient istas
Ġperspect iva
Ġdet ect
Ġsint omas
ar ias
Ġl us
Ġb en
ĠSe x
Ġbr inc
ĠA P
ĠF ase
Ġpar edes
Ġmagn itude
ĠJun ior
ĠMicros oft
Ġmarc as
ĠMo Ã§ambique
Ġsur pre
p ha
Ġpredefin iÃ§Ã£o
eg ro
ĠDeput ados
Ġdirec Ã§Ã£o
Ġdim ensÃµes
Ġmediev al
ĠRel ig
os h
Ġestabel ecido
Ġpag amento
ĠAg Ãªncia
w art
Ġcompre end
Ġnucle ar
p son
it udes
M E
l fo
Ġpar ede
ĠBra ganÃ§a
Ġcaval o
Ġperman ece
ĠGovern ador
Î º
Ġpass am
Ġcirc uito
at Ã©
Ġconc eb
ĠYou Tube
L A
Ġcont er
ĠCol umb
Ġmo da
Ãº jo
ĠF ic
Ġfaz enda
Ġconsidera das
Ġinim igo
Ãº rb
E mb
Ġcin emat
Ġo per
Ġpens ar
Ã© e
ĠM Ã¡r
Ġest ilos
Ġz ero
ĠNet work
Ġpeix e
Ġsubstitu ir
i ed
Ġinic iais
rÃ©sc imo
Ġpro gress
Ġt era
Ġcam peÃ£
Ġde ram
Ġpropriet Ã¡rio
rit as
Ġgu ard
Ġident ificaÃ§Ã£o
ĠBranc a
Ġfac uldade
Ġrefer ido
ĠSÃ©r via
Ġf eliz
Ġb ur
Ġeta pas
ĠS ÃŃria
Ġm ental
ĠC ord
ĠP ublic
Ġfil os
Ã©r sia
rat ivos
Ġcirc ulaÃ§Ã£o
e qu
esp Ã©c
il ho
om os
ĠÃļ lt
ĠF aixas
Ġm ando
Ġir reg
Ġcel ular
Ġv ento
Ġcont as
Ġocorre ram
ĠF orte
Ġconfirm ou
Ġmar ÃŃt
199 4
ĠfenÃ´m eno
isc os
ĠLegisl ativa
Ġpro jecto
z as
Ġfund adores
Ġvoc Ãªs
Ġsepara Ã§Ã£o
Ġintit ulada
Ġgovern os
ĠL og
ĠF ord
Ġper fil
ĠAra Ãºjo
ĠK id
Ġv inc
ĠD eb
Ġrecup eraÃ§Ã£o
Ġs um
oc rat
ĠAs h
Ġcul to
k h
ia ntes
at em
Ã³st ico
Ġequil ÃŃbrio
ĠM id
Ġp asse
Ġexerc ÃŃcio
art h
Ġcomum ente
ar de
ĠA j
Ġman ip
Ã³ b
e taÃ§Ã£o
N ova
ĠEs pera
Ã¢m etros
Ġgrav ada
ĠSim on
Ne w
Ġs ÃŃ
iv eram
Ġinc ap
Ġcompost os
ĠP D
Ġreb aix
ĠSecret Ã¡rio
ĠPesqu isa
Ġt rama
Ġinteg raÃ§Ã£o
Ġgra us
il v
ĠC E
ĠB ert
ĠmÃ¡qu inas
gues ias
Ġintelig Ãªncia
ĠM agn
ou ri
ĠJerus alÃ©m
c or
ve ja
Ġamb ient
I O
ĠN um
ed y
ĠPubl ish
Ġt um
ĠC art
ĠCl ara
Ġf Ã³s
Ġrepresent ou
Ġreduz ir
Ġsu port
Ġarg umentos
Ġdeput ados
Ġc Ã©u
eb re
ĠAl t
Ġseg ura
ĠBo y
Ġ= >
cam peÃ£o
ĠStud ios
Ġ" )
ĠN ar
Ġab ord
ĠLig ht
ĠCO VID
h ip
Ġde pressÃ£o
Ġb ic
c ios
ĠG as
ros a
ĠI X
Ġcaus as
ĠHa w
Ġre is
Ġl hes
Ġcultura s
ro w
ÃŃl ica
Ġpesquis adores
Ġaf lu
Ġtransform aÃ§Ã£o
ĠCamp inas
rop ical
Ġm undiais
ĠT ib
iform es
ĠâĢĭ âĢĭ
R ev
Ġenvolv idos
Ã¡ gua
Ġdes v
ĠRen ato
k ov
ĠT on
Ġnotor iedade
Ġpro emin
Ġurb ano
Ġcoloc ados
Ġb ras
Ġconv ert
f ia
Ġinter med
Ġf achada
ren Ã§o
Ġest aria
Ġcar deal
Ġreal iza
Ġab und
ĠGro up
ul Ã¡rio
Ġconstitu em
empl os
ĠÃ©t n
ĠR uss
Ġst atus
Ġap rec
Ġd ign
ĠC N
Ġpropag anda
Ġt ese
ĠComun icaÃ§Ã£o
ex o
D E
Ġa nte
ĠT ai
Ġinflu Ãªncias
Ġapren der
Ġestre lado
ĠCast ela
Ġtelenov ela
el d
E nt
ul aÃ§Ãµes
ĠEs pa
ĠWik imedia
Ġdig itais
r Ã´n
ĠP av
Ġalg orit
ĠY an
Ġpeix es
ort es
ug os
ĠMu ito
Ġconquist ar
Ġbranc os
Ġpatro c
man da
via mente
ĠOce ano
idad a
Ġdesenvolv ida
ĠReceb eu
ĠF ez
Ġinic iar
ĠPl ano
Ġdispos itivo
or idade
Ġcor oa
ĠH ard
Ġnot ÃŃcia
ĠB elas
Ġassoc iada
ig aÃ§Ã£o
ĠN uno
Ġext inta
Ġmol Ã©c
ĠS pe
ĠFilip inas
Ġsur ge
Ġrevel a
Ġenfrent ou
Ġjog a
ach ar
l og
Ġ19 15
ĠInv est
Ġg anha
Ġaqu is
Ġho tel
Ġcomb inaÃ§Ã£o
Ġrit mo
id entais
ĠM am
Ġcat Ã³lica
Ġvaria Ã§Ã£o
ĠCo elho
S uper
ce p
I P
ar is
raf os
ĠB ulg
Ġb i
Ġcal endÃ¡rio
Ġdirig iu
Ġrus sa
ĠSy stem
Ġ5 3
ĠK ir
Ã³p io
alh Ã£es
f or
pl ay
ĠEst ou
Ġre le
ĠMad onna
ĠPont a
Ġteor ias
ĠAl ice
ĠH ero
Ġperd ido
Ġimped ir
g Ã¡
Ġclara mente
ĠM apa
ĠRe b
Ã³r ida
ĠZ Ã©
ĠCamb ridge
Ġnot Ã¡veis
rag on
il hos
ĠCom ics
ĠPra ta
Ġadqui riu
Ġcas ar
ĠGost aria
ĠM eu
ĠCo op
Ġe ixo
Ġent idades
ĠNic ola
N O
il de
Ġap art
Ġ5 4
Ġrepresent am
c ent
er d
om Ã©
Ġman usc
ic on
la h
ĠPro p
Ġf lex
ro mo
Ġass istÃªncia
Ġm orta
Ġin ativa
Ġ5 6
ĠEd itor
Ġtermin ar
Ġc Ã¢ncer
j Ã¡
Ãº p
ĠB oston
ang er
ess es
ĠTra duÃ§Ãµes
Ġpovo ado
Ġatmos fera
m al
ĠA zevedo
ĠBo ta
ĠHit ler
Ãªn is
Ã¢ng ulo
it Ã³rio
Ġmost ram
ĠL en
Ġforn ece
Ġdo no
r Ã¢neo
Ġdiv isÃµes
ig an
ĠT ob
ĠB ir
Ġext inÃ§Ã£o
ĠÃģ rea
Ġle ve
ÃŃ adas
Ġresta ura
Ġclassific ou
ĠE ast
co ol
pl as
H e
i ras
z ar
Ġna Ã§Ãµes
Ġm ural
ro und
ÃŃn ia
20 19
it aram
ĠS of
ĠM P
ial mente
ĠDav is
Ġace itar
Ġfran quia
Ġac ervo
Ġprov Ã¡vel
Ġrecom enda
b rasil
Ġrep orta
ĠAt enas
Ġsuc edido
ĠtÃ©cn icos
Ġeuro p
Ġsub ord
des ambiguaÃ§Ã£o
Ġpor te
Ġtecn ologias
Ġconclu iu
an na
Ġem prÃ©st
ĠS T
ĠB est
int endo
Ġident ificar
Ġpol iciais
ĠSupre mo
Ġra ÃŃzes
Ġtur ismo
ĠComun ista
Ġestat uto
ĠR ac
Ġdestac am
Ġ ras
ĠD O
Ġhistori adores
ĠB rand
Ġtent ativas
ĠLou renÃ§o
Ġ orn
man os
Ġexpl ica
Ä ±
Ġsubstitu iÃ§Ã£o
ĠAnt h
Ġon ze
Ġhom os
ĠV illa
Ġ8 5
ig i
Ã Ĺ
ĠCom Ã©rcio
Ġorig ens
ĠM and
ĠF ons
Ġsim bol
Ġn ele
Ġsal var
199 3
ĠIra que
Ġp andemia
Ġcompre ensÃ£o
ĠC ax
ĠB omb
ĠT u
Ġrecom end
id ge
ĠEqu ador
ĠEliz abeth
Ġv ias
ĠB ispo
ĠF antas
ĠMa ia
ĠR ita
Ġequ aÃ§Ã£o
ĠgalÃ¡x ias
Ġfo c
Ġ Ã³t
Ġdo ce
ĠAm ericana
ĠOr ch
Ã¢n icas
C an
Ġap ost
Ġcole ga
ĠD iocese
Ġfam osos
Ġcandid atura
Ġhuman idade
Ġconc ordo
ĠespecÃŃf icos
ĠNapole Ã£o
Ġ ia
Ġpergu nta
Ġm orrer
Ġfam a
Ġeletr Ã´nico
l av
Ġc ub
Ġt ensÃ£o
ĠF ront
Ġ190 8
Ġg in
rÃ¡f icas
Ġf estas
ut u
if ÃŃcio
D es
Ġf iscal
Ġb ast
Ġfund os
Ġan ualmente
Ġres sal
ĠEx iste
Ġconj untos
ĠB ak
ri e
R eg
Ã³r ter
ĠSer ies
el i
fer m
Ġ6 00
FF FF
Ġ25 0
ĠSpec ies
Ġ Ãªx
ĠN unes
ĠW restling
Ġcontro lar
Ġpres os
Ġapo iar
Ġim pressÃ£o
ĠTempo rada
Ġv entos
ĠFac ebook
Ġaux iliar
Ġde mo
Ġs ig
ce pÃ§Ã£o
Ġastero ides
Ġdit adura
Ġacont ecimentos
ĠGo od
ĠGiov anni
Ġsuger e
Ġpil otos
Ġavi Ãµes
Ġarg entino
Ġsoc i
ĠBol ÃŃvia
ĠC ob
Ġcomp ar
Ġd orm
ĠB rian
ĠD il
Ġqu ente
ei Ã§Ãµes
ĠMor eira
ĠRog er
ĠConfede raÃ§Ã£o
in st
ĠC ou
Ġan ime
ĠMont eiro
elh eiro
Ġescrit Ã³rio
ÃŃl ico
ag ar
Ġnome aÃ§Ã£o
Ġmun icipais
il Ã¢ndia
Ġap ropri
Ġdep ende
Ġconstitu ÃŃdo
Ġens in
Ġelimin ado
ol do
Ġnecess Ã¡rios
ag on
Ġres tos
Ġdedic ada
da y
in ia
Ġass inado
isc onde
ĠBro ok
M elhor
à ¸
ĠNo ite
ĠBota fogo
ol os
Ġar cebispo
ĠR ou
ĠEs qu
one y
Ñ ĥ
Ġ( )
Ġrelev ante
ĠUsu Ã¡rio
io la
era t
Ġcomp at
Ġcl iente
ĠL oc
Ġenc arreg
wik ipedia
v id
ik o
ĠhÃ¡ b
Ġenciclop Ã©dia
Ġmes a
Ġdef endeu
Ġren d
Ġdesign ado
Ġtira r
ĠP etro
ĠDu as
Ġa ula
m issÃ£o
Ãº ria
ĠTelev isÃ£o
Ġmec anismo
Ġaliment aÃ§Ã£o
ĠÃ¢ ng
ĠsÃŃmbol os
ĠCap it
Ġs ant
Ġv amos
P al
ĠTur ismo
ĠConstantino pla
Ã³n imo
ĠFl Ã³rida
Ġprat ica
ĠRob in
ĠDom ingos
ĠCon ferÃªncia
ĠQu atro
r indo
Ġal ma
ÃŃss imo
Ġinterpre tar
ĠGr Ãªmio
Ã©d ios
ĠR ick
Ġesport es
O n
ro co
Ġj a
ific ador
ĠJac ob
Ġce do
o te
Ġo vos
ab le
Ġquad rados
Ġrevel ado
Ġfo gu
ei g
ĠR ol
rat ivo
um i
Ġque im
ĠL av
Ãº lio
Ġest amos
ĠAl ta
ĠMate us
Ġdout rina
Ġextre mo
Ã©m ica
ch es
Ġdiscut ir
Ġp ico
ribu iÃ§Ã£o
ĠAnd erson
Ġital ianos
Ġconv ite
ĠCol e
ĠMus e
ĠMunicÃŃp io
Ġmo eda
Ð ²
ĠAn na
gre d
ĠpartÃŃc ulas
eg an
Ġesc reve
oc as
p y
Ġtermin al
Ġcap ÃŃtulos
ĠTe ve
Ġde manda
ĠB air
ĠCar lo
Ġpe de
Ã¨ re
Ġprofund idade
cr Ã¢nia
Ã³ ide
Ġch Ã£o
ĠW P
Ġpre n
gl as
Ġol ho
Ġsignific ativa
ĠL ac
Ġrecup erar
Ġ19 16
Ġsitu a
M us
era da
ĠPesso a
ĠArt igo
ĠS ar
co pa
ug e
Ġcam panhas
Ġdire cion
ĠR ui
ĠCh art
ĠDent re
B o
du aÃ§Ã£o
Ġganh ando
Ã©n ia
ĠP ad
Ġab ol
ntes e
ĠMag alhÃ£es
ĠAz ul
Ï ī
Ġg r
ĠFranc e
Ã¡r qu
Ġfil has
Ġconv idados
Ġvig or
P o
P ed
Ġsucess os
ĠAl an
ĠMe io
da Ã§Ã£o
Ġpo ema
ĠNo ta
Ġ189 0
. ),
Ġpat rimÃ´nio
Ġpresid encial
Ġconex Ã£o
pos tamente
Ġcl im
el ado
ador ia
ĠU A
ĠPl an
MD B
Ġescrit ores
k an
Ġpre f
Ġlat ino
ĠB et
Ġam izade
Ġdesc endÃªncia
199 0
Ġc os
to p
ay a
Ġg rÃ¡fico
l iv
Ġv ing
ĠV Ã¡rios
Ġpossu ir
Ġcontribu ir
tu res
Ġcri adas
ia nt
Ġt ras
Ġcri ador
ĠFons eca
it Ã©
Ġon das
Ġsub sequ
Ġinclu ÃŃdo
ĠFilm ografia
Ġag ress
Ġinteg rante
Ġda qu
ĠO d
ĠCar ol
Ġis l
Ġcam peÃµes
AS A
Ġfinanc eira
Ġm Ã¡g
ĠC ount
Ġrel atos
Ġins criÃ§Ã£o
ĠF ight
Ġquais quer
Ġro ta
Ġlig ada
ĠV iv
g overn
do x
Ã¡s io
Ġunivers al
ĠTer min
Ġinterval o
r s
ĠC asc
ĠB anda
ĠV il
ĠAlf redo
us Ãµes
Ġpol it
ĠP ho
ÃŃ sa
ĠM ix
Ġcol oca
Ġinclu iu
Ġco d
Ġda quela
Ġterrit orial
r icaÃ§Ã£o
ĠF ora
Ġgrav ar
U R
Ġqu ero
Ġata car
Ġconc ep
Ã¢ne os
d ist
ĠA C
d ig
s ky
Ġconf ronto
Ġadminist radores
Ġprocura r
iz ava
Ġvis itantes
ĠNasc imento
mira nte
Ãº ne
Ġencont rava
Ġmorre ram
Ġjust ific
Ġt ort
Ġpl aca
Ġmec Ã¢nica
Ġac erca
ĠNev es
Ġbio grafia
ĠS har
Ġdef ende
Ġespanh Ã³is
ĠL and
Ġpron unc
Ġorgan izar
Ġlut as
ĠinÃºm eros
Ġs inc
ĠC ategoria
Ġcont ava
era dos
ro cos
ist ente
ĠfilÃ³so fo
S E
ĠN intendo
Ġocup ou
ĠA qui
Ġcarb ono
Ġparticip aÃ§Ãµes
ĠU crÃ¢nia
Ġinterpre tada
ĠP ert
on esa
Ġconstru iu
Ġpermit em
Ġv ent
ĠOr qu
Ġel ite
ĠB erg
Ġatu ando
Ġprecis am
ĠG in
ĠPara na
Ġrespon der
ra ph
Ġaust rÃŃ
Ġsuc essÃ£o
D O
id iano
Ġal ianÃ§a
Ġ8 00
Ġprec ip
ĠSa ud
Ġcontro v
Ġdo b
Ġes co
ĠFo to
Ġop Ã§Ãµes
Ġinaug uraÃ§Ã£o
ĠClÃ¡ udio
u ki
ect ion
Ġdec is
ĠLeon ardo
Ġreform as
ĠIndepend Ãªncia
ĠincÃªn dio
ĠQu int
Ġsurg imento
ĠB ag
Ġat ender
... )
Ġtro c
Ġinspira do
Ġfilm agens
ĠP ovo
Ġcam peonatos
Ġcam isa
Ġaf ro
Ġimpress ion
ĠS ic
ĠBill board
htm l
Ġver ificar
ĠdÃ©c ima
ĠLu x
Ã¢ne as
Fl ora
ĠJ ogo
ĠAnt ec
Ġsing les
Ġpar Ã¢metros
ab o
ĠG P
ĠD ream
ĠK en
jet Ã³ria
Ġdiz em
Ġtermin ando
ĠHer m
ĠSteph en
Ġn ut
ĠEx press
ĠmÃ©d ica
ĠIn don
ogrÃ¡f icas
Ġguer ras
Ġl ider
Ġpro met
ĠE duc
Ġmet e
Ġorden ou
Ġwikip Ã©dia
Ġr ica
Ġreconhec ida
ĠJa ime
Ġterrest re
Ġreconst ru
Ġint eraÃ§Ã£o
Ġofer ecer
ĠAg ost
Ġc Ã¡
Ġque bra
ĠForm a
Ġpo emas
Ġesc av
Ġinspira Ã§Ã£o
j ust
Ġnome ou
Ġdepend endo
I l
Ġj uÃŃ
Ġprim o
Ġofer ta
Ã¡r b
Ġconf usÃ£o
ĠTh om
ĠLor ib
Ġespect adores
at Ã³rios
Ġb acia
Ġnecess Ã¡rias
l en
Ġpod iam
Ġat iva
ĠF r
Ġinter face
ul b
tion s
Ġcrit Ã©rio
re iros
Ã§ adas
Ġb ons
Ġperc urso
Ġveg etaÃ§Ã£o
Ġprol ong
ĠGust avo
Ġquin ze
B e
es pera
ĠV iol
est ina
iam i
ĠIr Ã£
ĠEl imin
Ġcost as
ĠestÃ¡ tua
ĠcatÃ³l icos
i ense
Ġlig ados
Ġacont ecer
Ãªme as
Ġ igu
Ġles Ã£o
if t
ot h
Ġobserv aÃ§Ã£o
Ġmatem Ã¡tico
ĠS av
ĠF ire
ren s
ol ia
Ġac ert
ĠIn ÃŃcio
Ġeuro peia
-- --
ran Ã§a
arc ial
Ġacus ado
ÃŃfer os
res sÃ£o
ĠWW E
ic es
Ġperman ecer
ĠlÃŃqu ido
im undo
ura dos
Ġcu idado
Ġbra Ã§o
Ġcor rupÃ§Ã£o
Ġdout orado
u is
ĠBro ad
Ġcob re
Ġlim itada
Ġm inhas
eir ista
ĠMano el
Ġm ission
Ġpre Ã§os
Ġgrat u
Ġrece pÃ§Ã£o
Ġcol Ã´nia
Ġ5 7
Ġpont a
ĠC oraÃ§Ã£o
Ġme us
Ġtemperatura s
A p
Ï ħ
Ã©re bro
Ġrepro duz
adre z
Ġrodo via
I t
Ġresult ando
Ġtrib o
Ġabsol uta
Ġn ativa
nasc ido
ĠP eix
om ot
ev in
Ġamb ientes
Ġ190 6
ĠTw itter
U L
ĠMar vel
Ġplata formas
ĠD ol
ĠG ib
Ġtra diÃ§Ãµes
Ġinic iada
Ġdom ingo
ĠR TP
Ġma jor
Ġpac iente
on f
Ġfinal idade
ent u
ĠA L
Ġav anÃ§o
Ġescol ar
ĠInform aÃ§Ã£o
Ġouv ir
ob a
Ġintens idade
Ġincl usÃ£o
ĠU l
anc ip
Ġdever Ã¡
ĠEx emplos
os c
Ġb oca
ĠS pr
ĠAss is
Ġfront eiras
Ġcard ÃŃ
o j
Ġen sa
Ġdestac ou
Ġcaval os
in gue
ĠCon go
Ġb ru
Ġtem por
ugu Ãªs
Ġcaus ando
Ġv apor
ĠT es
Ġch uva
ĠaÃ§ Ãºcar
Ġmec an
Ġmanifesta Ã§Ãµes
Ġl ux
ĠT Ã³quio
Ġb ÃŃbl
ĠPro gram
ĠM ant
Ġest radas
Ġconhec imentos
Ġmod alidade
Ġen x
Ġescrit as
ro duÃ§Ã£o
ĠM ik
ĠEn viado
Ġbl og
UC N
ĠS ete
im ir
ĠM Ã¡
ĠM ata
ria no
Ġres s
Ġtransfer ido
Ġdiscipl ina
qu istÃ£o
Ġrepresent ado
ĠMat t
Ġaument ou
al ho
ĠT oc
Ã³g icos
Ġsol uÃ§Ãµes
Ġexp ect
ĠWol f
Ġpar ecer
port iva
d ie
ĠB our
Ġpo bres
Ġdes ist
Ġag rup
Ġcombust ÃŃvel
ĠD os
Ġpos t
Ġacresc entar
ĠC av
ĠB ac
Ġc adeira
Ġpar es
ĠCl ar
Ġrev is
199 1
Ġchin esa
ÃŃ amos
ĠPrincip ais
nc o
ĠTe od
Ġsubstitu indo
Ãºc ho
St ation
m us
Ä į
er es
ĠPed ra
Ġverm elha
Ġexcel ente
ĠespecÃŃf ica
anal to
v endo
ĠK al
ĠAre na
ĠIv an
ĠsÃ©t imo
ri p
ĠDes emp
Ġconsider ou
im inal
Ġpro clam
ing en
ĠA h
Ġat itude
Ġindic ada
ĠindÃŃg ena
F ranc
ac tos
Ġentre ga
Ġass ent
Ã©r s
ĠP as
ĠCa etano
plan ada
Ġre ta
Ġeletr Ã´nicos
ĠW ell
Ġsab ia
ĠCh eg
Ġdef ine
ist ro
Ġexist ia
ĠAst ronomia
Ġmon umento
M ed
Ġparticular es
ĠEn redo
Ġl as
Ġatac ante
Ġc ine
ad eiro
Ġg ab
ĠM ud
ĠMin eiro
ad j
Ġespecial istas
Ġef ica
ĠM is
ĠM acau
ĠH unt
Ġfal ando
r imin
Ġcorr idas
Ġnegoc iaÃ§Ãµes
C D
d eias
Ġh i
ĠCh ico
Ġwikip edia
d amente
Ġped ras
ĠCent er
Ġcastelh ano
Ġde mit
Ġcont ando
Ġam ist
ĠFil me
ĠIs l
Ġespecial ista
Ġsom a
Ġm ara
ĠA BC
abel as
Ġse v
ĠF ra
ĠCl asse
Ġco inc
Ã³g icas
Ġâ Ī
ĠDou tor
ĠJ ane
ĠU R
ĠCor onel
dut or
Ġderiv ados
ic ados
Ġcom ida
Ġcol or
Ġprepara Ã§Ã£o
Ãºm ulo
t is
Ġvirt ual
Ġj am
Ġed itado
ede u
ro na
ĠC ec
ĠR E
c ur
ĠC ategory
Ġdivers idade
Ġvi eram
ĠT ok
Ġass ume
Ġtec ido
Ġr ico
Ã©n s
Ġeletr Ã´nica
ĠExt ernas
Ġdem ocracia
Ġser iado
ĠCrist ina
Ġd Ã£o
ĠA y
Ġda tas
ĠK ent
ĠMet ropolitana
ĠNasc ido
. âĢĿ
te u
ĠUn iverso
Ġmarc ando
Ġconden ado
ĠV ou
Ã³r icos
Ġestabel ecida
Ġpre en
Ġ190 5
Ġtaref as
Ġintelect ual
ĠDou glas
ĠHum an
qu ita
ĠJ enn
Ġl istas
Ġatribu ÃŃdo
Ġbanc os
at ou
Ġex posiÃ§Ãµes
Ġrepro duÃ§Ã£o
Ġpublic adas
Ġequip as
Ġespera nÃ§a
Ġgera r
I G
ĠFre itas
â Ļ
Ġdesc rever
Ġaprov ado
Ġfab ricaÃ§Ã£o
Ġamost ra
greg aÃ§Ã£o
Emb aixada
Ġfinanc eiro
Ġl enda
Ġtrib os
Ġconfig uraÃ§Ã£o
ern idade
ĠAn exo
ĠAst ero
Ġsofr er
Ġenvi ar
ĠM oura
ĠT endo
Ġcont os
Ã³r um
land esa
ĠInf antaria
ĠInter ior
ĠP ires
Ġneg ra
ĠPar te
ĠLocal izaÃ§Ã£o
Ġcu jas
ut i
Ġm i
ou ch
Ġprodut ora
Ġin de
ĠEx pl
Ġdes fil
igu idade
Ġinteg rar
Ġpreocup aÃ§Ã£o
qu ist
Ġm emb
Ġde via
ĠMar ie
Ã³t ipo
Ġprot estos
ul es
Ġcu idados
Ġcrist ianismo
ĠdÃº vidas
ĠSilv eira
ĠM endo
Ġint im
ell er
Ġacred itava
Ġcomprom et
ĠIn dustrial
ĠPen ÃŃnsula
Ġaqu ilo
ĠEp is
ĠP ant
ri ram
ĠI UCN
rav Ã©s
ta is
Ġherd eiro
Ġc il
Ġsu postamente
ĠCh in
Ġ190 9
c ara
ĠT rad
Ã ¸
z inho
os sa
it ro
ĠA R
at ra
Ġvend idos
Ġriqu eza
198 9
ĠParticip ou
Ã į
Ġjunt ar
i Ã§o
ĠA da
av y
% ),
Ġcomp rar
Ġcons igo
Ġr um
Ġol h
Ġquer er
Ġpara r
ĠCirc uito
ĠS n
ĠD J
Ġdes ast
el t
Ġb ac
Ġdem ocrÃ¡
r ul
Ġalc ance
Ġvere adores
ĠV itor
Ġsuje ito
v ias
ĠL ab
Ġpos itivo
Ġmult ipl
P ortal
Ġapar ente
Ġatu ava
sh ire
ora r
Ġdec rÃ©scimo
Ġpro duÃ§Ãµes
x x
Ġsu fic
og en
ira l
Ġs elo
ĠM asculino
era nÃ§a
Ġenvolv ido
on ial
Ġconstitu cional
ĠA N
ĠL P
Ã©l ica
Ġexp orta
ĠA pl
Ġlib eral
Ġsin dic
Ã³ lio
Ġm orf
Ġf el
ian Ã³polis
Ġestud iosos
el m
jet os
u ou
l f
Ġar b
Ġset ores
ĠPat rimÃ³nio
Ġorb ital
ou th
Ġref ug
Ġquad ros
i ers
o Ã§Ã£o
Ġconc erto
t her
Ã³ via
Ġtransmit ido
Ġsu eco
ĠEx emplo
ĠcÃ³p ia
Ġdeus es
Ġaut onomia
ĠEn gl
Ġs h
ha ck
Ġext ens
Ġcorre ta
Ġobserv ar
Ġalte rar
ec os
ĠAntec edentes
ĠcomeÃ§ ando
Ġson ho
Ġplac as
Ġm Ã¡s
Ù Ħ
ĠP ai
Ġran king
ult or
Ġbase ados
ĠCo nte
ian e
Ġ1 10
Am ericano
Ġexc ess
in us
Ġconfirm ado
Ġfug ir
Ġox ig
ĠP inheiro
ĠG h
Ġjog ando
ĠN BA
Ġfaz Ãª
ĠX avier
Ġconstitu ÃŃda
ĠContin ental
ÃŃt icos
ĠPl ane
Ġrelacion ada
o gue
ĠCar o
Ġ190 7
Ġinvest imento
ĠM az
ĠB ry
Ġden unc
Ġace itou
Ġacompanh ado
Ġpret ende
Ġanc est
ĠN Ãºm
Ġtem pl
ĠAmb os
ast os
em e
Ġgen e
Ġtelev is
c ap
ĠK elly
ĠmÃ¡ r
Ġher Ã³i
ĠTest amento
Ġingress ou
Ġm or
C ons
Ġevol u
ĠR ica
Ġest acion
Ġad mira
Ġconstitu i
Ġderro tar
ard ia
ĠCl ark
Ġmant ido
ĠA B
Ġch ance
Ġ5 8
ol or
ĠF undo
et ura
ĠCar naval
ĠBo as
Ġrespon deu
ĠGonÃ§ alo
ĠM ira
ur ch
ĠSing les
Ġimplement aÃ§Ã£o
g i
Ġag l
Ġdirig ida
ab orou
Ġid Ã©ia
ĠPic tures
ĠL ord
ĠTor onto
ĠM ult
ĠL ittle
ĠAm ar
ĠD ifer
ele Ã§Ãµes
Ġexcl u
b ras
ĠD NA
Ġele ita
Ġgo ogle
ĠM etr
erc ial
Ġgol eiro
ue gu
fe ta
Ġtax as
ĠcÃ©l ula
ou ros
Ġdes n
Ġesquer do
Ġfilos Ã³f
ri x
Ġcant ar
ĠFin lÃ¢ndia
Ġis rael
Ġamar elo
ĠC ir
agn er
Ġam iga
ĠFre nte
Ġro da
Ġind ire
Ġman eiras
Jo Ã£o
ugos l
al es
Ġpos itiva
s uc
Ã©n io
Ġas as
Ġconstru ÃŃdos
Ġcoloc ando
Ġdefin itivamente
ĠTro fÃ©u
ĠAmaz Ã´nia
C E
ĠMar cel
ĠestÃ¡ gio
Ġsim ilares
am ina
ĠK on
Ġdesenvol ve
ĠJ ason
Ġac lam
Ġimpos tos
Ġdis posiÃ§Ã£o
ra st
ĠB uc
Ġpes ca
Ġsurg iram
Ġvaria Ã§Ãµes
Ġtestem un
u an
ĠS ky
Ġcoment ou
Ġdistint as
Ġan Ã¡l
in z
ĠT s
Ġfo t
Ġinstal ado
ĠO m
Ġver bal
Ġplanej amento
ĠCome Ã§ou
ch t
ĠCon n
ĠEsc rit
ĠTrans porte
Hist Ã³ria
Ġaquis iÃ§Ã£o
Ġcol unas
Ġ9 5
Ġlon gas
fam ÃŃlia
Ġentre gue
Ġdim ensÃ£o
ĠMill er
Ġredire cion
con hec
Ġproteg ida
ÃŃ gio
ĠcrÃ©d ito
ĠInstit ute
Ġcomb at
ĠDire c
Ġprote ÃŃnas
Ã ļ
Ġ _
and ra
Ġacab ar
ĠRos e
ĠHam ilton
Ġan el
Ġorgan ismos
Ġcirc unst
Ġparticip a
ĠCha p
Ġc itar
ĠD Ã©c
Ġor Ã§amento
ĠAnt igo
ill er
ĠMun ique
Ġgradu aÃ§Ã£o
Ġemerg Ãªncia
Ġb anh
Ġnome ada
p ida
Ġa Ã§o
Ġlider ou
Ġc ÃŃrculo
ad s
ĠS anc
Ġas i
ĠAstero ide
ĠG estÃ£o
ĠAng el
Ġhid ro
ilv Ã¢nia
ÃŃss ima
Ġbus car
ĠF esta
ina e
Ġaument a
Ġcomplet ar
ce deu
Ġimplant aÃ§Ã£o
G en
in dic
ĠD own
Ġrev ert
Ġmarc ar
Ġserv idor
Ãº va
Ġad iÃ§Ã£o
Ġutiliz am
Ġh ard
f ri
Ã¡ quia
iv ada
et ta
Ġit em
Ġorqu estra
ad er
ar ra
ĠEl as
Ã¡b ia
Ġcompos iÃ§Ãµes
vi Ã¡ria
ĠcomeÃ§ am
Ġescrito ra
Ġc anh
Ġc Ã©rebro
Ġ1 000
ĠZ o
Ġindic ar
Am ericana
Ġimposs ÃŃvel
Ġaprendiz agem
Ġ Ø
est ado
Ġjam ais
s ist
Ġb ud
ĠPop ulaÃ§Ã£o
Ġadvers Ã¡rio
Ġderru b
Ġrec on
ĠEle itoral
Ġbloc os
Ġcump rir
Ġm ent
it an
ĠCor r
ĠT ig
je Ã§Ã£o
w eb
ĠN em
ĠEl ect
Ġlim itado
Ġacus aÃ§Ãµes
Ġcul min
D o
Ġv ender
ran ha
Ġafirm aÃ§Ã£o
Ġapos ent
Ġf on
ĠM iami
ĠH art
Ġor i
oriz ont
Ge ografia
S an
h ard
ĠServi Ã§os
Ġv idas
ĠPol it
ĠCas ou
Ġref l
Ġinclu ÃŃa
ĠclÃ¡ss icos
ĠCorre ia
ĠIB GE
Al l
ĠPlay Station
Ġentre g
Ġpros segu
d is
f re
as ter
ĠD et
Ġint uito
Ġconsidera ndo
ĠLiv ros
pp ing
t rans
Ġpro posto
" ?
ĠAndre w
ĠD iscussÃ£o
ĠÃ³ b
' .
Ġseg mento
Ġequip amento
Ġirreg ular
ĠBlu e
Ġfut ura
m m
ĠM ana
Ġexecut ado
M P
ĠD eix
Ġle itor
Ġregist rado
Ġdin amar
t r
in ando
Ġcontinu idade
Ġmo nte
Ġa ve
il at
ĠF ol
ĠMel lo
ĠB ack
Ġg ira
Ġj ardim
ĠV enc
Ġgreg os
est Ãµes
ĠTe oria
Ġdupl o
Ġre man
Ġtrib unal
g Ãªn
Ġmencion ado
Ġc en
Ġâ ľ
ĠagrÃŃc ola
Ġproced imento
ac he
ĠMar sh
Ġ190 4
ĠAbra Ã§o
Ã ¦
ĠEuro pe
Ġcrist Ã£o
ĠSocial ista
Ġadicion ar
Ġf arm
Ġpreserv aÃ§Ã£o
at ch
om an
ĠT emplo
ĠJ ay
Ġat ivos
um in
Ġconst antemente
ĠrÃ¡ dios
Ġocas iÃµes
f an
ĠP IB
Ġmed iante
Ġconsider Ã¡vel
Ġid Ãªnt
Ġespecial izada
hou se
ĠD ark
Ġ190 3
Ġaprov ada
Ġsimult aneamente
Ġa Ã©reo
ĠV era
clu indo
Ġsub espÃ©c
ĠAnt iga
Ġinvest imentos
eliz mente
Ġvirt ude
Ġirm Ã£s
ech al
Ġvag as
P or
198 5
ĠHe art
ĠFre e
ĠP ower
Ġav Ã´
ren se
d al
Ġsub div
Ġtransform ar
Ġapel ido
t re
ĠS O
ĠD essa
Ġat ira
Ġcar ioca
Ġcam adas
ren do
Ġvis ÃŃvel
ĠconteÃº dos
iv es
Ġol har
ĠBen jam
s ito
Ġant rop
Ġcompet iu
ĠcatÃ³l ico
b as
Ġext into
Ġ6 6
ic ando
ÃŃ odo
ĠV lad
Ġ188 9
ĠespecÃŃf icas
ĠO i
ĠJac ques
Ġ %
ĠÃ Ĥ
Ġesc re
ĠÃ¡ udio
Ġcor das
ĠÃģ gua
Ġocup a
ĠO NU
ĠDire Ã§Ã£o
ĠPrinc esa
ĠH or
ÃŃl ios
ĠGal es
Ġretorn a
ĠDec l
j ado
Ġp Ã¡t
ĠB aixo
ev a
Ġmol ec
w ig
Ġinic iado
ĠLib erdade
ĠÃŃ nt
ĠM ec
ĠMat h
g s
ĠG i
ru c
Ġrelev Ã¢ncia
Ġo pon
st rias
Ġna val
z an
Ġrelev antes
Ã© reas
ort os
Ġmil ho
ĠAng ra
ĠS ony
il es
ria m
ab ulÃ¡rio
Ġcontribu iu
Ġtrip ulaÃ§Ã£o
) ".
f ase
Ġp erante
Ã§o is
Ã³r dia
Ġdez enas
Ġcren Ã§a
Ġdupl as
Ġj es
Ġj uventude
Ġj ardas
ru po
ic us
Ġv ivos
ĠMa jor
Ġorgan ismo
ett s
198 7
Ġpersegu iÃ§Ã£o
b our
ĠR i
ÃŃf ica
Ġautor izaÃ§Ã£o
iqu ei
ĠMargar ida
Ġle itores
Ġdesf ile
ass a
Ġesqu ema
Ġfund amentais
Ġfech ado
k list
ĠL Ã©
Ġrec rut
Ġfal ha
ĠEm p
Ġline ar
Ġcont rad
Ġl idar
ĠS itu
if ique
Ġpar Ã¡g
Ġvis ando
Ġregist rou
id en
ĠMil Ã£o
Ġentra ram
Ġenf at
iv id
Ġser t
Ġesc ond
ĠMus ical
ÃŃnd rome
s ing
ĠK evin
20 20
Ġinf l
Ġap re
ud ia
ĠJov em
Ã© le
ĠPro te
Ġdem ol
Ġreun iu
ĠLanÃ§ amento
ĠU ser
Ġros to
ĠIndon Ã©sia
ĠCat ar
Ġocorr Ãªncia
ĠT own
Ġpart iu
ĠfÃŃs icas
ĠOrqu estra
ĠS E
rav o
Ã¡c tica
C P
Ġpar entes
Ġpar lamento
Ġcontinu aram
Ġsubstitu ÃŃda
aran ja
äº º
Ġinterpre tado
ĠColumb ia
uro c
Ã©r pre
ĠAt letismo
Ġder iva
Ġesc apar
ann el
ĠVas con
se a
Ġn ela
ĠB la
Ġnat ivos
ĠPia uÃŃ
ĠtÃ³p ico
ĠS ig
ĠS her
ho p
ĠLago a
Ġje ito
en ed
Ġcor on
Ġrad ical
198 8
Ġvenc edores
Ġt abelas
ÃŃ rio
ĠL ud
Ġin ex
ant i
Ġfre qÃ¼
Ġprojet ado
ĠQu inta
Ġge ogrÃ¡fica
Ġse ca
Ġcomp utaÃ§Ã£o
ac re
ĠH ome
Ġimp rov
Ġcir urgia
ĠBulg Ã¡ria
" (
ut t
Ġh ost
Ġtorn am
Ġaf il
Ġgrav es
Ġum as
ĠOr l
ÃŃ so
il er
ev o
re tos
Ġcal cul
Ġidio mas
l ag
Ġfica va
Ġadequ ado
j an
Ġconc ertos
Ġman gÃ¡
Ġvo os
ĠFinal mente
f ei
Ġampl o
ĠV ig
des ign
ĠAc esso
Ġlit eral
ĠLÃº cio
Ġan arqu
Ġr urais
ĠEn d
Ġdesaf io
ĠÃ¡ra bes
Ġ7 2
ĠNob el
r ÃŃvel
Ġt es
ant is
Ġint ernas
an k
ĠVide o
Ġexer ceu
che fe
ĠVat icano
Ġp ira
ĠEx p
Ġviz inhos
Ġm ix
ĠDemocrÃ¡ tica
ĠT ol
Ġprof issÃ£o
Ġoce ano
Ġcor d
ĠBus ca
orre g
Ġfede rais
Ġselecion ado
oc olo
Ġesc revendo
ĠV ivo
Ġen erg
ĠPat rimÃ´nio
Ġs ons
al to
ĠRe y
ĠÃģlv aro
ĠR iver
rÃ¡f ego
aran i
ĠA Ã©reo
ĠL am
pe de
Ġdecl inaÃ§Ã£o
off s
Ġoportun idades
inh eiros
Ġcompanh ias
Ġentrev istas
og raf
ĠmuÃ§ul manos
ĠLu ÃŃsa
Ġca Ã§
Ġfor Ã§ado
Ġconv en
om em
Ġint eiramente
Ġinclu ÃŃda
Ã¶ r
Ġdestru ir
Ġm ong
le os
ĠGu ad
ĠSu c
ĠMar iana
Ġvot ar
Ġclassific ados
ĠÃ³p era
Ã§ on
ĠI D
ob ili
ĠK y
itar ra
ĠJust in
ĠArqu ipÃ©lago
Ġlar ga
Ġp ura
Ġre port
Ġim per
ĠSt ate
Ġnar rativa
it Ã¡
ĠS ap
Ã¢n sito
ĠGu ard
Ġvere ador
ios as
Ġconst rut
ĠWar ner
ĠS id
ĠMar te
ele ito
ĠVen eza
op her
ard ins
ĠPol Ã³nia
Ð ¹
ĠLe ite
quer que
Ġh ect
Ġlegisl atura
Ġten ente
n as
Ġdecid ir
rop icais
ĠGran des
ĠS emin
Ġv ende
Ġcol Ã©gio
Ġcontra ste
ĠV iana
Ġmen ina
Ġac amp
Ġmov er
Ġre clam
Ġcur tas
ĠBe y
ific ando
ĠCon d
A ng
l it
Ð¸ Ñ
ĠBru ce
Ġencer rou
Ġn or
ĠInv erno
Ġfr uto
ĠR ico
Ġdiv ert
Ġigu ais
Ġc ento
de ram
Ġele itores
ÃŃc ies
ĠLa ura
Ġestrang eiro
ĠC ad
Ġv og
Ġger ou
ĠgÃ©n eros
ĠW in
k t
m ag
om bo
Ġcor onel
rig ht
Ġliter Ã¡ria
Ġsemif inal
Ġabra Ã§o
Ġvandal ismo
ĠEx posiÃ§Ã£o
son aro
Ġessencial mente
ro up
Ġac har
ug aÃ§Ã£o
ĠCab ral
Ð ´
ob ra
ĠP erc
ĠR esta
Ġesc oc
Ġro chas
c y
Ġf ui
Ġtransform ou
Ġno bres
Ġest ende
Ġcontempor Ã¢nea
C H
Ð ¼
ez as
ĠGu y
Ġexpl icaÃ§Ã£o
ĠLin ux
Ġalfab eto
ĠMuse um
ĠCor oa
ĠAust ral
Ġdiv erg
Ġcu rios
Ġdedic ou
ĠTav ares
ent ares
Ġpar ecem
Ġconc essÃ£o
Ġprev isto
ĠEv entos
ĠDi Ã¡rio
Ġde g
ĠO S
ach us
Ġocup ar
ĠSo und
Ġhosp ed
Ã³r cio
as tero
ÃŃ dios
ĠL t
az ine
ĠInt el
ĠanÃºnc io
F or
P P
w o
Ġnecess ariamente
ĠEstre la
r Ã³
Ġpal est
ĠGram my
V A
ĠB ei
n ik
Ġtre chos
Ġ190 1
im ologia
Ġru ÃŃnas
Ġresid Ãªncias
Ġrebel des
M L
ES P
io grafia
ĠM ap
Ġhabit at
Ġmarc ados
ĠRom ana
Ġg an
Ġper igo
Ġ7 8
Ġaux ÃŃlio
ĠDar win
re z
Ġcrist al
Ġind iano
Ġfa Ã§a
Ġacresc ent
im ens
ĠJ ur
qu im
ĠAn ne
Ġpoder oso
Ġartilh aria
Port ugal
ĠDesemp enho
Ġprop Ã´s
Ġvert ical
Ġv itor
Ġca ir
y ch
ĠAm aral
Ġarqu ipÃ©lago
Ġdesconhec ido
Ġm Ã³veis
R ob
Ġsub mar
P res
Ġg raf
Ġib ne
Ġlabora tÃ³rio
Ġa der
Ġprim eiramente
Ġexecut ar
ĠBat t
ĠMora es
p aro
ĠChe fe
ĠMaur ÃŃcio
ĠK am
n s
Ġcient ista
ash i
N GC
ĠD uc
ĠG ordo
ĠAp ple
ĠindÃº strias
ĠMar rocos
ĠMat riz
ĠCax ias
ĠV elha
Ġendere Ã§o
ĠM Ã©rito
Ġres postas
ĠVol eibol
ĠCP MI
ĠErn esto
ĠA nc
in y
Ġingl eses
ĠD ona
ĠJ ournal
ion ar
ĠSt ad
Ġdesenvolv idos
ĠbÃ¡s ico
Ġrele vo
Ġexempl ares
Ġc em
Ġdes cont
at her
Ġat raÃ§Ã£o
"," #
Ġprov is
b Ã¡
il s
Ġh Ãºng
ht t
Ġ187 0
en zo
ap so
ĠMet al
Ġremo Ã§Ã£o
ĠCorpo ration
Ġplac ar
A v
B R
Ã© ias
Ġv inha
ĠSal Ã£o
em pre
ĠRom an
astero ide
Ġhabit ats
Ġgaro ta
Ġg as
Ġlat erais
ĠT i
Ġesc udo
ĠMar s
Ġconf i
Ġinform ou
Ã³d romo
198 3
Ġbranc as
quet ebol
il aÃ§Ã£o
iment a
Ã©t ricas
umb le
Ġcomp rou
Ġprev isÃ£o
ĠDio go
t icas
to ra
ĠeconÃ´m icas
Ġprec isÃ£o
ĠPat rick
S anta
Ġconstru Ã§Ãµes
Ġa x
Ġco gn
Ġf rio
enh as
Ġmen ino
Ġsent ir
l hes
ip se
ĠIn Ã¡cio
Ġpass os
Ġabrig a
Ġpor Ã§Ã£o
Ġh ebra
ĠP ais
Ġcon ferÃªncia
ĠTer rit
ĠS ofia
ĠR J
Ġdist inÃ§Ã£o
Ġrep Ãºblica
Ġdecl ÃŃnio
Ġregular mente
O l
Ġlit era
Å Ł
Ġv idro
ĠAn at
ĠCont ra
Ġperceb er
Ã³s itos
Ġtra jetÃ³ria
Ġconst a
Ġacred itam
Ġparlam entar
it Ã¡rias
ĠAr ist
Ġmost eiro
ĠP ico
Ġvenc endo
r idade
t ual
ĠA D
ĠT ele
Ġmar inha
met ros
er ias
Ġfaz iam
Ã©t rico
Ġlidera da
an de
Ġv istos
ĠEs lov
Ġ189 1
iter rÃ¢neo
s im
Î Ń
Ġobt ido
ĠHou ve
Ġavent ura
w en
ip a
ill y
dic es
ĠDon ald
Ġjud icial
Ġmit ologia
am Ã¡
ĠT rav
Ġrest riÃ§Ãµes
Ġex ame
Ġfic t
Ġsec Ã§Ã£o
ĠBol sonaro
ĠNicola u
f i
Ġs op
j ou
Ġ ida
Ġo i
ÃŃ der
Ġconsidera m
Ġbas icamente
in Ã¡rios
Ã¡st icas
emb er
Ġfacil itar
qu eira
Ġsel v
Ġsobr inho
ĠL abora
ĠD iz
ĠMulher es
ĠBan k
Ġc emitÃ©rio
ĠC ient
Ġrep Ã³rter
ĠCa io
Ġperm issÃ£o
Ġfura cÃ£o
Ġconcep Ã§Ã£o
h em
b iter
te rap
ers a
ĠMar ÃŃa
Ġbater ista
ranc o
Ġfal ecido
Ġes g
Ġap er
Ġtorn eios
Ġrelig iÃµes
ĠRus so
ĠB atal
ĠF all
Ġsignific ativo
ĠAll en
T I
g es
Ġg ado
ĠH amb
M o
r Ã´
Ġ idos
an ge
l is
l ogia
Â ´
Ġl os
ig ual
h um
on do
ĠMar quÃªs
Ġra ramente
ĠtÃ©r mino
p en
ĠFl Ã¡vio
Ġocup ado
Ġpen ÃŃnsula
Ġnobre za
Ġsint et
Ë Ĳ
ĠAr c
Ġprof unda
Ġconquist ando
ĠelÃ©t rico
g y
Ġbar ra
i jo
ĠN eu
S te
ĠM og
Ġar bit
Ġinteg rou
Ġem ancip
Ġ7 6
Ġil eg
Ġpergunt as
ĠRy an
ĠMost eiro
ĠManch ester
Ġbas ta
tec as
ĠcÃ¡l culo
Ġbatal has
ĠL ady
ĠlanÃ§ aram
Î¿ ÏĤ
t z
Ġen z
ĠSin Ã´nimos
ĠU til
Ġchuv as
Ġest il
Ġdirig ir
M in
ce ito
Ġapresent ador
ĠPet ers
Ġdescend ente
B ra
ÃŃs io
Ġ6 3
Ġs ap
eg r
Ġinc idente
Ġaplic ada
ĠGre at
ĠGu an
Ã©m ios
ĠCel tic
Ġpert urb
il har
ter min
Ġcomb ater
Ġpriv ado
ĠCom ando
inc ial
ĠAnth ony
Ġen via
Ġcol oqu
Ġfal ou
Ġtre ze
ĠestÃº dios
Ġviaj ou
an im
Ġ190 2
it avam
Ġcon dic
Ãº b
Ġ6 8
Ġespera do
Ġbenef ÃŃcios
ĠH id
rea k
Ġpais agem
Ġremov er
Ġinterpre ta
198 1
Ġcompanh eiros
ĠFlor ianÃ³polis
Ġbras Ã£o
b ach
Ġconsequ Ãªncias
ĠM S
Ġast rÃ´n
W e
it ana
ud os
Ġconc edido
Ġtri un
ĠArquit etura
ĠVietn Ã£
Ġt rÃ¡fego
ĠN aval
ĠAb reu
Ġsent imentos
Ġprim Ã¡ria
Ġdis para
ĠJo ana
ĠGÃªn ero
h ang
ĠCorre ios
Ġecl esi
Jos Ã©
Ġl ac
la u
Ġsegu idores
ĠHow ard
t Ã³rios
ĠC Ã³r
Ġadolesc ente
ĠLink s
C ent
Pa ulo
Ġmete or
ĠR av
ram as
ran ga
ĠNeg ra
ora l
ĠBorg es
m ai
ĠMo ore
ĠAugu st
ĠConstitu cional
ĠB y
ĠCom pl
ĠZ e
Ġacab aram
Ġpr ost
Ġne er
Ġtrans c
Ġlidera do
Ġm erg
ĠP ok
ĠhistÃ³r icas
Ġd iocese
Ġn eto
Ġb ei
Ġev idÃªncia
ĠArm adas
Ġentend imento
ĠDis pon
m Ã£o
ĠA po
Ġsu ÃŃ
Ġt ol
ro f
Ġcer co
Ġenvolv imento
Ġatend imento
te ra
ĠEsp Ã©c
Ġ188 0
Am ericanos
ĠK os
Ġ6 7
ĠÃģlb uns
ĠK le
Ġrefer ida
pr imentos
Ġaval iaÃ§Ãµes
L isboa
s w
Ġpat ri
Ġcompon ente
it Ã¡vel
ĠIm prensa
ĠAlb u
ĠcÃ¢m era
ĠS S
Ġrel ato
port uguÃªs
Ġcaracter es
er on
Ġar ist
Ġpublic ar
fil me
ĠFried rich
Ġin dustria
int eg
ĠConc ordo
ar Ã©
ĠM G
Ġv istas
Ġrece p
ĠE S
Ġpart id
ĠAn al
do c
ĠP E
Ġfug a
Ġexplos Ã£o
Ġdi Ã¡logo
rat ivas
Ã©rc itos
Ġpat ente
Ġobserv ou
Car ioca
ĠConv enÃ§Ã£o
id iocese
Ġhum anas
Ġb er
ĠVer bo
Ġimp uls
vi Ã¡rio
Ġpertenc entes
n ov
Ã ¥
Ġpos tos
Ġassass inado
ob re
ĠLe andro
ĠcontÃŃn ua
Ġreman esc
us ca
Ġpro gresso
ro le
ĠP il
enc iar
Ġemisso ras
ĠC icl
Ġab us
Ġcur va
Ġenf raqu
Ġfinanc iamento
Ġreper c
achus etts
t empo
Ġra iz
Ġdeix aram
Ġquart as
Ġarmazen amento
P art
p rov
ĠC rit
ĠD ick
ĠAnt Ã¡r
bo ok
Ġregist rada
cel os
Ġtec idos
Ġrecom p
M ic
P G
m ad
ĠEx per
Ġserv indo
Ġmist er
Ġinstru Ã§Ãµes
ĠSci ence
ĠFÃ¡b io
ĠQu art
et on
ĠCar mo
ĠAlem Ã£o
Ġrig or
v ard
om i
ĠA uto
Ġcontin ental
Ġbrilh ante
Ã©m on
Ã´ lei
it uras
ĠO g
Ġmat ou
Ġreun iÃµes
ĠCr Ã©d
L iv
ĠC acho
Ġcond ec
rag al
ĠProf iss
ĠAgost inho
Ä «
ent ura
ĠL ot
Ġ7 00
ĠbÃ¡s ica
ĠN az
Ġcol oque
Ġindic ando
ara Ã§Ã£o
Ġretira do
ĠOh io
Ġped idos
Ġc ass
Ġh orizont
Ġpre l
Ġcirc ular
ĠolÃŃmp ico
Ġ é
Ġcorre ntes
g est
h on
Ġt ut
ĠJ ava
!! !
ĠF ont
Ġb act
Ãºs culo
Ġparal elo
ĠM ace
ilh Ã£o
Ġresid entes
ĠB ud
g et
Ġ6 2
Ġintroduz ido
Ġpropriet Ã¡rios
Ġc ita
ĠL ob
ĠÃģ ra
ĠBe ach
Ġdiminu iÃ§Ã£o
Ġex ÃŃlio
ras s
Ġpublic idade
an es
ÃŃc ulo
ĠC Ã¡
Ġimp arcial
ĠjurÃŃd ica
ian g
ĠMar x
Ġmost rado
aco te
ĠBandeira ntes
H O
in ce
ĠM r
Ġno min
ve y
Ġim un
198 6
ĠSara h
R a
Ġconstru ÃŃdas
ei ga
ĠN enh
Ãº stria
Ġun iforme
Ġ á
Ġrespon d
C a
ĠSol ar
Ġare ia
Ġsuic ÃŃdio
ĠL ind
ĠD ur
our ce
Ġsecund Ã¡rio
Ġm obil
Ġoc identais
Ġcer eb
Ġcost umes
Ġal inh
gua Ã§u
Ġdec orrer
Ġet n
cri Ã§Ãµes
Ġprepara r
Ġcolon izaÃ§Ã£o
Ġcicl ista
Ġsovi Ã©tico
ier i
Ġcompanh eiro
ĠC um
Ġmo edas
w ick
ĠXX I
In st
ec Ã§Ãµes
Ġext erno
ĠDe ad
Ġmen inas
Ġperson alidades
ĠArqu ivo
Ġson o
Ġtrabalha va
ver so
Ġconqu istas
ĠOlimp ÃŃadas
Ġhect ares
ĠDil ma
w ar
ĠU CI
ire i
ĠH op
Ġapresent ados
ly n
g in
ĠN uma
Ã³t icos
ĠExecut ivo
Ġprision eiros
z en
ĠC ron
Ġcorrig ir
ĠN Ã³s
ĠK i
Ġesc ap
Ġvis itar
ĠSp ace
Ġdomin ante
Ġescolh ida
Ġabandon ou
197 9
Ġsepara dos
Ġrot eirista
ion Ã¡rio
Ġtorn ado
ĠAlbu querque
m un
ĠG ri
Ġserv ido
Ġsed iada
Ġproxim idades
ĠM it
ĠD all
po ol
ĠSt ory
p el
ĠA ragÃ£o
Ġdecid iram
Ġexerc er
rade Ã§o
Ġjan elas
ÃŃ ce
az es
Ġrel ativa
Ġconst antes
H z
Ġdivid idos
Ã³ metros
Ġaleg ando
Un ivers
Ġnaveg aÃ§Ã£o
p u
ĠCh annel
Ġsubst Ã¢ncia
Ġad m
Ġado tou
ĠDesc ob
ĠTrin dade
É Ĳ
Ġre in
ĠT emp
Ġsim b
Ġdeix ado
Ġ- >
lex o
ĠMac ho
Ġsemif inais
i Ã¡ria
qu el
Ġadolesc entes
ĠM eg
g rÃ¡fica
Õ ¡
ĠK l
Ġconj unt
Ġparc eiro
Ġnasc ida
v ision
Ġel ect
Ġpol eg
ĠDent ro
ĠT anto
Ġh eranÃ§a
ĠPar Ã³quia
Ġre organ
Ġsex uais
Ġcoop eraÃ§Ã£o
ĠCom b
Ġdest inado
ãĥ ¼
Ġinfra estrutura
f ra
ram entos
Ġquar enta
iter Ã³i
g ios
Ġfol cl
Ġaut Ã´n
Ġnorm a
ĠCrist Ã³
Ġcaval aria
ag re
Ġob ed
Ġbas quete
Ġbar co
Ġdom ic
Ġjorn ada
ĠD ivers
Ġdescob ertas
ĠM inha
Ġes bo
Ġsem entes
Ġret irou
Ãºr g
S p
enh ores
ĠAt ravÃ©s
Ġartific ial
Ġreg ulares
Ġdistint os
S oc
h or
Ġc ai
ri k
Ġdin Ã¢mica
ĠPs ic
Ġt u
Ġre Ãºne
ver y
ĠB ia
ĠM embro
iss em
Ġempre end
enn is
Ġh Ãºm
ĠAp ol
Ġcontinu am
Ġcomplex os
Ġmando u
U E
E p
f inal
s burg
id ent
bo y
Ġtorc edores
i ador
iv ismo
Ã³p ia
Ġmon st
w i
Ãª mea
ec iam
Ġmar co
pre feito
Ġinteg rado
Ġn it
ĠHum anos
al in
Ġf ras
ĠC S
Ġin qu
Ġpass agens
G O
ĠM Ã£e
ĠâĢ ¦
Ġprim avera
Ġindic am
in cluindo
Ġsegu ro
Ġsubs p
ĠGet Ãºlio
Ġ ×
ĠCo orden
p ado
ĠCon forme
Ġclassific ada
Ġbra Ã§os
ĠC urso
ĠT iago
Ġ7 7
Ġado tado
Ġ189 8
ĠSud este
m il
Ġe uros
Ġprocess amento
Ġsoz inho
G ra
I R
Ġf Ãªmeas
Ġmin im
in am
ĠA ta
ĠSal a
Ã¡ss ico
Ġen ferm
lb um
Ġtransfer iu
Ġdo wn
Ġpertenc ia
Ġrepresent ada
ĠcientÃŃf icos
Ġaliment ar
Ġcol oraÃ§Ã£o
Ġfic h
Ġgen Ã©tica
a ux
Ġem ig
ran iano
Ġdi Ã¡rio
ĠCaval eiro
M e
asc ular
Ġdestac ado
Ġproced imentos
ant ar
pos s
ĠHist or
Ġjornal istas
lo yd
C r
c imento
ĠR ow
Ġestat ÃŃsticas
ĠCer ca
t us
eix o
Ġvend idas
Ġnor uegu
198 4
ĠC af
ĠM orr
ino is
Ġcam inhos
Ġinc orre
ĠGer m
u iÃ§Ã£o
isco pal
ĠTom Ã¡s
Ġescol heu
ĠMod erna
ĠVictor ia
ent re
ent amente
ĠM ei
Ġrep utaÃ§Ã£o
ĠPl at
Ġmac hos
Ġsubst Ã¢ncias
ĠR enas
int es
ĠCom and
Ġvul c
t ivos
ĠÃºn icos
ĠmÃŃn ima
Ġexper imental
Ġmecan ismos
ĠL ag
Ġv inho
Ġcidad Ã£o
Ġelabora Ã§Ã£o
R es
Ġp ernas
Ġaqu elas
ci Ã³n
Ġca uda
Ġcert amente
Ġconvoc ado
ĠsÃ¡b ado
ĠM orreu
ect ura
ĠRib eirÃ£o
ket ing
avi era
ĠL ov
Ġper if
P M
et eria
Ġabandon ar
Ġcom entar
ĠT un
ĠAl ago
ĠAl guÃ©m
Ġcert ificado
Ġjan ela
Ġhi erar
ĠMana us
P re
s p
u er
Ġve jo
Ġagl om
ĠBen ed
Ġvence dora
Ġdista nte
E nc
er iormente
Ġse Ã§Ãµes
Ġseg mentos
Ġsemelh anÃ§a
Ġurb an
era mente
Ġafirm ar
Ġaval iar
Ġigual dade
Ġsug estÃ£o
at ia
ol n
ĠF eira
Ġ8 8
p ass
Ġram os
Ġpast or
S er
Ġcomp ens
Ġ Ãªn
ag Ã£o
Ġ189 5
Ġintens a
Ġanalis ar
Ġact ividade
ĠBritÃ¢n ica
Ġpre con
ĠI g
ĠM Ã¼
ĠT odo
Ġcond ados
ecom un
Ġambient ais
Ġext ragal
ĠPr Ã©
ĠTÃ©cn ico
Ġrecord es
Ġ ç
Ġy ou
Ġaplic ativo
ĠVir gem
ĠsÃ©t ima
Ġquil Ã³metros
ĠÃªx ito
at han
Ġin duz
Ġconsegu indo
Ġmerc ados
Ġobt endo
Ġdeclara do
Ġsubt ropicais
Ġs essÃµes
ix os
Ã©s imo
Ġconv ersÃ£o
Ġviol Ã£o
ĠTec hn
ĠG ames
ĠK er
Ġ6 9
ron g
Ġestiv esse
ou d
Ġinv ent
ĠSy d
s il
Ġsur presa
ĠTrans portes
qu ed
Ġ8 4
ĠSa x
Ġencer ramento
adj uv
p ido
Ġren deu
ĠSam pa
ĠTrabalh adores
Ġp Ãªn
ul ando
Ġra st
Ġlon gos
Ġens aios
b us
ĠB ull
Ġex am
Ġresta uraÃ§Ã£o
ĠOn de
ĠEm pres
he ad
Ġconvers a
ĠB urn
ing ham
ĠMas ter
qu enta
im ate
et im
ĠIn stitu
Ġfinanc eiros
ĠAm ericano
Ġse quer
Ġtorc ida
Ġilum inaÃ§Ã£o
Ġsan gu
Ġmod ificaÃ§Ãµes
Ġav enida
ĠMa omÃ©
Ġespera r
Ġra ios
Ġhom Ã´nimo
Ġcin emas
ĠAlf red
ĠPequ im
Ġar roz
ik i
Ġapresent ava
ĠRo ad
Ġassoc iaÃ§Ãµes
ĠB i
Ġen gan
ĠAg ricultura
Ġsent imento
Ġresol veu
Ġvaria m
Ġobject os
ĠDom ingo
Ġjur is
Ġconsequ entemente
Ġextragal Ã¡ctica
Å Ħ
ĠL amb
ich i
Ġrad iaÃ§Ã£o
Jo hn
ĠBook s
Ġfoto grafias
Â» .
L ove
É ¾
pres ente
Ġdiz ia
ic adas
Ġcon form
ĠRa imundo
P D
im i
ĠV oz
ĠvÃ¡l ida
el er
ĠChrist opher
Ġfrut os
ĠB aviera
Ġform almente
Ġproduz idas
Ġp et
Ġs Ã©r
an ca
ĠB eira
ĠD og
Ġint Ã©rpre
ĠPara l
ĠtÃŃp ico
Ġbizant ino
Ġar re
Ġsal to
H ar
Ġcom bo
Ġform aram
Ġembaix ador
ĠA ur
ĠD ata
ĠU K
ĠOriginal mente
o i
Ġ Ä
Ġb ro
vo z
ĠTh reat
Ġtal entos
Ã ²
ĠUn der
ĠMass achusetts
f ato
ast as
Ġcheg am
j amento
Ġv as
Ġno Ã§Ã£o
ĠMor gan
Ġbot Ã¢nico
atem ala
Ġo nt
Ġg ent
Ġtrat ados
Ġorden ado
Ġpos itivas
198 2
Ġencontra ram
Ġmanifesta Ã§Ã£o
ĠF A
du ta
Ġ6 1
Ġanunc iada
ĠGil berto
Ð¾Ð ²
Ġal deias
Ġpar ecia
Ġvaria nte
T ra
Ġco t
Ġar rem
Ġaument ando
Ġexpres sa
Ġ189 6
at ado
uz il
Ġm ach
Ġorgan izou
Ġating e
Ġbr in
Ã¢nd alo
ĠG am
Ġcol Ã´nias
ĠacadÃªm ico
ĠÃ¡l cool
L ista
ĠR iv
Ġb ura
ĠFil mes
Ġtor res
Ġdiagn Ã³stico
Ġneg ativo
Ġfavor Ã¡vel
ĠBenjam in
s ar
id aceae
Ġen quad
ĠMetr Ã´
us ias
Ġg rÃ¡ficos
pl es
Ġeurop eias
rat es
tor y
Ġcaus ada
ĠfÃŃs icos
ĠCatal ogue
" ".
ar ial
qu ina
ch el
Ġmon arquia
Ġfortal eza
ĠM atos
Ġac ons
ĠLa ure
Ġcolon os
ĠÃªn fase
Ã© b
Ġprecis amente
ĠAr Ã¡bia
Ġcomplet ou
p Ã©
Ġf Ã©r
ĠT ais
Ġentre ten
Ã³n ico
de f
Ġcent rais
Ġfer idos
Ġimpl ica
Ġdiminu ir
ĠBair ro
D om
h in
ar ro
Ġoc or
ĠMor ro
Ġgoogle hack
H F
Ġha vendo
Ġcompre ende
ĠOrig em
Ġ189 7
Ġ uc
Ġb aixos
ĠN ASA
ĠQu er
orr ido
ĠReg imento
ĠTa ilÃ¢ndia
Ġjust amente
fei Ã§o
ri nt
Ġreconhec er
ĠMed iterrÃ¢neo
Ġbol sa
ĠAl ianÃ§a
Ġdel la
Ġreun ir
Ġdestac ar
ĠC idad
Ġmod ernas
s ou
ĠUn idade
Ġ rib
Ġs anto
Ġb ara
ÃŃg ios
ĠEqu ipe
Ġintelig ente
cons ultado
Ġleg ais
Ġ189 3
Ġextra ord
Ġantec ip
ĠMont en
Ġef ect
rad es
an du
ĠSport ing
Ġc unh
ios amente
la us
ĠNot ÃŃcias
b ury
m ida
ĠN u
Ġportugu esas
ĠF arm
ĠDe fin
Ġsignific ativamente
Ġcomplex idade
Ġs eleÃ§Ãµes
era no
ĠMar ina
ĠMem orial
Ġsoci edades
ĠCh am
Ġr ÃŃg
Ġgu ia
Ġmanif est
Ġdesconhec ida
Ġe ficiente
id em
ĠP rado
Ġal ien
ĠOlÃŃmp ico
M aria
V al
Ġdesc art
anc ha
ous se
Ã© f
Ġunivers itÃ¡rio
ro d
il io
ert on
ĠQu ÃŃmica
Ġmon ito
Ġ189 4
Ãĩ ÃĥO
J e
Î ¬
Î ¯
et ra
ĠGeral mente
b ot
Ġb uroc
op s
ĠPa quistÃ£o
Ġ9 9
ĠEx ter
198 0
Ġinstal ada
Ġos t
ĠSer Ã¡
Ġcresc er
Ġminist ros
Ġpag ina
ĠWh it
Ġchin eses
ec cion
Ġdif und
Ġ188 5
Ġsuger iu
P C
ĠsÃ³ cio
L es
Ġdom ÃŃnios
U F
Ġcont o
ĠEst rutura
ĠNig Ã©ria
ĠMacho Carioca
R ec
j es
it Ã¢nia
Ġfuncion ar
Ġn uv
ĠD iam
Ġtur b
ĠJohn ny
Ġespet Ã¡culo
c ro
v idos
Ġf ome
ach el
Ġpeda g
ĠS C
Ġ189 2
Ġating ido
ĠP y
Ġleg it
ann y
ĠChar lie
ĠVascon celos
ĠC ost
ria mente
ĠP ast
Ġbom ba
Ġgera Ã§Ãµes
b c
cl ass
ĠBa ÃŃa
ĠVerm elha
Ġentreten imento
do xa
Ġp asta
ĠS int
iv el
Ã ĵ
ĠS ak
ĠP Ã³s
ĠR ab
ĠRa ul
Ġlemb rar
sex uais
c u
ĠM ex
Ġtelef one
C ast
e Ã§a
ap ura
Ġfal antes
Ġtur istas
Ġefic iÃªncia
ĠT ag
ĠAl v
Ġrequis itos
ĠBraz il
gu ez
gu arda
ĠK ara
Ġrus sos
Ġensa io
ĠGeral do
ent ista
Ġvis itou
Ġcicl one
Ġperde ram
ĠemprÃ©st imo
u itos
Ġnos sas
P rim
Ġp ir
Ġp aixÃ£o
ĠBar reto
ĠMag azine
ĠJim my
ĠagrÃŃc olas
Ġquant idades
Ġsobreviv entes
ws ki
Ġact ualmente
is i
Ġreserv as
Ġefica z
H ol
Ġmed alh
Am erican
ĠAn Ã¡lise
Ġtec lado
Ġlut ou
al th
ĠL ugar
Ġlig adas
Ġalte rado
Ġrece ita
Ġn u
Ġpar Ã³quia
inc oln
Ġalgorit mo
Ġp ne
Ġdo n
ĠRe forma
Ġra cional
N T
S ch
ux a
Ġquer em
Ġconclu ÃŃda
ĠquÃŃm ico
Ġrel anÃ§
Ġmet Ã¡l
Ġ188 8
Ġdram at
ĠD A
ĠT rev
Ġfor em
Ġconsidera Ã§Ã£o
Ġroman ces
Ġaplic ado
Ġg ama
Ġreduz ido
ĠmolÃ©c ulas
ĠR oll
ĠCh ip
Ġcab elo
ĠBeat riz
Ġrev est
Ã¶ n
Ġadequ ada
Ġcomprom isso
ĠChec klist
ic he
Ġobserv aÃ§Ãµes
Ġn ad
ĠF olha
Ġc itaÃ§Ãµes
ĠH em
Ġmon arca
ĠSuper liga
ĠperiÃ³d ica
or ias
Ġh or
ole do
Ġesp ada
Ġren asc
ĠC ai
Ġpara s
und es
Ġ9 8
Ġtradicional mente
gres sos
ĠAlg ar
or iais
ĠH ora
asc ar
ĠBru x
Ġlitera cia
Ġdist o
ĠdanÃ§ ar
E A
ul adas
enc es
Ġcont empl
Ġresta urante
Ġfest ivais
ĠF ur
Ġ18 60
Ġcru c
D a
n ie
Ġm is
Ġesf era
C har
Ġt rom
Ãºs c
Ġcant ando
Ġcompre ender
Ġmam ÃŃferos
p ing
Ä ĥ
ĠD icionÃ¡rio
ĠT ch
ĠW a
Ġviv ia
Ġmag ist
int ur
Ġdes l
ĠW agner
ĠPro bl
T S
ian i
ĠDemocrÃ¡ tico
Ġcine asta
Ġde ntes
Ġferrovi Ã¡ria
ec as
X X
ĠM etro
ĠB rito
Ġan s
Ġlim p
Ġaproxim aÃ§Ã£o
Ġtransmit ida
Ġgig antes
ĠpÃ´ de
ĠMarsh all
ĠAm Ã©ricas
Ġindustria is
ĠB ang
ĠSem pre
m und
ĠP ab
ĠPan amÃ¡
Ã¡t ima
Ġ7 3
Ġprov ar
ĠK az
ph p
ĠFound ation
Ġgab inete
Ġc Ã£es
Ġestabel ece
b u
al g
ĠP am
ĠBen fica
Ġbomb arde
Ġelog iou
Ġan jo
Ġsubstitu iu
ĠPer ÃŃodo
Ġleg ÃŃt
S AM
ĠEl is
ĠCha ves
gra ph
G A
ÃŃst a
Ġinf antaria
Ġma u
Ġindepend entemente
C ha
ĠNo gueira
f ac
ĠDav e
ES CO
Ã©g ios
Ġtransmit ir
M B
Ġp isc
ent in
Ġex Ã©rcitos
Ġag ric
Ġtal ento
ĠalcanÃ§ ando
ĠInd ivid
Ġneg ativa
Ġautom obil
Ġconclu ÃŃdo
ĠÃ¢ng ulo
ĠSampa io
b or
o pl
ol uÃ§Ã£o
ez es
ĠestÃ¡ vel
ĠPres idÃªncia
ĠMat emÃ¡tica
Ġcolet iva
Ã³qu ei
Ġp acote
Ġcl ipe
f eld
Ġem issÃ£o
Ġre ag
Ġal ter
cl atura
Ġreceb em
Ġin oc
Ġtoc ou
an co
Ġparticip ando
ĠBill y
L ei
ĠS ign
ab ara
ĠAlexand ria
Ġsusp ensÃ£o
Ġtran st
ĠToc ant
re nce
al os
ĠS qu
ĠGu ara
Ġtr Ã¢nsito
Ġmet odo
rÃ¡ ria
imin ar
Ġesport ivo
Ġinfluenc iado
Ġnumeros os
em ento
ĠCom ercial
Ġ ira
Ġ189 9
ĠSyd ney
Ġven ez
ĠLuc iano
Ġvi rou
O ut
S il
Ġmascul ina
ĠB it
ĠD j
Ġsent iu
abil idades
ha us
Ġcol apso
ĠbÃ¡s icos
ĠBritÃ¢n ico
Ã¡ut ica
as te
Ġam ante
ĠvÃ¡l ido
Ġo v
ĠC idades
Ġass emb
Ġperceb e
Ġmedic amentos
elh ado
Ġcant ou
ĠFran Ã§ois
ĠFre ire
Ġne ve
Ġ186 4
Ġobject ivo
Ġres ul
Ġtrans par
ĠNew ton
Ġ" .
Ġj azz
Ġre eleito
Ġtra Ã§os
Ġpos tura
ĠPre c
rel l
Ġmest rado
M on
n am
Ġviv iam
Ġcort es
qu ista
ĠConv ento
ĠP ers
ĠD ut
Ġdes enc
ĠMal ta
Ġcren Ã§as
Ġger m
Ġenvol veu
Ġlus Ã³f
ĠBatal hÃ£o
Ġt ria
ĠL ast
ĠCamar go
ugosl Ã¡via
A f
y an
Ġleg ado
ĠThreat ened
Ġres pira
ĠAb u
Ġdefens or
egan istÃ£o
ulos a
V ia
Ġc Ã©le
ÃŃ ada
ilh elm
Ġdistribu ÃŃdos
Ġacompanh ar
il iano
ĠR at
Ġdes pre
Ġpl atina
en i
ĠN ich
ĠMo z
Ġfa Ã§o
ĠGoi Ã¢nia
ĠCar ey
Ġcompl ement
Ġreduz ida
ĠD ance
Ġf rust
ĠG ren
Ġpoder Ã£o
Ġlev am
dist rito
ecomun icaÃ§Ãµes
Ġ up
Ġp Ã¡
ĠCol Ã´nia
Ġfol ha
el ia
ri que
Ã³ lia
Ġser ra
Ġapl ica
b ell
b etes
Ġp Ã³
Ġel etro
ĠmÃ©d ias
Ġderiv ado
ret amente
ĠI gu
ĠK h
Ġcost uma
ĠUS P
Ġpropor Ã§Ã£o
Ġexpress Ãµes
Ġdistribu ÃŃdo
Ġab ertos
Ġrec olh
Ġdedic ar
Ġcolabora dores
ĠGirl s
L C
Ġra Ã§as
Ġjornal ismo
Ġenvi ados
Ġdocument aÃ§Ã£o
Ġre aÃ§Ãµes
Ġcon so
ĠJ ung
Ġdireto ra
ĠP etr
Ġest uda
Ġsuc ed
ĠLeg enda
Ġextre ma
ĠA ch
ĠJ unta
ĠV isconde
Ġreg rav
Ġad es
ĠT at
ĠH og
ret t
Ġoit avo
Ġrec usa
ĠsatÃ©l ites
Ġw ww
Ġtom a
Ã± o
Ġcircunst Ã¢ncias
v an
ic iÃ¡rio
om eu
oc Ãª
Ġocup ada
Ġating indo
Ġpubl ica
Ã³ w
ĠT eles
ĠW ith
Ġte ologia
Ġsub stant
ĠJap an
Ġinvestig aÃ§Ãµes
Ġterrest res
eig ht
ĠA post
Ġ188 6
raria mente
Ġobserv ado
Ġprem iaÃ§Ã£o
ĠanÃ¡l ises
s in
ĠV Ã¡rias
ĠCar d
ĠcientÃŃf icas
Ġb ord
enn y
ĠInd Ãºstria
ĠTal vez
Ġ rat
ĠC out
Ġsu pre
Ġofer eceu
Ġaprov ou
Ġatribu ÃŃda
ĠAmb iente
ĠRuss ell
Ġs enso
Ġl ab
Ġb Ãºl
ĠGu atemala
Ġdeb ates
ĠD as
ĠPer form
Ġgradu almente
Ġest abilidade
ok u
H A
Ġc Ã£o
es is
al ia
Ġper feito
Ã´n us
ĠÃĤ ng
ĠAf eganistÃ£o
ĠFlores ta
ĠSoc iais
Ġace ito
Ġsacerdo te
Ġd il
in ot
Ġholand Ãªs
Ġtra g
ren os
Ġcoloc adas
ĠGal iza
Ġcompos itores
Ġtraz endo
Ġ ut
it ri
el agem
ig ura
Ġro das
ĠSoc orro
Ġcompil aÃ§Ã£o
ib le
qu al
orn os
Ġad ulto
Ġcompet ir
Ġpobre za
p io
Ãº rio
ie f
ĠRac ing
Ġc Ã³d
ĠN O
ĠJ ess
ram e
Ġsegu em
Ġapresent adas
Ġb its
ir me
Ġpre ta
uda Ã§Ãµes
Ġde usa
ĠCam panha
ĠJer ry
ĠcrÃ©d itos
ĠC esar
ÃŃ o
cl a
Ġacom panha
ĠOrto grÃ¡fico
ar ense
ĠC ot
Ã©r icos
Ġrespect ivos
Ġsobreviv Ãªncia
Ġal imento
Ġab range
Ġpra ias
Ġreper tÃ³rio
an z
Ġb rev
ĠG az
Ġent usias
all y
Ã¡st icos
ĠL ake
ria na
Ġapar elho
int on
ĠW ind
Ġpad ron
Ġcomun ista
Ġbis pos
all en
ĠPens ilvÃ¢nia
Ġmelhor ia
Ġtempl os
ĠC emitÃ©rio
Ġdeco raÃ§Ã£o
Ġ za
ĠPro duc
Ġconv ento
ĠMat the
G l
ĠD un
ĠWal t
Ġpriv adas
Ġ1 13
ĠI st
Ġag rem
Ġenc ora
vers a
kes pe
b is
ĠS amba
ĠB apt
ĠEn ergia
ÃŃd ias
Ġda va
Ġapar iÃ§Ãµes
Ġtip icamente
ĠSport s
Ġrestaura ntes
ult ores
Ġafirm am
Ġprote ÃŃna
Ġoxig Ãªnio
ĠB il
ĠJos h
ĠEstat ÃŃstica
Ġentrev ist
Ġenterra do
ĠIll inois
B and
ĠParana ense
T o
Ġc ach
Ġm Ã³dulo
ĠV ÃŃdeo
Ġmat ando
terap ia
Ġexpl icou
Ġserv idores
197 7
Ġweb site
ĠBow l
Ġmil has
Ġsens aÃ§Ã£o
u ke
Ġt rens
ĠJ unt
ĠBrit ish
ÃŃ as
op le
ĠMart ÃŃn
ĠFrank lin
ĠGreg Ã³rio
Ġgaro to
gred ientes
k k
ĠN iterÃ³i
Ġcomun as
ĠForm as
ĠEstre ia
ÃŃdu os
st ad
Ġsub ter
ĠSte ven
ĠNas ceu
) )
pl ant
Ġpol Ãªmica
Ġassin ar
Ġcoorden adas
ĠjurÃŃd ico
g rÃ¡ficas
Ġl an
Ġocorre ndo
Ġb ack
ed s
ĠCom put
ĠDe ut
Ġdisc ÃŃp
Ġt amb
Ġpol in
Ġsol dado
ĠEspanh ola
Ġp t
Ġp iso
at ed
ĠTh at
Ġopera r
ĠConc ÃŃlio
Ġintern os
Ġrend imento
ĠF emin
ria Ã§Ã£o
Ġpes c
ĠFre i
ĠMart inho
ÃŃt as
Ġped indo
ĠvÃ¡l idos
ĠsÃŃ ntese
Ġbic ic
S c
l ados
ĠA Ã§Ã£o
Ġre ab
Ġ è
Ġl ecion
Ġsem estre
Ġtorn aria
197 8
IN E
C omo
Ġg ay
Ġreg res
Ġpass ava
Ġdetermin aÃ§Ã£o
ĠLux emburgo
ĠGordo n
im on
ĠEuro visÃ£o
Ġlib ertaÃ§Ã£o
Ġsepara do
ĠCh urch
Ġcam pon
Ġ7 4
Ġv isa
Ġmat Ã©rias
ĠDispon ÃŃvel
L uc
Ġp Ã¡ss
ĠS as
ĠEs portes
Ġ8 7
Ġcult ivo
a j
ĠF Ã¡tima
Ġent radas
Ã©d ias
Ġbase adas
Ġpossibil idades
Ġ" âĢľ
ard i
Ġr icos
ecess or
ese arch
ĠProc esso
ĠMonten egro
O b
t aria
Ġpe Ã§o
Ġhou ver
Ġmem Ã³rias
ient emente
Ġz o
197 5
ĠMov ie
Ġfrac asso
3 00
du st
Ġafric anos
ĠparÃ¡g rafo
ĠB ou
ura dor
Ġcr iminal
Ġassoc iadas
j in
Ġre el
Ġal b
ĠPr Ãºssia
Ġimedia to
Ø ±
ĠR al
ador ias
Ġbase ia
Ġpermit ido
re ga
ĠC ac
M ad
ĠE va
orn ia
Ġro und
Ġcent ÃŃmetros
Ġdestac ando
ĠUS A
Ġpro nto
ÃŃt ios
Ġmud aram
Ã¡rb ara
ĠCar ibe
Ġrecup era
ĠdÃŃ vida
ĠL incoln
Ã³s io
Ġliter Ã¡rio
n ess
Ã ¯
Ġc it
ĠD est
ĠolÃŃmp ica
Ġgig ante
ĠG ene
Ġac Ãºst
Ġdel ib
ĠCon j
Ġefet ivamente
ĠVirg ÃŃnia
ĠSemin Ã¡rio
ĠD ir
ĠH il
ĠCam inho
ton a
ĠPl ata
iclop Ã©dia
F orm
Ġpud essem
Ġveg eta
Ġresul tante
ĠCh i
s ec
Ġ Î±
Ġenc en
ĠY u
ĠB og
Ġam ericanas
Ġvi Ãºva
Ġfabrica nte
Ġestran ho
F utebol
Ġdisc rimin
Ġbaix ista
ĠTai wan
ho je
Ġmin iss
Ã©l ix
ĠSuper copa
ĠCin co
Ġs c
Ġpovo aÃ§Ã£o
ĠInform aÃ§Ãµes
Ġl eu
Ġcar gas
Ġinter c
ĠOr le
Ġadministrat ivo
x os
og ador
Ġfal has
Ġdel im
Ġcontinu aÃ§Ã£o
Ġfinanc eiras
ĠCro Ã¡cia
ĠInic iou
å ħ
Ġus ava
ogrÃ¡f icos
ĠeconÃ´m icos
B O
at re
Ġesp iral
ĠMa xim
Ġpretend ia
ĠB ros
ĠF Ã©
Ġpra zer
ett y
Ġvend ida
Ġacred itar
Ġal iado
ĠFlor enÃ§a
Y ou
t ÃŃtulo
Ġo ral
ĠP ena
Ġsal Ã£o
ĠAlb um
Ġhomos sexual
E E
itu ais
Ġconsegu ido
R ei
Ġp ic
in ess
Ġcat edral
Ġconclu ir
Ġlemb ra
il eno
ĠT ru
ĠN ag
ĠAr que
Ġtel esc
ĠEspÃ©c ies
ĠS ei
Ġest atal
ac ab
ĠMal Ã¡sia
ĠLat ino
ĠCristÃ³ vÃ£o
ĠC ry
Ġl azer
Ġaplic ar
ĠÃĢ s
Ġpre val
ĠY am
ork s
Ġvenc ido
197 4
ĠMiss ouri
seg undo
ĠtÃŃp ica
Ġdest inada
ĠCr ime
ĠPat r
Ġteat ral
n io
Ġl agos
ĠNov os
Ġdisput as
ĠE R
Ġc ess
Ġm os
Ġf aria
Ġos sos
ĠTr ump
Ġelev aÃ§Ã£o
Ġ1 18
ĠW y
ĠacadÃªm ica
Ġaustral iano
u que
Ġgrav idade
Ġle al
ĠF aria
ĠBar ry
Ġfac ilidade
Ġprom oc
i Ã¡
ĠT oledo
ru gada
Int ern
form ula
ĠR ang
Ġprim Ã¡rio
Ġ8 1
A A
Ġde pos
Ã³ ides
Ġseg redo
ĠPro ject
ffff ff
Ġm istas
av ÃŃrus
... "
dor e
ĠHe in
Ġprofund amente
Ġreiv ind
Ù Ĭ
os hi
ion ada
Ġrel ativo
Ġ8 2
ĠAt or
Ġferrovi Ã¡rio
ip er
Ġar redores
Ġesp ÃŃ
ron ic
ĠSh in
ĠRos Ã¡rio
Qu e
Ġgarant iu
Ġreconst ruÃ§Ã£o
ĠL omb
Ġsobre nome
ĠChar lot
Ġembarc aÃ§Ãµes
E le
ĠEst udou
Ġjunt a
Ġa uge
Ġsent enÃ§a
Ġfantas ia
SAM PA
Ġc abel
ĠP in
ul u
Ġal tar
ĠÃ¡ rb
ĠSel v
j ada
el y
ĠS to
ĠS ib
Ġter renos
Ġab uso
Ġobs c
ĠComp et
Ġ9 6
ĠLib eral
lin es
ĠJu iz
Ġteor ema
Ġvolunt Ã¡rios
Ġpreen ch
Ġ3 60
ĠAb d
Ġcria ram
Ġinteg ra
Ġdesconhec idos
Ġr umo
ĠOl ym
Ġth at
Ġev idente
Ġcon duta
Ġnumeros as
Ġmar keting
Ġro de
ĠAt h
ĠAt riz
Ġmet ropolitana
ĠB uda
ĠHa iti
Ġf av
Ġmarc ha
Ġfuncion Ã¡rio
ator ial
ĠTerc eiro
ĠC all
ĠMa h
Ġcin quenta
Ġmass as
o rando
end s
Ġganh aram
es pec
ĠLocal iza
ĠQue en
Ġp end
ĠâĢľ "
Ġapo iou
Ġvis uais
Ġbel ga
ÃŃce is
ĠL obo
Ġrec ol
ĠlanÃ§ amentos
ĠEd iÃ§Ãµes
Ġident ificado
umb i
Ġestiv eram
Ġtom b
Ġocas ionalmente
L E
ĠM ack
te b
Ġcomp Ãµem
Ġsal va
ĠSist emas
________ ________
Ġcontrov Ã©rsia
ĠP ow
Ġsubst anc
com um
ĠW ho
end ador
Ġvers os
ĠSof tware
a gu
ĠV az
Ġgera ndo
Ġexplora r
ĠOrl ando
Ġa Ã©reas
ĠGol fo
å ¤
ir Ã¡
ĠRe f
Ġper cepÃ§Ã£o
Ġdivulg ado
Ġperc ussÃ£o
ĠLeop oldo
ĠHamb urgo
m s
ĠMora is
Bl ack
t icos
oc ado
Ġpre g
Ġ18 0
Ġestim ado
ĠGuan abara
ĠM ount
Ġret rato
ĠAnd rea
arc as
Ġarm adas
ĠAer on
ĠSom ente
ĠfÃ³s seis
Ġl Ã¢m
Ã³ dia
Ġr iscos
Ġx adrez
ĠAgu iar
intur Ã£o
ĠAtl anta
ĠInf ra
Ġvol tado
Ġvol eibol
ĠOl d
ĠAssemb l
Ġmex icano
Ġv Ã©r
est ade
Ã¡pol is
à ¥
ros e
ĠF air
ĠAl pes
Ġ7 1
par ou
ĠGen ebra
Ġmag ia
Ġjuda ica
e ing
ĠA val
ĠM anh
gu ia
Ġent rando
Ġcomb ates
kespe are
ĠP Ã³
inc ip
ver m
Ġir rit
ĠOb ra
Ġlingu agens
Ġpse udo
ĠH and
Ġcant ores
ic io
ĠH D
Ġdisp ens
Ġprocura ndo
ĠBas ÃŃlica
Ġconfund ir
do nt
ĠFran z
Ġm inas
ĠA dem
ĠD ubl
Ġpro pon
ĠAp ro
197 6
Ġpse ud
htt p
L ou
ĠE is
Ġv Ãªm
Ġace itaÃ§Ã£o
ĠsubespÃ©c ie
j ornal
ĠP itt
ĠL ingu
Ġg ases
Ġsegu iram
Ġfre guesias
Ġdetermin ados
Wik i
V ol
z ig
ĠI guaÃ§u
Ġsol id
Ġf ant
en k
el and
ĠL G
Ġh ino
Ġesc rev
Ġsub iu
ĠÃī vora
Ġmen Ã§Ã£o
Ġil egal
ĠRodo via
Ġmelhor ias
Ġregist rados
ĠDist ribuiÃ§Ã£o
ĠMet ropolit
onc Ã©
Ġcaus ado
Ġexig e
ĠGol s
ĠVinc ent
Ãļ lt
Ġado Ã§Ã£o
Ġps ico
C amp
Ġs Ã©rio
ĠJo el
Ġpopular mente
Ġinterpre tando
Ġofens iva
co t
ĠCar ter
gua ia
erb ai
Ġcinemat ogrÃ¡fica
ĠGu ia
Ġdemonst ra
Ġproxim idade
u ÃŃtas
en stein
ĠR S
ĠX box
Ġtoc ando
Ã¡pol es
Ġt Ã¡x
Ġl ixo
ĠâĢ Ŀ
Ġab sur
ĠAt ual
ĠL ang
Ġatual izaÃ§Ã£o
Re ferÃªncias
Ãºrb ios
eric Ã³rdia
Ġgen es
Ġat rib
ĠPer man
ĠFern anda
Ġprom ulg
J ornal
Ġo tom
ĠI an
Ġprot et
ĠCarn eiro
v est
Ġdes igual
Ġdesign ar
adjuv ante
ed Ã´nia
Ġelimin ada
Ġpsic ologia
ĠRus sa
Ġjustific ativa
w ald
Ġp ist
ec ta
Ġmus c
Ġasseg urar
m id
Ġ à¤
ĠJ ab
Ġcol her
anc he
ĠHar vard
part amentos
Ġamist oso
C at
h us
t em
ĠC ub
ĠG anh
Ġautom Ã³veis
gra duaÃ§Ã£o
Ġviaj ar
Ġpad ro
Ġcos m
Ġmarc iais
Ġtom ando
tom os
Ġpeg ar
B r
Ġus e
ĠM embros
ĠN FL
Ġrefer ente
Ġescrav idÃ£o
ro ck
Ġb ela
Ġapo ia
ic ultura
Ġf Ã©rias
ĠT uc
Ġ18 50
duz ido
Ġdese ja
Ġf rat
Ġest up
Ġmant ida
Ġpesquis ador
ĠR esearch
ion ista
ĠSu z
ĠMil ton
Ġfrequ ent
Ġintroduz iu
ĠDin astia
ent r
Ġconc edeu
Ġcontrat os
Ù Ĩ
Ġcons ulta
ell es
Ġviz inhas
Ġpl Ã¡stico
in ador
ĠP A
Ġurb anos
ĠSug gest
Ġdesm emb
Ġdesc onf
Ġfrequ entes
Ġ188 7
O M
ĠD ub
Ġb eira
ĠWe ek
Ġur ugu
Ġdown load
ĠA x
Ġh orr
Ã©l ico
ĠTh iago
ĠArt ur
Ġfavor Ã¡veis
Ġfech ada
G S
ĠO ver
Ġar rum
Ġconc reto
ĠMod ern
Ġba ÃŃa
l on
Ġcl ar
Ġcivil izaÃ§Ã£o
Ġtend em
Ġre pl
ĠT otal
Ġperman ecendo
Ġacred ito
ĠLar go
c at
ĠC Ã¢nd
ac iais
Ãº dio
Ġass em
Ġpesso almente
ĠArt igos
ĠCrÃ©d itos
Ġt on
ĠM A
ou se
Ġad jac
Ġmin uto
ĠC enso
Ġcar n
Ġcart Ã£o
Ġpen et
P orto
ĠVlad imir
ĠH end
Ġtur co
ĠWil d
Ġsac rif
Ġprovoc ou
yll um
Ġj ardins
ĠEst rang
ĠSin f
ĠTÃ©cn ica
T er
int as
Ġdif ÃŃceis
ĠMo on
ĠCo ok
Ġopera do
Ġestabel ecidos
197 0
H er
ir im
Ġins ist
Ġfranc esas
Ġcompos itora
ĠGonz aga
Ġdefic iÃªncia
ĠAp agÃ£o
ĠEt imologia
ĠMace do
ĠG rac
ĠSuper man
Ġsep ultado
M em
ch in
ĠCh ild
il Ã¢ncia
ĠJo an
fic iÃªncia
Ġsepara das
As s
ĠAj uda
Ġrec ta
Ġempreg ados
ĠSuggest Bot
P ra
ĠFranc esco
Ġtent aram
Ġexp ed
Ġmon umentos
Ġreconhec e
Ġmont agem
Ġd id
al s
ĠL il
Ġin ib
Ġen gl
ĠEs pero
Ġpol onÃªs
Ġ7 9
ĠL itu
ion ou
ĠArt s
Pa ul
Ġadqui rir
Ġal a
ĠUN ESCO
ĠL is
Ġconv idada
Ġhel ic
ha b
ĠSt and
Ġconsegu em
Ġabsol ut
ĠC ic
ĠD ie
Ġg rÃ¡
Ġcorre l
ĠMich igan
Ġreal izando
ĠOn line
Ġregul ament
M en
Ã Ł
Î ³
ĠC R
ĠK now
Ġext ensa
contin ental
da g
ĠArm ando
ĠNÃºm ero
Ġaper feiÃ§o
Ġo tim
ĠBat eria
ĠRu y
Ġc itada
ĠB oca
Ġag rac
Ġ9 7
ele y
Ġprof undo
ol s
ĠN ice
Ġpres a
Ġproduz indo
Ġmora r
ĠHav ia
Ã³x ido
Ġapart amento
ĠNo w
Ã³n oma
Ġreconhec eu
Ġfras es
p ers
Ġv asta
Ġex il
Ġenc am
197 3
Ã¨ s
ĠT ed
Ġe cos
Ġpr Ã©mio
est rado
ĠCon gregaÃ§Ã£o
ari edade
ĠS ang
ion a
Ġprem iado
Ġpion eiro
d am
Ġv ib
Ġlocal izadas
ĠGr Ã£o
Ġacus aÃ§Ã£o
ĠA TP
ĠB ul
Ġpl eno
Ġapo iado
af ric
ĠPrem ier
Ġro taÃ§Ã£o
ĠPor que
ĠmÃºltip las
Ãºp ula
ov ina
anh os
Ġabandon ado
ĠOt to
ĠIb Ã©rica
Ġintelect uais
Ġf iel
ĠlanÃ§ adas
Ġapresent adora
Ġempres tado
Ġinspira da
ĠR and
Ġser via
Ġcons elheiro
Ġpen al
l ock
ĠW ilhelm
Ġlev ada
Ġserv em
Ġ188 4
ĠTorn ou
G al
Ġan at
Ġlig eiramente
Ġrece pt
i Ã¡rios
ĠF icou
ĠRe ich
Ġautora is
Ġs it
Ġdes erto
ĠÃ¡ tomos
ĠAs i
Ġexc esso
Ġpers a
Ġo posto
Ġpr Ã©dios
int os
ĠmuÃ§ul m
ĠC az
Ġfl ora
ĠfenÃ´m enos
d ec
on os
enc er
issa u
ĠQual quer
ĠAdam s
ĠPerson agens
v ila
Ġimp ul
ĠMot or
Ġ ),
ĠO z
ĠH ond
ĠMes quita
ĠLÃŃb ia
ura ndo
ĠPre v
o ito
ĠR uth
ut ar
ĠF Ã©lix
Ġg el
ĠTocant ins
Ġvegeta is
n ing
Ġo itava
ens on
Ġpre ferÃªncia
Ġab ert
Ġag ir
Ġempreg ado
Ġdire tores
Ġfix a
ĠBab y
ĠSaud ita
Ġutil izou
Ġdeclara Ã§Ãµes
ĠJ unto
ĠK ra
Ġhip er
ĠFal eceu
st one
ul am
Ġ188 2
ĠHon ra
c idade
Ù ħ
un ais
ĠR ousse
ĠO fic
Ġim posto
Ġexist iam
Ġfer ido
Ġviv endo
Ġavent uras
Ġprecip itaÃ§Ã£o
ĠB aixa
ar iado
ul antes
ĠU TC
Ġag Ãªncias
Ġdefin idos
Ġdesn ecess
ĠCout inho
ha w
Ġinternacional mente
d isc
Ġeste jam
ile y
Ġcore ano
i adores
ĠTh is
Ġprot esto
Ġv ital
Ġres um
ĠJos ef
Ġprop riamente
Ġapag ar
w orth
Ġcaracter iza
ĠacadÃªm icos
ĠP le
Ġpro nt
Ġpl ena
Ã©s ima
Ġinform ar
Ġvo zes
Ġtrabalh am
ĠSic ÃŃlia
Ġc Ã³r
ri es
ĠPo is
Ġchef es
c amp
in stein
at ive
ĠRog Ã©rio
ĠJon athan
Ġa viaÃ§Ã£o
ĠM ada
ĠI z
anh as
Ġger ente
Ġ ÃŃc
ĠN Ã¡poles
og raph
Ġinst ruÃ§Ã£o
ĠMa uro
ĠEspa Ã§o
ĠB Ã¡rbara
Ġreb at
Ġcolet ivo
Ġm Ã³vel
Ġper das
ĠAcad emy
F il
ĠL ine
ĠÃ© tica
ĠbÃ¡s icas
an ato
Ġir Ã£o
Ġestrang eiras
ĠPlant s
Ġestrel ou
Ġf io
um an
Ġmand atos
Ġfilm ado
Ġresg ate
Ġpublic amente
ĠalcanÃ§ ado
Ġdestru ÃŃdo
Ġenvi ada
Ġreporta gem
ĠA S
Ġl aranja
ĠC A
Ġra zo
Ġins u
Ġne w
Ġpec ul
C S
ĠM issÃ£o
Ġter Ã£o
ĠOc idente
pec ies
ar to
Ġint enso
orn e
ep pe
Ġpoleg adas
Ġt oca
Ġper fe
Ġcontempor Ã¢neo
Ġcompost as
Ġd ita
Ġco g
Ġl in
Ġab ertas
Ġsa que
Ġestabel eceram
Ġaplic ativos
Ġrest ring
L P
ril ho
Ġman ual
Ġesport iva
ĠPr Ã³
Ġson da
Ġfarm ac
Ġsu cedeu
Ġcomp or
ĠCom ent
ĠPe Ã§o
Ġhebra ico
Ġc ano
Ġlut ador
Ġpain el
V I
f urt
Ġp ano
ĠE ti
und er
her ine
Ġpossu indo
ĠS ert
Ġv elhos
Ġdiv ide
Ġinfer iores
T R
or um
ĠH ers
Ġ9 2
Ġdeter mina
Ġb achar
ĠRe fer
Ġrel ata
Ġcomun icaÃ§Ãµes
Ġins pi
Ġviol aÃ§Ã£o
Ġadapt ado
D ie
Ġcom er
ĠD ant
Ġmar x
ĠAc re
ĠTim or
Ġcre io
ĠLaw rence
Ġconv enÃ§Ã£o
Ġn esses
Ġtem Ã¡tica
Ġcol omb
Ġgovern ante
ĠPal e
ĠVers ion
ĠG Ã¶
Ġche io
Ġrival idade
ĠM ons
ag an
Ġfal am
ĠPol y
Ġprot ocolo
Ġcaptura do
Ã©d ico
Ġ8 6
Ġfal ado
Ġdesenvolv idas
Ġinic iaram
Ġexp uls
ĠGl Ã³ria
Ġprej uÃŃ
eb e
Ġcorr er
Ġpud er
ĠServ ice
Ġco leta
Ġro tas
ĠGa Ãºcho
Ġfrac ass
Ã©rs ias
R ock
so b
ĠRom Ãªnia
ĠquÃŃm icos
S o
u art
ĠH i
ÃŃs ia
com p
sen al
b and
ĠS eria
og Ãªn
anc y
Ġmod os
Ġprest ÃŃgio
f ort
ĠG ast
ĠV ÃŃt
iol og
Ġeduc acional
Ġsangu ÃŃn
ĠF aro
Ġrem ix
Ġ !
ĠH ell
Ġexclus iva
Ġmex icana
ĠS A
Ġl ob
ĠH ud
Ġass inal
Ġcomun istas
Ġsal Ã¡rio
Ġru im
ĠSem ana
ĠAcred ita
ĠF ogo
Ġh ero
iment aÃ§Ã£o
urn as
ĠO nt
Ġcar o
Ġfrequ ente
Ġviz inho
Ġartilh eiro
Ġconfront os
ocrat as
ĠYan guas
C ruz
Ġex port
Ġcont agem
unda Ã§Ãµes
Ġassum indo
ĠSor oc
Ġaposent adoria
in ente
esse is
ĠDoc ument
Ġconcordo u
ĠBey oncÃ©
Î ¸
ÃŃc ulos
Ġdemonst rar
Ġvest ÃŃgios
Ġeleg eu
ĠG ill
Ġpro ject
ĠMen ezes
B I
Ġde i
Ġvac ina
Ġparlam entares
ĠV isÃ£o
Ġacresc entou
ren d
ĠAut or
D C
res se
ĠG arc
Ġdev emos
ian ista
Ġru g
Ġroup a
Ġac identes
Ġproc urou
Ġb il
Ġcont inha
Ġdeix e
Ġesc ultor
Ġnas ce
ĠPre feito
Ġassist ir
ĠSha kespeare
Ġt rio
Ġqual ificaÃ§Ã£o
Ġrap per
or p
ĠKenn edy
Ġform atos
ord em
Ġdesaf ios
u ado
ĠT exto
ĠJ ar
ĠV ersÃ£o
ĠLe o
ĠNov as
att le
ĠDem ocrata
P le
Ġd r
ĠN azar
ĠV amos
Ġint eira
Ġmin erais
inos sa
P O
ĠC it
ĠM onst
ig er
Ġtr igo
Ġmin eral
ĠCont a
Ġopera dor
ĠPot ter
ĠPor ta
Ġgovern amentais
Ġsuper vision
Ġess enciais
ĠStad ium
ĠA dic
ub er
Ġcar vÃ£o
Ġhou v
Ġvil Ã£o
re p
Ġt ag
riz ona
th on
ĠBart ol
esta Ã§Ã£o
Ġdiss emin
ad el
ĠM ort
Ġest Ã©tica
Ġsim pat
ĠP ep
ĠE N
Ġaflu entes
O ne
Ġfal sa
Ġminist Ã©rio
Ġmeta is
ĠUn ion
Ġsequ Ãªncias
ĠAz erbai
Ġhidrog Ãªnio
ĠEditor ial
Ġre daÃ§Ã£o
ĠV aria
Ġro cha
ĠPra ga
W il
ĠM ast
Ġinic io
ĠCont empor
Ġcomplex a
Ġconsist ia
Ġp istas
ol icismo
ĠCl emente
ĠRe vel
pe ito
G o
og rama
av as
ora Ã§Ãµes
ĠReg ina
Ġeditor ial
F ran
Ġ >
Ġdo ente
Ãªm ico
ĠOl iver
Ġperc ent
eg os
ĠÃº m
Ġ188 1
gen eral
Ġcontempor Ã¢neos
Ġout ono
Ġand amento
Ġcaracter izado
ĠMendo nÃ§a
er ro
Ġj un
Ġtra duÃ§Ãµes
Ġsa x
ĠBer k
Ġexce p
ĠIndepend ente
Ġadministrat ivas
Ġabast ecimento
Ġt Ãºmulo
erra do
rig a
Ġrenov aÃ§Ã£o
Ġhosp itais
ĠIsa ac
M ac
es ias
id ional
Ġtransform a
ĠInd ian
ĠRon aldo
Ġt eto
ĠU so
Ġconc edida
Ġ8 9
ĠMc K
Ġfut uros
Ġger enciamento
ess os
ĠPab lo
M ont
ĠN Âº
inal do
Ġident ific
Ġbot Ã£o
ĠtÃ³p icos
ĠAl ess
Ġvari edades
Ġmult idÃ£o
ĠAut om
d le
Ġpe ito
govern ador
ĠastrÃ´n omo
ac as
Ġant ic
art ar
Ġconc orda
ĠHond uras
M C
in ista
Ġf Ãªmea
ĠM C
ĠL iver
ĠBo eing
ĠCu rios
Ġminiss Ã©rie
Ġenc aix
Ġescrit Ã³rios
iel orr
à ¦
Ġdes at
Ġinter fer
ĠTer es
Ġcomem oraÃ§Ã£o
Ġpoder osa
Ã´m icas
ĠSerg ipe
Ġp Ã£o
Ġo raÃ§Ã£o
Ġequ aÃ§Ãµes
Ġgu arn
ĠRes erva
Ġp ude
ĠF ant
oc e
Ã³p ez
Ġmet rÃ´
Ġcoz inha
L O
L ive
io us
ib i
ĠCom posiÃ§Ã£o
ĠVoc abulÃ¡rio
P at
ar on
Ġ187 8
Ġcompara do
id s
ros t
Ġarm ada
ius eppe
ĠavanÃ§ ou
Ġlar go
ĠCria Ã§Ã£o
Ġescultura s
ĠG av
gu Ã¡
Ġpre feitos
enc ias
ĠCar deal
ĠPrim eiros
Ġprev ista
Ġatac ou
Ġcil ind
ores c
ot ipo
form aÃ§Ã£o
196 7
m u
al ena
em on
Ġg anho
all is
Ġ13 0
Ġmerc adorias
Ġcaval eiro
H S
ĠM ist
ÃŃn o
Ġfam osas
ĠBarb ara
ĠB ez
us eram
Ġfil t
ĠCh amb
Ġsub stantivo
Ġrepresent aÃ§Ãµes
Ġceleb raÃ§Ã£o
Ġsecund Ã¡ria
f r
m undo
u ada
ros c
Ġs ente
ade qu
ĠInd iana
Ġinov aÃ§Ã£o
Ġform ados
ĠNo te
Ġand ares
Ġadicion ado
Ġp Ã³l
Ã³n imos
Ġid Ã©ias
Ġestat ÃŃstica
e h
ag en
Ġorgan iz
Ġ188 3
ĠMur ray
Ġadolesc Ãªncia
Ġsug estÃµes
Ġmolec ular
b en
z os
Ġ( ...)
isc he
Ġ8 3
Ġma estro
Ġche ia
ĠGra Ã§a
Ġpac otes
o is
ĠM itch
Ġdes port
ĠProfiss ional
G B
b s
ĠH umb
Ġesc uro
Ġ9 3
ĠSa udaÃ§Ãµes
Ġide ais
ĠC ia
ĠM ul
sing les
ĠL anc
ect or
Ã¢m icas
Ġast er
ĠelÃ©t rons
Ġcicl ismo
Ġcart Ãµes
Ġproven ientes
P ar
t Ã³ria
cl us
Ġlib ras
Ġlegit im
Ġv ic
Ġcompl ementar
Ġproib iÃ§Ã£o
Ġcomp uta
per t
Ġag rav
ĠÃºn icas
ĠPat ri
Ġdivid idas
Ġprev enÃ§Ã£o
Ġconsider e
Ġexpand ir
C opa
L ib
Ġv iva
Ġfl utu
ĠE y
Ġse co
ĠN BC
ĠPol o
Ġperman eceram
Ġdecid ido
Ġadquir ido
co a
Ġintroduz ida
Ġenvol ver
ĠGold en
Ġlong itude
Ġnerv oso
ĠC BS
ĠIn dic
ĠZ ero
ĠAnd y
Ġconquist ado
ĠM arac
ap Ã¡
ora dos
Ġpreserv ar
ra nt
at ividade
Ġacab am
Ġcrit icou
rol l
Ġf ita
Ġno men
ĠSt udio
Ġcham ando
Ġtrabalh ado
Ġ187 1
196 9
ocol mo
Ġdaqu eles
Ġ" ...
Ġex ag
Ġat letismo
Ġav Ã³
B ro
is os
ĠW ars
ĠGas par
ras se
Ġrebel iÃ£o
re en
gu er
Ġdif usÃ£o
g il
Ġcap itais
Ġclassific adas
ĠC arac
Ãº bal
co Ã§o
ĠSal om
Ã¡n dez
ĠB ond
et ing
Ã³l icas
Ġvis itas
M ag
m ons
Ġmus ic
l us
s om
Ġc itados
Ġcer Ã¢mica
Ġprivil eg
Ġde po
Ġg rafia
ĠDan i
Ġtiv essem
' m
Ġv es
gu erra
Ġamost ras
Ġcoron avÃŃrus
Ġ ÃŃdo
Ġpossu ÃŃam
Ġcha p
Ġprotesta ntes
F re
un ar
Ġobt idos
Ġhierar quia
M O
M al
j ara
Ġa te
Ġcom igo
ĠS N
ec eria
Ġret rata
ĠSte wart
Ġles Ãµes
Ġcostum am
ĠSim pson
triz es
Ġl ag
ĠJ air
Ġmod alidades
Ġast rona
ĠJord an
ĠAlago as
m art
Ġf ert
Ġpresid entes
ĠWay ne
bour ne
L os
m ac
Ġen riqu
ĠGra nt
Ġmemb rana
Ġs y
ĠA ga
Ġan gl
Ġof ic
Ġmar g
Ġfic aria
Ġcolet Ã¢nea
". "
ĠEuropa ea
ĠcÃ³d igos
Ġinf ecÃ§Ã£o
ĠBo ys
Ġado tar
Ġvaria ntes
ĠComun icaÃ§Ãµes
Ġs ÃŃtios
Ġf Ã£
um ÃŃnio
Ġinic iando
Ġt iros
ĠB ela
ras h
ram ar
ass in
Ġont em
al iz
ĠQu eiro
197 2
Ġespera va
Ġamea Ã§as
ĠItal iana
ĠSerg io
Ġmara v
ĠC i
ÃŃ vio
Ġb iologia
ĠV ocal
oria mente
Ġvant agens
l ib
ĠI dent
Ã©s io
Ġ10 1
Ġmus eus
Ġestabel ecimentos
Ġtro car
ĠbritÃ¢n icas
ĠNeg Ã³cios
ĠHou ston
ha i
Ġlat itude
enn esse
Ġaux il
ĠestratÃ©g ias
Ġbusc ando
Ġcoloqu ei
ul hos
Ġquer iam
Ġinvestig ar
ĠBus h
D S
iz z
Ġat raÃ§Ãµes
ĠCh er
ĠJeff erson
ĠCB F
B B
Ġre inos
19 45
ĠEl eiÃ§Ãµes
Ġalem Ã£s
Ġsin Ã´nimo
Ġm anda
ĠG iro
ens as
Ġtr ic
ãĥ ³
Ġremov ido
Ġbor der
ĠUlt imate
ĠeconÃ³m ica
ist ia
ĠI SO
enc iou
ĠAr mas
ĠNorm almente
Ġrelat ou
ĠCel so
Ġrever ter
ĠPok Ã©mon
ĠL Ã³pez
ĠSh el
Ġpertenc em
Ġnatural mente
ĠPen al
o Ã§Ãµes
ĠT ito
Ġrit ual
qu ei
Ġpre viamente
ĠMerc ado
ĠFe ito
Ġfogu ete
M T
ĠP MDB
Ġopera cionais
Ġcal ib
Ġatra ir
as m
Ġampl iaÃ§Ã£o
D ire
L I
en za
Ġat l
ĠHer z
Ġvel oc
Ġcens ura
Ġ9 00
Ã³l icos
Ġcaracter izada
Ġcorpo ral
ĠAust in
ĠPesso as
ĠCharlot te
l ess
ĠDe ve
Ġ187 5
ĠJog ador
Ġsobera nia
Ġreiv indic
F e
k ow
od es
Ġnovel as
Ad jetivo
Ġest arÃ¡
lu z
D own
E r
W hat
Ġvol tada
Ġt rÃ¡fico
ĠH ern
ros o
Ġ15 00
ĠPer ry
ĠAugu sta
Ġarran jos
Ġsovi Ã©ticos
Ġg rÃ¡fica
Ġsem an
enc iada
ĠAb el
Ġins criÃ§Ãµes
ĠRon ald
Ġinser ir
Ġs oviÃ©tica
Ġsuger em
Ġsobrev iver
k ar
ĠF unc
Ġcar idade
Ġprov id
ÃŃm etro
ho t
Ġprev Ãª
Ġbiblio tecas
Ġcoorden aÃ§Ã£o
Ġc ana
in idade
Ġo m
Ġdo aÃ§Ã£o
Ġac hou
Ġproduz em
Ġdestru ÃŃda
Ġisol amento
Ġafric ana
Ġdefens ores
C in
um bo
ĠT upi
Ã¡g io
Ġconfirm ada
Ġagu ard
ĠintÃ©rpre te
ĠM Ãºs
Ġconc ret
Ġtent am
Ġcost ume
Ġvol taram
vo a
Ġher Ã³is
Ġpredomin antemente
ig e
ĠN an
Ġreg ente
Ġadvers Ã¡rios
ĠjuÃŃ zes
l ink
u j
ĠAir lines
ĠS yl
Ġac entu
Ã¢m icos
Ġcorre dor
Ġparal is
ĠSud Ã£o
ĠAlgar ve
ad io
ac ar
ru ta
Ġcontro lo
Ġ186 5
Ġcaptura r
ĠStan ley
il t
Ġh isp
Ġdia m
ĠTh or
Ġprecis ava
Ġinstr umental
qu eiro
ĠS ent
ĠI re
Ġativ ista
Ġpromov eu
Ġfrag mentos
is ma
ĠF irst
and ade
ĠPres biter
Ġextrem idade
Ġefic Ã¡cia
Ġecos sist
U T
e jo
Ã °
É Ļ
Ġpar ques
Ġfaz end
Ġfrequ entou
Ġvari ados
Ġaer op
ĠmÃºltip los
ĠEspera nÃ§a
ĠE ta
Ġesc onder
ĠDe ath
ĠCol orado
Ġtotal izando
Ġsab or
197 1
196 8
ĠF ield
Ġla Ã§os
Ġsepara da
w ich
Ġam ador
Ġconc orrentes
Ġajud ando
Ġmar ch
uc ho
pi ranga
c le
s et
ust er
Ġtempo rariamente
ĠGu iana
Ġtro nco
Ġemit iu
Ġgast os
qu ez
Ġsol os
Ġcorrespon dem
Ġcole Ã§Ãµes
p df
ĠM ala
ĠCont role
Ġcul pa
ÃŃ br
ant ic
ir d
Ġlinha gem
Ġmad rugada
Ġcereb ral
ĠCal das
Ġacamp amento
v iew
ĠC itaÃ§Ã£o
ul us
Ġsal vo
ĠRec ursos
ĠWeb site
Ġliteral mente
ĠRepublic ano
Ñ Į
ĠM ob
un ista
ÃŃc ula
Ġapar elhos
Ġapar eceram
Ġ187 6
Ġdivulg ar
Ġinstr ument
ĠRe un
ĠCl aro
ĠDes p
Ġtotal idade
Ġderro tas
Ġimig raÃ§Ã£o
ĠIn g
Ġacompanh ada
ĠArt ilh
c Ãµes
Ġnot ar
ĠLar ry
Ġtend Ãªncias
Ġfi Ã©is
d r
Ġdetermin adas
Ġp enas
Ġ186 8
Ġcir urg
Ġt antos
Ġaf und
Ġestrutura l
ĠK ol
Ġfal so
Ġmens al
v et
ri en
Ġgarant ia
way s
Ġrefer entes
Ġmud ando
Ġfrut as
ec ht
ĠL isa
ĠI gn
ĠCr ÃŃtica
re iÃ§Ã£o
ec on
ĠF ul
Ġver des
ĠMag no
ĠSho pping
ĠÃįnd ice
M at
Ġre pressÃ£o
ĠN ash
Ġ14 0
Ġprop Ãµe
Ġpou so
ven Ã§Ãµes
Ġfa una
Ġjude u
E uro
Ġl ua
Ġes pont
Ġcham ava
Ġobs erva
ĠnÃºc leos
Ġnam orada
ĠEti Ã³pia
ĠP P
ĠM ore
ĠO N
ĠG or
ĠCar m
Ġcin za
Ġgrav adas
Ġparc eiros
Ġviz inha
Ġmundial mente
Ġderiv ada
ĠGard en
ĠP it
ĠEd ifÃŃcio
Ġouv ido
ĠOt om
ic anos
ĠMont real
ĠBer lin
ĠPes o
og n
Ġh orm
Ġcl Ã£
Ġbar cos
Ġens inar
ĠGra Ã§as
ĠPublish ing
A lb
Ġpat rul
ĠArqu idiocese
ĠEcon om
Ġmencion a
ion amento
Ġapro fund
Ġrece itas
Ġamea Ã§ada
ĠE C
Ġparticip ado
dut ores
ĠSte v
out ube
ien ne
Ġfi Ã¡veis
z io
ĠC ross
Ġan uais
Ġ3 50
ĠCon sequ
Ġdesenvolv eram
iqu eira
ĠSw ift
Ġfar inha
Ġbact Ã©rias
ĠhÃºm idas
Ġasc endÃªncia
Ġj Ãº
ran iana
ĠMar ch
Ġfal ada
Ġado tada
we et
att an
ĠCaval c
n ar
p iter
Ġinf ect
ĠSong s
W ar
e is
Ã³r icas
Ġdemonst rou
oph yllum
c il
ĠA rizona
Ġhor Ã¡rios
ennesse e
ÃŃc l
ĠSa xe
Ġemp ur
Ġaprend izado
ĠCatar inense
Ġ urg
ard s
Ġcob erta
ĠOb ama
Ġtransfer ida
ĠD ion
ĠD iana
Ġb Ã´nus
ed oria
Ġcol aborou
Ġvol tando
ĠPal estina
Ġaltern ativo
Ġrenunc iou
Ġcam pus
Ġapresent aram
Ġrelat ado
T rans
Ġf eira
se qÃ¼
ĠI ugoslÃ¡via
ĠV ai
ĠW omen
Ġesp ir
Ġ9 1
i Äĩ
Ġs Ã©
Ġn ono
do xo
ĠD re
Ġent ende
Ġcomp Ã´s
ĠCl ima
Ġgol e
Ġatual idade
os ter
ĠG iuseppe
Ġdes lig
Ġaqu ecimento
Ġexclus ivo
Ġnucle ares
Ġsig la
ĠLiver pool
F inal
L u
ro id
ĠFin anc
p tos
Ġv iram
ĠB Ã³s
ĠD S
Ġdec orrÃªncia
Ġtom adas
Ġcult iv
Ġanf ÃŃb
Ġencam inh
h ara
Ġm ÃŃdias
Ġ18 40
Ġpes ado
Ġempre ende
D er
ĠV all
he z
th ers
Ġnacional idade
ĠÂ »
ĠMc G
ĠÃŃn dices
ĠLor enzo
Ġpain Ã©is
at um
uc ano
Ġparticip ante
Ġsubst ituto
Ġveg etal
ĠcontÃŃn uo
Ġac ham
Ġhip ot
Ġ186 7
Ġcruz amento
Ġf ique
Ġin just
end ido
olog ista
Ġport os
ari us
ĠfÃ¡b ricas
Ġc i
ĠA T
ĠJÃº piter
ĠAr cebispo
Ġgal eria
ĠTrabal hou
ĠCatal unha
Ġincent iv
Ġlut adores
Ġnomen clatura
et Ã¡rio
Ġencont ros
Ġrefer em
Ġsignific ativas
ĠCalif ornia
Ãºn el
Ġving anÃ§a
Ġreperc ussÃ£o
a Ã§
Ġdez esseis
ĠEsp acial
ĠMan s
ĠMem Ã³ria
ĠPrincip al
ĠCacho eira
T unes
um inos
ĠG ay
Ġdes ac
Ġsepara r
Ġexpect ativa
ĠEpis Ã³dio
ĠE arth
Ġprim a
Ġtrans portes
Ġdisse ram
Ġinteress ados
Ġobt enÃ§Ã£o
ĠFel iz
Ġbeb idas
ĠConst ru
Ġh it
ĠJa gu
f en
Ġal erta
Ġpens a
4 00
il da
ĠR A
ĠK ate
Ġcant a
ĠPesqu isas
S on
Ġs ÃŃndrome
Ġf irme
ĠR achel
ĠH ug
Ġinf lam
Ġperform ances
ĠT rat
Ġenc h
Ġcap ita
Ġancest ral
as p
Ġvol tas
Ġlimp eza
t ivas
Ġqu entes
ĠC ine
Ġar c
Ġinter m
ĠLeg iÃ£o
ĠLeon or
Ġsufic ientes
Ġt Ãªnis
ĠG ent
ĠVer e
Ġestre ita
ĠPh ill
ĠKn ight
M art
f ol
Ġde partamentos
ĠB eck
Ġferro via
ĠâĪ Ĵ
ĠSub div
ĠEstre ou
ĠEvang elho
h ado
eb er
Ġpres tar
ĠMen or
ĠC ort
Ġper u
ĠEd gar
Ġobt ida
Ġmostra ram
ĠestÃ¡ gios
ĠMa j
ĠAd riano
Ġtri Ã¢ngulo
ĠTelev ision
al as
an go
ĠE ur
ĠB eth
Ġanim ado
Ġach ei
az zo
ĠK urt
ĠFre guesia
S ol
ĠM ong
ĠG Ã©n
and as
Ġpol ar
Ġmarc aÃ§Ã£o
ĠArg Ã©lia
Ġentend i
ĠLeop old
R ed
o ia
p orta
ur na
ĠIn dex
ãģ ®
Ġdepend Ãªncia
ĠPubl icaÃ§Ãµes
ĠBrux elas
ic tion
ĠFerra ri
Ġm ob
Ġt ende
Ġem bal
ag er
Ġreal izaram
Ġconsidera va
Ġdisp Ãµe
ĠGar y
Ġbilh eteria
Ġo ra
ĠP aram
Ġper egr
ess ion
Ġfal ecimento
Ġr ivais
Ġdiretor ia
Ġpra to
Ġcomerc iantes
Ġvest ido
ĠGer man
Ġatmos f
ĠLÃº cia
idal go
Ãļlt imas
ĠF ica
Ã´n ima
Ġdesenvolv endo
umble dore
ad eiras
Ã³d ulos
ĠpÃ´ r
Ġbenef ÃŃcio
ĠhÃ¡b ito
S em
Ġg ord
ĠAt las
ĠLe al
Ġ187 7
Ġra ro
Ġcomun icado
Ġloc omot
Ġfort una
Ãºc leo
al ismo
ete or
ilh eira
ĠBat man
ver d
Ġquad rado
Ġ186 1
ĠArm Ãªnia
ĠV ik
od Ã£o
Ġim pre
ĠMat er
Ġ187 9
ĠaustrÃŃ aco
( "
st ar
ĠM om
ĠB ara
Ġdefin idas
Ġassass ino
m ico
ĠP t
ĠD umbledore
ĠF im
Ġmud ado
Ð° Ð½
ĠBroad way
ĠB Ã¡s
ĠJ ama
ag ram
Ġ18 48
ĠAd ela
Ġ187 2
ĠDall as
T om
Ġinclu ÃŃdos
Ġdec ret
Ġtransform ado
Ġsupera r
ĠT rop
rag ens
Ġinflu ente
fl ix
Ġjuris diÃ§Ã£o
Ġc itaÃ§Ã£o
Ġs antos
Ġ" ,
Ġl i
gu i
Ġen orm
Ġexporta Ã§Ã£o
ĠL agos
ĠN ass
ĠU b
ĠK ub
Ġor d
Ã¡ss io
ald i
S eg
Ġl embro
Ġlib erais
Ġcul inÃ¡ria
Ġplan etas
Ø§ ÙĦ
ĠComand ante
ĠHein rich
Ãª a
av er
ĠU nt
Ġof f
ĠDe an
Ġpal e
mos s
Ġvot ou
A st
ĠD ragon
Ġide ologia
ĠWal ker
ĠprÃ© via
N ov
c ultura
Ġb in
ĠSil vio
ĠBr un
Ġbeb ida
Ġtan ques
D isc
et to
uro th
ĠPar ece
ment aÃ§Ã£o
ĠFic ha
ĠLabora tÃ³rio
ĠP Ã©
if olia
ĠW ern
Ġpes coÃ§o
ĠSp encer
ĠMad alena
ĠComp lexo
Ġconfig ura
nasc ida
Ġfich eiros
ab y
ĠCh an
Ġamar ela
Ġabsol uto
Ġsub ir
des de
ok o
D an
ot s
Ġgrav idez
Ġconvenc ional
Ġdesenh ada
L ar
Ġentre gar
Ġbar Ã£o
ĠVol dem
ĠThom pson
Ï Ĩ
ĠF Ã³rum
Ġpor n
Ġam az
ĠSe an
Ġbem ol
ĠSil ver
Ġvot ado
Ãºr gica
ĠWat son
Ġdesenc ade
Ġp ago
ĠL ÃŃder
Ġb icam
ĠRec re
Ġtrein ar
ĠRelig iÃ£o
FFFF FF
ĠmÃ¡r more
B ase
ĠÃº teis
ĠBo x
igh ter
ĠPesso al
M et
ent s
rÃ¡ gio
Ġapo nta
itor ia
Ġanunc ia
Ġlat ina
196 4
Ġfug iu
Ġbomb as
Ġcorrespond Ãªncia
ĠP atro
ĠEst ocolmo
Ġdem issÃ£o
Ġcu idar
Ġfranc o
ĠCla ude
Ġorqu ÃŃde
Ġtran qu
or rog
val do
ĠToda via
Ġimpres so
ĠLÃŃb ano
l at
Ã ®
ĠR ia
Ġconsecut ivas
Ġdesloc amento
Ġs enhores
Ġm ito
eg ra
Ġocup ando
Ġdemonst raÃ§Ã£o
un idade
Ġest abil
ĠQu eb
Ã³g rafos
iqu em
ĠEqu ip
Ġrepublic ano
ru g
ĠCas amento
Ġpermit ia
ĠJer sey
Ġfech amento
Ġdiscipl inas
Ñ ı
ĠB izant
ver de
Ġinteg rada
ĠPi etro
c ost
Ġrespon de
Ġcorre c
Ġofer ecido
ĠMon umento
ĠTab ela
Ġinspi rou
ĠVoldem ort
m erc
qu inho
Ġno ut
Ġespecial izado
ĠAd jetivo
Ã¡c ter
ĠComm un
W A
Ġd ano
Ġper feita
Ġen vel
la x
tu as
ĠâĨ ĳ
ĠCoop er
ĠPsic ologia
Ġs am
ĠF itz
ĠV iva
Ġmil ÃŃmetros
Ġdu c
rop ec
Ġ16 0
Ġsec reta
Ġ187 4
ĠLud wig
ĠChip re
Ġd um
ig Ãªncia
Ġmar t
ĠSant uÃ¡rio
Ġcheg ado
Ġsen Ã£o
Ġpri or
Ġurugu a
M el
u ka
ĠP Ã¡
ĠUnivers itÃ¡rio
Ġperman ecem
ĠPortugu eses
s ic
id ia
Ġ18 30
ĠDeput ado
ĠclÃŃn ica
Ġproemin ente
ĠPeters burgo
Ġex ames
Ġad ulta
ĠLe itura
Ġcomand os
ĠAmb iental
in dade
ho ra
ores t
ĠAm aro
Ġperson al
ĠOc up
Ġlevant amento
Ġequil ib
Ġnaz ista
Ġcanh Ãµes
ĠS oph
gu age
Ġcomp r
arg ento
ĠPont if
Ġt ia
olog icamente
Ġsag rou
ern e
amb ul
Ġa ren
ĠM ens
Ġal ong
dor f
Ġenvolv idas
Ġprest ig
b ase
× Ļ
is ebol
ĠC ert
ĠT ap
av el
Ġutil idade
Ġproven iente
Ġperfe itamente
Ġband eiras
at is
ĠW ater
Ġincorpo rada
Ġarrec ad
Ġmanusc ritos
M il
V ocÃª
g round
ut s
Ġmet ro
Ġ187 3
ĠGab ri
Ġvaz io
ĠE voluÃ§Ã£o
Ġcons elhos
lt on
Ġcat iv
Ġpot Ãªncias
Ġang ol
A ra
em entos
ĠG ian
ins ki
over y
Ġemancip aÃ§Ã£o
ĠA ux
Ã¡ lbum
ĠInf lu
ran e
Ġverb etes
ĠsÃ³l ido
ĠS IC
he us
Ġinst ituto
Ġto que
Ġtom ado
áĥ Ĳ
Ġquart os
Ġincap az
ĠBour bon
a ust
in dex
ĠL ad
ĠJos e
Ġremo nta
Ġreflex Ã£o
Ġpalest ras
c ÃŃnio
Ġj uvenil
are jo
ĠGab inete
ĠCaf Ã©
Ġbrev emente
Ġp ux
Ġros a
Ġpun k
Ġorqu est
C N
im al
Ġele ger
Ġcor retamente
ĠSt ra
Ġdefin itiva
Ġer rada
ĠJul ia
ĠOce ania
ĠEngl ish
Ġconc ed
ĠJo y
ĠBeat les
R o
en ix
ĠN acionais
Ġcob erto
Ġdi ariamente
ĠhÃ¡b itos
ĠV egas
ĠcÃ©le bre
in du
Ġl am
ĠAl ente
ĠBry an
B ol
B ig
c ob
Ġinform a
ĠEsc olas
Ġcorre Ã§Ã£o
Ġmoviment aÃ§Ã£o
ĠLus itana
re tas
ĠT ara
oc he
Ġat ivamente
ĠAc ordo
Ġinflu entes
Ġarg entina
Ġsubs idi
u ff
Ġem bl
Ġescolh idos
Ġend Ã©mica
Ġmorta is
ĠBapt ista
ĠCÃ¢nd ido
Ġt ouch
ĠW o
Ġpl en
Ġdiv isa
ow a
Ġnorm ais
Ar g
Ġestabel ecendo
ĠSing apura
i y
Ġ rif
ta ntes
ĠN ada
Ġdes ap
Ġver so
ĠGu arani
Ġdisp ers
Ġpad res
Ġorg Ã¢nica
à ½
Ġ ì
ĠJ azz
ch al
Ġfra co
Ġopt ou
ĠIndivid ual
ĠC ay
Ġfo z
le z
Ġcar Ã¡cter
Ġma Ã§
ĠGra ham
Ġdinamar quÃªs
ĠLG BT
a il
ta h
jet ivos
Ġrespect ivas
ĠPont o
Ġarran jo
NO CC
ando m
Ġdesp esas
Ġluc ro
ĠPeix oto
Ġfot Ã³grafo
p g
ĠSe ja
" -
Ġf atal
ĠEm presa
emb ora
raf a
ĠZ imb
Ġdem as
ĠAtl Ã¢ntica
Ġinteress ado
Ġdeleg aÃ§Ã£o
Ġcen Ã¡rios
ĠsuÃŃ Ã§o
ĠÃ¡ t
ĠAb erto
ĠThe atre
Ġestre ito
Ġmov ido
ĠMunicÃŃp ios
ĠS z
Ãº do
Ġcont Ãªm
ĠEm ira
Ġnome ados
ĠNa k
ĠSal es
ÃŃg ena
Ġrodo vias
ĠHero ÃŃsmo
ĠC anto
Ġtrans l
Ġcat Ã¡logo
Ġtransm issÃµes
isf Ã©rio
Ġluc rativos
Ġdescul pas
ĠUR SS
ĠMatthe w
ĠP rat
ĠT enho
rit e
Ġexist iu
ĠRes posta
Ġcho que
ĠProte Ã§Ã£o
es pect
qu ÃŃmica
at ur
Ġir iam
Ġbar ro
Ġpropor cional
ĠAzerbai jÃ£o
ĠP ur
ĠJ ude
ĠAm y
Ġsurg ir
Ġadquir ida
ĠRobin son
Ġdo na
ĠP asc
ig amente
Ġsu prim
ĠZ en
Ġexper imentos
Ġ186 6
Ġcarreg ar
ĠPS DB
Ġneut ral
Ãºrb io
I dent
S im
es o
re f
Ġas pira
ert ar
Ġcor redores
Ġmed ir
Ġdisput adas
Ġurb anas
ĠhipÃ³t eses
ĠGanh ou
ĠG ou
pl ic
ing e
Ġinstitu cional
ĠÃģlb um
Ï ĩ
Ġde dica
il as
Ġform aÃ§Ãµes
Ġdisc ord
Ġvend endo
ĠDel eg
ĠMada g
g al
Ġp ianista
ĠGu itarra
Ġinclu ÃŃam
Ġcha ves
asto ral
Ġencom end
Õ¡ Õ
qu Ãª
ĠB ec
oc aÃ§Ã£o
ce de
Ġn Ã³
il and
Ġapren deu
b aixo
ĠR ora
ĠT rilha
ĠN ad
Ġent ram
ĠInt roduÃ§Ã£o
Ġdesast re
ĠjÃº ri
E v
Ġf ixo
an ga
Ġrel Ã³gio
ĠReg ul
Ġcompet Ãªncia
Ġjunt as
Ġrap az
Ġrespond ida
B el
ĠS ay
Ġ186 3
Ġacad emia
Ġconsum idores
Ġacons elh
it amento
Ġal l
Ġdez oito
Ġ/ /
ĠIl ust
ĠQueiro z
ĠT inha
rit al
Ġbeb Ãª
ĠConsidera ndo
rit ic
ĠPl analto
Ġru p
Ġdesempenh ou
Ped ro
Ġjes uÃŃtas
l ler
nc a
eu x
ĠAn dor
ava ÃŃ
Ġby tes
ĠRevol ucion
ĠD um
po de
ato es
Ġsa indo
Ġsal Ã¡rios
Ġtub o
Ġesg ot
ĠD im
Ġest ÃŃm
Ġgara nte
ĠNor onha
ĠNet flix
ĠAfric ano
Ġd uma
ĠO st
iz antes
Ġfic ado
Ġcolabora r
Ġbomb ard
T ER
V P
id ando
Ġv inda
Ġsur gem
ĠExpress Ãµes
Ġco er
Ġev ac
Ġenvolv em
Ġconsecut ivos
ĠBad en
b ur
ĠF avor
ĠQu ase
ĠThe od
re ia
Ġf res
ĠN unca
ĠH at
Ġac Ã§Ã£o
uc ky
Ġmen inos
Ã´m icos
Ġdesemp ate
ĠCamp bell
Ġlux o
Ġplanej ado
ĠFab iano
ĠR ho
Ġe rud
ĠT ennessee
Ġpr orrog
Ġorig inou
Ġdiagn ost
Ġacord os
ulos e
Ġdesign ada
Ġestar em
iqu ote
Ġlingu ÃŃstica
Ġexpress ar
rÃŃc ulo
C as
ĠAc c
Ġdivid ir
Ġmig raÃ§Ã£o
ĠSpec ial
Ġcumpr imento
Ù Ī
Ġm old
Ġrevel ar
196 5
Ġprepara do
ĠBot Ã¢nica
ĠRub ens
ĠM ega
Ġl entamente
ĠT ipo
ĠIn oc
Ġ186 2
pro duÃ§Ã£o
Ġperceb eu
ĠperiÃ³d ico
ĠTen ente
ĠS old
ĠH isp
Ġconsidera velmente
Ġren Ãºncia
Ġ186 9
Ġvil as
ĠFantas y
! ",
os ev
ĠV Ãªn
Ġesp ero
ĠAs c
it ano
ĠC ip
Ġver ifica
ĠPro mo
gan da
Ġnaveg ador
Ġang lo
ĠSqu are
B at
ado u
Ġcont rib
ĠBob by
G rande
ad uras
og s
Ġal umÃŃnio
Ġneg ou
Ġcidad ania
Ġaustral iana
H el
er ou
ent imento
Ã¡ lt
Ġg reve
Ġdesc rev
Ġho t
Ġorgan izados
Ġproib ido
ĠSum mer
R om
ĠRa in
Ġact ividades
ĠHan na
ĠKan sas
ĠC ult
do l
ĠT ÃŃtulo
Ġpro to
ĠLu anda
ĠMÃ¡r cio
i ens
ĠP ag
Ġv endo
ĠB ien
de on
ĠT ent
ĠIs lÃ¢ndia
adr Ãµes
Ġprot Ã³tipo
Ġencarreg ado
J ust
s how
ĠK rist
Ġfal s
ĠVis ual
ĠC ru
Ġdes ab
Ġi Tunes
ĠOpera Ã§Ãµes
Ġza gueiro
d if
at aÃ§Ã£o
ĠR ena
ce itos
ill on
Ġsab endo
Ġsofre ram
u pe
Ġar cos
ĠAss unÃ§Ã£o
ĠÃģ guas
ĠHer bert
Ġlut ando
Ġvira da
Ġmest res
ĠMis ericÃ³rdia
Ġagrem iaÃ§Ã£o
P e
id imens
um ba
et ar
Ġus os
ton s
Ġrefl ete
d ico
r inho
Ġpar ecido
Ġmat ric
ak a
Ġt ive
ĠE th
Ġcol ecion
Ġsuspe ita
ĠN ord
Ġres ÃŃduos
Ġro ch
Ġencont rei
Ġdipl oma
ĠHumb erto
u y
ul ha
ĠSe is
ĠGo y
Ġacompanh amento
L S
Ġter Ã§a
19 60
Ġfaz endas
Ġcontra taÃ§Ã£o
Ġtur ÃŃstico
ĠCat Ã¡logo
Ġtermin ais
Ġlo te
ĠMerc edes
el op
ĠT ub
ĠN H
ri fic
Ġpo ntes
Ġcaval eiros
Ġmural has
am ericanas
ĠY osh
Ġ10 5
Ġlegisl ativo
ĠRem o
al har
Ġcom itÃª
ev es
Ġsol t
Ġhard ware
ĠMar echal
Ġsocial ista
ĠRes pon
Ġresta bel
t ria
Ġsen adores
Ġmagn Ã©tico
ĠProp ri
ĠHerm ione
ĠExter iores
M iss
Ġn essas
ĠE ver
Ġjog ado
Ġgovern antes
pr incip
Ġrit uais
Ã¡ us
ac iÃ³n
Ġdispon ibilidade
Ġsobreviv eu
Ġespect ro
g ov
ar u
ĠC aixa
Ġass ust
ĠAb aixo
Ġsof ist
Ġdetermin ou
y p
Ġc adas
ĠJ onas
Ġfil tro
") ;
oqu ial
ĠGarc ÃŃa
Ñ ĭ
Ġp h
et ismo
Ġcons ole
ĠPa Ã§o
196 6
Ġdefend endo
ĠpÃ¡t io
it ies
Ġg ame
Ġp erna
Ġh ÃŃbr
ĠCl ique
Ġdist anc
unid enses
Ġpriv ados
Ġmanusc rito
s ide
Ġc Ãºpula
Ġal arg
ĠEm pre
est res
Ġaut ob
Ð¸ Ð¹
ĠPri x
C idade
y on
Ġemoc ional
Ġd inossa
Ġo mb
et ic
Ġat itudes
est or
Ġmin eraÃ§Ã£o
Ġtransform ada
ĠCin emat
ĠOrto doxa
Ġpro jeÃ§Ã£o
ĠEd die
ĠMo to
Ġplay offs
Ġfec har
ĠN ilo
Ġcri pto
Ġrevolucion Ã¡rio
er ing
ac y
Ġ9 4
A lex
Ġf ei
am oto
etro it
Ġmand ar
L o
z ia
ot hy
Ġprim Ã¡rias
Ġdis far
ĠPat ric
ĠMod elo
Ġcontrat ou
Ġensin amentos
ĠS ever
Ġr id
ak u
Ġsec reto
ĠRa il
ĠTan z
ĠCam peonatos
Ġprojet ada
Ġexecut ada
ĠCrist iano
Ġo pos
ĠL emos
Ġad iante
Ġson hos
ĠHarris on
U P
Ġd icionÃ¡rio
er Ã¢ncia
Ġt ons
Ġ- ,
ral h
ĠTe ologia
ier re
Ġgra de
Ġofer ecendo
Ġfemin inas
Ġestrang eira
Ġmanifesta ntes
Ġiniciat ivas
tex to
Ġfib ras
M od
Ð ±
Ġf uzil
an ie
ĠG ia
ult Ã£o
Ġext raÃ§Ã£o
Ġpass ada
Ġgovern amental
Ġreconhec idos
Ġlidera dos
Ġdivulg ou
I X
b ie
f ig
Ġb ag
Ġdes empre
atura is
Ġrefer indo
Ġlib eraÃ§Ã£o
Ġderro tando
ĠelÃ©t ricos
we en
Ġf ebre
Ġb ale
Ġnot ic
ĠFranc a
ĠMcC art
O C
Ġ18 34
ĠZ a
Ġge ografia
Ġa onde
Ġres umo
ĠAm ster
ĠSpr ing
Ġcabel os
an Ã£
ĠB ach
ac ha
Ãªn ios
ĠCan ada
ĠGra y
ĠRot ten
ĠRodo lfo
Ġcro moss
b in
ac her
era tiva
ĠCh allen
Ġestabel ecidas
Ġrelat Ã³rios
ĠEv ans
yn n
Ġefet ivo
Ġanex o
Ag Ãªncia
ĠQuad ro
Ġaerop ortos
b urn
un de
ĠL inda
ĠG ara
Ġsom os
Ġfl ag
ĠFam ily
Ġsecund Ã¡rias
Ġagreg ado
i h
Ġt ard
Ġmult i
ĠAdv og
Ġdial eto
Ġrecep tor
ĠM MA
Ġlev ados
ĠMed eiros
Ġverm elhos
Ġimprov is
R ugby
ĠN A
Ġj unÃ§Ã£o
ĠVal ley
Ġgera do
Ġharm onia
ĠAur Ã©lio
Ġb it
av en
Ġrep ara
ĠIm agens
Ġintera Ã§Ãµes
Ġs k
Ġac idental
ide a
Ã¢m ide
ĠDel ta
ĠPod emos
Ġdirec tor
å °
Ġque ix
ĠN ab
Ġhouv esse
Ġda tada
ĠL ike
ĠT Ã¡
Ġesc ul
Ġrad icais
Ġ" Â
Ġg ri
Ġg ato
Ġtempo ral
Ġtre ino
ĠTom atoes
ĠTem er
Ġutiliz ador
Ġacess ÃŃvel
B usca
e as
f ab
ar Ã©m
ĠCan ad
Ġtransform ando
Ġabrig ar
Ġesp ess
ĠEl ias
Ã¡l ogos
ĠLeon ard
Mus ic
Ð ³
Ġc ig
Ãª vÃ£o
de ais
ĠSt ock
Ġol Ã¡
core ano
ies el
ĠAmaz on
ĠLy on
ĠBorg onha
ĠAssembl Ã©ia
X T
ĠIn Ãªs
s s
gu ay
Ġim pede
Ġconc orrÃªncia
ĠFo z
10 1
ĠDou ro
Ġaleg ou
Ġsant uÃ¡rio
d icaÃ§Ã£o
Ġc rate
Ġm ira
Ġqu Ã¢ntica
ĠA to
ĠP intura
ĠF en
ch am
Ġdev ast
ĠCab e
Ġreb otes
ĠavanÃ§ os
ĠcÃ¢m eras
obili Ã¡rio
W orld
Ġ1 19
Ġsu posto
ern al
Ġpar ou
ĠestÃ¡ tuas
Ġpal m
Ġprost itu
ĠP ul
Ġv ÃŃnc
ĠEx cel
Ġsel et
Qu ando
Ġmac ho
ĠEncont ra
W h
j eiÃ§Ã£o
ĠR eno
ĠR ural
pl ica
Ġdec ad
Ġaleg ria
Ġqueb rado
p int
qu em
al he
Ġ" -
ĠH ub
Ġpres as
Ġqual idades
Ġsed iado
Ġm g
ĠS ed
ĠCam inhos
Ġinclu ÃŃdas
ĠPar ker
enco nt
ĠTo y
Ġdram Ã¡tica
ĠArn old
Ġgeom etria
R ep
Ġas a
Ġalg odÃ£o
Ġtel espect
pr imento
Ġren om
Ġpais agens
gra phy
osev elt
Ġadminist rado
ÃŃr culos
ĠD anÃ§a
ĠG om
ĠH ig
ĠSt alin
ĠWik iquote
ĠPo esia
Ġaz uis
R et
our s
Ġclass ificar
Ġlig ando
ĠMal i
ĠRevol ta
it ariamente
Ġesc ura
Ġpl at
ĠCal d
Ġvar iar
ĠBak er
ĠCorr Ãªa
ĠL ock
ĠJ ob
ĠinÃ©d ita
b os
Ġus avam
iss Ã¡rio
ĠFre qu
ĠYe ar
ĠPert ence
Ġrefug iados
D I
D iv
p is
Ġ12 5
ĠHe avy
Ġocorr ida
ĠavanÃ§ ar
f ul
Ġtom aram
Ġelabora do
Ġades Ã£o
s Ã©rie
ĠP ink
iv ista
ĠB urg
Ġant ecessor
Ġt upi
ĠC oc
ĠMar ta
Ġparticip am
Ġref rig
Ġrom Ã¢ntico
ĠSim Ã£o
encia tura
D r
Ġg rÃ£o
ĠV Ã´lei
Ġ18 59
ĠIn aug
ĠPara ÃŃso
ĠRec entemente
Ġess Ãªncia
ĠEspanh ol
ĠR ond
ec ado
Ġcer veja
Ġvari adas
ĠPod em
g art
r er
ĠD if
ĠJ en
ed ente
ĠVer dade
Ġempres Ã¡rios
Ġexempl ar
Ġcir ÃŃlico
ulb ophyllum
C asa
ĠF rom
ess enta
ĠCons ult
Ġident ificados
Ġarm ado
196 3
Ġdepend ente
Ġin er
ĠK as
ĠÃ¡ r
uro ra
Ġmod ificaÃ§Ã£o
ĠAss untos
ĠGru pos
Ġincom um
Ġdiplom ata
ĠTermin al
ĠPerform ance
Ġorto grafia
design ada
S u
ĠB enn
ĠG R
ĠG amb
Ġdistribu ÃŃdas
ĠNob re
Ġescoc Ãªs
v ersÃ£o
em ann
ĠSu p
Ġflu ido
Cl ube
Ġentreg ou
iv odia
ĠB astos
Ġsuc edida
Ãºc ha
Ġlevant ar
L et
is Ã©s
ent ure
Ã³n icas
ĠRes ultado
H en
Ġne ur
ĠMont es
ĠPrinc ÃŃp
Ġre aval
ĠEd ition
ov Ã¡
rom agn
Ġtermin aram
ĠAlb Ã¢nia
Ġengenh eiros
?? ?
Ġcred itado
Ġsuje itos
ĠJenn ifer
ĠA ff
Ġcr ista
ĠSe ul
Ġacont ecendo
ĠAlem Ã£
Ġfut uras
ĠÃ³t imo
ĠA G
on ÃŃm
Ġin espera
Ġprom essa
Ġdiplom Ã¡ticas
er da
Ġvo taÃ§Ãµes
ĠBel g
196 2
Ġvin dos
Ġn on
Ġno ites
ut su
Ġcer e
Car los
i rando
ĠG T
po des
amb o
pres so
Ġir landÃªs
Ġpreocup aÃ§Ãµes
Band eira
ĠHers chel
co ord
ĠFl and
ad Ã©l
Ġesc Ã¢ndalo
Ġro l
ĠX uxa
uc ar
don da
ĠJul io
ĠObserv atÃ³rio
Ġin adequ
ĠSo ul
Ġregres so
ĠEm my
Ġmil itantes
cam peonato
Ġch ances
Ġhom ic
Ã¤ r
Ġorient ais
Ġcoinc id
Ġreel eiÃ§Ã£o
ĠPresbiter iana
ĠE SP
Ġun ir
Ġlev es
ĠRec onhec
Ġcha pa
Ġconserv ador
ĠRev iew
p ic
al so
ĠC Ã©u
Ġdestac ados
Ġd ieta
Ġs or
id encial
ĠC C
ĠL ap
ĠCom para
ĠÃ©p ocas
Ġtur ma
land eses
Ġindic ou
Ġvide o
Ġconsum idor
as co
ĠA leg
ul sÃ£o
Ġrec uper
Ġdesc ritas
Ġconver g
Ġtrag Ã©dia
Ġ18 55
ÃŃs seis
land s
Ġretorn ando
Ġrevel aÃ§Ã£o
ĠApresent a
Ã¡ut ico
L i
or ies
ĠE cl
anc ho
ĠMa u
Ã³t icas
Ġrad ial
ĠFrank furt
ĠBiodivers idade
ĠbÃºl g
ĠAlente jo
n orm
Ġm ess
ĠJ in
Ġcons piraÃ§Ã£o
Ġreceb idos
Ġperc orre
ĠdomÃ©st icos
Ġm eias
Ġf om
Ġt antas
ĠG rim
mo to
Ġper io
Ã©s pera
Ġmed ia
Ġmin i
Ġmon op
Ġs cript
is ÃŃvel
Ġh ep
Ã¡t il
Ġtel as
Ġperman Ãªncia
Ġfig ur
Ġsofr ido
Ġhorizont al
re o
eg el
Ġsem anal
Ġdesenvolv edores
Ġacompanh ou
Ġinser Ã§Ã£o
alt is
ĠÃ¡rb itro
ĠSalom Ã£o
B al
S ec
ĠH ap
Ġant agon
ĠCol et
Ġfech ou
ĠRora ima
g rÃ¡ficos
an us
ÃŃ aco
ĠAnt io
Ġsab em
ĠPos s
ĠRecord es
ĠRem ix
Ġqueb rar
M eu
ĠS ri
ou gh
ĠL ara
) -
D F
S m
â Ĩ
Ġpromov e
L ife
et ive
ĠAnd roid
Ġjunt aram
adÃ©l fia
Ġ io
Ġda qui
ĠM esa
ĠJ uvent
Ġpo etas
Ġenvolv ida
t w
Ġp uro
ic ul
en ido
ĠG ut
ĠEst ÃªvÃ£o
Ġcel ulares
un i
ĠF lu
ĠIgre jas
ĠVis eu
Ġespet Ã¡culos
" ",
H o
d ale
Å ¾
Ġsu eca
ion Ã¡rios
Ġpos itivos
Ġgovern adores
ĠRo osevelt
Ġprat os
Ġhistor icamente
orreg iÃ£o
ĠT iro
Ġdefin iu
ĠCand id
ĠInf ante
ĠMarc us
ĠNic olas
Ġvas os
j ogador
Ãª ne
ĠSoc cer
ulg ar
Ġprotagon istas
Ġperd ida
ĠSubdiv isÃµes
icas se
ĠMa k
Ġofer ecem
Ã¢nc io
ĠSin dic
ĠHom en
Ġcomport amentos
ĠPÃºbl icas
Ġafric ano
ĠUs ina
ĠMargar et
ĠAdela ide
w al
Ã©c t
Ġdefin itivo
alh es
Ġgram Ã¡tica
Ġembarc aÃ§Ã£o
c ell
em ias
ĠD od
ĠV a
Ġmod ificado
ĠSet Ãºbal
Ġgarant indo
ĠGran ada
Ġcontrol ada
Ġdemit ido
ĠMath emat
ĠL INE
ĠBlu es
ĠManh attan
ĠQu into
ĠIm agem
Ġsof rendo
ĠMur phy
ĠConst ruÃ§Ã£o
Ġopon ente
Ġremanesc entes
g r
ĠT up
ĠRo que
ĠAdo lf
ĠdomÃ©st ica
Ġexpl ÃŃc
ĠMo ham
ĠSac ro
Ġtera p
Ġgr Ã£os
Ġtria ng
ra x
est inos
ĠNa quele
Ġcrit icado
196 1
ĠInter pre
Ã¡rqu ico
Ġrast re
Ġtouch down
U M
ĠM ang
ĠB irm
ĠL una
Ġinterpre taÃ§Ãµes
Ġcirc uitos
Ġtraduz ir
d ir
â Ī
Ġ ~
Ġt eu
Ġre cl
Ã¢n ime
ĠApar ecida
ĠSegu indo
M as
t ividade
Ġsof rimento
Ġexcl usÃ£o
orou gh
ĠP ir
ĠM Hz
ĠL ow
Ġsom bra
P I
ĠD ennis
ĠF at
Ġter Ã§o
Ã´ r
Ġdet Ã©m
Ġem oÃ§Ãµes
Ġcri ei
Ġorgan izadas
Ġpat rimÃ³nio
Ġforn ecimento
qu in
Ġg rit
gu ei
Ġpar Ã¢metro
Ġinv enÃ§Ã£o
Ġrev og
Ġalte rada
ĠPont os
Ġgene al
Ġd iga
Ġass entos
Ġus aram
ĠSt uart
Ġma us
ĠCr is
ĠCent ury
ĠGra to
ĠdomÃ©st ico
inot ÃŃcias
M arc
ĠN oroeste
ĠU ganda
ĠAl as
ire n
ril l
U SA
Ã ¬
Ġ ).
ĠS car
ĠO per
endo u
Ġdest inados
Ġconv idou
Ġrug by
Î ´
ĠB acia
ist s
ion istas
Ġforn ec
Ġnam orado
ĠCh ang
ĠMin d
ĠIrm Ã£os
ĠhÃºng aro
ĠRousse ff
iv aÃ§Ã£o
iz o
ĠFl ash
ĠBal tim
v ios
Ġm Ãº
Ġdo aÃ§Ãµes
ĠM Ã©to
ĠO v
ĠImpera triz
rÃ³p ole
t it
Ġc aixas
ĠS ard
ĠP Ã¡t
Ġl Ãª
ĠPer gu
Ġroman as
Ġprat icar
Ġneg ativas
c c
ĠLu ke
ĠIm ag
ĠPer d
Al em
uri que
ĠPass ou
B a
il Ã£o
enc ar
Ġencont ravam
ĠcomeÃ§ ado
Îº Î±
it ic
io t
ĠD ura
Ġal vos
ĠEm ma
ust ent
Ġcabe Ã§as
Ġfra ca
ĠLor ena
Ġfabrica ntes
Ġtort ura
c ica
f atos
s y
ĠT ipos
om y
und as
Ġpol uiÃ§Ã£o
Ġtr il
ĠPo int
ĠGo ul
Ġexerc ÃŃcios
ĠHom ens
ĠRay mond
ĠGeorg es
ĠLINE AR
pe ach
Ġ18 36
Ġcol igaÃ§Ã£o
iss ip
Ġequip ado
ĠGuer ras
A o
n us
ĠT ij
Ġsobre n
ĠIn dust
ĠGu a
ĠVÃŃt or
C he
Ġhaver ia
ĠTerrit Ã³rio
Ġd ren
on da
us er
und i
Ġexpl od
Ġsent idos
ĠAdo lfo
M or
Ġm issa
Ġm entais
Ġinstal ar
Ġempre gos
S am
ĠAnt rop
Ġestim ativa
Ġatac ado
Ġvog ais
/ ,
y u
ant h
Ġj ul
Ġexp or
Ã¢nt icos
ĠInf elizmente
cer ca
Rev ista
D em
Ġde vol
ig en
et z
ass i
Ãªm icas
Ġexib ir
Ġinser ido
Ġcad eiras
Ġno iva
ĠD ob
rel Ã³gio
Ġmission Ã¡rios
Ġconfi Ã¡vel
ĠBaltim ore
a ugu
r Ã³i
or is
ia to
Ġap elo
Ġass alto
Ġrec re
Ġcor da
ĠavanÃ§ ado
Ġmong es
Pres idente
Ġneer landÃªs
E UA
x to
Ġesp aciais
Ġemb aixada
Ġvet or
V ic
ĠF iz
ĠAn ag
Ã¤ n
ĠLitu Ã¢nia
D el
Ġp enso
Ġn isso
enc iados
Ġelimin atÃ³rias
ĠWar ren
Ġti rou
v re
Ġp om
qu ando
Ġf us
ĠC lay
tor s
Ġacess ar
Ġeconom ista
Ġdiscrimin aÃ§Ã£o
peach ment
Ġd ro
Ġde dos
ic ius
an ne
ĠN in
ru pt
Ġcur tos
ovi Äĩ
As soc
Ġelet ricidade
ĠJohann es
D ia
h el
Ġ Ã³s
Ġco e
Ġat ende
and in
Ġ18 35
Ġbat eu
Ch rist
Ġdep Ã³sitos
ĠPontif ÃŃcia
z zo
ĠP RO
ĠW he
ĠMar inho
ĠPr ince
Ġderro tados
Ġpens ando
Ġcomplex as
ĠCole Ã§Ã£o
Ġrum ores
Ġâľ Ĩ
Ġagrac iado
Ĥ ¬
Ġs ÃŃl
ĠD ak
ac ta
era nos
ĠH erc
Ġw as
Ġelog ios
Ġbrig a
Ġt ua
Ġcont est
ĠAr senal
Ġaf inal
ish i
Ġtrib ut
ĠVirg inia
ĠÃįnd ias
on al
Ġser p
ĠW es
ĠMar iano
Ġab rindo
19 50
Ġtr ilhas
ĠDÃ©c ada
ĠGri ff
era tion
ĠEnc iclopÃ©dia
Ġafast ado
Ġpun iÃ§Ã£o
ĠinÃ©d itas
a Ã§a
Ġn ona
ĠO ak
ĠH orn
Ġev itando
ĠPass os
Ġsobera no
ust os
iss or
Ġdiv ina
Ġrepresent ados
ĠquÃŃm icas
Ġtera pia
in ville
ĠP asso
ĠSe de
ÃŃnc ipes
ars Ã³via
âĻ Ń
ĠBizant ino
w itz
ĠR id
Ġneg ativos
ĠMe tac
Ġelev ando
ĠSur in
Ġimpul so
i Ã¡t
ĠD anny
defin iÃ§Ã£o
I SBN
Ġat rap
Ġ18 54
ĠPre ta
Ġprecis ar
Con us
Ġmel odia
Ã ½
qu ias
Ġf ara
era Ã§Ãµes
Ġar ra
Ġint enÃ§Ãµes
Ġab at
Ã¡r m
Ġcirc und
Ġvig ilÃ¢ncia
cla udio
r idades
ag i
est rada
Ġlig as
Ġbloque ado
Ġpri oridade
R C
p Ã©t
s an
Ġs ino
Ġtr ig
Ġw h
ĠHel en
Ġnegoc iaÃ§Ã£o
T ime
Ġe ros
ul h
ĠL eb
Ġdes vio
Ġcar reiras
Ġret ratos
ĠAb adia
ĠInter continental
ĠTele f
y t
ic ho
at su
ĠL ane
us as
se de
ess ado
Ġra cio
ĠÃģ r
Ġdesign er
Ġexecut ivos
ĠNat han
Ġprofund as
j claudio
Ġl ento
osp el
Ġcapac idades
Ġacert ou
ĠJama ica
ĠF le
ri entes
ĠJ ard
hec o
Ġrec orrente
Ã¡s coa
Ġreceb ida
Ġpatro cin
Ġen do
Ġ18 22
Ġbas quetebol
Ġestim ativas
rac ha
Ġexecut ados
Ġcomando u
O P
it ions
Ġpes ada
ĠGonz Ã¡
Ġdissol uÃ§Ã£o
Ġpromoc ional
f iz
Ġc itando
ro ugh
ĠM ina
og l
Ġinst ant
Ġatrav essa
ĠBan gl
Ġmem or
Ñģ Ðº
ĠErn st
Ġvis Ãµes
Ġflores tal
Ġtab ul
ĠSen egal
Ġth is
Ġpec uÃ¡ria
ĠID H
Ġdomic ÃŃlios
g ie
ĠS ut
ĠL ug
ĠAm igos
Ġpes ados
umb er
Ġexig Ãªncias
Ġco ral
ĠJ ong
Ġcria turas
Ġcontro lado
ĠJog adores
ĠFut sal
F S
Ï Į
re go
ĠS ra
ĠR Ã©
ĠW ant
Ġdesc ritos
ĠOr t
Ġquad ra
ocol ate
ĠCou to
ĠMetac ritic
F lor
Ġn ativo
ĠB ronze
he Ã§o
Ġjapon esas
T ur
d an
ĠP ut
at inga
ĠLu ta
Am or
Ġnoruegu Ãªs
1 20
Ġt im
ĠK itt
ĠCol omb
Ġcomerc iante
ĠSab oia
áĥ ĺ
ream ing
Ġquart el
Ġconvenc er
Q U
ia bÃ¡
ĠAl iados
Ġver ific
Ġcandid ata
Ġpromov ida
Ġconfirm ar
ĠP rud
Ġse qÃ¼
ud as
ry s
ĠD rag
Ġencerra r
Ġselv agem
Ident ificador
. ",
à ®
ros sa
Ġbar ragem
ĠIta p
Ġanf itri
ĠÃģra bes
P aris
Ġc ed
Ġn estes
ĠTer ry
Ġprovoc ar
ĠUrb ano
ĠFrancis ca
ĠM Ã¡g
ĠB ola
Ġch Ã¡
ch ar
19 39
Ġimedia ta
Ġsustent Ã¡vel
ĠApol lo
ĠBÃ³s nia
Ġes mag
man uel
ĠSant arÃ©m
Ġfund ar
Ġconsegu i
Ġelev ados
Ġresol ve
prim eiro
ĠHud son
u ando
19 58
ĠAr ro
Ġgent il
Ġj ura
ĠPrim avera
ĠMod el
Ġfarmac Ãªut
Ġs enhora
Ġf um
ĠD etroit
Ġal co
19 59
ĠPa ys
tor ia
Ġespecial izados
ĠMil an
Ġsust enido
Ġcalc ular
Ġf ina
ĠP age
Ġpens amentos
ĠVan essa
Ġbizant inos
æ ĸ
ad eu
ĠEm an
Ġindic ados
Ġregul amento
B issau
R ol
Ġa i
Ġc itadas
Ġmar quÃªs
Ġgovern ou
Ġgra Ã§a
AR T
Ñģ ÑĤ
Ġapropri ado
b anda
Ġre esc
ĠCh el
Ġfoto graf
Ġpatroc ÃŃnio
ĠOtom ano
ĠP inh
ĠE instein
ta g
ĠG un
Ġim Ã³vel
ĠK ane
ĠCar men
ĠPatr ÃŃcia
e e
Ġco uro
il do
ĠD ragÃ£o
iz ation
Ġac aso
Ġtur cos
ĠBro thers
ĠGra ce
Ã©re os
ĠNav arra
Ïĥ Î±
Ġbura co
r g
r ero
it led
Ġcont ing
Ġdis posto
ĠsÃ³ dio
Ġestad unidenses
Ġcampon eses
Ã³ ia
oc ada
ĠI C
Ġpal estra
Ġlig ar
Ġvenc eram
Ġassent amento
Ġofic inas
T U
ĠH as
isc ons
Ġcontin entes
ĠDem ocracia
Ġident ifica
Ġrom Ã¢ntica
ĠInc lu
ĠEspec iais
? ),
n or
x i
Ġd adas
es ch
ec ha
ĠF ame
Ġcont abil
pl er
and ia
Ġpos ta
ĠDecl araÃ§Ã£o
ĠE us
Ġte Ã³rico
Ġpra Ã§as
ĠMo isÃ©s
Ġsens ibilidade
Ġholand eses
Ġmodern izaÃ§Ã£o
ĠpÃªn altis
p zig
ĠV ul
Ġcontinu amente
Ġarm ados
E B
z z
Ġab rigo
Ġesqu el
ĠTob ago
Ġsubter r
Ġc ÃŃrculos
Ġex posto
Ġan da
eb o
Ġinter ferÃªncia
ĠPro gress
Ġcham am
ĠCop as
Ġterc eiros
ĠPe ople
Ġroman iz
Ðµ Ð½
Ãºnc ias
Liv ro
at riz
ĠPr Ã©mios
ĠExt re
Ġevent ual
ĠCov id
Ġira qu
Ä Ļ
Ġf la
ri ar
ĠK ap
Ġmar rom
Ã¡l ico
Ġdout or
Ġneut ro
Ġpecul iar
m ers
ad Ã£o
ĠH avaÃŃ
anc eler
redo nd
Ġacont ecimento
ioc es
ĠAntio quia
l ight
p esso
ĠL loyd
ĠK ay
Ġcam a
Ġdisput aram
ĠTom my
Ġmencion ada
Ġco ver
Ġqu Ãª
ine a
ĠSe a
ĠFern Ã£o
cha ve
S ant
v ide
re ra
el amente
ĠM all
Ġpol o
Ġtermin ado
Ġdisput ados
Ġinfin ito
ĠBrand Ã£o
ĠPetr Ã³polis
re dos
at Ã¡rio
ĠF ria
ĠH T
Ġcl and
Ġcompl icaÃ§Ãµes
ĠRen Ã©
ĠSupre ma
ĠCra ig
ro po
Ġcon fede
op hy
rÃ¡ ul
Ġher b
Ġare na
u res
ĠAl onso
Ġ18 57
ĠGu ide
Ã³t eles
Ġmap e
EI RA
M adeira
æ ľ
Ġen ga
IB GE
ĠTrin idad
Ġfel icidade
g rande
emb erg
Ġtr ist
Ġfal ecer
Ġatribu i
Ġdesapar ecimento
j unt
Ġs anc
ĠH im
ĠK han
Ã³p tero
Ġprov incial
Ġexib e
Ġnatural idade
S obre
Ġa ra
era n
ĠQu ir
ĠRobert s
ĠAlt ern
al is
il eu
at on
pos a
Ġsegu idos
ĠGe ogrÃ¡fico
ĠVal ent
ck er
Ġdivulg ada
ĠHill s
ĠMara v
ĠCheg ou
ĠD este
ĠF ighter
ĠN y
ap ro
Ġaut ent
ign e
Ġilust raÃ§Ãµes
ĠLegisl ativo
D R
ï ¼
Ġs essenta
Ġv a
ul i
ĠT et
ĠCam eron
Ġdifer encial
ĠMin nes
apar te
ĠCrist Ã£
ĠMass a
Ġsacerdo tes
ĠGonzÃ¡ lez
Ġ Ã³dio
Ġv ass
ĠAl ma
Ġpredefin iÃ§Ãµes
V ila
á ¹
ĠB abil
ĠDuc ado
ĠR PG
ĠG ig
ĠG ana
ĠV ing
Ġ18 00
Ġra ra
Ġdist Ã¢ncias
Ġsom b
Ġmass acre
In f
IS T
Ġevol ut
ĠBened ito
ĠSoroc aba
il is
Ġform adas
Ġimp actos
Ã¡r ze
ais e
te o
ĠBras Ã£o
Ġefet iva
ĠEvang el
Ġabsolut amente
Ġhot Ã©is
ĠSurin ame
Ġ @
Ġde com
ĠR h
ai or
Ġencont rando
Ġmod ificar
ĠTur ner
Ġprot ocol
Ġrepro dut
Ġm Ã©rito
Ġt ij
ĠL ado
ĠH ur
ĠLa u
Ġcres ce
ĠMinnes ota
nt i
ic iano
Ġb rut
Ġsu posta
Ġ18 52
Ġ10 2
ĠAv eiro
Ġdesapar eceu
on io
Ġb lu
". ..
ĠEs planada
Ġmot oc
Ġespera ndo
ĠMen ino
Ġgosta va
Ġ ÏĢ
Ġd Ã©
og Ãªne
ĠPal av
Ġtec lados
Ġmist Ã©rio
obo x
Ġtras eira
ĠlanÃ§ ando
ĠY a
Ġgl Ã¢nd
Ġenfrent aram
Ġrest riÃ§Ã£o
Ġesbo Ã§o
Ġrecept ores
U SP
× ķ
id iana
ĠL apa
ri us
ific amente
Ġho p
Ġren der
ĠFor ce
ĠBarros o
Ġgin Ã¡stica
qued os
ĠEta pa
Ġd ÃŃg
Ġsuper visÃ£o
Ġtest ar
Ġpresid enciais
ĠExt ra
S ul
z za
Ġpres taÃ§Ã£o
Ġjog abilidade
ĠDes cul
af fe
Ġbat izado
ĠMor eno
S I
ĠG NU
Ãº gio
ĠRe bel
Ġdefin iÃ§Ãµes
ĠCap ÃŃtulo
ĠWh at
Ġqueb rou
Ġabund Ã¢ncia
it ei
ende d
ĠestratÃ©g ica
Ġexpul so
Ġexpul sÃ£o
ĠN ames
Ġdesc revendo
Ġobrig atÃ³rio
Ġprev en
ĠKid s
Ġmedalh ista
Ple uroth
ĠN Ãºcleo
ĠV arsÃ³via
Ġap Ã³st
ab ama
Ġreg isto
enc y
ĠInst agram
Ġelev adas
Ġconcent ra
ĠItal iano
ÃŃfer o
Ġd uro
Ġm orrido
Ġl iqu
ĠT ip
Ã©cn ica
Ġcomb inado
Ġabandon ada
Ġt Ã¡
Ġcom edia
ĠB ass
to on
ch y
ĠPa iva
Ġun Ã¢nime
idel idade
Gen eral
g ebra
ades h
Ġlivre mente
Ġvide og
Ġdign idade
Ġc Ã¢n
or Ã¡
ÃŃ rem
ĠT ropical
Ġdenom inaÃ§Ãµes
rÃŃ guez
Ġconver teu
onÃŃm ia
Ġn Ã³r
ĠG an
ĠCom endador
ĠWik is
Ġresol v
ĠAlm ada
ĠLac erda
I nd
Ġt ap
un has
enc iosamente
ĠQu arta
Ġcr Ã´nica
Ġcolabora dor
Ġdout r
Ġbilh Ã£o
Ġlog otipo
imb urgo
Ġgrat uito
Ġm ista
ĠD id
ĠT ric
Ġent endo
ĠAnt o
Ġpoder osos
Ġenorm es
ĠR ios
Ġfal Ãªncia
ĠPac heco
ĠTest em
ĠBrig ada
Ġdorm ir
Ġ ri
Ġa feta
ĠV eg
ĠCon junto
Ġir re
Ġdistribu ÃŃda
Ġcrit ica
Ġautom Ã³vel
ĠGil bert
ĠMaur ice
ĠCasc ais
---- ----
it su
Ġdes ag
Ã´m etro
las h
gon al
Ã³qu ias
ĠL iz
gu em
Ġabando no
Ġdomin ar
Ġbor bol
Ġno ca
ĠF rit
et izaÃ§Ã£o
le e
ens or
Ġeduc acionais
Ġbl ind
ĠB ran
Ġrec ip
Ġvo ivodia
Ġcrist Ã£s
Ġdeb aixo
ĠavanÃ§ ada
Ġsin f
Ġcicl ones
es h
ĠL emb
iz ante
Ġex pon
19 55
ranc a
ĠDel gada
ĠCount ry
I F
ĠC ortes
Ġsu ave
ĠCent re
Ġlib erado
ĠHenri ques
U D
f et
ĠB ingos
ob ia
Ġpl analto
ĠFil adÃ©lfia
Ġfac uldades
Ġindic ativo
ĠSn ape
Ø ¯
ch ester
ĠsÃ³ cios
Ġinflu encia
Ġeleito rais
ĠRod rÃŃguez
ĠNic ol
ĠFreder ick
Ã¡ce as
Ġrac ial
Å Ľ
Ġl endas
Ġest ima
ĠI G
Ġor din
Ġcaus ados
Ã³t ipos
fo i
ĠMad ison
Ġproteg ido
ĠNorm an
ĠLi je
Ġpion eiros
m icas
Ġs ang
ĠB ren
Ġ18 58
Ġmant iveram
ĠGoul art
f ast
as Ã£o
Ġl ema
Ġres idente
all es
ĠAd rian
Ġexpand iu
ĠBrook lyn
Ġvenez uel
aliz Ã£o
Ġcl ero
Ġfund ament
Ġdeix am
ph ia
Ġep id
Ġpeda Ã§os
ĠLt d
ĠRenas cimento
c ategoria
m ir
Ġd Ãª
ÃŃ bal
ĠL em
ĠN eb
ur p
est ruturas
ĠSab e
ĠFight ing
it em
ĠL ion
et Ã¡ria
Ġreal izam
ĠQu est
ĠPre z
Ġguitar ras
y ne
Ġn i
am an
Ġum idade
Ġampl iar
Ġregress ou
ĠBien al
f io
Ġb elo
Ġapar ecimento
Ġvis itante
ĠMo ta
Ġanim ada
Ġrefor Ã§o
Ġsuport ar
Ġtelespect adores
ĠAr co
Ġmed iÃ§Ã£o
ĠSeg a
aca o
Ġjur ista
EN T
Ġhaver Ã¡
ĠFront eira
ĠA viaÃ§Ã£o
Ġh eter
Ġart ÃŃsticas
ris h
Ar qu
Ġnasc er
Ġviol ino
Ġinstal ou
Ġsou be
ĠFerro viÃ¡ria
Ġcorrespond entes
O D
Ġp etro
Ġ( âĢľ
Ġtro fÃ©u
Ġdirig entes
Ġatra iu
Ġadapt ar
" /
st ru
ĠB au
Ġab orto
ĠCal endÃ¡rio
ĠRes oluÃ§Ã£o
Ġsp in
Ġo ver
el ada
Ġdiv Ã³rcio
Ġlib era
ĠLib ertaÃ§Ã£o
ĠtÃ©r mica
ĠDant add
Ġj antar
ĠHe ad
ĠInf antil
Ġselecion ados
Ġplan ÃŃcie
Ġcunh ado
ĠpÃ¡ss aros
ĠA va
el Ã£o
ĠM elhores
rio ta
amb u
Ġvo ar
Ġbar reira
Ġdeclara da
Ã©re z
Ġincorpo ra
Ġapont am
Ġassemb leia
Ġt ensÃµes
Ġrec icl
Ãªn ior
Ġden Ãºncia
Ġobrig aÃ§Ã£o
Ġapont ado
ĠConhec er
Ġcurios idade
ĠArist Ã³teles
c et
n ell
Ġ18 56
ĠPal ma
H y
Ġo us
ov ich
Ġvis ÃŃveis
ĠArt istas
Qu em
Ġbio grafias
Ġbloque ar
ĠCicl ismo
h om
ĠS now
on ista
ĠD isco
Ġmant inha
Ġremo del
Ġpros per
Ġnaz istas
ĠRal ph
ar um
Ġ18 46
Ġreal iz
ĠReg istro
Ġlim itaÃ§Ãµes
Ġnasc ente
Ġtransform aÃ§Ãµes
Ġadap taÃ§Ãµes
A ut
f ora
n ico
ĠT ot
ĠSe Ã§Ã£o
ĠDes se
Ġregist ra
Ġautom Ã¡tica
Ġtrib uto
ĠGre y
arn aÃ§Ã£o
Ġconvenc ionais
D oc
v ed
ĠT rem
ĠRe port
Ġinform Ã¡tica
ĠCol ombo
Ġcontribu indo
Ġcole Ã³pteros
ĠMen eses
heim er
al em
ĠL our
rada Ã§Ã£o
Ġquer endo
Ġtransport ar
ĠDomin icana
Ġcrimin osos
Ġdista ntes
Ġproemin entes
lah oma
teb rados
ĠN ancy
az e
Ġ18 37
Ġmon ge
ĠVit Ã³rias
Ã³m ica
Ġveloc idades
ĠW u
ĠIn do
ĠInf Ã¢ncia
ĠSelv agens
g rupo
Ġap rim
Ġcont acto
Ġsa ÃŃram
ĠMac edÃ´nia
ĠPho enix
Ġmetodo logia
ĠContempor Ã¢nea
H C
W est
w aldo
ĠH esse
Ġtur ÃŃsticos
Ġbo xe
Ġbar reiras
Ġconex Ãµes
Ġsubsequ ente
b Ã©ns
Ġda tado
ĠAnt eriormente
ĠCont rov
ĠTer mina
Ġafil iada
end ia
Ġfil iado
Ġenc ant
ĠAnt iguidade
Ġcri adores
ĠCop enha
ĠQue ens
Ġsag rado
Ġassassin atos
Ġterror istas
r ino
Ġcont atos
ĠK ur
Ġch ar
Ġdia nt
Ġra ras
ĠFern Ã¡ndez
encial mente
ST OR
Ġtestemun has
ĠÃĤng elo
augu rou
V ida
vel and
Ġdivid iu
Ġmort alidade
Ġemp at
ĠDev elop
Ġargument a
ĠÃ¡c idos
Ġincon sc
Ġpseud Ã´nimo
Ġa ze
Ġt ru
ĠV on
eb a
Ġcomun icar
ĠPl ace
ĠFigu eira
Ġajud Ã¡
Ġtempest ades
Ġconver ter
ul ante
Ġb anho
ida y
Ġnum eraÃ§Ã£o
ax e
ĠGust av
ĠLic eu
Ä Ł
in amento
ĠC ul
ĠO ur
ĠD it
Ġcon ferÃªncias
Ġexib idos
Ġimpera tivo
Ġbe isebol
8 00
Ġp q
Ġos so
ud al
Ã¢m bio
Ġrest rito
ĠRan king
ĠConserv aÃ§Ã£o
ĠA V
ĠK ey
Ġinst Ã¢ncia
ĠBlo od
Ġtranst orno
o ja
Ġat er
Ġint r
Ġcar bon
ĠY ang
ĠSe p
Ġval idade
ĠFin anÃ§as
Ġsolic itou
ĠFut uro
Ġdial etos
ĠSus an
ĠColl ins
ĠOrch idaceae
ĠTeod oro
Ġisrael ense
st al
on go
ĠM ino
Ġver ificaÃ§Ã£o
ĠmÃºs culos
ĠCa Ã§
Es p
Ġt rÃ¡
ĠM Ã´nica
ĠR jclaudio
ĠF ala
ud el
Ġleg enda
Ġrac ismo
P op
ĠSo y
ĠDia nte
ĠIst ambul
h ia
ĠP aixÃ£o
eg er
ĠAl encar
Ġdesta ques
Ġcontribu i
ĠEcon Ã´mica
Ġlist ados
Ġinterval os
ĠKir k
Ġdesist iu
ĠP Ã¡scoa
ĠI ron
eg ovina
ĠAn jos
Ã©r g
Ġconduz ir
Cont in
ĠdÃŃ vidas
ĠEsqu adrÃ£o
ĠFoto grafia
Ġnoca ute
ĠM ut
ĠFl am
ĠPart y
ven en
Ġatras o
Ġp ega
Ġconduz iu
Ġsecund Ã¡rios
Ġdesemb arc
ĠCapit ania
em Ã¡tico
Ġh ol
Ġac ol
ĠPar lam
Ã¡ss ica
Ġresta urar
Ġtrata va
Ġintermed iÃ¡rio
er te
in amente
ĠB undes
ĠT ran
ĠNa quela
Ġinform ado
Ġfun eral
eix e
Ġatribu iÃ§Ã£o
Ġmotor ista
ĠTrabalh ista
Ġtan que
t an
ol f
Ġrelacion amentos
Ġtrib unais
ĠSand ra
Ġdeleg ado
Ġdistingu ir
Pleuroth allis
A na
Ġw ill
Ġparc iais
Ġpag a
Ġps i
ĠNat ureza
ĠL up
Ġen vio
Ġdescob riram
Ġperman entes
Ġcontribu ÃŃram
quis iÃ§Ã£o
t ice
on izaÃ§Ã£o
se u
Ġ18 51
ĠIntern acionais
k as
Ġ Ø§ÙĦ
Ġco ragem
Ã§ aram
ĠD ed
Ġb os
ot ado
Ã³l oga
Ġfavor ito
ĠAle j
Ġsuperf ÃŃcies
Ġmelho ra
ĠBus iness
Ġidos os
ĠC anc
ĠL ip
po d
Ġar redond
Ġ18 53
bl oque
pre nd
Ġclass ificaÃ§Ãµes
Ġdimin ui
ãĢ į
Ġleal dade
ĠR udo
ĠJ i
ĠW oman
ĠMar ino
Ġdist inta
aran j
Ã Ĭ
ĠO mar
orn a
ĠK in
ĠInst al
Ġ40 4
Qu ÃŃmica
Ġvul ner
Ġartic ulaÃ§Ã£o
Ġtelesc Ã³pio
å Ń
it ual
Ġsemelh anÃ§as
ĠBon if
ãĢ Į
Ġrecomenda Ã§Ãµes
D av
Ġa mo
Ġregist radas
mar Ã©s
Ġvin das
ĠAct ualmente
C el
g ate
p ra
É Ľ
ĠUn idades
Ġcl or
Ġman sÃ£o
ilh Ãµes
ĠCat herine
Ġatu aÃ§Ãµes
Ġconquist aram
ĠDiv ision
Ġnuv ens
A z
v ert
Ġf arÃ¡
Ġt ram
Ġcas ais
ĠMart im
ĠSim one
lov Ã¡quia
Ġmeta bol
D ec
ĠP int
ĠE X
Ġb ares
Ġg rad
gan g
Ġconv iv
ĠTV I
ĠAmb as
ĠMitch ell
ĠG iant
ĠH ag
od ar
Ġpint ores
st rong
Ġar r
Ġprocura dor
ĠProc urador
ĠAndor ra
ĠM inho
ut es
ĠH ob
Ġh ex
Ġcontro la
ĠMag ic
Ġnat aÃ§Ã£o
ĠArm ada
Ġincorpo rado
Ġinfl aÃ§Ã£o
ĠAth let
B er
Ġn ec
ol ÃŃtico
Ġsim p
ĠAg radeÃ§o
ĠDiv ino
ĠBon aparte
ĠSy m
Ġcoorden ador
ĠIB M
Ġsubsequ entes
Ġsinc ron
iction ary
å ı
ĠK ill
Ġinter ino
Ġinter rog
Ġimped iu
Ġlog ÃŃstica
Don ald
ĠKent ucky
Ġatrib utos
c abe
ro la
il son
ĠH amp
Ġdos es
Ġres ide
Ġ18 42
ĠPro jetos
Ġjust o
Ġverm elhas
ĠMes o
S om
T ro
Ġc itou
Ġper pet
ĠÃ¡ s
Ġ4 50
Ġlit ros
ĠAcred ito
G er
ĠB ent
ĠQu ero
Ġdev idamente
Ġdev oÃ§Ã£o
Ġenf im
Ġconcent rar
Ġadvog ados
ĠNenh um
Ġg Ã³tico
ĠN ort
ĠG aga
ma ke
Ġconc orrer
ĠLe x
ick s
ĠEv ent
Ġsat is
Ã³c itos
ĠVo o
ĠtÃŃp icas
x as
Ã§ al
ĠP adrÃ£o
ĠV eiga
Ġpap al
Ġref rÃ£o
ĠBatt le
Ġm y
Ġm ÃŃsseis
ĠM ou
ĠM ust
Ġtra iÃ§Ã£o
ĠAn ast
iado ra
ĠIngl esa
Ġcomand ada
Ð¾ ÑĢ
ĠCro w
ĠMichel le
ĠColl ection
ĠBartol omeu
m uito
å ľ
Ġal v
Ġcap t
ĠLu igi
Ġexpl icaÃ§Ãµes
ĠtÃŃp icos
Ġpredomin ante
ĠTrad ic
Ġcombo io
D ou
S D
Ġd aria
re Ã§Ã£o
Ġed itou
ulos o
vis or
ĠEncont ro
ĠRond Ã´nia
g am
r Ã¶
r Ã³f
ĠP Ã©rez
ĠR un
ens os
Ġass al
Ġaproxim ar
Ġobserv ando
enz ie
Ġaflu ente
Ġque ijo
Ġar ter
Ġabsor Ã§Ã£o
ĠÃļlt imo
Ġexpect ativas
stad t
Ġo vo
io m
at ic
ĠM eteor
ĠL ak
ĠJ STOR
ido ra
ter ra
ĠCont rol
ĠFal cÃ£o
Ġtrip ulantes
Ġign ora
ĠJuvent us
c ura
ic z
Ġt elhado
ist ano
ĠN ÃĥO
Ġrefer endo
Ġbo x
ĠEmpres as
ic t
Ġfe iti
Ġapar ecendo
Ġvers ion
Ġreconhec idas
t ema
ĠF la
ĠMar ÃŃt
19 18
ĠSe attle
Ġoit avas
Ġclim Ã¡ticas
Ġmusc ular
ĠS ingle
ĠB ast
ot her
ca o
Ġconfirm aÃ§Ã£o
Ġorden aÃ§Ã£o
ĠCu iabÃ¡
Ġsert ane
Ġexcep cional
Ġmarg inal
U B
ia o
Ġl enta
ĠK or
J ac
T op
qu ÃŃm
Ġext ras
Ġpal ha
Ġcob rir
Ġinstal ados
Ġher ed
ĠCamp us
ĠMach ine
ĠTun ÃŃsia
Î ²
Ġv asto
Ġtr iste
Ġcond essa
Ġenfrent a
Ġliter Ã¡rias
Ġaprove itar
Ġconceb ido
ĠBomb eiros
Ġm Ã³dulos
ĠB ielorr
ac io
po ra
Ġ18 45
Ġpes os
ĠSem if
Ġinfluenc iou
Ġpil ares
Ġest ere
ĠW ard
Ġcol ina
abil itaÃ§Ã£o
Ġencerra do
Ġt anta
Ġb ut
Ġar rast
Ġge org
ĠLei pzig
ĠSebast ian
Ġf an
ĠP ist
Ġre estrutura
ĠF ama
anc ou
Ġregist rar
Ġmanip ulaÃ§Ã£o
e os
t ir
v ado
Ġc inturÃ£o
Ġal mo
agem ent
ok a
Ġlidera r
ĠOff ice
Soc iedade
R oy
ĠP M
ura das
ĠVer betes
Ġoc ult
Ġmet ropolit
Ġrelat ivos
ĠAlexand ra
ĠProt ecÃ§Ã£o
Ġprivil Ã©gios
ĠCarlo ta
z entos
ĠS iqueira
Ġl uminos
ĠF low
ĠBo ul
ĠCap acidade
let on
Ġobrig ados
Ġfede raÃ§Ã£o
Ġmer ece
ĠPlane jamento
F ern
g ers
ura i
ĠÃ Ĺ
Ġat entado
ĠEm ÃŃlio
Ġof ÃŃcio
ĠVal le
Ġnasc eram
ĠOc orre
Ġsoz inha
Ġfogu etes
Ġintim amente
B ad
ĠE ul
Ġac opl
ÃŃc ulas
ĠSal d
Ġsab emos
AD E
ĠGoy tac
is ch
qu eles
Ġb orda
Ġest ip
Ġext enso
la in
Ġcu ri
ĠConstitu inte
Ġvac inas
Ġpude ram
Ġadministrat ivos
Ġhomos sexuais
ĠQueb ec
de ra
Ġcon gresso
Ġcomp rado
ĠK re
Ġrepresent ava
Ġdirig e
Ã¡b ulo
Ġafirm aÃ§Ãµes
Ġrelat ivas
ĠTw o
ĠÃģlv ares
6 00
Ï į
ent ral
ĠO range
Ġad jetivo
Ġdest inos
Ġprotesta nte
Ġsubstant iva
? ",
y ama
ro tas
Ġ18 20
ard os
iss on
Ġvis ibilidade
ĠperiÃ³d icos
Ġrecomenda Ã§Ã£o
ĠGuard ian
* *
s car
Ø ¨
á º
ĠF our
et icamente
ha il
Ġpro fer
ĠIn dia
ver g
ĠPel otas
Ġavis ar
I r
s son
v ana
Ġt Ãºnel
ĠR ud
ĠV es
Ġesp elho
Ġmu do
Ġmarc ante
ĠFre ud
Ġreun iram
ĠJÃº lia
ĠParticip antes
Ġsubmar ino
ĠC ena
Ã¡ v
ion ando
ag ora
end entes
Ġentre gues
Ġun e
Ã³n ias
ĠSug iro
ĠConte xto
Wil liam
ĠC T
ĠT ira
ĠT ake
Ġcon duÃ§Ã£o
Ġinf antis
Ġdoc ente
ĠBarb ados
ĠSat urn
ĠCic lo
c iÃªncia
g ard
ado w
ĠR ut
Ġin augurou
pl ice
ĠAn ÃŃbal
ena u
Ġge ogrÃ¡ficas
ĠCha gas
Ġassist Ãªncias
Ġrod adas
ĠGuad al
ĠAsi Ã¡tico
G rand
ĠS ena
uc ci
Ġra iva
Ġsubstitu ÃŃdos
udio vis
Ġcul p
Ġagric ultores
S ha
f ect
ro e
em s
ĠE D
ĠV est
Ġdire trizes
Ã³rm ulas
Ġred ig
ĠÃĵ pera
Ġpergunt ar
Ã¡ce os
ĠProduc tions
ĠB ai
ĠD esa
ÃŃf icos
G ood
de us
ĠF an
ĠH ort
ug as
Ġfor Ã§ada
Ġdiv indade
han na
Ġclara s
Ġempreg ada
not ÃŃcia
ĠP ent
ul te
ĠH us
Ġh et
Ġtrans vers
Ġprov oca
ĠTrabal hos
uk u
ĠCE O
ĠFland res
m Ã£e
u Ã¡rios
Ġn ativas
Ġl ida
ĠB A
ĠRe form
Ġprim itiva
Ġra ros
Ã©t ricos
Ġdec ol
Ġcur vas
ĠmarÃŃt ima
ĠApo io
Ġfei jÃ£o
! ".
L L
er ie
ĠS lam
ĠRe yn
Ã³p ico
Ġtest amento
Ġfront al
ĠWar ri
Ġnar iz
Ð½ Ð°
Ġolh ada
conhec ido
ĠPt ol
i Ã¡n
Ġp ub
Ġpro j
Ġform ais
Ġsuger ido
Ġaus ente
ĠVel oso
Ġespess ura
c us
ĠC H
Ġre vez
rÃ¡ tica
Ã¡c ios
ĠSim Ãµes
Ġdific ult
ĠCla udio
Ġintera g
Ġcancel ado
in son
fer ence
Ġ18 21
19 53
Ġinter venÃ§Ãµes
uc al
Ġinst a
Ġman chas
Ġacred itavam
ĠUS S
Ġdese jos
De us
Ġdep Ã³sito
ĠRog ers
W C
n eg
an Ãªs
ĠA sa
ĠC ase
ĠC ategor
Ġna uf
Ġal mirante
Ġparc ela
Ġobt Ã©m
ĠElimin atÃ³rias
- "
Ï İ
Ġt ente
ent inos
it aria
Ġpre via
19 30
Ġcol he
ĠAc ab
ke e
Ar m
ĠEmb aixada
ĠFlor ida
Ġguer reiros
Ġgram as
ĠDefin iÃ§Ã£o
mid t
ĠA ge
do ras
ĠB rando
Ġcon seqÃ¼
ĠRel acion
Ġapos entou
ĠegÃŃp cio
Ġde volv
Ġre itor
Ġg arg
Ġper ten
ĠRa w
Ġluz es
aut or
vid Ã©u
A lt
ĠP iment
ĠD F
Ġmu ro
ack Down
ĠAbra ham
ĠVenc edor
ĠEurope an
Ġhost il
ig ma
Ġin gredientes
Ġal oj
Ġsub con
Ġmat erno
tt i
Ġrom p
Ã³c rates
Ġpropor Ã§Ãµes
ĠNev ada
fri ed
ĠLt da
Ġc is
ĠL ec
ĠD amas
Ġb ala
ast re
Ġtr im
tenc ourt
Ġapaixon ado
ĠSpe ars
entr ional
t ime
Ġs r
ir s
ĠMar g
icos e
20 1
Ġcant ada
Ġbiol Ã³gica
Ġescav aÃ§Ãµes
J ack
at oriamente
ĠV amp
ess ete
Ġme de
Ãªm icos
ĠDav i
Ã¨ ne
Ġdemonst rado
Ġnegoc iar
ĠA ri
ĠI da
ĠW el
ie ve
Ġcan s
Ġ10 3
Ġconf ia
Ġapro xima
Ġsal ient
pect iva
Ġfort ificaÃ§Ãµes
Ġobt iveram
Ðµ ÑĢ
Ġcompart ilhar
Ġherd eiros
Ġsil Ãªncio
Ġrenome ado
Ġpor cent
ĠCom Ã©dia
Ã¢m bia
Ġfund aram
Ġdeter io
Ġmand ado
ĠCaval eiros
Ġcic los
dom ÃŃnio
ĠcÃ¡l cio
ĠNazar Ã©
Ġm ala
Ġ18 49
Ġcapital ismo
ĠFer din
Ġfuncion am
Ġimpera triz
Ġhon or
ĠBow ie
Ã§ Ã¡
ĠB uck
ĠF rota
Ġest ariam
ĠI S
Ġal usÃ£o
Ġfal sas
ĠCan nes
ĠFre guesias
if y
irm Ã£o
Ġun ificaÃ§Ã£o
rop ia
ĠBen g
ĠNat aÃ§Ã£o
Ġafast ar
ĠmolÃ©c ula
ĠMarac anÃ£
G U
O este
at ualmente
Ġpara na
ĠRe ed
Ġ17 0
Ġadminist rada
ĠSte in
Ġimpl ementar
Ġsexual idade
Ġemit ido
ĠCai ro
w ing
ĠEst ilo
ĠAt uou
ane amento
ĠVal Ã©rio
Ġpesquis ar
Ġcatal Ã£o
ĠST F
Ãºsc ulas
Ġv id
ĠB iologia
Ġb rilho
Ġpro pos
ĠH off
ÃŃc ero
Ġed itada
Ġ10 9
Ġsup orta
ĠRepresent antes
Ġrebaix ado
v iv
re ad
ĠL ins
ĠI d
19 57
ĠEsp ada
ĠAnd ers
Ġmic rosc
ĠEstud antes
Ġencerra da
Ä ĵ
Ġp i
ic to
ĠP AR
ĠD ul
Ġsu primentos
ĠAl eixo
Ġmant idos
Ġtex t
Ġmont ar
ĠRos si
Ġdeb at
ĠChe v
ĠKe ith
Ġsufic ientemente
ĠSint ra
ĠJess ica
ĠP un
ĠE M
ĠV oto
Ġcl Ã¡us
elh eiros
ĠEd son
Ġer va
Ġado pt
ĠMi y
Ġargument ou
ĠPublish ed
est ad
ĠK om
Ġ18 24
ma in
Ġrev ers
ĠPh ys
ĠCrist ianismo
Ġmediev ais
Ġpatri arca
' :
Ã ¹
Ġv Ã©spera
Ã§a o
ĠAnt unes
ĠLu iza
ĠLu ft
Ġmin eiro
Ġle ito
ĠPart idas
Ġanunc iaram
Ġdestru iu
Ã³f ilo
Ġressal tar
Ġdo entes
Ġcol ect
Ġdisc ursos
ĠCr ise
Ġganh os
Ġconj ugaÃ§Ã£o
Ġpromov endo
adÃ¡ ver
ĠWest ern
ĠcÃ¡l culos
Ġobst Ã¡culos
Ġtrav ess
Ġreorgan izaÃ§Ã£o
o de
Ġf ria
Ġsocial ismo
ĠMÃ©d ico
ĠWall ace
Ġancest rais
Ġf ur
Ġdo g
ĠJ uvenil
Ġen venen
Ġ18 08
Ġpres tes
Ġvol ante
Ġempres arial
Ġep iscopal
ĠGal vÃ£o
Ġfuncion ou
ĠSol o
ĠLes lie
ĠpartÃŃc ula
ilat eral
+ +
w eight
Ġb ando
est im
Ġinc rem
dut os
Ġcat olicismo
Ġesqu ad
Ġsuperf icial
ĠincÃªn dios
Ġalgorit mos
or iano
ĠP L
ĠU HF
Ġen gra
Ġle Ã£o
Ġfer imentos
Ġtriun fo
ĠCÃ³r do
P od
T erra
Ġpara dig
ĠT ut
Ġg Ãªme
ri er
ĠJ us
ĠOs waldo
ĠInt erv
ĠBu eno
ĠDis p
Ġorient ado
Ġrebaix amento
b ÃŃt
art es
isc ais
ĠMan if
pr ise
Ġforn eceu
Ġbicic leta
T r
c ada
ĠU tah
Ġreal ity
ĠHar old
Ã¢nt ara
ĠHol mes
Ġafast amento
ĠJornal ismo
ta va
Ġh ier
ob ras
reg on
ĠRep ubl
ÃŃg enas
ĠMiss issip
C T
ĠT her
ĠT rist
ĠV ac
ĠK ings
Ġ18 39
ix on
Ġescol ares
ĠNos so
ÃŃg ado
ĠSec und
ĠCle veland
ĠGi ul
s ka
y i
os Ã£o
ĠH Ã©lio
Ġres son
Ġ18 47
ĠestÃ¡ dios
ĠRes ende
ĠSet or
eir inha
Ġresid encial
Ġsusp enso
Ġsep ult
ĠanÃºnc ios
! ,
at ure
Ġin ver
Ġant iguidade
Ġ10 4
ĠCor e
duc tion
Ġinteg ridade
ĠEntre vista
Ġident ificada
Ġobrig ada
ĠVen ceu
ĠSac ramento
ĠVia gem
Ġsatisf aÃ§Ã£o
Ġdramat urgo
Ġ Ïĥ
Ġm ina
Ġpar to
19 56
Ġca indo
ĠNe il
Ġfin anÃ§as
Ġexper imento
ĠHer mann
Ġatac aram
J ul
k el
to wn
Ġens inou
ĠRes umo
Ġresol vido
ĠUrb ana
ĠDra ke
Ġcostum ava
Ġreporta gens
ĠÃ¡t omo
Ġn eb
ĠB oc
ĠAl mirante
ĠSal to
ĠTer ror
arÃ¡ gua
Ġmec Ã¢nico
ĠvÃ¡l v
Ġequival entes
orf ismo
Ġavis os
ĠDescob erta
Ã¡rze a
V en
19 47
Ġdef esas
Ġcent enÃ¡rio
Ġlibert ar
Sa int
Ġcot idiano
Ġurugua io
Ġt Ãªx
ĠM our
ĠH ad
Ã©c io
ric e
ĠMan n
Ġarrec adou
Ġpolit icamente
ĠJunt amente
ĠP on
Ġre pos
Ġcomp ras
Ġreg Ãªncia
Ġelimin ados
Â» ."
Ġpotenc iais
ĠSom Ã¡lia
Ġcad eias
ĠBerk eley
H ow
Ġdo nos
ec esse
19 52
Ġsegu idas
Ġclass ifica
ĠPS D
ÎŃ Î½
W al
ĠV ascular
Ġconc ursos
Ġimp or
ĠSt y
Ġgal ego
Ġconsist ente
c od
g om
k ai
Ġv amp
Ġl ido
ed i
Ġpart indo
Ġag enda
Ġatu am
ES C
Ġobserv ada
Ġajud aram
Ġestacion amento
Ġrec onc
Ġsegu ros
Ġdu quesa
ĠRel atÃ³rio
Ġfra ude
Ġesclar ecer
Ġgas olina
Ġimparcial idade
ĠNenh uma
i ques
oc acia
pe da
Ġmant Ãªm
Ġadv ento
Ġfura cÃµes
H al
b ad
n ica
ĠE ag
Ġno taÃ§Ã£o
ĠAm Ã©lia
Ġfal hou
ĠRo ta
Ġcresc endo
Ġexecut iva
ĠMad ri
du a
eb all
Ġof icina
Ġsec ular
Ġdirig ente
Ġlat inos
Ġmult im
ĠSen na
Ġcompara da
Ġprovoc ando
ĠOk lahoma
Ġrepublic anos
ĠcardÃŃ aco
ĠJur ÃŃd
ĠConj ugaÃ§Ã£o
iscons in
- )
Ġav ist
Ġhom e
ĠPal at
Ġdeput ada
Ġdiscut ido
Ãºrg ico
B OL
á Ģ
il iv
ĠP enn
he ta
ĠAt ividades
Ġet nia
Ġfin landÃªs
ĠBah amas
Ġorto dox
Ġbor racha
ĠCum primentos
ĠNich olas
V ir
er ife
Ġ( ?
ist entes
po nto
Ġdes a
ot ti
con f
Ġret rans
Ġmat erna
Ġpont as
Ġbar ras
Ġade ptos
Ġtelef onia
Ġplant aÃ§Ãµes
âĻ ¯
T AN
Ġaf res
Ġinf elizmente
Ġsoc io
Ġinc rÃŃvel
ator ze
ĠUs ando
p ho
as i
ĠM org
ĠT ha
Ġfo ge
los s
ok i
Ġdi Ã¡ria
Ġc et
st and
ĠD ipl
end imento
Ġag ropec
Ġmil itante
Ġmin oria
Ġmora is
Ġcert ificaÃ§Ã£o
ĠOff icial
led ge
ĠCec ÃŃlia
v ira
Ġpes adas
Ġtel ecomunicaÃ§Ãµes
Ġne o
Ġsignific ando
rog Ãªnio
Ġcomemora r
ĠEpis Ã³dios
p id
ra z
an Ã¡lise
ĠM ura
ĠV id
ran ianos
Ġagrad Ã¡vel
ÃŃqu ias
ĠInvest igaÃ§Ã£o
Ġâľ ī
Ġrecuper ou
ĠEst udo
Ġr icas
Ġ10 6
pr ima
Ġsorte io
w all
ĠS omb
Ġb et
Ġ18 44
Ġespecial izaÃ§Ã£o
Ġpovo amento
Ġgera da
ĠgrÃ¡ vida
d Ã£o
Ġem issÃµes
ĠÃ ĸ
eb el
Ġconc orrente
ĠGo a
!! !!
entu res
R aw
ĠP ros
ĠB ald
ĠD out
Ġac olh
19 20
ga e
je Ã§Ãµes
Ġacus ou
ĠL E
Ġpa u
Ġorgan iza
Ġsignific ativos
Ġdeclara r
ĠFund ada
ĠGaz eta
ĠTanz Ã¢nia
Ľ »
ĠS ÃŃl
ĠL orde
co pia
Ġconj unta
rov ias
ĠLeg ado
ĠDay s
Ġdit ador
Ġale atÃ³ria
e ur
os ul
ĠP ete
ĠD antas
Ġin ev
ĠEst ava
Ġte Ã³rica
Ġinc end
su per
Ġdet alhe
Ġprat icado
ĠJul iano
Ġescrav o
j ando
on ga
ĠH old
ap s
iss as
Ġconf ess
Ġquant ia
ĠArm strong
Ġadapt ada
tic es
ĠIre ne
ĠChel sea
ent ados
ul ador
Ġim Ã³veis
19 54
ĠCon cl
uven is
ĠMorr is
ĠPÃ³ voa
ĠMetropolit ano
ĠN ucle
ac es
ĠK el
Ġnacional ista
Ġobrig aÃ§Ãµes
Ġreduz indo
Ġgram at
ĠTok yo
Ġprel iminar
y g
Ġ18 31
Ġam a
Ġte Ã³logo
ĠCor o
ĠLei ria
p age
os se
ĠW ord
Ġint eiros
Ġcr Ã¢nio
Ġestud ado
Ġassin aram
Ġdob rado
Ð ·
Ġest al
). "
rÃ¡ tico
Ġhabit aÃ§Ã£o
ĠSte el
Ġfemin ista
Ġjust ificar
ĠLond rina
rel Ã©trica
Ġcort ar
Ġmob ilidade
Ġsubsidi Ã¡ria
L eg
ĠC ÃŃcero
on ica
ĠCont as
Ġcancel ada
Ver bo
ĠFun Ã§Ãµes
can Ã§Ã£o
Ġpasse io
ĠHunt er
or io
on eses
ĠB ug
ĠJ ake
Ġper do
Ġdev o
Ġdem arc
Ġsof rem
Ġpertenc er
ĠDisc overy
Ġpatro no
S ab
p ina
Ì ģ
20 21
Ġmascul inos
Ġgar otas
Ġbrin quedos
Ġex ata
Ġar ru
co te
ĠK Ã¶
Ãªn ico
Ġsist emat
Ġgol pes
Ġprodut ividade
ile ia
ĠHo ras
ĠHum ano
Ġguer rilh
i ares
Ġp age
ĠW ang
Ġob viamente
Ġhist oria
Ġatribu ÃŃdos
Ġluc ros
ĠÃįnd ico
âĨ Ĵ
Ġs Ãº
ĠT ess
ĠJ esse
Ġcas amentos
Ġw e
Ġnecess ita
ĠTe jo
Ġrot ina
Ġconden aÃ§Ã£o
ĠRot h
Ġpron Ãºncia
Ġdetect ar
Ġs ultÃ£o
Ġn ord
Ġt inta
ĠR ess
om ba
ĠEst ratÃ©g
ual idade
ĠAp Ã³st
of re
ure l
fo nte
yl an
Ġceleb rar
ĠinÃ©d ito
Ġpne um
s is
Ġt et
19 36
uc he
ĠAf rica
Ġdisp ersÃ£o
Ġdever Ã£o
ĠKenn eth
ĠmÃ¡g ico
ĠAlbum s
S pace
ĠF est
Ġab Ã³b
Ġsol ucion
ĠJe ovÃ¡
ĠLeg end
ĠMos c
Ġwikip ed
cur id
acab ana
ĠBangl adesh
j adas
Ġc ut
Ġqu i
Ġsu bl
Ġdos e
Ġaut Ã³noma
ĠInt ro
Ġcria tura
Ġcost eira
ĠConc elho
ĠSen ador
Ġarque olÃ³gicos
G r
Ġ18 32
Ġag radeÃ§o
Ġdescob ertos
Ġajud am
ĠDis put
Ġsens ÃŃvel
Ġaud iÃ§Ã£o
Ġdecis iva
ĠMoz art
ĠMast ers
N ovo
w ara
ĠA aron
ĠL iter
Ġjog ada
Ġbar roco
Ġtrat ando
Ġvog al
Ġpesc adores
S anto
un ga
ĠB ed
19 40
ĠEl eiÃ§Ã£o
Ġav Ã³s
15 0
Ġfemin inos
ĠOri entais
ĠCla udia
ĠPetro bras
Ġguarn iÃ§Ã£o
G a
P lay
p elo
ĠC resc
ĠB od
ig l
ĠO ra
ĠG odo
Ġap ris
ĠPro posta
Ġdist Ãºrbios
Ã©cn ico
par te
Ġremo nt
Ġorg ulho
Ġcru el
Ġingress ar
ĠAbd ul
ĠEman uel
. Â°
ĠD irig
ĠG us
ĠEm ily
ĠThe ory
Ġsec as
uz z
ĠDoc e
or Ã©
ot ar
Ġprov Ã©m
Ġinv entor
ron d
ĠGra du
Ġvisual izaÃ§Ãµes
ĠWell ington
D is
N S
Ġp ernamb
Ġs aga
Ġpor co
Ġam adores
ĠGu edes
Ġprov ou
Ġdec orre
ĠOb er
Ġbal ada
Ġesport ivos
ĠFun chal
Ġatravess ar
ĠBir d
Y o
ĠM iz
Ġre met
ĠR oland
Ġb u
Ġb eta
ed it
Ġdes ent
ur sÃ£o
Ġ11 5
ĠLeg al
ĠLiv ing
ĠPhil os
che vi
Ġmural ha
adel phia
ĠL ost
Ġal ert
Ġh al
Ġsab edoria
ĠDr um
Ġpriv at
Ġshow curid
ĠEstre las
Ġposicion amento
T M
r d
z el
ig re
ĠD ante
Ġcons orte
ĠmÃ¡ xim
NA L
Ġgratu ita
ĠTechn ology
ic um
ĠC rio
ĠF ei
pro f
ĠegÃŃp cios
Ġpreven ir
ĠR as
era na
xim adamente
Ġfilho tes
ĠMe ta
Ġpermit iram
Ġjulg ar
ĠAlc Ã¢ntara
Ġobst ante
Î· ÎºÎ±
ĠSanc ho
Ġtes ouro
Ġp iores
Ġpar Ã³quias
Ġcons pira
ĠAn gl
ĠEle ito
Ġgrav it
Ġtrou x
ĠCavalc anti
G rupo
Ġc ra
Ġac ar
ĠK ai
ĠPort ela
Ġfor Ã§ando
Ġopera dores
Ġacont eceram
Ġtrat amentos
Ġatribu iu
ĠAll an
Ġpira tas
Ġpsi quia
ĠR est
ĠL enn
Ġes lov
Ġpr Ã¡tico
Ġdest inadas
Ġdist into
Ġforn ecem
Ġtam anhos
Ġhomenage ado
ĠcardÃŃ aca
Ð¸Ñ ĩ
Ġbachar el
F ranÃ§a
b ul
Ġb ip
Ġnome ar
ĠGu ar
ĠCam isa
ĠCons elheiro
ĠMel bourne
Ġrem un
Ġescal ada
Ġpropag aÃ§Ã£o
Ġabrang ente
1 10
Õ «
Ġa res
Ġt artar
ei ri
ĠD yn
Ġdes espera
Ġ18 38
Ġdest ro
Ġmix agem
c z
os so
ĠC our
ÃŃ nt
ri pt
Ġtra Ã§ado
Ġrob Ã´
ĠGall ery
. (
M ov
p ura
ĠA vel
ĠC ÃŃrculo
Ġre ed
Ġl obo
de t
ĠV ern
if ul
ĠSt orm
Ġinclu ÃŃram
Ġvenc ida
Ġconfirm ados
ĠDa w
ĠLÃŃn guas
ĠResta uraÃ§Ã£o
ĠM Ã³dulo
Ġpre tas
19 51
ĠDes ertas
Ġinc idÃªncia
Ġtrabalh ador
Ġne ta
Ġunivers itÃ¡ria
ĠPrem iers
Int er
ĠSag rado
ĠArtilh aria
cica ba
f ante
Ã´ nc
Ġpass ap
ĠPre para
Ġinvest ir
Ġinfluenc iada
Ġelabora r
Ġdor sal
ĠON G
p ent
ĠF ig
se udo
uma Ã§a
ĠPar c
Ġmort as
Ġouv iu
ĠSev ilha
ĠEng ine
ĠProbl emas
D icionÃ¡rio
p ur
ĠAl deia
Ġmont ado
ĠHol and
Ġconcl usÃµes
Ġvet erano
ĠLanÃ§ ado
Ġexer ce
Mic hael
L este
b org
s ung
ĠP all
Ġest endeu
Ġdire tÃ³rio
ĠZ eus
olog ical
Ġ11 2
Ġden Ãºncias
ĠNic arÃ¡gua
Ġrepet ir
ĠFemin ina
Ġj uros
ĠCo w
Ġtestem unho
Ġpeda Ã§o
ĠDesign aÃ§Ã£o
Ġanarqu istas
áĥĲ áĥ
C rist
j ados
Ġcom eter
Ġconstitu ir
Ð° ÑĢ
Ġcomand ado
ĠGa ia
Ġfolcl ore
ĠsÃ©r vio
Ġenvel hec
p ta
us co
Ġh os
ur m
ĠOb ser
Ġcaracter ÃŃstico
Ġadv ert
Ġwik is
Ġfis icamente
ĠdemocrÃ¡ tico
Ġenz ima
Ġprecon ceito
K ing
Ġd ie
or ig
ĠE rit
Ġv iola
ĠW end
Ġed ito
Ġâ Ķ
Ġintroduz ir
Ġarque olÃ³gico
Ġtestem unha
G P
\ '
Ġ18 15
ĠCal c
ĠAv en
Ġtrat ada
ĠProc ess
Ġencer rando
ĠemprÃ©st imos
Ġcativ eiro
z im
ĠH idro
Ġsal do
Ġtur ÃŃstica
ĠLou ise
Ġaleg aÃ§Ãµes
ĠErn est
it ud
Ġar ca
ĠAl abama
ĠCh Ã¡
inh ar
ĠZ urique
ĠBl um
ĠVir tual
ĠmÃŃn imos
C ur
h im
ic ut
Ġf ÃŃgado
Ġre jeiÃ§Ã£o
ĠG ior
Ġgovern ar
Ġnot Ã³rio
Ġz h
Ġgen erais
ĠTer ras
ĠMed ina
Ġviol enta
ĠTur n
ĠSim ples
Ġimpera dores
Ġdesp orto
Ġinov aÃ§Ãµes
ĠMÃ©d ici
Ġuc raniano
ĠespÃŃ ritos
C M
É Ķ
Ġ2 20
ĠR az
ĠG ang
Ġpar ente
Ġdenom inados
Ġga Ãºcho
Ġconvert ido
Inst ituto
Ġconso ante
×Ļ ×
7 00
H ot
Ġv era
Ġl ament
19 48
ĠJo inville
Ġdesenvolv em
Ġtub os
the plant
Ġaclam ado
ĠPremiers hip
theplant list
ant ismo
Ġesc asse
Ġ18 33
Ġ10 8
ĠCent enÃ¡rio
Ġvig ente
ĠeconÃ³m ico
ĠBla ke
Ġconfi Ã¡veis
s Ã©culo
Ġp Ã³st
Ġn estas
ĠS ens
ĠN ero
Ġ12 8
Ġsa em
Ġexec uta
Ġreje itou
ĠDut ra
ĠBez erra
E F
Ġv emos
Ġat en
ĠW ander
Ġorig inÃ¡ria
Ġw restling
ĠTra cy
Ġinteress antes
Ġconserv adores
Ġpul mon
ĠHop kins
ĠÃŃdo lo
A ust
ĠS Ã©t
ĠP ov
ĠD ram
ĠH orta
Ġun a
Ġdez essete
Ġdet ecÃ§Ã£o
ĠPlane ta
1 16
d ar
Ġ ä¸
ĠC ust
at l
Ãº cio
Ġpol ic
iment ar
ĠTur im
ĠBer m
ĠEngenh eiro
ĠfilÃ³so fos
Ġsobr inha
P B
ĠS ix
ĠF eder
Ġus ualmente
ĠCam ilo
Ġman ch
ach t
fic ientes
ĠParticip aÃ§Ã£o
ĠEslov Ã¡quia
ĠC is
ĠC ano
ĠAl var
ĠK ab
Ġ10 7
Ġcin zas
Ã´m io
ĠMc M
Ġarquit etos
ĠProv incial
Ġesport ivas
ĠCre ek
ĠRol ling
Ġsacrif ÃŃcio
Ġterap Ãªut
D iÃ¡rio
Ġc adÃ¡ver
ĠF ura
ĠI owa
ĠX ang
Ġfinal izaÃ§Ã£o
ĠOl avo
Ġrep ris
Ġcob ranÃ§a
Ġrevel ando
Ġcel este
Ġmand ioca
Ġlegisl ativas
ĠInvest ig
Ġbast idores
ĠOrle ans
d entes
Ġc acho
el is
Ġdo ou
Ġest er
Ġex aust
eg re
ĠSt ars
ĠSal azar
Ġdefend ia
ĠNav eg
Ġjud iciais
Ġterror ista
. ".
O h
Ġc if
as ma
Ġda tam
ĠS ai
ĠF BI
ĠEl len
ĠNe y
Ġsuger ir
Ġfilm agem
ĠBay er
Ġpref ixo
ĠVÃªn us
Ġdecad Ãªncia
n ologia
om et
Ġent orno
min ster
ĠCl inton
Ġhom Ã´nima
Ġrev ersÃ£o
ĠSin Ã´nimo
ĠÃŃc one
i ya
19 33
Ġgu ardas
Ġir rig
ĠComm on
Ġverb os
ĠParticip aÃ§Ãµes
Ġsupl ente
Â Ń
it m
13 0
Ġtrabalh aram
ipl inar
Ġentend ido
Ġincent ivo
Ġadmit iu
E qu
h s
t ipo
á »
Ġre ac
ta in
Ġprim ord
Ġam ig
sa y
Ġto x
Ġcant os
ĠMas on
Ġconsag rado
Ġlabora tÃ³rios
ĠHard y
Ġ if
ar co
ĠB rÃ¡s
ĠL ava
ĠIn fin
ĠAm apÃ¡
ĠGu ido
Ġaument ado
ĠChrist mas
Ġexig ir
Ġadicion ados
Mar ie
Ġsobreviv eram
Ġdeg radaÃ§Ã£o
ĠAval iaÃ§Ã£o
ĠGabri ela
Z A
ĠB ene
Ġg rafo
sa ka
Ġtoc ada
Ġdepend em
Ġcicl istas
Ġinvad iu
Ġexped iÃ§Ãµes
ĠHug hes
s endo
Ġde dicaÃ§Ã£o
Ġex postos
ĠW right
Ġsol ares
ĠSal gado
Ġne ocl
ĠForm ou
Ġacus ados
Ġapont ou
Ġespalh ados
Ġsubdiv id
ĠRena ult
B lu
ĠA urora
ĠB achar
ĠG elo
Ġan Ã©is
rig ido
Ġve ic
ĠLiv raria
Ġdefend em
Ġevang el
Ġdesv ant
Ġempreend imento
c ias
Ġ ãģ
ĠC ut
ol es
ho o
Ġab out
Ġcam ar
ĠFil ha
Ġespecial izadas
ĠTre k
ĠStud ies
Ġinqu Ã©rito
B est
F M
et i
ap enas
ĠBu ff
ĠPe dag
ãĤ ¹
ĠDisc ordo
H a
ĠO wen
ĠT rio
Ãº bio
19 46
Ġr ingue
Ġcur v
Ġacab aria
Ġrebel de
Ġ icon
Ġc amb
ĠC ora
ul Ã¢ncias
ĠN ÃŃ
Ġout org
Ġequ iv
Ġnasc idos
Ġast ron
Ġrad ar
inter pre
ĠLuz ia
Ġescre vi
l em
Ã§ osa
un ham
ĠD I
ĠD ÃŃ
ov aÃ§Ã£o
ĠW onder
ib er
Ġus ina
ĠOl inda
divers idade
Ġsust entar
Ġdiminu iu
ĠmÃ¡s cara
Ġdesigual dade
Assoc iaÃ§Ã£o
g irl
it at
00 00
ĠMiss Ãµes
Ġmotiv aÃ§Ã£o
ĠÃ©tn icos
Ġabsur do
Ġrup tura
C all
Ġ <
ĠT ang
Ġex po
Ġsem inÃ¡rio
Ġcor rendo
ÃŃn ica
Ġca os
ill es
ĠNe pal
ĠAng elo
Ã¡b io
Ġmult ip
ĠLat in
Ġconsol idaÃ§Ã£o
ĠLan ka
Ġtempor Ã¡ria
g op
en go
ĠT ul
oc os
Ġ18 26
Ġcat ar
ĠNic ole
Ġartes anato
Ġpromo tor
Ġselv agens
sburg h
v ador
ĠF iscal
ĠK iss
de pois
ĠW isconsin
Ġcomp ete
ĠCar la
cel ino
ĠFel ix
Ġacess os
ĠConn ect
ancou ver
in ava
ĠM sg
ho ven
ch an
ĠCha ve
Ġnav ais
Ġnar ra
ĠObrig ada
Ġconvers ar
Ġdubl agem
ĠfreqÃ¼ entemente
R en
ara da
ĠAl pha
uc as
ĠmÃºs culo
ex c
ĠEn erg
ĠComp utaÃ§Ã£o
Ġjulg ado
ĠPlant Base
Ġsindic al
Ð ¿
Ġp ig
Ġm itos
ĠL inhas
ran Ã§as
igu a
ĠAless andro
c ole
m ing
É ¨
Ġf Ã³rmulas
Ġv t
Ġdes res
Ġk o
Ġobrig atÃ³ria
Ġlar vas
Ġfabric ado
Ġp Ã³dio
id ero
ĠC ourt
Ġag ressÃ£o
ĠRet orno
Ġcrimin oso
ĠProgram as
Ġtelevis iva
Ġmonst ro
Ġhorr or
Ġabert amente
= "
B u
k ia
Ġb elas
Ġsub m
Ã¢m ia
ĠEsc reveu
ĠSh ang
ĠBe au
ÃŃb ia
Ġinaug ural
ĠMerc osul
ĠMark eting
Ġsubt ropical
ĠTy ler
ĠCorn Ã©lio
fund ador
Contin ental
Ġo raÃ§Ãµes
ag anda
Ġcomp acto
ch Ã¡
Ġcl Ã©r
ĠFranc es
Ġmost rava
ĠBe a
enn es
ĠJul iana
Re al
Ġcred ibilidade
ĠBonif Ã¡cio
Ġs anta
ĠG O
Ġint enc
ĠTe en
ĠMus sol
ĠJul ian
Ġturn Ãªs
ĠFa una
Ġrepet iÃ§Ã£o
ĠPast or
Alem anha
ĠB orn
ĠT emos
19 38
Ġcal ifa
eir ismo
Ġroub ar
Ġpeg ou
Ġgri pe
B loc
i Ãº
u os
Ġt uf
Ġ3 000
Ġpres su
ĠIm ig
ĠTe or
ĠEr mida
rv ore
Th is
ĠolÃŃmp icos
Ġexcel Ãªncia
ĠPho to
Ġrecomp ensa
ĠlusÃ³f ona
Ġtabul eiro
v ial
ĠF orest
Ġinst rut
Ã¼ n
Ġcorre io
ĠMal v
ĠDa ÃŃ
cam po
Ġrefor Ã§ar
ĠAeron Ã¡utica
ĠOnt Ã¡rio
ia ra
Ġres c
ost as
Ġra b
Ġr ÃŃt
Ġher dou
ĠBr idge
Ġpisc ina
Ġmarav ilhos
ĠParam ount
N C
ç Ķ
Ġ iam
ĠP osto
ĠB ord
Ã©r ic
ĠLig aÃ§Ã£o
Ġfor Ã§ados
Ġassist ido
ĠEcon Ã´mico
Ġespalh ou
ĠBroad cast
ĠAga in
Ġcomedia nte
ĠE ram
era to
gu ard
ĠU ber
Ġart ÃŃsticos
ĠAr ra
ĠBe aut
ĠMont ana
Ġverdad eiras
Ġperspect ivas
ĠWern er
Ġa u
el ine
do b
ĠW ork
Ġresult aram
mas ter
Ġcost eiras
Ġretira dos
Ġsubst rato
Ġexce Ã§Ãµes
Ġconden ados
Ġmode rado
ĠGin Ã¡stica
Ġevolu iu
Ġdeg rad
ĠPlat Ã£o
haus en
al us
Ġte Ã³ricos
Ġ24 0
Ġcav erna
Î¼ ÎŃÎ½
l ich
Â ³
it ismo
ĠA ÃŃ
ĠD ado
Ġver gon
ĠVal Ãªncia
Ġbrinc adeira
Ġconform idade
H P
S ta
or us
Ġo g
do uro
ion ismo
Ġpr Ã©mios
Ġel im
anc ia
Ġanunc iar
Ġparc erias
pro c
Est ados
ĠCre ta
ĠCria nÃ§a
Ġimpression ante
t um
ĠW ii
Ġcomp Ãµe
ĠSu doeste
Ġfal ava
ĠAss um
ĠAb out
Ġcond ens
ĠEsc rita
ĠSc ha
rang ular
Ġprocess ador
Ġcompartilh amento
Ġabund ante
ĠÃ³t ima
Ġrazo Ã¡vel
ĠMussol ini
s ho
od oro
ĠAm anda
Ġcontra part
Ġcaus adas
Ġprem iada
Ġsecret Ã¡ria
Ã¢nd alos
ĠSi erra
ĠArn aldo
ĠsÃ³l ida
Ġtril ogia
h m
s ha
Ġco adjuvante
ĠC Ã¡l
Ġb re
ect os
Ġret ratado
ph is
Ġdisput ando
ãĥ «
Con c
ĠMount ain
Ġhelic Ã³ptero
Ġdro ga
ĠC IA
Ġes qui
av iÃµes
Ġacont ecido
ĠHe itor
Ġsucess ivamente
ĠBor is
ĠMedia Wiki
Ġracio cÃŃnio
Ġt b
ĠRe donda
ĠMar ÃŃlia
Ġnot ou
Ġast ronomia
ĠCrist al
Ġdepend entes
Ġterre moto
ĠÅ ł
ĠIntel igÃªncia
Ġp ent
ĠC L
co tt
ca ju
ÃŃs se
Ã¼ ck
ĠForm ato
uf a
ĠÃĵ scar
ĠSand y
ĠItal ia
Ġhem isfÃ©rio
ĠÃ¢ng ulos
ĠComb ate
ĠorquÃŃde a
ĠBielorr Ãºssia
s um
Ġe ixos
Ġs l
ĠH Ã³quei
ag res
Ġar ranc
Ġamb ic
ĠSal am
aqu istÃ£o
Ġsuger indo
Ġpaul istas
Ġresg at
ĠMÃ¡ ximo
M aior
Ġ ral
Ġd urado
Ġ18 25
") :
ĠDes portiva
ĠBar n
Ġhon orÃ¡rio
Ġsobreviv ente
ĠLut ero
ĠmarÃŃt imo
ĠdiscÃŃp ulos
ĠRegul amento
n ight
Ġco ca
Ġ18 23
Ġus ual
ĠAp ocal
Ġun anim
Ġanim ados
ĠAng ela
ER J
ĠOrig ens
Ġsusp ense
ĠCamb oja
ĠMary land
Ġsuspe itas
ĠAli Ã¡s
Ġholand esa
Ġelet romagn
Esc ola
N Ã³s
Ä ħ
on ne
ĠK ri
Ġpart ilh
Ġjog aram
ĠY ale
Ġneg lig
Ã³f ona
Ġdin am
fl ora
Ġdesemb arque
ĠConte Ãºdo
Ġpartid Ã¡rios
D D
P ass
R od
de termin
ist icamente
Ġpr ÃŃncipes
Ġcontinu ava
Ġsec tor
Ġexig iu
ĠcÃ¢mara s
Ñ Ĩ
Ġb est
Ġin al
ĠNo el
ĠBrasil eiros
ign o
Ġdifer e
ĠegÃŃp cia
Ġcach orro
. -
1 14
r Ãµes
å ®
Ġe go
im en
ĠJ uda
ĠBel ize
Ġaplic adas
Ġmatem Ã¡ticos
ÅĤ aw
Ġreflet ir
Ġnomin al
ĠZimb ab
" ?)
Ġs Ã©ria
ĠD Ã¡
Ġprim os
Ġprec oce
Ġterrit oriais
Ġrespons abilidades
ĠGal o
Ġtransfer ir
Ġdisponibil izado
Ġbiol Ã³gico
Ġderru bar
j ano
ĠE ar
ĠE MI
Ġver ifique
ĠForm ado
Ġbizant ina
Ġoper Ã¡rios
Ġacrescent ando
ĠWeek ly
ĠC AR
ĠL um
ri Ã£o
if as
Ġab al
ĠZ ap
Ġfor Ã§ou
Ġset s
gres sÃ£o
ĠSte f
Ġdedic ados
Ġpromet eu
ĠDubl in
ĠP iano
ĠM im
te a
Ġme tab
Ġtro Ã§o
Ġestim ular
Ġarquit ectura
Not as
Ġverdad eiros
Ġjo elho
ĠPlan et
ĠS era
ĠP enha
ĠG ad
ĠCom itÃ©
Ġpertenc iam
Ġcomercial izaÃ§Ã£o
Ġlemb rado
Ġsupera ndo
utt gart
Univers idade
ĠlÃ¢m p
idimens ional
princip almente
Rol ling
F am
G R
c ount
Ġp ente
ĠB etty
ĠN ever
Ġreg en
ific aram
Ġval es
ĠPol ÃŃticas
Ġadminist rar
ĠRel aÃ§Ã£o
Ġdepend Ãªncias
Ġexpress ou
Ġinfluenc iar
Ġassem elha
ĠTestem unhas
Î ®
Ġs amb
ĠA ce
el amento
Ġv Ã¡
era dor
era tivo
ab as
rop riaÃ§Ã£o
ĠEqu ipes
ĠâľĨ .
P ap
f fer
m Ãµes
ot eca
ĠSch war
ĠMic ro
Ġassin ada
Ġcaptura dos
Ġali Ã¡s
ĠLije also
C R
av ia
Ġter rÃŃvel
Ġdesc riÃ§Ãµes
ĠÃī d
Ġfer idas
Ġceleb ridades
Ġeduc ado
Ġalf a
Ġconsult ar
ĠPequ eno
ĠApresent aÃ§Ã£o
ĠCamar Ãµes
c Ã§Ã£o
z il
Ġm uros
ĠN aÃ§Ã£o
Ġin defin
Ġinst abilidade
Ġ11 1
iol Ã³gica
uv as
sc ha
Ġcontrat ada
Ġpred adores
Ġpne us
Ġespir ituais
F al
ĠA us
ĠS M
Ġpor quÃª
ĠJ ak
Ġdes contin
ĠRe ferÃªncia
ang ular
Ġacont ecem
Ġdi Ã¡rias
ĠRa quel
Ġamor oso
ĠLet ra
ĠAdem ais
Ġescasse z
Ġf Ã¼r
an ol
ĠS eix
ĠRe z
ie jo
ĠAr ru
Ġconhec em
Ġestrutura is
Ġrespe itar
ĠSara iva
Ġisol ada
ĠMÃ¼ ller
ĠInoc Ãªncio
ĠPiment el
h ing
ĠP ente
ĠP ack
ĠT R
ĠCh em
ĠCar val
ĠMed ic
ĠÃ¢ n
PS DB
ĠAmor im
Ġori undos
Cent ro
B lo
ĠE vol
Ġv ivas
Ãº rias
Ġval eu
ĠPl ÃŃnio
Ġservi ram
ĠArt ista
ĠrÃ¡p idos
Ġaplic ados
Ġindivid ualmente
Ġbeb er
ĠInteg raÃ§Ã£o
ĠFerra z
ĠÃļlt imos
ĠM estrado
ĠR ig
Ãªm ia
ĠBl og
Ġesqu ecer
ĠÃģra be
M Ãºsica
ĠT osc
ri ka
ac ete
Ġ18 28
Ġcas aram
Ã³c ulos
Ġvar iando
ĠIsl Ã¢mico
Ġeclesi Ã¡stica
Ġacidental mente
it te
io leta
Ġl unar
ĠL iu
Ġin g
ĠH ugh
Ġ18 41
ĠQ UE
ĠÃī rico
ex tos
Ġset enta
mar k
ĠMe yer
Ġderro taram
ĠEp iscopal
ild ing
ĠVin icius
s burgo
ĠD rama
Ġreg imento
Ġcria m
Ġgrav emente
Ġpens ou
ĠDen is
Ġexporta Ã§Ãµes
Ġreaval iar
ĠG ato
Ġdes g
Ġel ÃŃp
ĠEst abel
ĠVer d
Ġinv ert
Ġmet as
ĠVal or
Ġprev ent
Ġexig indo
Franc isco
ĠRang ers
N ational
om er
ĠAt enciosamente
Ġconf ort
Ġbat ismo
ĠMog i
B en
f oro
Ġm undos
Ġno b
te au
19 35
ĠZ ac
Ġpal cos
Ġconquist ada
Ġacad Ã©m
ĠStan ford
mil itar
ĠvÃŃnc ulo
ĠSindic ato
G I
an so
ro man
ĠO K
ur ia
ĠCh Ã¢
Ġrep rim
ann er
Ġcirc un
ij i
Ġproporcion ar
k al
Ê ĥ
en er
it utos
Ã¡ con
ĠM oney
ĠG raf
ĠW ei
Ġext ingu
Ġmar echal
ĠSan gue
ĠBas ket
ĠBot elho
S ua
t to
ĠO regon
ĠN E
ĠI SS
ĠZ h
Ġarte fatos
Ġmem orial
Ġpreocup ado
ĠKar en
ĠPhilip pe
Ġsono ras
Ġalter ou
ĠUnt itled
Ġcom arca
ĠA prend
ĠN inguÃ©m
Ġex ista
sa x
Ġpass ados
Ġestud antil
Ġru ÃŃdo
ĠMont anha
Ġespanh olas
Ġdesenh ado
Ġvirt uais
Ġlevant ou
Ġroub o
ĠGene al
it on
ĠS alles
19 41
Ġsub ida
Ġman uf
Ġgen Ã©rico
ĠGal ax
ĠMad ame
Ġconclu i
ĠChamb er
p este
it io
ĠP V
Ġal ugu
rit amente
Ġ18 43
Ġconc orreu
Ġref Ãºgio
ĠDu plas
Ġtraz ia
ĠclÃ¡ss icas
ĠCorre io
Ġconvers as
Ġfict ÃŃcio
Ġcalib re
ĠMississip pi
Ġp onde
ic er
ÃŃ var
Ġes m
Ġtra jeto
19 37
ĠSt re
Ġav en
C ab
Q L
l anÃ§
v ir
Ġcomun ismo
Ġdispos tos
Ġpergunt ou
Ġincom pl
dens idade
Ġconsecut ivo
ĠGot t
Ġteat rais
Ġcog um
T T
ra ca
ĠS ad
ĠI A
and os
Ġinter lig
ĠHar vey
Ġpais ag
Ġcruz eiro
Ġgeneral izada
rol ogia
Ġretom ada
ĠTeres ina
Ġcrate ra
i ja
u oso
Ġ ria
ĠB ic
Ġap t
ĠW inter
Ġpass aria
ĠAg rÃŃc
ĠCas as
Ġcompet Ãªncias
Ġendere Ã§os
Ġcomputa cional
Ġperten ceu
Ġ ^
in ch
Ġf iquei
min as
Ġforn o
Ġenvi adas
mus ic
Ġporcent agem
Ġf rÃ¡
em o
ĠP la
ĠV ital
19 44
Ġcorre u
Ġdesign a
ĠBol onha
ĠPira cicaba
ĠGin Ã¡sio
B ras
d Ã¡
n is
ĠB retanha
co p
ĠPro m
ĠY el
Ġfinal istas
ĠSe pt
Ġcur rÃŃculo
rim as
ĠBas quetebol
Ġdiminu indo
Ġlav agem
ĠS ide
at ing
ĠF rag
Ġpo Ã©tica
ab i
ĠK ob
Ġrep ou
Ġenfrent am
Ġparal elas
j un
Ġv inham
ĠD iss
om on
ap olis
Ġ18 12
Ġhabit ual
Ġmod ificada
Ġarquit ecto
Ġmort al
ĠInform Ã¡tica
Ġfech ados
ĠMonte vidÃ©u
Ġvisual izaÃ§Ã£o
I gre
es qu
ou ras
ĠOr g
ĠCre io
Ġqu atorze
ĠA A
Ġem poss
ĠE ixo
Ġal ug
ĠU z
Ġconv enÃ§Ãµes
Ġapo iada
ĠRom ero
Ġata ca
Ġobserv ados
Ġalte ra
Ġexig Ãªncia
Ġapos entado
ĠJud iciÃ¡rio
ĠGeorg ia
Ġnut rientes
Ġt utor
ÃŃ ntese
ĠP ec
ĠV ed
ĠEs portivo
Ġpres um
Ġun icamente
uÃŃ ta
ĠAle ks
Ġmic r
Ġconsult or
ĠGib son
ĠReun iÃ£o
f redo
it is
gu st
Ġcar deais
iss os
inas ta
ĠBot an
Ġperd idos
Ġisol ado
Ġconsc iente
ĠJov ens
ĠClÃ¡ udia
ĠPays andu
as y
il able
ve j
end endo
ĠFl y
Ġconsegu ia
Ġren al
Ġleg almente
Ġple ito
D i
Ġ idades
ad inho
ar car
ĠN Y
Ġcons entimento
Ġgovern anÃ§a
ĠAss assin
ĠAra guaia
ĠCord eiro
Ġenz imas
ĠDevelop ment
ãĢį -
n u
w on
Ġqu im
Ġse io
ĠV ancouver
Ġtra je
dor o
ĠMerc ury
Ġteat ros
Ġexplic itamente
Dav id
Ġ ÃŃmp
ĠL ub
Ġex posta
era ntes
Ġ18 14
ĠZ amb
ĠEd imburgo
Ġgrav ados
Ġcaus am
Ġfac Ã§Ã£o
ti res
Ġsai ba
Ġcens os
Ġpir Ã¢mide
F er
G erm
Ġa mino
to dos
Ġel Ã©ct
ĠGu itar
ĠLe is
ĠCol lor
ach i
Ġresult ar
Ġexecut adas
Ġcomand antes
ĠprejuÃŃ zo
B ah
O pera
f ranc
Ġre lax
ĠF ace
ant ina
Ġbat ata
Ġassum ido
pro te
Ġgradu ou
Ġinser ida
Ġresg atar
ĠTes ouro
ĠA ranha
ĠEst Ã£o
ĠOl ga
Ġfort ificaÃ§Ã£o
Ġapel idado
Ġaprove itamento
Ġbon ita
Ġsaud Ã¡vel
Ġdecis ivo
Ġdepo imento
R ich
Ġco pa
Ġin ger
ĠAlb erta
ĠMont anhas
Ġprecis amos
Ġi ron
Ġemp ates
ĠPrinc eton
ĠSha w
Ġarquitet Ã´nico
ĠIrm andade
Ġblu es
M ais
Ġo k
ĠI F
ĠMon iz
Ġsignifica va
Ġsolic itar
ĠCho ice
Ġsax of
m ic
n ova
Õ ¸
nc hez
ĠCast el
Ġviol ento
Ġcron ologia
Ġpratica ntes
aÃ§ Ãºcar
Î¼ÎŃÎ½ Î¿ÏĤ
e do
is ing
Ġf iscais
ant eriormente
Ġap anh
mo do
Ġinf ecÃ§Ãµes
Le on
Ġplanej ada
Ġlarg amente
Ġapaix ona
Ġconcord ar
Ġcadas t
O ff
P ierre
k ra
v or
Ġd ores
es pa
Ġm osa
ĠA cont
pl in
ev ich
ĠMar il
Ġmar inhas
ĠPal marÃ©s
Ġinvest idores
Ġplan ÃŃcies
Ġvul cÃ£o
Ġinterm Ã©dio
1 18
D en
È Ļ
en ga
Ġb olas
ĠG erar
iqu iÃ¡t
Ġdesemp enha
Ġcort ado
Ġcompart ilha
Ġergu ido
ĠApost Ã³lica
Ġpist ola
D iscussÃ£o
ad ino
Ġf erv
ĠN ele
Ġaut Ãªnt
gua io
ĠAd riana
Ġating iram
ĠTur ma
Ġtax on
Ġmac ro
ĠFa usto
Ġextre mos
Ġpion eira
Ã¡ce o
ĠacÃºst ica
Ġdinossa uros
ĠPatric ia
L in
ent uras
ano rama
ĠPa olo
ĠAm Ã©rico
ĠSt ore
Ġcria tividade
Ġnatural ista
ĠBol sa
Ġsen ado
Ġnar rador
Ġprision eiro
Intern ational
p ubl
ĠS po
ve ia
ĠK il
ĠMar ine
19 49
ĠAt enÃ§Ã£o
Ġlev ava
Ġfun gos
Ġgord ura
ĠParlam entar
Ö Ģ
Ġ( ),
Ġpr osa
Ġdesign ados
Ġmal ha
ãģ Ħ
Ġceleb rado
Ġinvas Ãµes
Ġmer idional
Ġvira r
ĠBut ler
Ġmission Ã¡rio
E t
M ulher
c ido
y st
Ġf atura
an u
Ġar itm
ot to
ch io
Ġinter iores
ĠPhil adelphia
Ġoce anos
ĠÃ³b vio
ĠDivers os
Ġest Ã´m
Ġmar inheiros
ĠSt ri
Ġconf lu
Ġperman entemente
Ġlibert ado
Ġestran ha
Ġl Ã³gico
ĠB un
Ġin gressos
Ġtra Ã§Ã£o
ocal izaÃ§Ã£o
Ġnome aÃ§Ãµes
Ġdu eto
ĠMat heus
ĠBu arque
Ġbus cou
Ġdeclara ndo
ãĤ ¤
ĠCe arense
Gu erra
Ġtelenov elas
soc iologia
Ġgratu itamente
ograph ic
ĠE un
ĠH ino
Ġch il
Ġcam p
ĠÃģ reas
ĠCor itiba
Ġneg rito
Ġgen Ã©tico
Ġarm ad
Ġpec ado
ĠFÃ¡b rica
Ġencom enda
ĠSystem s
ĠPeix e
ĠTeod Ã³sio
ĠT iet
Ġat est
ur sor
Ã©s b
ĠSul liv
Ġdi Ã¡rios
ĠHer mes
Ġson oridade
Ġhid rÃ¡ul
ĠLo ja
Ġso ja
Ġsalv aÃ§Ã£o
ĠSoy uz
Ġa Ã©reos
ad aria
ĠD unc
ĠH ut
Ġmar inhos
ĠPa es
ĠAt os
ĠCol in
Ġopera ndo
Ġmo to
ĠMad re
ĠFa ust
ĠDiretor ia
ĠSax Ã´nia
ĠEmira dos
I TA
so pa
Ġor Ã§
19 26
Ġed ificaÃ§Ã£o
duz ir
ĠEl lio
Ġrep ass
Ġsof tw
ĠLuc ia
Ġbiblio grafia
Ġinvas ores
Im p
ĠdemocrÃ¡ tica
i aria
Ġs Ãªnior
Ġt ch
Ġcom issÃµes
ĠP eg
Ġse parou
ĠI f
Ġpro ve
Ġdes mat
Ġ7 50
Ġorig in
Ġmed iana
Ġsist emÃ¡tica
Ðµ Ð²
Ġbr uto
Ġviaj antes
Ġcontrov Ã©rsias
ĠKos ovo
Ġsoftw ares
in co
ĠA nch
ram os
ĠAl z
Ġconstitu indo
ĠMil es
Ġdecid em
Ġgl Ã³ria
ĠAtl antic
Ġaliment am
Ġfara Ã³
ĠBundes liga
ĠCom um
rat as
Ġvia ja
Ġcab os
ÃŃmp icos
Ġesqu adrÃ£o
Ġdepend er
Ġproced er
ĠAfric ana
T al
h art
ĠC ed
Ġre at
ĠH BO
eg em
ific am
Ġprocura m
ocl ipes
Ġinsc ritos
ĠPD F
u Ã©
Ġdire tos
Ġind isc
ĠVal ente
Ã¡c uo
Ġdom ingos
ĠMinist ros
dire tor
F eira
p m
ĠP Ã¡ginas
ĠB O
ant s
ur idade
Ġobserv ador
br idge
Ph il
Cons ulado
Ġastrona utas
Ġprosper idade
Ġdo urada
ĠC res
ul k
ĠB j
ut ad
ĠV iz
ĠK iev
Ġen dos
Ġrelacion a
ĠBan gu
Ġderiv adas
Ġcerim Ã³nia
Ġfortal ecer
ĠSulliv an
R N
c aras
ĠG ur
Ġ12 7
Ġneg ras
Ġpers as
Ġturn os
Ġabus os
ĠPitt sburgh
Ġsolid ariedade
ĠAnto ine
w est
re te
im er
Ġque ima
Ġex al
19 34
go to
Ġunivers itÃ¡rios
Ġtit ulo
ĠRoc h
Ġdesej ava
Ġvolunt Ã¡rio
ĠC M
Ġem oÃ§Ã£o
ĠB anc
ĠN iel
âĢ ł
Ġtoda via
ĠalcanÃ§ aram
ĠDan ilo
Ġcomand ar
ĠEstat uto
Ġexplora dor
Ġfib ra
ĠMud anÃ§as
Ġfict ÃŃcia
r iv
Ġp Ã´s
Ġf ul
Ã¡ p
ĠS uns
Ġl ance
ĠL eme
ĠD raft
ĠCar toon
Ġcontra st
Ġpag os
Ġmora va
ĠPom peu
Ġbud ismo
Ġp io
ĠF lo
ĠG eraÃ§Ã£o
ĠH ale
az ia
Ġon d
Ġ17 7
Ġnacional ismo
ĠBas ÃŃlio
Ġconsequ ente
Ġilust res
At l
Ġrenome ada
ĠPu erto
Ġculmin ou
Ġans iedade
B ack
Ġb ob
Ġlocal mente
ÃŃst as
ĠUnivers idad
ĠSinf Ã´nica
as er
Ã¡ z
ĠG y
ada Ã§Ã£o
ĠSt uttgart
ĠÂ« "
ĠElect ric
Ġremanesc ente
ĠHerz egovina
M apa
it Ã³ria
Ġb ate
ĠI piranga
Ġprim itivo
Ġoc idente
Ġinc identes
ure ma
ĠPe arl
ĠBr id
Ġfiz esse
Ġclassific ando
Ġmel od
Ġdeleg ados
Ġacha va
ĠlegÃŃt imo
Ġhomossexual idade
ĠF rib
ĠN ÃŃvel
Ġha vido
Ġun iu
Ġren diÃ§Ã£o
ĠSch w
ĠTod d
Ġautom Ã¡tico
ĠCD s
h Ãµes
Ġn an
Ġf itas
ĠZ an
igu ar
Ġprogram ado
ĠEd ge
ĠArt ÃŃstica
ĠBol iv
Ġpriv acidade
Ġcart ucho
Ġimag inaÃ§Ã£o
Ġcatal og
Ġperigos o
Ġprorrog aÃ§Ã£o
P an
n an
Ġus Ã¡
gl om
ĠSe gue
ĠMa in
Ġman obra
ĠCop acabana
let t
Ġcul pado
Ġcolon iais
Re ino
Ġliter Ã¡rios
ĠVill age
ĠSÃ¡ nchez
Ġesco po
n eu
t ida
á ¸
Ġ ic
ic ias
ĠK m
ĠAt t
Ġreceb ia
ĠEn rique
Ġbat ida
Ġmo Ã§a
Ġresta urado
ĠDa ily
Ġtransfer idos
ĠRam alho
Ġilust rado
Ġasi Ã¡ticos
F el
im an
Ġaut oc
Ġgrande za
com panh
Ġmet ralh
ĠAlf ab
ĠSha k
Ġresist ir
Ġisl Ã¢mica
ĠmuÃ§ulm ana
Ġp ilha
Ġl en
ĠV ara
Ġdes vi
ĠDu quesa
Ġhip ert
Ġtraduz ida
Ġbater ias
Ġante pass
Ġprovis Ã³rio
ĠKle in
Ġadjac entes
P MDB
Ġ ranc
ent amento
en ing
ĠR ace
19 43
no ta
Ġinform al
ĠBro ther
ĠRet orn
urs Ãµes
Ġsuspe ito
ĠRiv era
Ġconso antes
Ġarter ial
B ulbophyllum
G old
ro fe
ĠP UC
Ġb ov
ĠN ina
Ġh Ã³quei
ĠEst ima
orn ing
Ġ18 01
undo u
Ġdiv is
Ġrep art
ĠJohn s
Ar te
Ġadicion ou
Ġrest rita
Ġresson Ã¢ncia
t ur
Ġestre ar
AN T
Ġacompanh ando
Ġvig Ã¡rio
Ġextrem idades
ietn am
Ġreivind icaÃ§Ãµes
Ġl inf
ĠF ay
ens iva
Ġfil ogen
Ġant igamente
Ġrep el
ins ky
Ġdet etive
ĠJap onesa
ĠJul ie
Ġguer reiro
Ġmode rada
ĠCount y
ĠMik hail
Ãºsc ula
Ġdemas iado
c ruz
ĠA per
ei Ã³
ĠD ale
ĠT su
Ġan orm
bo w
Ġdiv ino
ĠpÃ©s s
Ġd Ã³
Ġd ragÃ£o
Ġde posto
Ġf Ã³rum
Ġb ico
Ġest o
ac tion
ĠJ orn
Ġinter rupÃ§Ã£o
Ġmat Ã¡
ĠAc tion
Ġfund ir
Ġbio diversidade
Ġverdad eiramente
ĠÃŃ ons
ĠCaz aquistÃ£o
B as
Ã© bio
19 14
ĠDe ep
Ġcompara r
ĠSi rius
Ġincent ivar
Ġchap Ã©u
C orre
g ru
Ġde cep
or Ã£o
co pe
19 10
Ġreg ulaÃ§Ã£o
ĠPr iv
Ġr Ã³t
Ġfund amento
ĠWest minster
ĠPasc al
c ant
Ġc rom
Ġn ame
Ġf ero
it ta
ĠR um
ĠW i
19 22
ĠPara d
Ġconf irma
ĠEn fim
Ġestud ando
Ġfranc isc
ĠArt ÃŃstico
ĠAv iso
Ġforn ecendo
Ġfech adas
ĠMass acre
Ġbe at
iny in
C la
f s
Ġp Ã¡g
ĠE b
de bol
Ġj ac
19 42
Ã¡g rimas
of il
ĠHist oria
Ġmin eira
16 6
old s
ĠÃ³r f
Ġfiscal izaÃ§Ã£o
ĠWind sor
ĠâĢĿ ...
! )
ĠG el
ob i
ĠMar i
ĠespÃ©c imes
Ġguer rilha
ĠNik ol
? ".
S F
S i
ĠF O
ĠF i
ĠF ir
ĠW as
Ġimporta Ã§Ã£o
Ġoutro ra
Ġsequ est
Ġsindic atos
Je an
ĠFur tado
ĠCarac as
ĠMadag ascar
ĠAlej andro
ad ol
Ġb ir
Ġcr ises
Ġvol taria
Ġinc or
Ġdescob rem
Ġnacional istas
fil ho
Ãºn ior
Ïĥ ÏĦ
echt enstein
ĠAnast Ã¡cio
? ,
T F
b ranco
ra lia
ĠN ext
Ġind iana
ĠCl aire
Ġ13 5
Ġestad ia
Ġx ÃŃc
Ġblo qu
Ġpress Ãµes
ĠFis her
Ġcombat entes
ĠPow ell
Ġdescrev em
âĪ Ĵ
or ze
ad ing
ĠD ylan
ĠVol ks
Es planada
ĠConserv atÃ³rio
ĠLen in
ĠLomb ardia
C art
Ġp ur
ĠS pl
Ġna ves
Ġest ender
po eira
ĠAl a
vol ta
Ġconf orto
Ġlev emente
Ġexper iente
Ġcarreg ado
ĠYe ars
Ġdesfil es
Ġsubmar inos
tempo rada
Ġproject os
D ig
I tal
P ont
Ġal iv
Ġpl uv
Ġ17 89
ĠDes enho
val or
Ġba iano
ĠAre ia
Ġparana ense
ĠSty les
et il
ĠH ed
ĠCom pre
Ġant ip
ĠGl enn
ĠBel t
AD O
ĠMot ta
ĠInfra estrutura
×ķ ×
en ko
Ġque ira
ĠM ick
ĠT I
Ġtra dutor
Ġcompl icado
Ġbol iv
Ġdiss ip
ĠDesp orto
ĠTrat amento
R os
p ap
ĠC iro
ara do
Ġh u
ĠCont ribu
Ġarm adura
Ġbus cam
Ġy our
Ġcerim Ã´nias
Ġta Ã§a
Ġbac ter
Ġepid emia
ĠF oster
Ġlocal izar
Ġaut od
Ġvalor izaÃ§Ã£o
Ġobt idas
gn Ã³stico
ID S
Ġtransmit idos
Ġadapt ados
Ġproib ida
Ġproteg idas
ĠQual ificaÃ§Ã£o
ĠFut ure
C y
d ias
p ela
Ġp Ã©t
Ġp Ã¢nt
it ut
ĠD ela
Ġin cont
Ġac r
Ġcomp rim
ĠIm edia
ĠHar per
Ġutiliz adores
ĠEngl and
Ġaglom erado
Ġtriang ular
Ġs og
ent Ã£o
ĠT anc
oc ÃŃdio
ot Ã£o
ĠCh uck
quer da
ĠSh ort
ĠHer man
Ġresta uro
Ġsepara damente
Ġmencion ados
Ġl ot
ĠT um
Ġab adia
Ġfrequ Ãªncias
âĢĻ ,
ĠÃ³ x
ĠLegisl atura
ĠTemp estade
Ġprotocol os
ĠJus celino
ec i
ĠF on
ĠF otos
Ġin Ãº
oc eno
Ġtra iler
ĠDe p
oca usto
ĠEsp ÃŃ
Ġmant eiga
Ġdesenh ista
Ġurban izaÃ§Ã£o
d eiro
g ol
Ġf ios
ĠA F
ĠR ip
Ġcol isÃ£o
ĠDes portivo
irit ismo
ĠBrit ann
ĠAlas ca
Bloc o
( )
Ġs az
Ġfil ant
ÃŃn odo
Es panha
ĠBay ern
Ġinterrom pida
Ġcolomb iano
ĠNass au
Igre ja
p ai
om etria
ub le
ev ille
Ġsegu ia
ĠY outube
CA F
Ġilust raÃ§Ã£o
ĠChec a
c rist
w orld
ĠC es
ĠM ÃŃdia
ado uro
ĠB M
Ġcon greg
Ġcar rega
ĠAr l
Ã´n aco
Ġind ign
Ġdem andas
Ġrev ital
ĠReg iÃµes
ĠSoc iologia
Ġinteg rando
Ġalt itudes
Ġclassific aram
Ġlist ado
ĠPequ ena
oresc Ãªncia
d ing
u adas
Ġre af
ĠN Ã¡utico
Ġpou p
Ġmost rada
ĠEv il
ĠMartÃŃn ez
! -
P L
ro ma
ĠF itos
et he
ran has
ĠEm ÃŃlia
Ġesc ada
Ġfil ial
Ġ18 10
Ġsoc iologia
ĠAb ertura
Ġsur to
Ġcomb ina
Ġlim ita
Ġrom eno
Ġcomplet os
Ġconce itu
Ġrit mos
Ġdesempre go
ut ores
ĠF ara
ĠH od
ĠW itt
Ġcham as
rop h
ich eiro
sc rito
ĠÎ ²
Ġimped indo
Ġexter iores
Ġelabora da
Ġmeta f
Ġtub erc
ĠPom bal
sec ret
J ap
n on
Ġ ratos
is chen
us p
Ġin und
ĠEm erson
ĠÃ¡ p
ĠEs s
Ġcol inas
Ġautor izado
Ġativ istas
ĠTur ing
ĠMilitar es
ĠAnim al
Pre definiÃ§Ã£o
Ġnuv em
Ġem enda
at isf
Ġ20 22
Ġass ento
ĠEuro copa
ĠAd Ã£o
Ġescol has
Ġfrequ entar
ĠSch um
ĠCO M
ĠJul es
ĠVo ice
ĠOce an
ĠPerc y
Ġmister ioso
m ata
ĠM O
Ġre encont
ist an
ĠAl te
elo deon
ĠChamp ions
Ġpotencial mente
ĠNorm al
Ġharm on
suc edida
Ġcombo ios
ĠCurios idades
ĠbÃºlg aro
Ġs av
ĠC od
ĠS amb
ĠB ale
Ġg esto
et her
ĠMar fim
Ġcl ique
ĠCas al
ĠSol id
Ã³m ico
ĠSci ences
Ġprogress ivo
Ġsubord inado
l ou
ĠB ron
Ġdu elo
com e
com una
Ġglob ais
Ġdiplom Ã¡tica
Ġenciclop Ã©dico
ĠsÃ³l idos
ĠSard enha
% :
ei riz
ĠR ing
ot er
Ġ11 6
Ġestud ioso
ĠÂ £
Ġatribu iÃ§Ãµes
Ġadicion ada
ĠClass ic
ĠCaval aria
Ġpsic olÃ³gico
Ġsubmet ido
ĠÃ©tn ica
ĠcaÃ§ adores
w affe
Ġco alizÃ£o
ĠC erv
il iaÃ§Ã£o
Ġest ritamente
Ġpar ecida
Ġatual izar
Ġestiv essem
Ġcondec orado
ĠRand y
ĠPhill ips
ĠestÃŃm ulo
ĠUber lÃ¢ndia
L ond
k g
Ġt ib
op ol
Ġrec orre
Ġmarc antes
ĠMiss ion
ĠÎ º
ĠlÃŃqu idos
soc ial
Ġreflex o
Ġpura mente
T a
Ġf este
ĠS ter
Ġv ela
ĠF ras
Ġres pet
Ġed ificaÃ§Ãµes
Ġreal ista
Ġcoloc am
Ġve em
ĠInst r
ãĥ »
ĠDr ive
ĠJer emy
Ġselecion adas
ĠjurÃŃd icas
Ġplen amente
Ġp Ãµe
Ġs ir
ĠS ustent
ĠM ing
Ġal ist
Ġrec orrer
Ġtorn Ã¡
of icial
Ġcria tiva
Ġprec ursor
ĠestratÃ©g ico
Ġexplic ando
Ġfuncional idade
ĠIndic ado
ĠConnect icut
u ados
ĠA via
ĠV iaÃ§Ã£o
ĠH is
Ġmet am
Ġampl itude
orro w
din Ã¢mica
Ġoit enta
Ġpreen cher
ĠTij uca
P rov
S ex
Ġco ura
ĠC ach
ĠD ens
ĠH ass
ĠU t
Ġcont extos
com un
Ġconv ecÃ§Ã£o
Ġtrat am
In fo
Ne ws
ĠLi echtenstein
Ġaborda gens
G od
H igh
S ur
ĠC em
Ġres piraÃ§Ã£o
ian na
und ia
ĠCon quista
Ġind en
ĠHist Ã³rias
Ġle ia
ĠVol tou
ann on
Ġident ificadas
ĠCant Ã£o
h omem
m sg
v ing
Ġs Ã©rios
ia e
ĠE k
ĠF aixa
Ġim ensa
Ġhabit ada
Ġcaus aram
Ġfuncion ando
ys is
AN D
Ġdomin aÃ§Ã£o
ĠÎ µ
Ġeng ano
ĠGh ost
Ã§on aria
P F
Ġqu int
ĠM aca
ed u
ĠDe pend
Ġreal izaÃ§Ãµes
... âĢĿ
ĠAd el
Ġarqu iv
ĠHol land
Ġglob o
Ġretom ar
Ġcanh Ã£o
Ġsert Ã£o
ĠAntÃ¡r tica
ĠTiet Ãª
ĠFitos sociologia
g eu
Ġm ut
Ġt ang
ĠB eg
Ġ18 29
ĠSe qu
Ġconstru ÃŃram
Ġcob rindo
Ġace ite
Ġaux iliares
Ġorg Ã¢nicos
Ġcerc ado
Ġcompat ÃŃvel
"( "
ĠIndust ry
ec ca
Ġg oz
ĠN omes
Ġcor ta
Ġdist ingue
Ãºm ulos
des c
Ã©l icos
ĠOb s
Ġtecn olÃ³gica
ĠNev ille
Ġconvoc aÃ§Ã£o
f one
Ġt Ãª
ĠV ick
Ġproc ure
Ġexpl icado
Ġcomb inaÃ§Ãµes
ĠrÃ¡p idas
Ġcirc uns
ĠComput er
Ġaster Ã³ide
ĠM elho
Ġca Ã§as
Ġespecial idade
Ġcontro versa
ĠInf erno
ĠBa uru
Ġhon ras
ĠCel eb
Ġpresid iu
Ġafet ar
Ġbon ito
Ġcav ernas
Ġcomemora Ã§Ãµes
Ġbrilh antes
ĠBÃ¡s ica
G ab
b ios
Ġp in
ĠA mo
ion ados
ed back
end i
ch ia
Ġcap as
Ġmov e
Ġcontinu ando
Ġcruz ados
Ġchin esas
isp ens
Ġimpres sa
H ip
å Ī
ic aram
ĠC id
ĠF erg
Ġcon gregaÃ§Ã£o
ip to
ess oria
ĠCh al
ĠAn des
Ġcol ar
Ġag e
Ã³r f
Ġcum pre
Ġremov ida
Ġconduz ido
Ġempreende dor
M F
ĠC F
Ġv Ã¡cuo
ĠO saka
ĠMost ra
Ġinvad ir
Ġunanim idade
T udo
f el
ro om
Ġv ulgar
Ġg rama
ĠDe pressÃ£o
Ã©d ica
Ġun iform
ĠÂ §
Ġsocial istas
Ġsolic itaÃ§Ã£o
Ġcod ificaÃ§Ã£o
D u
F oi
g rav
Ġe rupÃ§Ã£o
ĠC Ã¡s
pe qu
19 19
Ġconv ic
Ġcontribu em
Ġdistribu ir
Ġincorpo raÃ§Ã£o
Ġergu ida
Ġcapit ania
ĠBenn ett
d Ã£
ar ga
ĠC oral
de v
Ġch oc
Ġcl ado
Ġfix aÃ§Ã£o
ĠFund ado
Ġdesempenh ar
Ped idos
Ġasi Ã¡tico
S um
h ada
ĠM AR
Ġac ost
op er
Ġdev ida
Ġfund amentos
ĠTel ecomunicaÃ§Ãµes
cam peÃ£
itz er
Ġcancel amento
Ġinterrom p
Ġlas er
N I
Ġm anto
ĠP O
19 31
rav os
Ġcol ecÃ§Ã£o
Ã³p icos
ĠEx ped
Ġlev aria
ĠAnd rÃ©s
Ġmon itor
ĠCap a
ck s
Ġcab ine
Ġâ Ĥ¬
Con f
Ġarmazen ar
ĠVirg in
ĠProt esta
ĠHuman idade
r ÃŃveis
ic le
Ġt Ã¡ticas
Ġh indu
ĠPort land
Ġbo i
ĠmÃ©d icas
50 8
ĠBl oco
ota Ã§Ãµes
ĠOt Ã¡vio
Ġaprove itando
Ġcop iar
ĠBis pos
ĠAsh ley
in em
Ġpar Ãª
Ġass essor
Ġsub jet
ĠCam Ãµes
Ġpop ulosa
Ġma qu
reg iÃ£o
Ġserv ida
Ġbat idas
Ġconfl itantes
Ġbot Ãµes
Ġencontram os
ĠManch ete
ĠJam ie
t ure
Ġf Ã¡rm
at ore
ot Ã¡
Ġdesc on
Ġaument aram
Ġcomet eu
ĠEstrang eiros
andom bl
ĠFrit z
Ġnov ato
Ġdivers Ã£o
Ġsur f
Ã¨ res
ĠCria nÃ§as
Ġdiferenc iaÃ§Ã£o
ĠSag rada
brasil eiro
Ġa va
ent ro
ei rense
ran ger
Ġpol ÃŃf
Ã³n icos
Ġbat endo
Ġsubstitu i
ĠMon roe
Ġbol sas
ĠNorm andia
down load
Ġpadro eiro
ĠEvent ualmente
D ragon
S ou
ad minist
is lau
do is
ĠL od
ĠT ria
[...]
