#version: 0.2
Ġ d
Ġ e
Ġd e
Ġ a
r a
Ġ p
o s
Ġ c
n t
e s
e r
a s
o r
Ġ s
a d
i n
i s
a r
Ã £
Ġc o
Ã£ o
r e
i a
Ġ n
Ġ o
Ġ m
Ã §
i c
q u
a l
Ġ f
Ġ t
a n
r o
e nt
Ã ©
i d
u m
e n
i t
e m
Ġ qu
i o
Ġ A
Ġco m
e l
Ġd o
a m
s t
Ġ C
Ã ¡
d o
Ġe m
Ġ um
Ã§ Ã£o
Ġd a
i m
Ã Ń
Ġ S
Ġqu e
Ġ 1
i l
Ġ P
Ġ "
Ġ E
a t
Ġ (
a ra
o n
Ġ M
Ġ v
u l
Ġs e
o l
Ġ re
Ġn o
Ġ l
t a
Ġ 2
u n
e i
ad o
i v
Ã ³
o u
Ġ B
Ġ R
n c
i g
ent e
Ġ O
Ã ª
u t
e c
Ġ L
Ġp ara
u s
Ġ D
d e
Ġ F
Ġ T
Ġum a
Ġ N
Ġ b
o m
r es
is t
e t
Ġ g
Ġ in
Ġn a
Ġf o
ic a
Ġ Ã©
Ġe st
Ġp or
Ġ2 0
r i
a nt
Ã µ
Ġs u
Ãµ es
a is
Ġ G
id ad
h a
o c
s e
Ġ1 9
ad a
Ġ I
d a
Ġco n
Ġp ro
l e
a Ã§Ã£o
a c
Ġe s
Ġ J
i r
Ġa s
u ra
i z
Ġfo i
t e
h o
Ġ os
io n
Ġ Ã
Ġe x
Ġcom o
Ġ j
idad e
Ã§ Ãµes
ra s
t o
i p
g u
Ġp r
Ġ V
e ra
Ġ H
â Ģ
Ġp el
an do
ent o
id o
s o
e d
p o
Ġp o
i nt
Ãª nc
Ġd os
Ã© m
e g
ra m
o g
Ã º
i as
Ġa l
it o
or m
Ġa t
ic o
Ġa n
ra n
Ġde s
ad os
ei ro
a g
Ġ h
Ġa p
Ġ -
er n
a v
o b
u r
i f
r io
Ġ U
r ia
Ġp ar
Ġn Ã£o
r os
Ġs er
o v
Ġe nt
a b
a i
Ġa o
Ġ âĢ
Ġco nt
Ġ20 1
Ġm ais
id a
ia l
0 0
er s
am b
or es
r u
a p
Ġa r
ĠR e
ĠE m
Ġsu a
v e
Ġa c
ei ra
f er
u b
Ġ W
" ,
h e
Ġ20 0
m o
m ente
is ta
ĠÃ ł
en s
Ġo u
Ġt em
amb Ã©m
Ã§ a
c o
es t
o d
nt e
Ġt er
Ġd as
o t
Ġ int
Ġse u
Ã ¢
p l
c e
Ġp er
d u
en do
Ġt ambÃ©m
Ġes p
or t
a Ã§Ãµes
Ġe l
ĠE st
Ġo ut
in g
) ,
am ente
em b
) .
as s
in a
i b
m e
i Ã§Ã£o
ĠA l
e z
Ãªnc ias
Ãª s
o ra
Ġ K
Ãªnc ia
or n
Ġpr im
Ġcom p
Ġ res
a z
o nt
Ġ im
an d
es s
ul o
Ġe n
ion al
ad as
Ġt ra
Ġs ob
ras il
ia n
Ġpel a
ÃŃ t
Ġ 3
Ã© c
u d
m in
Ġes c
" .
Ġd is
e v
Ã ´
Ġf orm
e u
Ġ Ã¡
Ġpel o
Ġp os
en d
ĠM ar
qu e
Ġent re
Ã¡ rio
v el
ic as
u g
Ġpar t
Ġ or
Ġe le
i os
p e
am ento
ÃŃ c
p res
es so
fer Ãªncias
u al
t er
Ġc h
Ġf il
Ġs Ã£o
im ento
ĠC om
ul t
Ġp re
Ġa b
ic os
in o
c a
c l
p os
oc al
i re
r it
un d
Ġsob re
c h
emb ro
Ġm as
ĠU n
1 9
Ġ1 8
Ġas s
ĠRe ferÃªncias
Ġo b
iv o
Ġa m
un do
Ã§ o
Ã¡ ri
in c
or te
Ġm u
ad or
i u
id os
Ġ ha
Ġex t
Ġm es
ant o
at o
ĠI n
Ġno v
an o
ĠN o
e b
Ġo f
l a
Ġre g
ara m
ent es
p er
Ġa nt
Ġar t
ĠC on
s a
j a
Ġm ar
Ġs em
in ha
Ġcon s
ad e
i ra
Ġ us
o p
Ġc ar
g o
idad es
ĠA s
Ġc as
ent os
2 0
ĠE s
Ã³ s
Ġ19 9
in al
Ġan os
en c
Ġc l
s Ã£o
h ec
ÃŃ s
an Ã§
er t
it u
v ol
m a
Ġ 4
ĠB rasil
Ġn os
f orm
ĠâĢ ¢
ig o
b l
i k
Ġo n
ĠC h
ra v
. .
Ġn as
iv ers
ĠA n
Ġe ra
ant es
Ġre c
ĠD e
ĠA r
Ã³ ria
ra f
i Ã£o
Ã¢ n
ĠO s
i e
d er
l ia
b al
Ġc or
Ġp res
ar t
ÃŃ n
ĠP a
iv a
an a
r Ã¡
u nt
if ic
Ã© r
Ġfo ram
Ġco l
ĠC ar
av a
Ġ 5
er o
Ġt e
u st
Ġa d
Ġre l
Ġe nc
Ġa g
ar ia
Ġpr inc
Ã© d
as e
Ġat Ã©
el h
in do
Ġ ro
ra nc
ar d
Ã´ n
Ġde st
an h
ĠL ig
it os
ai x
Ġj og
p re
er ra
ul ar
Ġm ai
it a
os t
Ġse us
Ġse g
en as
u ro
Ġqu al
im a
Ġal g
ran s
Ġest Ã¡
ĠS Ã£o
ra l
Ġv ez
o do
Ã¡ri os
Ġ Q
ern as
Ġse gu
ĠV er
Ġp ass
v a
ag em
in h
ra t
Ġc am
Ġint er
ĠA m
Ġno me
Ġm il
Ġtem po
as t
Ġon de
Ġp ol
Ġco nc
Ġd ire
ura nte
ant e
Ġprinc ip
Ġf az
ran de
Ġim p
Ġt orn
Ġe d
it e
em a
ra d
Ġ19 8
j et
l o
m an
Ġc idade
or d
id as
po is
is mo
Ġv er
v er
era l
Ġcon st
Ġl ocal
ĠJ o
Ã³ r
Ã³ p
Ġpos s
Ġha b
Ġd ia
ra da
Ġtra bal
Ġre al
i x
raf ia
ĠLig aÃ§Ãµes
Ġcon hec
2 00
Ġext ernas
Ġp l
ul a
ĠÃ º
Ġdes c
Ġsu b
es a
Ġmes mo
ĠG u
el a
Ġ X
Ġmai or
ic ip
ĠC am
ri b
in da
es te
nt es
Ġqu ando
Ġo c
Ġc ap
or re
Ġan o
iz aÃ§Ã£o
ec t
Ġ 6
ĠQ u
Ãº s
it ar
T C
Ġpar te
Ġp esso
Ã© s
ac ional
ist as
is Ã£o
ub l
Ġd u
Ġa ut
ĠS u
ĠF o
Ġp a
g l
Ġt od
ei ros
Ġpo p
v ia
Ġprim eiro
Ã¡ t
Ġh ist
Ġt rans
el o
ĠP ro
u gu
f e
Ġm e
im o
U TC
Ġin d
ad ores
d em
Ġcont ra
Ġt r
i or
Ġ 0
Ġl anÃ§
h er
Ġs endo
ic ial
an eiro
Ã© ri
Ġout ros
er c
Ġ19 7
Ġpo de
er ic
ov ern
en h
ĠâĢ ĵ
Ġ k
u p
Ġin cl
ĠP or
Ġ 7
Ġdo is
ĠS t
is c
du z
Ãº bl
p on
u c
Ġ Y
Ġsu as
it al
Ġa os
un s
is s
Ġj Ã¡
Ġ ra
Ġprim eira
ĠP r
ig n
Ġhab it
Ãª m
a y
Ġf am
id e
ÃŃ p
Ã¡ g
Ġe qu
Ġ 8
Ã© t
ia is
ica Ã§Ã£o
ÃŃ vel
v i
re a
d io
g a
ir m
Ġmu ito
Ġd urante
vol v
g e
ce b
n e
at eg
Ġv ol
Â º
Ġc r
Ġde pois
ĠC l
Ġenc ont
ateg or
Ġprincip al
i Ã§Ãµes
Ã§ as
ĠA p
Ġch am
Ġ is
ia m
ol a
b o
u do
Ġg ru
in as
ÃŃ st
Ġa inda
Ġ1 5
ĠP ort
Ġ1 7
ĠÃ ī
ĠP ara
Ġ 9
Ġpa ÃŃs
Ġd ist
ĠN a
ĠA t
p era
o f
r ig
Ġf inal
id era
Ġa f
Ġap enas
Ġ19 6
Ġc an
c on
Ġf al
in e
res ent
gu a
ĠS e
ĠE l
an da
Ġdes en
Ġesp ec
r il
g ram
el e
l t
ĠE le
Ġ Z
ra Ã§Ã£o
nc ia
un da
ar es
l u
Ġart igo
Ġap resent
um a
er v
g an
ĠPa ulo
Ġ1 0
iz ado
an ha
ÃŃ lia
ĠE x
Ġ( "
Ġform a
Ġg rande
ÃŃc io
Ġde f
ĠL e
Ġcom e
c om
Ġpro c
un c
p a
Ġd if
r ito
en a
ĠR io
Ġhabit antes
Ġc a
ol og
Ġ r
at ro
Ġg overn
l io
Ġap Ã³s
Ġc er
Ġpor t
l b
ĠI nt
Ġ1 6
Ġb rasil
Ġ un
Ġincl u
Ġf e
Ãª n
Ġel a
ra r
du Ã§Ã£o
ĠA nt
iv os
Ġp e
ip e
Ġre t
Ġin f
Ġm en
Ãº m
il l
d es
el ho
r ic
ul aÃ§Ã£o
ian o
id ente
ĠS ant
os to
d os
Ġin st
Ġm Ãºs
Ġcon f
Ġf or
Ġm at
Ġpro v
ult ura
Ġor ig
iz ada
el l
Ġpro f
an c
Ã©ri e
ĠFo i
nt o
Ġt he
t or
Ġde c
Ġpo der
ĠP ar
ve is
Ġl iv
ĠN ov
" )
Ġg u
ic e
ut il
Ã¡ s
n a
us sÃ£o
.. .
at e
Ġpart icip
I I
it as
ĠD es
in ho
ĠâĢ Ķ
Ġpol ÃŃt
ubl ic
qu er
Ġd iv
Ġf ic
Ġtr Ãªs
Ġre ceb
Ġde z
or do
Ġm od
Ã¡ vel
pe on
pres ent
eb ol
ig os
ĠW ik
Ġe v
Ã¡ ria
Ã³ g
Ġm a
Ġest e
ĠM a
Ġk m
1 8
ra do
Ã©d ia
Ġl ev
Ġh om
Ã³ rio
or ta
n o
er g
Ġ util
Ġtod os
Ġm ed
Ġa v
elh or
Ġs ol
Ġout ras
ĠÃ¡ lb
Ġdu as
ul os
j e
at a
Ġent Ã£o
rib u
Ġ1 2
s on
Ġin v
em pl
Ġm an
ro u
ÃŃ m
âĢ Ŀ
Ġb em
Ġc ri
ĠAs s
ĠL ocal
Ġm et
ent al
Ġs Ã©c
ĠT he
peon ato
Ġs ido
Ã³ l
ut ebol
Ġf re
oc a
h os
Ġfil me
Ġin form
Ġex ist
Ġs im
Ġm un
era m
Ġ19 5
Ġs oc
e x
ut o
Ã¡ri as
Ġ19 4
Ġgru po
Ġ1 4
Ġde v
ĠL u
ro p
is a
unt o
ĠUn ivers
t ura
d ade
Ġa qu
ĠA b
ec e
Ġs ist
Ã³ n
Ġsegu int
p ort
Ġconst ru
t as
ĠÃ ģ
Ġdif er
ers on
Ġt o
es se
Ã¢ m
re ira
ul ho
Ġch eg
Ġc ria
Ġis so
c io
ĠC ol
ei ras
Ġest ado
Ġcons idera
ĠâĢ ľ
Ġdis c
al l
un ho
Ġ ho
Ġpesso as
ro n
im in
ĠO l
Ġposs u
Ġcom un
Ġb ase
ion ais
en se
ĠJ os
Ġan d
Ġre present
an os
Ġ1 3
ĠÃ¡lb um
m it
Ġcon v
âĢ ĵ
t os
Ġpro gram
Ġseg undo
Ġpel os
r y
ĠÃº lt
ĠH ist
ub ro
ĠÃł s
Ġdesen volv
Ġcome Ã§
g rafia
ĠE n
qu anto
Ġport ugu
i ar
ev er
r ut
Ġpro p
Ġn Ãºm
ĠB ar
Ġc ent
Ġem pres
Ã© rio
l es
z a
ĠÃ¡ rea
os a
i es
d or
T he
olog ia
og o
Ġreg iÃ£o
Ġ1 1
Ġin gl
re n
at al
Ġm in
se gu
h as
ĠEs p
Ġs Ã©rie
iv as
Ġpr Ã³p
em ente
ĠA c
Ġt ÃŃt
Ġdes de
Ġp al
Ġass im
d ia
ic ÃŃp
er to
ian a
ĠsÃ©c ulo
ĠO r
i ado
an g
ĠS eg
Ġest re
at ura
d as
il idade
ĠEst ados
Ġap ar
Ġc ada
ta Ã§Ã£o
ag ens
Ġp es
Ġin s
d ic
Ġesp Ã©c
Ġc in
m os
j o
ug al
ual mente
im e
Ġt inha
Ġalg um
ĠF l
ub e
Ġpo dem
Ġl on
le x
Ġf und
ac h
Ġpart ir
ĠUn idos
Ġl ug
Ġant es
Ġp Ãºbl
et o
Ã§ os
c ional
Ġ19 3
Ġp ou
Ġfam ÃŃlia
Ġ201 0
ĠU m
Ġv ida
p ut
g re
ĠI s
Ġ w
Ġse t
t on
Ã´ m
i ent
Ã¢ ncia
Ġp Ã¡g
ategor y
1 0
g em
. "
Ġhist Ã³ria
Ġsu c
Ġ200 8
Ġte ve
ed ia
av am
it y
min ist
Ã¡ l
Ġno t
ĠE d
ou r
Ġpop ulaÃ§Ã£o
ed ade
u a
Ġex empl
ic h
ic al
es ta
Ġor gan
er ia
Ġof icial
ĠF ranc
en de
Ġat rav
ĠPort ugal
Ġpro jet
Ġde ix
og rafia
Ġest ava
Ġv al
et e
Ġde r
ĠI m
l os
Ġh Ã¡
a k
Ġs Ã³
Ġg rav
ab el
ĠE nt
ever eiro
Â ²
Ġmun icÃŃp
ĠS ul
Ġalg uns
Ġre p
ĠJ aneiro
Ġ il
ĠF il
Ġm undo
io u
Ġ200 9
ec ess
Ġ200 6
Ġcont in
ĠE uro
ig a
ÃŃ f
ĠP er
Ġd ivers
Ġ200 7
ĠP re
Ġtrabal ho
in s
Ġac ordo
il o
v o
Ġam b
ĠB o
ĠnÃºm ero
Ġs a
ist o
Ġel es
isc ussÃ£o
Ġv ers
im entos
io l
Ġap ro
ĠC or
Ġj aneiro
ĠmÃºs ica
Ġingl Ãªs
Ġdez embro
an e
Ġha via
Ġvez es
is sÃ£o
Ġde m
an Ã§a
Ġint ern
Ġimp orta
Ġd iz
ĠO ut
Ġp ublic
em as
h n
Ġm elhor
re t
Ġmar Ã§o
Ġre fer
Ġre v
Ġv oc
Ġv o
Ġt endo
Ġsu per
u ta
ĠG e
200 0
o k
p end
p t
Ġcon d
on a
Ġn um
p h
ĠM an
Ġg eral
Ġfaz er
Ġn orte
rÃ¡ f
Ġc u
p ara
Ã© l
Ġform ula
Ġsist ema
ec eu
Ġin c
Ġ id
Ġespec ial
at iva
Ġgovern o
Ġt ip
Ġma io
Ġ201 1
Ġatrav Ã©s
Ġen quanto
Ġc ant
Ã³ ri
Ġest Ã£o
Ġc ur
Ġe ram
Ġaut or
en Ã§a
ac k
ara c
ia Ã§Ã£o
Ġv is
Ġ201 3
ĠÃ© p
re d
Ġn eg
Ġal Ã©m
Ġlug ar
e de
Ġ201 2
Ġa po
Ġd Ã©c
ot al
Ġs al
as c
Ġ /
Ġset embro
Ġb anda
Ġ .
Ġest a
1 2
ĠtÃŃt ulo
Ġout ubro
Ã³ d
eric ano
Ġab ril
ĠJos Ã©
Ġper ÃŃ
it or
Ġag osto
1 5
Â ª
iv e
ĠA d
ac e
d iscussÃ£o
Ġj unho
Ġjog o
ĠN e
Ġj ulho
Ġp erson
Ġse ja
i ente
ĠF ran
ĠN acional
Ġcon segu
Ġem b
il a
Ġv Ã¡rios
und ial
ĠCam peonato
Ġcol oc
h t
Ġf ez
ce u
en Ã§Ã£o
Ġnov o
os ta
ÃŃ do
ul her
or r
ĠS a
Ġa j
Ġh um
ĠJo Ã£o
Ġmar c
ĠÃº n
r ica
Ã¡t ica
Ġde n
Ġin ic
Ġt ent
ĠUnivers idade
Ġn ecess
s os
iz ar
en o
u re
d ut
re g
is co
ĠÃ©p oca
n Ã§a
z e
ar o
Ġnov embro
x im
ĠA g
du c
Ġin ÃŃcio
Ġca us
00 0
u Ã§Ã£o
Ġesc ol
1 7
Ġt ar
Ġm us
ĠEs c
ĠInt ern
Ġpro duz
Ġt otal
Ġmil h
st itu
Ġp ra
Ġm ov
i Ãªncia
em in
Ġpo is
um ent
m es
if icaÃ§Ã£o
Ġtrabal h
Ġpre c
Ġ ,
Ġtempo rada
ĠR ec
Ġest ud
on g
ĠS al
ar i
Ġpo nt
en ho
Ġexempl o
ĠMar ia
Ġesc rit
ĠT ra
Ġout ro
Ġl e
Ġqu atro
ĠT h
ic amente
ĠEst ado
Ġseguint e
gu e
Ġm ost
Ġres ult
Ġpe qu
ro m
ĠC r
Ġdest a
Ġs ign
1 6
ad r
on s
ĠperÃŃ odo
Ġob jet
ĠU ma
Ġconhec ido
Ġtorn ou
Ġf ranc
ĠC op
Ġ201 4
ib lio
Ġf evereiro
Ġp ap
Ġ ir
ri z
il h
on d
ĠP l
am entos
Ġ2 5
at os
ĠT e
Ġcas o
ĠP ol
Ġp ed
ĠmunicÃŃp io
Ġex pl
ura s
u da
ĠM o
ĠN Ã£o
Ġs om
ĠHist Ã³ria
Ġe u
ĠC o
Ġcer ca
Ã£ os
Ġme io
t h
Ġt odo
Ġ3 0
ĠR om
orn al
Ġqual quer
ĠM us
Ġbrasil eiro
Ġed iÃ§Ã£o
os s
Ġ ig
re m
1 4
Ġ201 6
iv al
ĠC as
Ġt el
Ġres pon
or e
ĠNov a
re ve
iv amente
b a
i ram
Ġv e
arac ter
es es
1 3
Ġe t
ĠWik ip
Ġ2 2
Ġt ur
e f
es ar
ĠCom o
Ġmen os
l y
ĠC at
ĠR eg
t ar
as se
ec er
Ġl ig
ĠP al
19 9
u el
Ġe p
ĠAn d
c ar
Ġqu ais
Ġcl ass
u ais
Ã©c n
ĠC ont
Ġ '
Ġex p
ĠM in
is e
Ġl ado
Ġcomp et
Ġ2 1
Ġm ant
c ia
Ġf un
Ġcont ro
if ica
Ġ201 5
Ġ2 3
c os
ru z
ĠAp Ã³s
i er
Ġfil ho
ĠG rande
Ġd ias
ÃŃ da
Ġdev ido
Ġ irm
Ġdesenvolv imento
ĠC an
ĠpÃ¡g ina
Ġseg unda
i el
Ġv Ã¡rias
Ġs itu
en so
Ġm ud
Ġent anto
on hec
Ġs ab
on e
a f
en da
Ġf l
Ġpro bl
Ġco b
Ã©r ica
Ġter c
Ġs ent
Ġar qu
aix a
Ġf im
iv er
p r
Ġtod as
2 1
Ġf er
s as
Ġre n
in os
Ġv ia
Ġt al
ĠC ent
ĠI I
Ġc ultura
Ġm ulher
Ġg ran
ĠS h
Ġ20 00
at ion
Ġte x
Ġ2 4
ent emente
aix o
Ġser ia
Ġde nt
m as
ĠP res
Ġnov a
Ġo pera
o w
Ġalgum as
orre u
Ġg ol
Ġm orte
ĠS ub
ĠSant a
ĠC al
ĠlanÃ§ ado
Ġad minist
ĠL a
ĠI t
Ġ rÃ¡
l and
am os
Ġpro duÃ§Ã£o
Ġde l
ĠGu erra
er os
Ġpres idente
Ġser vi
in gu
res c
ĠV al
ĠP art
t t
Ġ z
ĠS oc
iz a
Ġel imin
Ġant er
Ġa ta
av al
a x
ĠcomeÃ§ ou
Ġprogram a
ĠÃ¡ gua
ĠRe p
ĠCon s
n do
Ġsu r
Ġequ ipe
1 1
Ġt om
Ġm ot
ac ion
Ġpr Ã³
Ġcom pl
ĠP ed
i ro
Ġdef in
Ġdesc ob
Ġmu itos
Ġe con
ĠCop a
Ġtar de
Ġ201 7
ĠAr t
k e
Ġus o
Ġpass ou
Ġs ul
Ġ200 5
ĠespÃ©c ie
ol Ã³g
ĠJo hn
ĠG l
Ġg anh
Ġequ ip
ĠEst e
ĠS il
Ġt re
Ġcontin u
Ġpossu i
Ġac ab
Ġes se
or ia
Ġvers Ã£o
ĠO b
Ġmes ma
Ġg ra
i Ãµes
Ġg en
Ġvoc Ãª
Ġl ib
Ġcas a
Ġpro dut
Ã¡ veis
Ġat iv
Ġf utebol
ÃŃst icas
Ġcom b
Ġj unt
os o
Ġliv ro
ĠR ob
Ġl eg
Ġes sa
ul g
ag o
em p
Ġre f
Ġm on
Ġint eg
a ir
Ġorig inal
ĠF ede
Ġde ve
Ġcon j
st ant
am es
ĠB io
ĠE la
Ġc aracter
Ġcon qu
v al
Ġ19 2
Ġportugu Ãªs
Ġprojet o
i edade
' s
Ġc al
Ġe r
Ġb as
Ġse x
qu es
g er
Ġna cional
Ġmilh Ãµes
Ãºbl ica
ĠLocal idades
Ġmil itar
Ġpes qu
ta nto
ĠI gre
Ġf ac
Ġsem pre
t enc
Ġat ual
al a
um ento
ic k
Ġal em
ar do
or g
Ġcr ÃŃt
Ġ &
Ġpor que
ir c
Ġcar reira
Ġest abel
Ġ201 8
ĠSeg undo
u x
pos ta
Ġs of
Ġ Â
de pend
Ã©r c
ÃŃ veis
ran do
Ġqu em
ĠpaÃŃs es
Ġinclu indo
ab ora
iz ados
Ġreg ist
Ġf in
am a
Ġse c
av or
er ta
ĠD em
Ġn uma
ĠM at
Ġl ÃŃn
am p
p ect
ĠEnt re
s ia
ĠM as
ĠC ap
Ġter rit
Ġempres a
i ada
ar e
Ġproc esso
Ġo p
ĠdÃ©c ada
in ado
Ġprincip ais
Ġcan Ã§Ã£o
s es
ĠG o
ĠB iblio
ĠCar los
Ġrel aÃ§Ã£o
f in
Ã³ t
om ia
era Ã§Ã£o
Ġl im
en ha
g res
Ġinform aÃ§Ãµes
Ġan im
Ġ ru
im ent
Ġtip o
Ġgran des
Ġdis so
pres s
orm ente
ens Ã£o
a h
m ov
ĠF re
Ġpou co
ĠP o
ir ig
ĠAl Ã©m
ĠIgre ja
ad es
Ġter min
im os
t ou
om e
i ormente
ĠL ista
est Ã£o
ĠC ast
Ġat u
Ã ¼
c ion
Ġmaior ia
Ġp ai
Ġ200 4
Ġf unc
Ã¡ c
Ġcham ado
fe ito
rut ura
Ġt Ã©cn
Ġper man
ĠB e
Ġb o
Ġmu itas
u v
al h
ĠIn st
Ġreceb eu
Ġvol ta
b ol
Ġ201 9
ĠW il
ĠN os
ul as
Ġout ra
c k
Ġ2 8
c el
ÃŃ de
Ġj ornal
ĠpolÃŃt ica
ĠAm Ã©rica
f ic
Ġ2 6
Ġc ab
oc k
Ġlon go
Ġt ro
Ġt ec
Ġcor re
es e
Ġob ra
ess or
Ġde cl
u de
Ġpop ular
ho w
Ġm Ã©d
Ġpel as
Ġc ategor
p anh
ĠM undial
Ġho je
Ġinf lu
ĠD urante
ra g
ÃŃc ia
Ãªm io
Ġcin co
ĠAn g
Ġb ar
an as
Ġdifer entes
Ġ2 7
Ġsuc esso
ado ra
ag e
Ġde ter
emb ros
Ġest ad
ess a
ec ut
bo a
Ġap l
) ;
le y
or k
pos iÃ§Ã£o
Ġd irig
Ġal t
ĠNe w
Ġcl ube
ĠpÃºbl ico
un g
ĠFran Ã§a
rad as
ĠEst a
Ġob s
qu ia
at ivo
le g
Ġpont os
ert os
Ġrel ig
Ã© n
ĠA o
in k
Ġcont a
ĠN orte
ĠPa ul
is boa
ĠSu a
ĠQu ando
Ġan unc
Ã¡ b
Ġto da
u z
Ġf avor
Ġac ont
Ġdis se
in d
Ġdent ro
Ġart igos
Ġsim pl
Ġep is
m ar
g io
Ġgu erra
Ġimporta nte
Ġpos iÃ§Ã£o
ĠPr im
ĠDe pois
Ġjog os
k a
Ã´n ia
og os
ro nt
ad amente
Ġpar c
Ġde t
ad eira
ĠD ire
Ġaqu i
rit Ã¢n
Ġrel acion
ĠI l
w w
Ġser v
Ġcap ital
ĠSu per
ĠEuro pa
Ã³ri as
Ã©rc ito
Ġt Ãªm
Ġd ados
iv il
rad os
ec a
an n
Ġpo nto
ĠH ar
om b
ĠM e
or to
ez a
Ġpal av
Ġm Ã¡
Ġn atura
ĠT V
ÃŃst ica
Ġd i
Ġa do
Ġv it
Ġrespon s
ĠPor to
ĠM il
pe Ã£o
Ġcor po
c ategory
us Ã£o
ar Ã¡
al mente
5 0
ur g
Ġprof iss
ĠM un
ent a
Ġaf irm
l et
Ġc ient
Ġinter pre
19 8
Ġoc up
i ores
ĠAl em
Ġen s
ĠS p
ĠWikip Ã©dia
Ġ19 0
Ġdis put
re as
. ,
Ġpap el
Ġesp a
Ġm om
Ġ2 9
Ġ x
u i
r im
am e
or ge
Ġrec onhec
Ġo l
Ġex per
Ġ :
Ġconst itu
ÃŃ l
ĠS er
Ġal c
Ġl at
ĠS eu
Ġdo c
Ġconstru Ã§Ã£o
Ġfic ou
Ġb at
Ġre i
Ġdo m
f f
ar c
an ce
el es
Ġl inha
Ġ ide
Ġfo ra
Ġhist Ã³r
Ġfre qu
in aÃ§Ã£o
k i
il e
ica Ã§Ãµes
Ġpro te
era is
r is
Ġn orm
i que
Ġper mit
ĠP ra
Ġ20 20
ific ado
Ġl it
en n
v io
ĠF er
en ce
ĠT ambÃ©m
Ġsoc ial
ĠL isboa
Ã´n io
Ġsub stitu
3 0
ĠPed ro
inh os
inh as
Ġtex to
ĠH er
b y
Ġj ov
Ġder ro
Ġind iv
Ġm embros
Ġqu ase
ĠR es
st ria
ĠP at
ĠMar t
Ġinv est
t ado
ic l
_ _
as h
ur so
Ġprincipal mente
ĠT er
Ġob ras
duc aÃ§Ã£o
Ġus u
ĠAl g
f re
ĠAl b
Ġ18 9
ĠprÃ³p rio
ĠG al
Ġn enh
Ġl ÃŃ
i ados
ec h
Ã©t ica
Ã¡ lia
ĠF utebol
ra c
Ġcom erc
el as
et ro
Ġposs ÃŃvel
Ġm o
un a
ar g
ĠF ern
ÃŃ a
ĠR o
ic ion
iz ou
ĠV ol
Ġtel ev
Ġn ÃŃvel
Ġp at
Ġp int
Ġv ot
ĠRep Ãºblica
ĠD u
Ġc at
Ġ200 3
Ġest im
Ġconhec ida
end er
Ġdeter min
it uto
ÃŃ nc
ĠM ont
ĠD av
Ġret orn
ĠFranc isco
Ġid ent
s h
ol d
Ġfunc ion
Ġemb ora
Ġ ...
ĠX V
ĠR a
e p
f o
icip al
2 2
Ġdest e
ĠH en
Ġ200 2
Ġter ra
ei x
ĠD om
Ã£ e
Ġpor Ã©m
Ġ rio
or o
Ġt anto
Ġpesso a
Ġprim eiros
Ġprop ri
ip l
ing le
ĠLocal idade
Ġqu ar
ĠB l
Ġn e
ac a
on st
Ġorig em
Ġind ic
em os
Ġcomp os
Ġ ital
ĠS te
ĠM ed
Ġsimpl es
Ã¡ cio
ÃŃm p
z o
ÃŃ g
ĠRe ino
Ġj unto
Ġass oc
Ãº de
Ġconqu ist
Ġfe ito
ele Ã§Ã£o
ĠIntern acional
is as
ĠBiblio grafia
an s
Ġ200 1
ĠÃºlt imo
Ġo fer
x imo
i entes
ern a
2 8
Ġv iz
Ã¢n e
/ /
ĠS ou
ĠS c
Ġ- -
Ġl ista
Ġ1 00
Ġv enc
b e
ern o
Ġpos ter
E S
Ġl oc
ÃŃ ncia
it ado
ĠL ib
Ġar m
em ia
et r
Ã¢n ia
reve u
Ġcont ribu
ÃŃn io
Ġapro xim
Ġbrasil eira
ta nte
Ġg Ãªn
p art
Ġin icial
ĠA f
Ġrel at
es ia
ĠA lex
ĠT om
y s
: //
ĠlÃŃn gua
Ġn em
Ã¡s s
Ġcent ro
Ġin depend
ĠA v
ap a
ĠrÃ¡ p
Ġnas c
Ġcom um
Ġm erc
Ġro m
stant ivo
ur b
Ã¡ r
Ġf ato
w n
Ġconj unto
ri os
Ġdist ribu
Ġval or
Ġqu anto
2 9
Ġdis p
int o
ÃŃc ias
Ġag ora
ĠB u
Ġ idade
Ġmet ros
iz adas
l er
ĠS an
t ion
un ca
ĠM al
e ta
do n
Ġl a
Ġat ing
ĠN ot
Ġlocal izada
Ġ =
ĠpolÃŃt ico
r ist
Ġmat er
Ġa st
ĠFede ral
Ġgru pos
Ġs on
Ã³ dio
p ira
Ġt rop
Ġro man
os se
ru e
en co
ĠH e
Ġf ase
Ġv ai
Ġobs erv
ent ar
ic ular
ĠJ ap
is h
ĠS ol
et t
ant as
um e
Ġencont ra
Ġdire ito
Ġser Ã¡
Ġde ver
Ġex ib
in i
Ġper tenc
Ġqu er
A r
ĠT em
t amente
Ġar g
Ġdivers as
Ġf ort
Ã¢m ara
Ġele ito
de fin
" ),
gu as
Ġinst itu
ĠIn gl
and id
Ġter mo
Ġc resc
Ġam pl
Ġv iol
ĠAlem anha
Ġl ogo
S B
Ġqu ad
ac o
Ġus ado
ĠB en
en os
ut os
Ġseguint es
v es
Ġc irc
n er
Ġb ritÃ¢n
Ġel em
Ġmom ento
eric ana
ĠM ic
Ġpo vo
) :
Ġcham ada
Ġb us
s u
Ġdes ign
ĠF ac
Ġf emin
atal ha
ran g
ĠC a
ant a
Ġest ar
Ġde u
Ġel ei
ĠP e
Ġ18 8
Ġcria Ã§Ã£o
Ġdivers os
Ġmov imento
ec imento
at es
ĠlanÃ§ amento
Ġl he
ĠT ur
Ġc idades
19 7
m et
Ġest udo
itu de
ĠGl ob
Ġterrit Ã³rio
h am
ĠÃºn ico
Ġb air
ig ht
ĠD o
Ã£ es
n g
Ġoc orre
Ġtelev isÃ£o
Ġm ont
os p
um b
Ġperson agem
Ġ199 9
ĠT a
Ġnov amente
Ġg e
ĠIm p
f il
Ġc he
ĠS ch
Ġse de
Ġmes es
Ġp ens
Ġinst al
Ġm odo
at ivas
el mente
Ġest rutura
c ul
Ġac e
Ġv end
l as
Ġse is
A R
Ġig re
Ġdec id
Ġam ericano
Ġespa Ã§o
Ġpres ente
d en
Ġv iv
ra Ã§Ãµes
t rue
Ġim pl
tt p
Ġfil ha
i Ãªncias
pres sÃ£o
Ġt udo
Ġh ttp
ĠM ag
ĠM u
y l
4 0
Ġre vel
ĠB ro
g enh
Ã¢ nt
ĠÃºlt ima
Ġem pre
ĠespÃ©c ies
Ġcam po
ĠMin ist
ĠG ru
ĠG r
Ġesc ola
ĠJ ogos
Ġv ari
l d
es c
Ã£ s
ĠS anto
is l
Ġdist rito
ab ilidade
de u
ĠPar is
Ġtrans form
i qu
ĠM on
Ġal te
ĠD iv
Ġfo ntes
Ġh er
ĠR od
Ġmai ores
ĠB el
ara n
Ġfranc Ãªs
Ġgeral mente
Ġconsidera do
Ġm Ã£e
ĠC ruz
ĠprÃ³p ria
ĠInst ituto
ĠÃ¡ reas
id Ãªncia
Ġfun Ã§Ã£o
if e
ura Ã§Ã£o
est ival
Ġfil hos
Ġf ica
Ġprobl emas
ica is
Ġm embro
ĠX I
Ġn unca
Ġest ilo
Ġden om
Ġc el
p orte
ol e
ĠSil va
ĠPort ugu
w ard
ĠF or
st e
ĠG en
Ġdis pon
Ġ5 0
ĠM ac
Ġp ag
ĠP h
Ġcient ÃŃf
ĠEsp anha
Ġ199 8
ĠG ra
Ġg l
y a
vol uÃ§Ã£o
ĠAss oc
2 5
b r
Ġm and
c ri
ĠS im
rÃ¡ s
ĠD an
Ġcheg ou
ĠM undo
ĠM c
Ġm Ã©dia
Ġre un
og rÃ¡f
ig u
ĠB ra
Ġjog ador
Ġc andid
p anha
ĠSub stantivo
Ġcaus a
Ã¡t ico
og ia
Ġb ranc
Ġ199 0
ou t
Ġest avam
A m
j am
Ġar te
Ġm al
Ġprec is
Ġproc ura
Ġcategor ia
ĠT r
um entos
ar em
ĠT od
Ġres ta
Ġg al
ib ilidade
Ġalc anÃ§
Ġil ha
Ġt enha
Ġesp anh
it aÃ§Ã£o
ĠA ust
Ġmulher es
aix as
ĠEm b
ĠI r
Ġp adr
Ġad v
Ã³ri os
ĠÃºn ica
Ġpro t
2 3
Ġass um
Ġen volv
is so
Ġm ora
ne y
6 0
us s
Ġdire tor
Ġl Ã¡
Ġs el
Ġex ecut
im as
ĠM ais
Ġcap ac
ĠUn iÃ£o
ei as
Ġmus ical
v am
Ġex c
ĠDe us
Ġapo io
Ġparticip aÃ§Ã£o
Ġf orn
ur sos
Ġcr ist
a e
n ia
ĠM or
Ġa ument
Ġhom em
Ġaj ud
Ġresult ado
Ġdiv id
st o
Ġac ima
Ġv ir
Ġprofiss ional
A S
Ġs ite
ec ido
Ġor dem
ĠAss im
Ġc ategory
ĠSant os
Ã ¶
Ġf ÃŃs
âĢĿ ,
ĠRe al
A l
Ġpro mov
ĠAp esar
ĠE u
p Ã§Ã£o
Ã¡ st
Ġ |
it ura
Ġa er
id er
ura nÃ§a
Ġprov ÃŃncia
ĠS et
Ġsign ific
Ġnot category
enc ial
Ġ3 1
Ġterc eiro
E R
ĠAr g
ĠCas a
Ġdire Ã§Ã£o
Ġhom ens
II I
ĠB r
Ġcar go
Ġac om
or ld
ura l
it es
ĠCh ar
il le
lia m
i us
Ġ18 7
Ġsem elh
Ġcont e
Ġcompl et
ĠF orm
Ġdisc ussÃ£o
ito ra
ĠÃ į
il ha
ram a
et er
r or
Ġrev ista
Ġdest ac
Ġnatura l
Ġt est
erg ia
Ġpre v
ĠBio grafia
ÃŃde o
y n
ĠH ol
Ġob rig
j as
Ġqu ant
Ġt iv
Ġservi Ã§o
Ġre de
p ro
Ġse para
Ġtra dic
Ġfre nte
Ġform aÃ§Ã£o
Ġun ivers
a in
b re
Ġcomun idade
Ġtra t
Ġf ut
e io
le ta
ap on
est re
Ġs how
Ġfil mes
at ional
Ġ4 0
l am
Ġrelig ios
Ġt ri
ĠIt Ã¡lia
Ġl uta
Ġconte Ãº
ĠAc ad
Â °
ĠS ec
Ġ199 6
Ġest Ãº
re v
d ios
p ar
Ġobjet ivo
ro g
2 4
Ġpl ane
Ġv el
Ġmod elo
Ġl ei
Ġintern acional
ĠBrasil eira
ĠO c
Ġl ut
inh am
ĠlÃŃ der
Ġelimin aÃ§Ã£o
ĠC ultura
it ores
Ġesp era
an ho
ĠL ou
ĠM ad
Ġc ost
Ġ â
al e
Ġd ar
Ġprof essor
Ġesc rito
Ġac red
Ġconc e
it h
ei r
Ġd ig
ul dade
Ġsom ente
ĠB er
al ha
Ġc rit
Ġcompet iÃ§Ã£o
ĠC ha
Ġganh ou
Ã³n io
Ã´n ica
Ġv en
qu i
Ġloc ais
Ġres pe
Ġe uro
ĠL eg
ĠL uc
Ġda ta
a u
Ġv i
ar m
k y
ĠC ab
Ġpart icular
ĠPart ido
ĠE nc
ĠE v
n Ã§as
Ġt Ã£o
Ġf ront
s ol
ĠU S
Ã¢n dia
Ġcri ado
ĠB an
Ġarqu it
Ġm ens
Ġj ust
unda Ã§Ã£o
Ġres ol
ur go
a ug
Ġqual idade
in ais
el os
h an
ĠJap Ã£o
ist e
ĠJ Ã¡
Ġl et
Ġinform aÃ§Ã£o
im es
Ġaut om
Ġfin anc
Ġtre in
ĠWil liam
ã ĥ
ov i
f rica
SB N
Ġev ento
Ġ199 7
Ġsur g
ĠCon c
Ġac esso
Ġexist e
ĠRec ord
Ġcas os
Ġass in
i um
ĠS am
am ericano
Ġant igo
Ġdis co
i en
Ġre b
ĠImp Ã©rio
Ã©t ico
ĠL ei
Ġcomp anh
Ġant iga
Ġfl ores
Ġpoder ia
r Ã©
Ġb om
Ġanter ior
Ġra p
gram a
w s
int a
un o
Ġv aria
Ġint ro
ĠT erra
Ġalem Ã£o
Ġn at
Ġvit Ã³ria
Ġf osse
Ġimporta ntes
ĠW al
it ou
ĠgÃªn ero
ĠE r
Ġet c
Ġcontro le
Ġorgan izaÃ§Ã£o
Ġl idera
Ġs i
Ġh ip
Ġnov os
re to
iz ando
Ġf ig
2 7
o od
Ġat ualmente
ĠL iv
m ent
Ġfor Ã§a
ĠS o
Ġj apon
is po
ĠGru po
Ġm inha
fer Ãªncia
ĠAt l
Ġcri ar
ĠY ork
Ġirm Ã£o
ul ado
la y
d ado
ific ar
Ã© ria
form a
Ġm ag
ĠG overn
id es
se qu
t ica
Ġestud os
Ġdu pl
Ġac t
Ġb and
Ġele v
le o
et ros
ĠBrasil eiro
Ġtec n
Ġp rat
res pon
ĠAlex and
ac ionais
Ġex cl
at erra
Ġnas ceu
ĠI II
elh ores
s c
nt a
Ġpesqu isa
Ġfe ita
) "
ĠB at
Ġepis Ã³dio
Ġportugu esa
Ġnov as
ĠÃģ frica
Ġliv re
Ġho ras
Ġman eira
ĠX X
Ġativ idades
Ġe f
ert ura
ĠV i
Ġinter ess
Ġ Ã³r
ĠCar reira
Ġn ada
Ġc enso
ĠC osta
Ġm ass
qu ele
at or
anÃ§ as
Ġesc reveu
Ġ198 0
h ar
b ra
ĠIn f
Ġcas t
Ġconsegu iu
p or
Ġfor Ã§as
Ġass ist
Ġv ice
ent ina
ĠD ist
ĠUn ido
Ġ rad
ÃŃnc ipe
ĠC Ã¢mara
Ã³l ica
Ġbair ro
Ġfaz endo
Ġf orte
Ġh ou
Ġ Ð
ÃŃ du
ÃŃc ios
ĠT rans
Ġservi Ã§os
Ġproc ess
d ores
Ġ18 6
ĠS em
ĠSeg unda
Ġaj uda
Ġal go
ida e
i Ã§a
ĠJ es
Ã© u
ĠIngl aterra
ĠCl ube
Ġcant ora
ĠI SBN
ĠB ol
Ġap esar
ĠCom un
ĠAr m
Ġ y
ri r
U A
Ġcent ral
Ġmen or
Ġsign ifica
ĠL ond
g ar
ĠHen ri
Ġdes se
4 5
Ġg era
ian os
ĠEsc ola
ĠCh ina
n d
Ġt ime
Ġ199 4
ra is
Ã© to
Ġter ia
Ġlocal izado
Ġapl ic
ĠMus eu
Ġliv ros
Ġsuper ior
Ã© g
Ġes qu
Ġhom en
ĠMun icipal
ĠJ e
or i
om as
ĠR os
ran d
Ġoc orr
Ġigre ja
Ġp ubl
2 6
Ġdire itos
Ġcam peÃ£o
Ġ199 5
Ġp ais
do u
inh eiro
Ġimp ort
Ġnome ado
Ġdesen vol
Ãº c
ĠpÃ¡g inas
Ġm undial
Ġg ara
ic iais
Ġterc eira
ĠDav id
Ġt rib
Ġse qu
Ġw ik
ĠRom a
Ġna v
ÃŃst ico
ĠR el
ĠDes de
ĠEl es
g on
Ġt oc
enho ra
un id
ag a
Ġmin ist
Ġal ta
âĢ Ļ
ub es
or y
Ġs us
f or
Ġem p
Ġsoc iedade
Ġser em
Ġapro v
ĠconteÃº do
ĠLu ÃŃs
Ġv ista
ĠDem ografia
Ġecon Ã´m
Ġfo nte
ar da
ĠW orld
Ġsem ana
part amento
al o
ĠM elhor
Ġdest ru
3 5
Ġa Ã§Ã£o
Ġob t
Ġn este
iv idade
Ġcomerc ial
Ġprobl ema
ĠJ ust
Ġdes emp
Ġreal izado
Ġcob ertos
ĠCom p
" :
ĠrÃ¡p ida
Ġed if
Ġm orreu
Ġen ergia
ĠT o
Ġa da
Ġparticip ou
Ġra z
x ico
u ÃŃ
Ġjov em
Ġde dic
Ã¡t icas
Ġapresent a
A N
t es
id ental
ĠestÃº dio
ora Ã§Ã£o
ĠV ic
Ġm ort
Ġpart es
Ġamb os
Ġdes sa
rit os
Ġfe de
ĠIn d
Ġvot os
Ġbas tante
Ġcapac idade
e y
Ġm ult
b er
Ġ197 0
id amente
Ã¡ dio
om a
Ã ¨
Ġempres as
ĠH a
ĠCons elho
Ġat riz
g ens
Ġdiv isÃ£o
Ġtra z
ã ģ
x ima
Ġinter ior
Ġper m
ri as
Ġav al
Ġt ais
ĠG re
Ġf iz
ĠH o
Ġdecl ara
ĠY ou
Ġrespons Ã¡vel
am ent
3 7
Ġde put
Ġ199 2
Ġesp osa
Ġmin utos
ec em
ta b
al idade
Ġal tura
Ġaproxim adamente
k er
ĠV ila
Ġm elhores
it ada
Ã© is
Ã¢ nc
19 6
Ġou ro
Ġviz inh
ing ton
ĠD a
Ġus ar
c as
ĠR ib
an ia
" ).
ĠIs so
k s
ĠOr dem
ec ion
5 5
on es
Ġcor respon
Ġpres enÃ§a
Ġsent ido
Ġ i
ÃŃ r
ro v
am ar
Ġim agem
ÃŃ lio
ĠPr Ãªmio
Ġt inham
Ġrepresent a
ha el
Ġ urb
it ivo
ĠGe ografia
Ãºs sia
Ġreg iÃµes
of ia
ura do
Ġop in
Ġoc orreu
3 8
Ġimp era
Ġens ino
ĠG ar
Ġpr Ã©
Ġvizinh anÃ§a
on o
ĠD is
Ã³ f
Ġno mes
ĠlanÃ§ ou
Ġpesso al
4 8
F A
ĠEmb ora
ar s
Ġpop ul
me a
Ġde se
j os
ĠMan uel
Ġcomp lex
Ġfo to
ular es
ĠLond res
I n
Ġex Ã©rcito
Ġcu jo
Ã³ c
pos to
Ã©c ia
Ġat or
Ġg er
Ġs at
Ġacab ou
Ġen fre
Ġmater ial
ĠD el
re do
ĠInt er
et os
Ġperson agens
t i
Ġcol abora
ĠprÃ³ ximo
Ġcom ent
Ġ isto
Ġb aixo
re ver
Ġg re
ov e
ra ntes
Ġelem entos
3 6
ĠÂ «
Ġl ingu
Ġcan al
Ġc ust
rit a
ĠOl iv
ap ar
Ġtrabal hos
Ġcria nÃ§as
eg a
ĠP oss
ĠF estival
ei os
ĠAt ualmente
b erg
C h
Ġev entos
Ġp s
il i
Ġel as
ĠG eral
Ġespecial mente
Ġcab e
is Ãµes
Ð °
Ã© xico
Ġat ribu
ĠLig a
Ġqu est
Ġret ira
Ġn esta
res t
co nt
gres so
Ġtem a
Ġfal ta
ÃŃ b
4 7
ĠM et
v ista
Ġver dade
Ġro t
u e
es as
c ionais
Ġper to
ĠFern ando
ĠOl ÃŃmp
Ġpalav ra
av e
s g
Â »
Ġv ÃŃdeo
ĠAr qu
Ġs an
ĠD i
ĠJes us
it ando
ĠA st
Ġconf irm
3 9
Ġt ax
Ġ20 21
ed or
ĠCr ist
Ġclass ific
Ġsegu ida
Ġp ac
Ġac us
Ġconc lu
- -
ĠCent ro
Ġf aixa
Ġmerc ado
ol o
Ġtem pera
Ġacom panh
O S
5 7
Ġinvest ig
ra p
Ġpr iv
Ġde les
em ent
Ġposter iormente
Ġmas cul
Ġf undo
ĠJ orge
ri u
ĠP op
Ġ199 3
ĠC in
is ion
Ġconf l
Ġno ite
ã Ĥ
al d
ib il
Ġb l
ure za
" ;
Ġm ist
Ġsitu aÃ§Ã£o
Ġm em
Ġb io
um o
Ġcam panha
Ġf ol
S t
ende u
Ġsu p
Ġm Ã©to
Ġse te
ĠV en
Ġv ig
C A
ĠH Ã¡
Ġsa Ãºde
Ġal to
on y
h i
5 8
unid ense
ur os
Ġlev ou
enh or
ĠC ur
g n
Ġreal izada
Ġin aug
Ġter mos
Ġde le
ĠS ob
Ġestre ia
or da
Ġs ingle
iz aÃ§Ãµes
Ã ¤
Ġalg uma
Ġ199 1
ĠMar c
it er
Ã ±
Î ±
eg o
ĠD ou
Ġpart ida
Ġt am
Ġcri ada
o z
ĠS enhora
Ġrefer Ãªncia
Ġd in
Ġest aÃ§Ã£o
Ġm eu
Ġass ass
ĠB ah
Ġconhec imento
Ġs t
ĠD ev
Ġen vi
Ġap ren
u ito
it ed
du stria
ĠS en
ĠD r
Ġdec isÃ£o
on el
Ġf ra
ĠB as
Ġgu itar
Ġcom and
Ġprim eiras
7 8
ÃŃ dos
Ġcom ando
a qu
Ġd Ã¡
ĠJ u
ĠJ ames
ĠC O
Ġpre para
ĠT el
Ã³d igo
Ġqu estÃ£o
Ġed iÃ§Ãµes
Ġden s
Ġart ista
Ġescrit a
Ġcin ema
Ġim agens
Ġespec ÃŃf
ĠJ Ãº
3 4
N A
Ġdiv ulg
Ġusu Ã¡rio
ĠCh rist
av elmente
io c
ĠmÃºs icas
Ġres pect
et h
Ġr us
ĠP an
Ġmar ca
gu esia
p ec
re c
ĠM el
Ġsol o
ĠM Ã©xico
ĠS eleÃ§Ã£o
ĠPre defin
l he
Ġm Ãªs
ar ina
ĠS in
Ġequip es
el ha
Ġm ac
Ã¢n ica
ian do
ĠA le
ram ente
Ġte oria
Ġoc as
Ġinter esse
Ġb en
ĠPa ÃŃs
Ġnenh um
Ġab ando
ess Ã£o
et as
fe itos
Ġsab er
it t
Ġenfre nt
ĠRob ert
ĠE ra
ĠNo ta
Ġcl asse
osp ital
Ġab aixo
ĠJ er
Ġan al
ĠJ ul
ĠO ri
ĠM en
Ġsoc iais
Ġc ul
en Ã§as
Ã¡l ise
ve z
T V
ĠM inas
ĠD ez
Ġanim ais
Ġprodut os
Ġ198 8
le v
f ord
Ġl o
Ġpass a
Ġe ducaÃ§Ã£o
Ġmant er
Ġpart ido
ĠEs sa
Ã©d io
u f
Ġc ivil
g os
Ġre duz
d ice
p ol
ud io
ĠOut ubro
ĠB and
ĠH el
io ca
0 8
Ġver d
Ġt ab
ĠPres idente
Ġre dor
3 3
Ġcor r
Ã¡g inas
Ġgara nt
ĠN as
Ġpublic ado
ĠG on
Ġbo a
Ġalt ern
Ġpequ ena
ĠAnt Ã´nio
gu Ã©m
ĠXI X
Ġutil izado
Ġdeix ou
l in
Ġfer ro
Ġc ert
ĠL at
Ġc aval
5 9
Ġdem onst
d iÃ§Ã£o
âĢĿ .
res s
Ġcond iÃ§Ãµes
oc idade
r b
ĠB a
ic s
ĠA ra
Ġb lo
ĠPr inc
Ġinic ia
ĠAssoc iaÃ§Ã£o
on as
Ġindiv ÃŃdu
Ġc ruz
Ġtorn ar
Ġv isto
ĠJ ulho
Ġa umento
4 9
Ġ198 9
Ġseg uranÃ§a
ĠNos sa
l ing
ĠM ig
Ġprinc ÃŃp
ĠD ia
Ġ198 6
Ġus ada
Ġus ando
Ġcl Ã¡ss
ĠAb ril
Ġsuper f
ic ar
Ġtorn ando
Ġco isa
Ġmost ra
v ida
Ġm ol
Ġpadr Ã£o
ĠMinist Ã©rio
ĠM iss
Ġ6 0
5 6
ĠAnt on
is o
ĠM od
ĠV ida
Ġo este
Ġart istas
Ġpalav ras
Ġen genh
ad Ã¡
ĠpÃºbl ica
Ġam or
Ġide ia
w ay
ÃŃ d
p s
ĠEst at
ÃŃt io
ĠSet embro
w a
ĠF am
Ġcont rat
Ġdiz er
ĠT al
Ġv ivo
Ġexist em
Ġqu il
Ġcaracter ÃŃsticas
Ġsist emas
w are
Ġrec ursos
ĠAcad emia
ĠMa io
p eu
Ġdev em
om o
Ġform as
Ġ196 0
ĠPrim eira
Ġo ito
ord en
Ġdo min
ĠhistÃ³r ico
et es
ĠJ ack
4 6
Ġpor tanto
Ġcam peonato
Ġve ja
ĠAl l
v en
ĠD ec
Ġp ers
Ã³d ios
j ect
Ġinicial mente
ĠL et
Ġint el
Ġf lu
Ġcomp re
Ġinst r
ww w
Ġes ses
ol as
Ġdens idade
ora do
Ġco le
int e
Ġest es
Ġpar ece
Ġver m
Ġmu dou
I D
ist Ãªncia
l ine
ĠG ab
Ġcome Ã§a
ĠCam p
Ġpr Ã¡tica
k o
ĠE UA
ĠEx Ã©rcito
re l
Ġent rada
Ã©r cio
Ġpro posta
Ġindiv id
ix o
Ġcomp ara
ont es
ec endo
ĠR ich
ĠAlg uns
N ot
ĠMic hael
Ġestim ada
0 9
Ġ it
ĠRe de
ad re
Ġl uz
Ġquar to
g as
ĠW h
Ġde b
Ġjunt amente
Ġm ec
m b
ag es
ra el
Ġinflu Ãªncia
ĠPro f
rat iva
Ġper d
ĠCon dado
Ġre ce
Ġcur so
Ã¡ n
ĠA inda
ĠA ugu
Ġtrabalh ar
. )
Ġcas amento
A M
Ġem isso
t iva
Ġf ech
on ia
Ã¡g ina
Ãªm ios
ĠNot as
era tura
Ġe ta
in ada
ĠCent ral
Ġnecess Ã¡rio
Ġpro va
Ġa z
r imento
ĠIn form
Ġtradic ional
Ġanunc iou
Ġcol et
Ġ +
ĠT rib
Ġdirig ido
ĠJ unho
Ã³r ico
or de
Ġd ific
eric anos
t il
ed ades
ĠA ut
Ġprogram as
Ġsu ger
Ġco isas
it Ã£o
Ġex ig
il la
Ġgol s
Ġs ac
ĠQu e
il ar
ĠC D
Ġcap az
v os
ar k
B C
Ġdem ais
Ġc ha
unt os
Ġtip os
am ental
ĠF el
Ġelei Ã§Ãµes
ĠGlob o
Ġescol h
gres s
ĠH om
t ada
0 6
Ġf ab
Ġresult ados
ĠB ranc
ĠR ed
Ġb an
Ġper c
ĠC idade
ĠSoc ial
ĠHenri que
ĠTra bal
3 1
ĠSal v
ĠA ward
at h
Ġpequ eno
Ġimport Ã¢ncia
Ġex erc
Ġjog adores
ĠE ducaÃ§Ã£o
ĠMig uel
ĠcrÃŃt ica
Ġcontra to
p ace
ĠEs se
ĠT or
Ġvol tou
Ġata que
0 7
Ġrespe ito
ĠO n
Å į
form e
ĠS ist
Ġquant idade
ĠD isc
Ġa leg
3 2
r ico
in ar
Ġent rou
Ġcont r
Ġencont rar
ĠAg osto
Ġpertenc ente
ĠM es
Ġnenh uma
ĠE du
Ġven ceu
ve u
ug by
ĠR ei
Ġest at
Ġtur n
Ġes sas
at Ã³rio
ĠtÃŃt ulos
ĠV ir
I N
ir st
c am
ĠW ar
ur n
Ġamb iente
I S
Ġman if
z es
ia Ã§Ãµes
Ġind Ãº
ĠB ern
4 4
Ġcan Ã§Ãµes
Ġ198 5
Ġsobre v
A s
olÃ³g ico
ĠArg entina
Ġel Ã©t
Ġsegu ir
pre n
ĠB al
c ulo
P Ã¡ginas
id ores
enc ion
I A
un al
ĠMar Ã§o
Ġad icion
ÃŃc ie
h ou
os ofia
Ġ ÃŃn
Ġdesta que
rÃ¡f ico
ĠEn quanto
Ġconc ent
Ġincl us
Ġt or
Ġa mea
ĠNov embro
t en
Ġp en
Ġl este
ĠlanÃ§ ada
ĠD on
Ġ198 7
Ġpl ano
Ġtorn a
Ġhou ve
ro l
m y
e k
ic ina
Ġs ens
Ġestre ou
Ð ¾
Ġar mas
Ġtrans fer
ĠCon stitu
Ġc Ã©l
ab il
at er
ĠP ont
Ġc rio
Ġcol on
5 4
Ġn Âº
ĠM y
Ġm elho
Ġgovern ador
ĠÃºlt imos
ĠDiv isÃ£o
ĠO f
Ġestad unidense
Ġleg isl
ĠSec ret
i adas
k m
Ġativ idade
ĠUn ited
0 1
Ġh on
ĠÃį n
Ġtempera tura
Ġvo taÃ§Ã£o
ĠOliv eira
Ġv ocal
Ġconsidera da
Ġv est
ĠN eg
O R
pos tas
Ġnat ureza
u ri
t eca
Ġa ud
Ġz ona
Ġdifer ente
Ġmilitar es
ĠMus ic
ĠJ ac
Ãªn io
ĠAnt Ã³nio
er dade
Ġcons erv
ĠI nc
enh am
á ĥ
Ġor ient
Ġfun Ã§Ãµes
Ġital iano
ĠR en
ĠBar b
il iar
ing s
te ve
ĠCal if
Ġescrit or
or iz
ifica Ã§Ãµes
5 3
o a
us a
ĠB ras
0 4
ÃŃt ica
Ġmed ida
Ġcomp ut
Ġav anÃ§
Ġbase ado
ĠF al
Ġgen eral
ÃŃ rito
ort al
Ġtermin ou
Ġm ap
Ġb atalha
ul l
i j
Ġesc rav
ĠPoss ui
Ã©ri os
ĠR Ãºssia
Ġapar ece
Ġde pend
Ġd ado
ĠA z
S P
p as
Ġl ic
Ġfemin ino
ĠW e
ĠPar que
5 2
Ġig ual
w e
Ġabando n
w ik
ÃŃ das
u k
ex to
un os
Ġbus ca
Ð ¸
ĠE qu
enc ia
Ġj ur
Ġins pira
Ġv em
era r
Ġint it
ar n
Ġinic iou
Ġest ados
Ġat enÃ§Ã£o
rÃ¡ lia
__ __
ĠS ab
ĠPor Ã©m
Ġtrans mit
elh os
Ġmud anÃ§a
ai u
Ġal iment
ĠPortugu esa
ĠC el
ern os
ĠN ic
ĠÃ ¢
ĠNov o
ec Ã§Ã£o
Ġass unto
ĠCom m
ĠDez embro
ĠG erais
Ġn esse
ĠV it
Ġprop or
Ġg ost
Ġim edia
Ġcl ubes
Ġpass ado
Ġdisp uta
Ġter ras
Ġpre t
Ġrel aÃ§Ãµes
Ġ198 4
ov a
Ġdeix ar
Ġtam anho
ĠG a
ĠB ot
x o
Ġs en
Ġcresc imento
ĠE g
Ġest rang
Ġdever ia
Ġb al
ĠWikip edia
un ha
Ġes quer
E N
Ã¢n ico
ĠAm b
Ġcant or
Ġata c
Ġcomp ort
Ġtrans m
ĠP Ã¡gina
ĠF az
ĠcientÃŃf ica
rad or
cri Ã§Ã£o
Ġa de
Ġprojet os
ĠOut ros
ĠPaul ista
T A
Ġmat em
t s
Ġa Ã§Ãµes
Q u
Ġm ic
id ado
Ġh id
Ġcam inho
d uto
Ġfic ar
Ġs in
Ġafirm ou
Ġ8 0
Ġch in
Ġecon omia
Ġres id
m er
ist em
Ġper ceb
ĠI V
Ġhomen agem
pe ia
Ġpass ar
Ġc Ã³p
os os
Ġtorn eio
ÃŃt ulos
Ġrec om
d f
c ho
Ġconce ito
ers Ã£o
duz ido
Ġinclu i
ĠE con
Ġas c
Ġreceb er
Ġ ram
cion Ã¡rio
Ġpossu em
ĠÃ³r g
r v
Ġtem pos
ac to
pren sa
b ia
Ġvel ocidade
4 2
ĠR ugby
om es
à ¤
' ,
5 1
Ġ Î
ard im
Ġres t
ĠS Ã©rie
Ġblo que
d ivers
ĠH ou
an i
ĠB on
ec ida
ĠFl or
Ġraz Ã£o
Ã³r m
Ġcontr Ã¡rio
ĠpolÃŃt icas
ÃŃl ias
Ġre vol
Ġconquist ou
ĠCan adÃ¡
ĠT ec
g ra
ĠGovern o
Ġdistribu iÃ§Ã£o
Ġc um
ig as
Ġpropri edade
Ġepis Ã³dios
o nte
Ġ198 2
i et
ra gem
id or
ram ento
ĠAust rÃ¡lia
Ġl ink
ĠB ill
ei Ã§Ã£o
as so
ĠP od
com o
ĠS y
dustria l
ol is
ul ta
Ã´n imo
Ġed itor
Ġcontro l
Ġperm ite
Ġel etr
ĠGe orge
Ġfront eira
Ġn ar
Ġ" "
en e
Ġun idades
Ġd inheiro
Ġco unt
ĠG il
Ġpre m
ĠAss emb
x e
Ġd imin
ĠR ock
Ġ 000
ĠD in
Ġac ad
Ġfac il
it s
Ġche fe
0 5
Ġdesc end
Ġinclu em
ĠF inal
at ivos
ĠPro v
4 1
t Ã³rio
Ġimpera dor
Ġexist Ãªncia
Ġfre guesia
Ġ198 3
Ġlon ga
Ġtiv eram
0 3
Ġv ila
ub a
on so
ac t
4 3
ĠT our
ĠOlÃŃmp icos
Ġcu ja
ĠH um
Ġsex o
Ġcomp osta
Ã¡t icos
ĠmunicÃŃp ios
Ã¡ x
Ġl inhas
op orto
Ġusu Ã¡rios
Ġdoc ument
h y
Ġmass a
Ġclass ificaÃ§Ã£o
Ġa ux
Ġespanh ol
ia go
ik e
Ġhum anos
Ġdef esa
I C
Ġtrop as
ĠP es
Ġat rÃ¡s
ublic ado
Ġsof re
E st
ĠPara n
ul d
Ġb ilh
Ġcont Ã©m
Ġmet ade
Ġform ato
or ial
ĠV oc
on de
Ġres posta
Ġcultura l
Ġint ens
Ġam igo
Ã´n ico
L a
ĠR ua
Ġf ug
er va
ĠLu iz
olÃ³g ica
Ã´ s
Ġun idade
ĠÃįn dia
ĠBah ia
Ġs int
Ġprov avelmente
Ġsub st
ei ramente
iel d
it Ã¡rio
Ġte atro
um in
Ġcon sequ
Ġdo ut
Ġal guÃ©m
ic ado
ĠFil ho
Ġdeput ado
ut e
h es
Ġpo d
st er
gu ai
Ġparc ial
or po
t ico
A n
Ġel enco
ian Ã§a
est er
A D
Ġper gu
Ġcoloc ar
ĠV as
fe itura
ĠWik cionÃ¡rio
oc up
or que
Ġre mov
Ã© re
Ġver b
le ia
Ġcheg ar
Ġfut uro
Ġrec up
Ġjov ens
ĠMil itar
Ġcabe Ã§a
fic iente
Ġdist Ã¢ncia
Ġfund ada
ĠFran k
ĠJe an
Ġm encion
Ġescol as
Ġexcl us
a gue
Ġedif ÃŃcio
Ġtrans porte
Ġcomun icaÃ§Ã£o
Ġreg ras
ĠDire ito
ĠEdu ardo
en Ã¡rio
ed ores
Ã© gio
ed es
Ġ195 0
ĠF in
ĠN or
Ġtrabalh ou
Ġ197 9
t u
i res
qu ela
Ġanter iores
rav a
Ġajud ar
ĠCl ub
Ġestad ual
Ġor den
Ġder iv
Ġof iciais
Ġab ertura
ÃŃt ulo
Ã© st
ĠIn v
O s
i ental
Ġb ot
ĠS ha
Ġdes enh
Ġcel eb
um as
ÃŃm bol
oc o
Ġcrio u
rat Ã©g
8 0
Ġqu ÃŃm
ĠL os
Ġadminist raÃ§Ã£o
! !
is mos
iss Ãµes
Ġval ores
f l
Ġtrat amento
tab le
ĠE p
ĠReg iÃ£o
Ð µ
ord este
Ã¢ne a
Ġ Ã³
ĠrÃ¡ dio
Ġf a
Ġsu st
c ha
ĠCat arina
ĠP os
Ġpres id
est ra
Ġcas ou
ĠDan iel
n es
ĠL ima
Ġb aixa
ĠT ro
Ġinclus ive
Ġ197 4
em at
ĠTe atro
Ã³ m
ĠMo nte
Ġes for
Ġb ol
ĠOl Ã¡
ĠA Ã§
ĠI orque
ou nt
Ġcar ro
Ġm issÃ£o
Ġpr Ãªmio
ar y
und os
Ġdecid iu
ĠSalv ador
ol it
ĠP en
ir ma
Ġro d
Ġroman ce
Ġve ÃŃc
ĠS ite
ĠtÃ©cn ica
Ġtorn o
Ġre mo
ĠR am
Ġprodut or
Ġl emb
Ġt it
an al
ĠS erra
ĠFac uldade
u co
ura r
du Ã§Ãµes
it z
Ġparticip ar
o ta
B A
ĠF ontes
Ġv isÃ£o
Ġdig ital
iol ogia
ĠG er
ed ido
ĠEx t
re i
Ġsem anas
0 2
M D
Ġemisso ra
ĠbritÃ¢n ico
h Ã£o
Ġfede ral
Ġs ou
Ġped ido
Ġve io
ĠM i
Ġs eleÃ§Ã£o
Ġ197 5
ĠF evereiro
Ġsuperf ÃŃcie
Ġmag n
Ġm sg
Ġoriginal mente
Ã³ st
ĠChar les
Ġ ult
ĠLe on
Ġac resc
Ġfaz em
ĠB atalha
Ġesp ort
Ġdom ÃŃnio
Ġe feito
Ġfrequ entemente
Ã§ ado
ĠC iÃªncias
R e
ĠA ntes
el la
Ġreg ular
ĠAn a
Ġre ferÃªncias
t ando
ĠJ un
ĠL o
Ġmot or
Ġc icl
G C
Ġc idad
Ġopin iÃ£o
Ġin fer
Ġc ort
Ġ197 6
ĠCr isto
ĠRob erto
orm e
Ġob teve
M A
Ġex press
orr er
ĠM ich
Ġest as
Ġ197 8
c i
Ġan Ã¡lise
s al
Ġcomp osto
Ġreal izar
Ġpopul acional
Ġam igos
Ġef et
av o
at as
ĠV e
Ġ198 1
Ġse jam
ist Ã£o
Ġlocal idades
Ġrap idamente
ou s
Ġcap tura
Not ÃŃcias
ĠR ic
Ġaer on
v ille
it iva
l ig
ĠBio divers
Ġf aixas
oc ra
per ial
p p
ĠEst ad
Ġcomun a
Ġra io
ĠAt Ã©
Ġmascul ino
E s
ĠnÃºm eros
ĠC ivil
Ġal unos
Ã³ is
emp or
Ġproduz ido
ec eram
Ġ7 0
Ġpre feito
ul ada
Ãµ e
ta gon
w ood
ĠAr te
val ho
ĠT re
ĠO t
Ġautor idade
ĠH ot
uro u
L e
Ġt ele
Ġnecess idade
Ġmens agem
Ġam ar
l im
Ġdo enÃ§a
Ġart es
p ages
Ġext rem
ĠUnivers ity
ĠP apa
id Ã£o
it am
ĠN este
Ġa ust
Ġro ck
9 9
at t
ĠEl enco
C ar
ĠR on
s er
Ġn ames
Ġlig aÃ§Ã£o
Ġou v
ĠW est
Ġindepend ente
ip o
p i
Ġen vol
R A
Ġm ÃŃn
ĠAm az
amb a
ĠGu il
Ġest ou
Ġj ulg
d ados
Ġmud anÃ§as
Ġast ero
C am
Ġde la
Ġre lev
P ublicado
ĠcomeÃ§ aram
Ġturn Ãª
et ura
Ġconstru ÃŃdo
M ain
it ais
oc l
e ia
ĠM ov
ĠCl ass
Ġsobrev iv
Ġt end
ĠA er
Ġfranc esa
ĠF I
on ly
Ġsec ret
Ġexper iÃªncia
ĠCast elo
Ġmap as
ib a
Ġs table
Ġl iga
as ta
Ġb a
ĠL or
Ġb r
Ġv ide
ĠIl ha
ĠRich ard
asc ul
Ġpl ata
ĠParan Ã¡
Ġeste ve
Ġmed alha
Ġcontinu ou
Ġ9 0
ĠF a
Ġvo z
ĠP ac
Ġno vel
Ġutil iz
ĠB ur
Ġsab e
ĠAle gre
Ġfam ÃŃlias
Ġin im
Ġbrasil eiros
ĠPaÃŃs es
Ã³g ica
Ġpou cos
Ġil ust
Ġc osta
ÃŃ bl
ĠindÃº stria
Ġn Ã³s
ĠK ar
os c
ĠPer eira
Ġtotal mente
Ġesc rever
Ġoficial mente
ĠFer ro
Ġelei Ã§Ã£o
Ġdes ses
Ġstable pages
v ar
Ã³r nia
Ġpro duto
Ġdet alh
n Ã£o
ĠPh il
Ġnames pace
en volv
Ġsemelh ante
Ġex ce
Ġf en
Ġpe Ã§as
Ġsel ecion
Ãºs ica
Ġcompos itor
Ġcar ta
ura da
ort h
Ġm Ã£o
Ġal i
ĠO p
ĠAd minist
Ġcomp rimento
ĠM erc
jet o
Ġext ra
Ġjornal ista
Ġnorm almente
ĠEstat ÃŃsticas
t ware
Ġdire tamente
ĠPres s
Ġt h
man n
ĠS port
ĠSa Ãºde
Ġsequ Ãªncia
Ġcond ado
ĠF undaÃ§Ã£o
Ġb Ã¡s
ac ia
oc h
Ġ )
ĠpolÃŃt icos
Ġ #
u es
Ġcomb ate
c t
Ġp Ã³s
Ġper t
Ġt enham
raf o
ol l
Ġfig ura
ĠRecord s
C on
D e
Ġs inal
ÃŃ dia
Ġdesc onhec
of f
ĠmÃ©d io
er ror
ĠO pera
V D
Ġcons ider
ĠOr gan
g en
ĠT orn
ĠL ife
Ġb iblio
ens es
S S
Ġ197 3
Ġ197 2
ĠSoc iedade
t al
ĠIs abel
ar ou
P A
Ġapresent ou
Ġs ing
Ġe duc
ĠM ach
E C
Ġins er
ĠC er
ĠtÃ©cn ico
s en
Ġirm Ã£os
Ġ3 6
n os
ific ada
se g
Ġ197 7
ĠÃ¡ rv
Ġev itar
7 0
j i
emin ino
Ã© rea
Ġes s
Ġre d
Ġs ÃŃmbol
E l
ĠC e
Ġe feitos
ĠT im
Ġfil m
Ġha ver
Ã¢m ica
Ġlev a
ĠEd itora
pl o
Ġpass ando
Ġant igos
us o
ig h
ioc ese
an y
Ġcon forme
Ġfinal mente
ÃŃs s
d ate
Ġc ores
ĠCom issÃ£o
ĠTod as
Ã³rm ula
ios o
c he
Ġ196 8
Ġmand ato
Ġesp ect
r ÃŃc
ĠP ass
Ġent rar
Ġd Ã³l
ĠAb ra
ĠS Ã©r
Ġpre ocup
Ġinf ant
Ġpo t
ĠArt es
Ġpor ta
oc rÃ¡
Ġdupl a
Ġobjet o
ĠN asc
ĠCh amp
Ġcer to
eric an
Ġform ado
Ã³n ia
Ġ5 00
Ġintern acionais
ĠcrÃŃt icas
id ar
Ġtent ativa
Ġreal mente
ĠMart in
ĠCalif Ã³rnia
C om
Ġv ar
Ã© ia
ĠCon v
aria m
ĠEntre tanto
Ġtecn ologia
Ġus a
Ġade qu
en ida
Ġvia gem
Ar t
ar ca
ir os
rop olit
bo ard
Ġpesqu is
ĠHist Ã³rico
ĠTod os
Ġpo tenc
Ġ196 4
Ġsimples mente
Ġpro tagon
r id
y cl
ĠSt ates
Ġpe Ã§a
ĠTh omas
ĠG ro
Ġgl ob
Ġcont exto
Ã³p olis
Ġ193 0
ĠmÃ©d ico
icl op
n y
ĠAnd rÃ©
g raf
20 10
Ġd ando
Ġ196 9
es p
ĠO uro
ĠN et
ĠG ol
Ġvers Ãµes
or ou
ric h
at s
Ġse Ã§Ã£o
Ġnatura is
P ro
int ura
Ġgra du
Ġneg oc
Ġvia j
Ñ Ģ
Ġplane j
ĠcÃ©l ulas
ĠV an
ĠÃ¡ ra
ĠR et
ĠPro c
ĠS om
Ġest ratÃ©g
iam ento
Ġv on
Ġex ter
panh ia
ĠCon gresso
ĠAnton io
Ġno ta
Ġre form
Ġv ÃŃt
ĠEsp ec
Ġimp ed
F C
Ġg Ã©n
Ġfe itas
ÃŃc il
ch i
Ġprov oc
k ing
ĠPart icip
re am
Ġpr isÃ£o
ĠMar k
Ġpart idas
pos tos
ogrÃ¡f ica
Ġcompanh ia
Ã³ i
ov o
ĠE t
Ġex pressÃ£o
9 0
ĠS el
Ã³l ogo
Ġat ra
Ġencont ram
port un
Ġtax a
Ġpro m
ĠAng eles
Ã¢nc ias
Ġlug ares
Ġfal a
ĠDist rito
l or
ion s
ĠFil m
Ġpres erv
Ġc orte
Ġtra ta
Ġd ipl
Ġcom Ã©rcio
r ina
ĠmÃ¡ qu
ĠHar ry
op h
Ġl ar
Ġpara l
ĠEst re
ĠSist ema
Ġben ef
at us
ĠRod rig
ĠIs rael
uc le
Ð ½
ĠprÃ³ xim
Ġv Ã¡l
Ġper deu
ĠFer reira
ĠTrib unal
ra to
Ġdisc ut
is p
mit h
Ġtem as
ĠFede raÃ§Ã£o
Ġpublic ada
Ġinstitu iÃ§Ã£o
Ġeta pa
b urg
o to
ĠlÃŃn guas
Ġ" (
Ġinc orpo
Ġpequ enas
Ġhum ano
Ġcom em
Ġhist ori
e a
os as
ern amb
ĠCat Ã³lica
Ġcas as
Ġent ra
Ġc Ã³digo
Ġirm Ã£
og le
Ġd Ãº
f a
ul s
ec to
ia nte
Ġinv as
ĠAssemb leia
ÃŃ ram
Ġco orden
ĠmÃ©to do
ĠW eb
C O
ĠP eter
ascul ino
Ġus ados
ilo to
8 9
g est
Ġutil izada
aria mente
ĠA ir
ĠPo de
Ġb el
f era
Ġparc eria
ec k
ak e
Ġ 00
M ar
ĠC he
ĠSa int
ec o
ĠN GC
Ġb eb
m ina
, "
ĠEst ud
ĠCast ro
Ġent end
Ġdif ÃŃcil
ass em
ĠLe ague
Ġ197 1
20 11
Ġcont ato
i ev
qu is
Ġlingu agem
Ġac ess
ĠPra ia
Ġpass agem
uc ion
ĠV I
Ġconhec idos
Ġc ir
ĠC ity
Ġad df
category date
irst categorydate
Ġaddf irstcategorydate
ĠIntern et
Ġ196 7
ent ou
ĠVal e
Ġpubl icaÃ§Ã£o
p et
Ġen f
ĠO rig
ĠPr ÃŃncipe
is sa
Ġsup press
Ġcar t
Ġpl antas
Ġobjet os
error s
Ġsuppress errors
Ġrep et
U n
Ġp ud
ir l
Ġer ro
ĠCar valho
ĠI ta
Ġbranc o
Ġada pt
ĠBras ÃŃlia
Ġmar ido
Ġalt itude
ĠI sto
Ġext ensÃ£o
rea u
Ġ rit
Ġprogram aÃ§Ã£o
Ġfal ar
ĠC orre
sh ip
ĠM ora
ĠM ai
Ġgu er
iver so
ĠH am
Ġassum iu
Ġn essa
y m
ĠP Ãºbl
ĠDe partamento
ĠDes envolv
Ġfer ram
ĠB us
Ġlit eratura
ic ou
Ġdire c
Ġmot ivo
Ġacont eceu
Ġre des
Ġmus icais
Ġhist Ã³rias
ĠGen eral
Ġob ter
ĠJust iÃ§a
ste in
Ġde p
Ġo portun
Ġme ados
ash ington
Ãº n
Ġgre go
Ġ0 1
Ġcomp art
Ġhavia m
Ġmun icipal
Ġcl ara
ĠOb rig
Ġno ve
Î ¿
ĠGuil her
ar te
it ava
Ġrefer e
Ġsub s
g ica
ol ina
Ġb ispo
Ġcond en
Ġprocess os
ad eiro
Ġf ix
Ġtab ela
Ġreal idade
Ġdimin u
Ġaz ul
ad ura
lo w
ĠprÃ³ xima
Ġcomplet amente
ĠH on
ĠDe f
Ġrespect ivamente
ow n
uv ent
Ġ194 0
Ġcar reg
ĠS ug
Ġmarc ou
Ġpres sÃ£o
ĠBiodivers ity
Ġg estÃ£o
Ġdes apar
Ġpint ura
Ġv eg
ĠAÃ§ ores
it ivos
ĠfÃŃs ica
ĠEstad ual
ĠN esse
ĠEx istem
ĠF e
ell i
Ġsol dados
ĠCom panhia
ĠFam ÃŃlia
Ġrep ro
Ġapar eceu
ĠdÃ³l ares
ert as
Ġps ic
Ġ194 5
ĠC ategory
ĠR u
ĠM ot
Ġim prensa
Ġlib erdade
Ġse d
ec ia
ĠSe us
F I
m ed
or ro
Ġmem Ã³ria
C l
Ġqu art
Ġru a
Ã¢nt ico
Ġvis ual
t ivo
Ġpro ib
Ġm er
ĠPal Ã¡cio
ĠBl ack
Ġam ericana
Ġopera Ã§Ã£o
ĠindivÃŃdu os
Ġanter iormente
Ġopera Ã§Ãµes
Ġaut ores
Ġpequ enos
pe Ãµes
Ġconfl ito
l ov
Ġpublic ou
Ġna cionais
Ġcl aro
Ġdesemp enho
ĠAlexand re
Ġtra diÃ§Ã£o
um es
Ġpre fer
it ch
ĠN aÃ§Ãµes
it ados
Ġpres entes
Ġperman eceu
ĠL ove
Ġdiz endo
s ingle
Ġl og
udo u
Ġlet ras
Ġser Ã£o
m en
v Ã£o
ovi Ã©tica
Ã ī
Ġind ÃŃg
Ġc ic
ĠC ens
Ġm Ã£os
Ġt ira
ron ze
Ġintro duz
Ġb y
Ġapo nt
ac ial
ed er
ri f
eb ra
Ġcom uns
Ġ å
d ata
Ġcorrespon d
Ġminist ro
Ġad ic
Ġestre l
Ġcategor ias
9 7
i i
Ã©ri as
ri el
Ġinflu enc
Ġquest Ãµes
Ġte or
Ġapresent aÃ§Ã£o
Ġho ra
ens a
T P
ru p
Ġatu ou
Ġab sol
ur s
era do
Ġreal izou
Ġdes af
Ġex ec
Ġv Ã£o
Ã¡ cia
ĠK e
v is
8 6
Ġna vio
ĠM ass
Ġempre g
ĠCon de
ĠGlob al
Ã§ ada
Ġl es
Ġdia grama
Ġvir t
ĠtÃ©cn icas
Ġarm az
ĠBu reau
E L
it Ã¡ria
Ġfiz eram
ÃŃde os
y r
Ġre ais
m ento
ÃŃ dio
Ġ196 6
Ġconstru ÃŃda
Ġhum ana
Ġadv og
Ġital iana
ĠSou sa
Ġg eraÃ§Ã£o
200 6
Ã© lio
Ġapresent ar
ĠcÃ³p ias
200 7
ĠXV III
Ġr isco
f eira
Ġtra duÃ§Ã£o
Ġd im
Ġm adeira
ĠU ru
is se
ĠF ab
Ġtrabal ha
Ġparticip antes
de ia
p ia
v ers
Ġsa ÃŃda
Ġ196 5
Ġsex ual
Ġ ros
Ġfund amental
e ph
Ġwik ip
ĠBand eira
ĠC aval
Ġdes f
ĠIntern ational
Ġqu is
ĠAugu sto
Ġfund ado
b ro
Ġco dice
Ġel abora
Ġequ ival
Ġpos to
Ġreg ime
Ġinstitu iÃ§Ãµes
Ġ3 5
ent as
Ġmet al
: !
ĠM er
ur y
ob o
ĠR ad
ĠBranc o
el s
p es
Ġp az
Ġfin ais
Ġcompos iÃ§Ã£o
Ġj orn
Ġquar ta
ĠTra ta
at icamente
Ġgal Ã¡x
r Ã£o
ent ais
ĠDesenvolv imento
b io
ĠB om
Ã³c ios
Ġdescob erta
les c
ĠGuilher me
ru Ã§Ã£o
Ã´m etros
ĠN at
ĠCin ema
ĠCam po
Ġguitar ra
ĠH an
Ġapresent ado
Ġab erto
ra de
ir it
Ġentre vista
Ġespec ific
rut uras
Ġper da
Ġform ada
ĠR oc
ĠJo aqu
un es
7 6
Ġesquer da
ĠS co
Ġpol ÃŃcia
ios a
Ġtex tos
Ġprofiss ionais
ĠVer de
Ġaf et
ic idade
Ġaut o
ĠW ashington
Ġsuc ess
ĠAlg umas
ĠS w
ĠJ a
ĠT w
end as
Ġpass aram
ito ral
ch er
Ġmater iais
Ġse i
ÃŃf ico
ĠJ an
Ġ196 2
ing o
ĠÃģ sia
el iz
ĠRodrig ues
Ġa us
Ġdes sas
if er
8 5
Ã©r ito
R O
Ġac ho
ĠD VD
Ġaf irma
Ġpra ta
ã Ģ
anh Ã£
Ġrelig iÃ£o
r igo
Ġprec isa
Ġposs ibilidade
Ġ $
Ġsec und
it i
ĠA qu
ĠS ing
ĠEst Ã¡
ess em
ĠB ru
ric ultura
me ida
Ġdis pos
ĠG ran
Ġmud ar
Ġprote g
ĠprincÃŃp io
ĠP esso
Ġdel as
ĠdÃ©c adas
ov er
Ġn Ãºc
ingu Ã©m
ĠC u
ot os
Ġderro ta
200 9
Ġlev ant
Ġcoloc ado
ĠLet ras
n aval
ĠP lay
Ġform ar
Ġpos sa
ĠCor po
do ra
im b
im p
Ġcomport amento
Ġson ora
ta Ã§Ãµes
Ġdescob erto
ĠR us
Ġpro mo
is on
ĠPredefin iÃ§Ã£o
ĠG omes
gu es
Ġc iÃªncia
ĠAward s
ĠAf onso
Ġrec orde
ĠMa ur
Ġfutebol ista
ĠestÃ¡ dio
ĠP et
aix os
ĠOut ras
Ġ _
Ġor d
Ġjapon Ãªs
Ġdes l
? ?
ĠPrim eiro
ĠÃ ĵ
and ro
Ġm im
ĠM ay
p al
8 8
7 5
9 6
i Ã¡rio
u taÃ§Ã£o
Ġc ena
am ericana
Ġbase ada
ĠAl c
Ġdes p
200 8
ĠS P
ĠPar k
p at
ĠCam pos
ĠG ros
Ġl arg
ĠsÃ©c ulos
Ġtent ar
ĠD ar
Ġf at
ĠVer Ã£o
N e
ĠN atal
ĠS ur
Ġper segu
Ġsat Ã©l
ĠT erc
ĠEn genh
ĠCens us
Ġrec us
s em
ĠS eb
as es
idad os
is f
Ġc ult
ĠM ur
ĠL inha
Ġencont rada
Ġcandid ato
ens Ãµes
Ġmen ores
l amento
Ã¡st ica
ĠDev ido
R E
d i
ĠGon Ã§
ĠprÃ³p rios
an sÃ£o
Ã³ qu
Ġ196 3
Ġcorr ida
Ġtal vez
Ġdesenvolv ido
ĠM adeira
A L
j or
C B
m ira
Ġcontin ua
Ġlet ra
ĠL ogo
ĠTa Ã§a
Ġlev ar
Ġdifer enÃ§a
ĠC irc
f ab
ir ia
Ġqu eria
Ġcont empor
ĠLe e
Ġcria nÃ§a
Ġanunc iado
ĠM Ãºsica
Ġintern et
am en
p se
uld ades
ĠM em
iv elmente
Ġaqu eles
ra nte
Ġpes o
Ġtem os
Ġrus so
ec imentos
us c
Ġlocal iza
in ados
Ġid io
Ġcer im
Ġsus p
ĠR af
T O
ĠVit Ã³ria
Ġfo go
ĠC ro
ĠC la
ĠS on
Ġb omb
Ġcons iste
Ġfam oso
c er
Ġv elho
Ġcomp on
Ġil has
ĠAlb erto
Ġde co
ab a
c Ã£o
ĠalcanÃ§ ou
ĠT ax
Ġser iam
ĠÃ¡lb uns
Ġencont rado
ĠEst es
Ġconv ers
ĠD ias
ĠRe voluÃ§Ã£o
P S
at Ã³ria
Ġpl anta
Ġc ity
Ġt enho
Ġter re
ĠL in
ĠVic tor
ĠV o
ĠR og
ri qu
Ġre m
Ġgra u
ust ria
Ġ3 2
ĠS ÃŃtio
Ġvol tar
Ġpr ÃŃncipe
ĠSu Ã©cia
Ġ0 2
Ġb ra
Ġp il
Ġin dustrial
ĠAl meida
Ġconc elho
ri Ã§Ã£o
ĠXV I
ĠIn depend
Ġestre la
Ġpotenc ial
ĠEst aÃ§Ã£o
Ġestre las
Ġis ol
Ġintel ig
Ġnav eg
ĠP S
Ġmov imentos
ĠEst Ã¡dio
Ġp eix
ĠTem po
ĠV is
Ġsan gue
im ar
Ġto po
Ġdefin iÃ§Ã£o
6 6
u ela
ĠI b
Ġpa ul
ĠCon stant
ĠL ago
ĠCh ile
Ġportugu eses
ĠpÃºbl icos
Ġretorn o
Ġnos sa
Ġpass ag
ycl op
Ġescol ha
Ġregist ro
Ġpl an
Ġse tor
b on
ĠSc ho
ĠVoc Ãª
20 12
Ġdire to
s ul
ib us
Ã¢ne o
g h
Ġem it
Ġserv iu
ĠS ara
Ġre ino
Ġtrein ador
port es
Ġcr ise
Ġab s
9 8
ĠO ce
A C
iz ant
pres idente
ast ia
Ġsu ficiente
ĠS mith
ĠP ic
Ġespec iais
ĠJ ardim
Ġra inha
Ġata ques
ĠC ada
ĠEnt Ã£o
Ġmod elos
ĠL ev
Ġgrav aÃ§Ã£o
Ġreb el
ĠD E
or f
ace ae
Ġim ig
ĠAm or
Ġalem Ã£
Ġ195 8
ĠK ing
ĠBan co
av es
Ãº nc
in Ã¡ria
ĠOc idental
u aÃ§Ã£o
ĠT ÃŃtulos
20 13
Ġcomp leta
ĠOs car
Ġdeix ando
ĠRo y
ĠCon st
il d
Ġ19 20
Ġesc ala
Ã ł
in Ã¡rio
est as
ĠN orm
7 7
v as
Ġvol ume
z er
Ġo posiÃ§Ã£o
Ã§ ar
Ġprof und
ĠPl ant
Ġado lesc
Ġquil Ã´metros
Ġp iloto
Ġinfer ior
h en
p est
Ġlit er
Ġque da
Ã¢n d
ĠP ernamb
ĠL i
Ġ196 1
l Ã¢ndia
in ou
Ġtransm issÃ£o
Ġn ÃŃveis
ian s
ĠA re
ĠRic ardo
Ġf undaÃ§Ã£o
ĠH all
ĠC re
Ġex posiÃ§Ã£o
Ġband eira
J o
ria n
Ġpos se
Ġda quele
E m
Ġm orto
Ġt este
pect os
Ġpar que
Ġdest es
ĠMar inha
pos s
Ġpropri et
S Ã£o
Ġp ad
ĠJ im
Ġdispon ÃŃvel
bal l
ult ado
orn o
Ġv inte
aix ada
M S
Ġe c
adr id
200 5
Ġesc al
ĠGo i
ĠSuper ior
% ).
ĠS ac
Ġap os
t om
Ġtele f
Ġamb as
l i
Ġapren d
Ġplane ta
Ãªn ia
Ġlat im
Ġj ude
es to
Ġnorm al
ic ano
Ġfil osofia
ĠPer u
Ġatu aÃ§Ã£o
ta c
Ġreconhec imento
ĠT op
az z
Ġac idente
Ġdecl arou
Ġvo to
Ġat end
is m
Ġprote Ã§Ã£o
Ġres to
ĠObrig ado
B ot
b it
9 5
cl am
or s
q Ã¼
Ġdire ita
Ġnav ios
ĠSer vi
ĠFre der
Ġb e
ing a
Ġg ram
ĠM ill
Ġcur sos
in n
Ġro do
Ã§ ou
an ismo
Ġcons um
uc k
Ġper form
Ġdesc rita
ĠConstitu iÃ§Ã£o
ut enÃ§Ã£o
Ġest rada
ĠR em
Ġir ia
Ġcas al
ĠC ant
Ġtro ca
Ġc ima
Ġev id
Ġno bre
Ġcam pos
Ġde us
ĠQ ual
ĠCor eia
Ġde partamento
et s
Ġnot ÃŃcias
? )
Ġre inado
ric k
Ġproduz ir
ĠJu an
Ġcomp rom
Ġconc urso
ĠLeg isl
Ġsurg iu
ĠP i
ou ra
ĠRib eiro
Ġp atro
Ġl ist
Ġvenc edor
Ġconqu ista
Ġcat Ã³l
n ome
ĠP ubl
Ġel og
ÃŃn a
ĠP ap
Ġb anc
Ġdef end
Ġsol ic
ĠHen ry
Ġada p
ĠN ational
Ġsegu e
c ol
ĠÃģ ustria
Ã©s ar
Ġaf ast
Ġaf ric
ante ve
ĠI B
Ġmist ura
Ġad qu
ĠT ex
ĠI P
t el
or Ã¡rio
Ġm orre
Ġsol uÃ§Ã£o
Ġfe itos
Ġt ub
Ġver Ã£o
oriz onte
Ġmort os
ec idos
t ra
ol and
Ġque b
g ia
ed ral
Ġacad Ãªm
Ġindepend Ãªncia
Ġt ÃŃp
Ġtr ilha
Ġcome Ã§o
enc iais
Ġat let
Ã©t icos
Ġ0 3
ĠPal m
Ġcon duz
ĠÃ¡ guas
Ġpodem os
âĢ ¦
. :
Ġm el
Ġcheg ada
Ġar ran
r um
Ġm eios
l anda
r ÃŃ
v idas
Ġnos so
G u
Ä ģ
Ġh ospital
ĠN ev
ĠS i
200 4
et te
ĠL ÃŃn
Ġconc l
ĠT ri
Ġ194 4
il y
re iro
ĠpÃºbl icas
% .
Ġle is
Ġpesqu isas
b ert
Ġtrop ical
ĠmÃ¡ ximo
Ã©m io
Ġap el
ian as
Ġnovel a
ent ado
Ġext re
ĠS ino
ĠG reg
Ġutil izaÃ§Ã£o
on om
O L
ag os
Ġp un
Ġ194 3
Ġintit ulado
Ġexp ansÃ£o
Ġcomplex o
ĠÃ Ģ
ĠL op
Ġdia nte
and al
al do
ÃŃ Ã§a
ĠLu is
Ë Ī
Ġdesenvol ver
ÃŃn as
t ro
u Ã¡rio
Ġcond iÃ§Ã£o
ĠTra duÃ§Ã£o
ĠcrÃŃt icos
Ġreal izaÃ§Ã£o
Ġexpl ora
Ġin com
ĠL ar
ĠSeb ast
ĠLou is
ĠC amb
od os
ĠR osa
ĠEg ito
ĠJ ornal
ire m
Ġab rig
ĠMes mo
ob il
Ġ195 9
Ġbat eria
est rutura
Ġfund ador
empl o
Ġsal a
Ġped ra
Ġmu ita
ĠAv enida
h al
Ġcast elo
Ġexter ior
ĠVer m
Ġor g
ĠChamp ion
ĠU s
Ã¡l ogo
ĠH ug
Ġcur ta
uvent ude
ĠBro wn
Ġant igas
O N
Ġautom aticamente
ar os
Ã©s ia
Ġed itores
y e
y o
ĠDu que
ĠB or
Ġreg ul
o qu
ĠS enhor
Ġjog ar
Ġn ucle
8 7
Î ½
Ġide al
ĠCont udo
Ġnasc imento
ĠTec n
ed iÃ§Ã£o
Ġproc ed
ĠMa x
Ġpal Ã¡cio
Ġestud antes
Ġher d
Ġautor idades
Ġvoc ais
Ãº lt
Ġcomput ador
il os
ĠR Ã¡dio
Ġcomerc iais
ĠMar co
Ġconsegu ir
ĠPra Ã§a
s ch
Ġencont ro
Ġat uais
rad ores
ĠW ill
ĠDis ney
ĠbritÃ¢n ica
ĠPol ÃŃcia
Ġmelho rar
Ġfic ando
Ġm anteve
ĠS ud
Ġter Ã¡
ĠFor Ã§a
Ġw ith
ĠEuro peia
Ġt en
Ġv Ãª
Ġme x
ĠF ar
ĠEsp ÃŃrito
rar y
ament ais
Ġme ta
ĠC Ã©sar
ĠM adrid
Ġapl icaÃ§Ã£o
ĠJoaqu im
Ġcons ist
rim Ã´nio
ic ada
ĠTr Ãªs
ĠSob re
ros s
Ġrelacion ados
o ok
w in
ÃŃr us
ĠD ent
ĠCultura l
9 2
e us
Ġb ronze
Ġtar ef
E M
Ġpassag eiros
ĠMart ins
Ġdoc umentos
Ġform ou
Ġna quele
ĠAn o
Ġhum an
Ġproduz ida
Ġalte raÃ§Ãµes
ĠB rit
d iv
Ġc res
Ġpropri edades
Ġf oss
Ġvol t
con s
ĠMar y
ĠPop ular
Ġc intura
ess ores
Ġpl ac
b es
Ġd ada
ÃŃst icos
Ġdipl om
Ġapro ve
Ġcons enso
ara s
ica go
Ġm ÃŃdia
Ġhab il
Ġrod ada
ud es
ÃŃ ba
Ġtest es
Ġquad ro
ĠH ospital
Ġver de
Ġpergu nt
Ġenc er
ie w
Ġvend as
Ġutil izar
ĠL on
ur u
r icas
rat ado
Ã ĥ
Ġaqu ele
it antes
ÃŃn s
Ġc enas
Ġindivid ual
Ġs ag
Ġconv oc
Ġdent re
ro ta
ĠÃ¡ c
b res
Ġfo tos
ĠD ig
ĠL y
I B
Ġf Ã¡b
Ġcl ima
Ġmed idas
ĠB re
Ġan g
6 7
ĠA gu
Ġa to
ĠM end
fe de
Ġreceb e
ĠGr Ã©cia
de al
Ġsitu ada
Ġreal izadas
Ġutil izados
Ã¡ ter
Ġb on
Ġassass in
ĠP el
Ġpo eta
al idades
ĠR ot
Ġ194 2
E x
ĠAm erican
Art igos
Ġsofre u
U S
Ġm m
ĠPrinc ip
Ġv an
Ġl ago
Ġmat Ã©ria
Ġ3 7
in Ã§Ã£o
Ġcham ados
Ġinter v
Ġsof tware
Ġe cl
ĠT est
ĠPre m
Ġtro no
t udo
ĠOf icial
ĠAl ves
Ġconv enc
Ġcompl eto
Ġe voluÃ§Ã£o
Ãº r
ĠVe ja
Ġres istÃªncia
Ġconsegu e
Ġmes mos
ens is
ĠJ ud
Ġmus eu
Ġespecific amente
ĠSt ar
ĠS how
f ield
Ġv et
Ġper i
O r
Ġganh ar
ios os
ĠFI FA
Ġw eb
Ġvo o
Ġarg ument
Ġtom ar
olÃ³g icos
Ġlev ando
x a
Ġviol Ãªncia
ĠD er
Ġtem pest
Ã©ri es
Ġ rios
ont ade
de z
Ġas pectos
Ġocas iÃ£o
ik a
Ġdist int
ar qu
Ġren ov
ed ida
Ġposs ibil
ĠJos eph
Ġrom ano
Ġconstru ir
Ã¢nt ica
ĠPr Ãªmios
Ġarquit etura
Ġprop ag
ÃŃs mo
er e
Ñ Ĥ
Ġsof r
ĠU N
Ġ3 8
Ġplata forma
ĠS k
Ġor qu
Ġdef ens
Ġ195 4
rÃ¡f ica
Ġad qui
ĠSen ado
Ġprov as
Ġjur ÃŃd
Ġv enda
ĠH ill
ific ados
Ġver bo
ĠDes c
Ġev ent
Ġvari edade
Ġ4 5
oc ol
Ġarmaz en
ĠY o
Î ¹
Ġtent ou
ĠS and
ĠFl ores
Ġverm elho
ĠF ri
Ġid eias
Ġn atal
Ġter em
Ġ195 6
r ing
y d
Ġapresent am
Ġest aÃ§Ãµes
ĠB ob
Ġref or
B rasil
Ġadminist rativa
ĠS Ã³
ĠÂ ·
ĠS oviÃ©tica
ĠOut ro
Ġadv ers
Ġed itar
G e
Ġp ec
st on
Ġman utenÃ§Ã£o
Ġol ÃŃmp
a ut
Ġv ul
ĠOb ras
Ġjog ou
Ġab orda
Ġr ival
Ñ ģ
Ġn am
ĠI v
Ġj ud
Ġv il
Ġ195 5
Ġpopular es
U C
Ġcheg a
Ġar que
Ġcompart ilh
ac ho
Ġastero ide
Ġdesen ho
er b
Ġcons c
Ġcontribu iÃ§Ãµes
Ġcultura is
ĠAng ola
Ġf rom
ĠD at
ĠM ulher
Ġa re
Ġv iu
Ã´n icos
ĠP ou
Ġquest ion
Ġ3 00
qu Ãªs
Ġd ram
ĠEnc yclop
ĠScho ol
Ġfort es
Ġp Ã©
Ġingl esa
Ġâ Ĩ
ĠR odo
Ġpres o
Ġcont ou
ĠDo is
un e
Ġdis s
im bra
9 4
ĠG old
end Ã¡rio
Ġcole Ã§Ã£o
9 3
Ġa gu
ĠComm ons
Ġf esta
E u
Ġexec uÃ§Ã£o
ĠFo ram
Ġating iu
Ã³ veis
Ã¡c il
ult ados
Ġacab a
ĠHo je
Ġf Ã£s
Ġ194 8
ĠD oc
ĠTel ev
ĠN av
iz am
ĠN esta
Ġestudo u
Ġretorn ou
do min
ĠCont in
ÃŃ ria
Ġconf ig
B S
Ġsa ir
Ã ģ
Ġmod erna
ĠIr landa
Ġk g
ĠFil ip
Ġro up
ĠJack son
ĠF C
Ġencont rados
f Ã©
Ġim ag
Ġjunt os
Ġre forma
ter iormente
ĠSt ud
Ġval e
u o
T E
Ġen v
Ġcust o
Ġreg ra
ĠMu itos
ĠeconÃ´m ica
ĠSino pse
N o
it iba
it aÃ§Ãµes
Ġfort al
ar ch
Ġfaz ia
Ġem erg
200 1
Ġverb ete
ĠBer lim
l ar
Ġfrequ Ãªncia
Ġgrav adora
Ġ194 1
t he
ĠhistÃ³r ica
ĠD ay
P a
Ġtradic ionais
it Ãª
Ġn inguÃ©m
6 8
Ġ ur
Ġpl anos
Ġterrit Ã³rios
n et
Ġtra duz
Ġv iver
oro este
Ð¾ Ð
Ġshow s
Ġrot eiro
Ġcontinu ar
Ġcon de
em it
ric idade
Ġident idade
ĠVir g
v in
ĠP s
ril h
ĠS at
Ġpro l
olÃ³g icas
do m
ĠE P
ĠR y
Ġenc iclop
ĠF un
Ġf ran
Ġdispon ÃŃveis
pe Ã£
ĠL es
eir Ã£o
Ġpre j
G E
z i
Ġqu inta
Ġanal is
s ite
Ġregist ros
ĠK im
ĠN ob
ĠM ara
Ġcap itÃ£o
Ġconst ante
Ġinvestig aÃ§Ã£o
ra ria
Ġseg undos
Ġc aixa
ĠB ÃŃbl
S e
ĠAn n
ĠSco tt
Ġpromov er
Ġint enÃ§Ã£o
Ġpod endo
Ġcomand ante
Ġme ia
erv o
Ġqu into
Ġcheg ando
ĠSu as
Ġest ruturas
umin ense
Ġmont anh
9 1
Ã³ vel
ĠRaf a
jet ivo
T h
Ġpo vos
ĠF ol
Ġf ins
ĠR ece
Ġdese j
ic ia
Ġobrig ado
A t
Ġpr Ãªmios
ĠSu ÃŃÃ§a
Ġelem ento
ĠJ og
ĠChampion ship
Ġc ru
ĠCol Ã©gio
ĠAl to
ru pÃ§Ã£o
Ġa le
ĠLe Ã£o
Ġ193 9
Ï Ħ
ĠEspec ial
ĠL it
ĠBar cel
ĠVen ez
Ġtur no
po p
Ġol hos
ĠPredefin i
u Ã§Ãµes
ĠOut ra
Ġ195 7
en g
Ġres erv
n ibus
Ï ģ
Ġban co
Ġor to
Ġalem Ã£es
ĠSou za
Ġsu pera
ĠM Ã¡rio
ĠCar l
Ġgost aria
Ġco raÃ§Ã£o
ĠR ap
Ġimpl ement
6 5
Ġc re
Ġanim al
ĠCab o
ron omia
ĠAnd re
te za
ch as
qu ete
Ġf usÃ£o
Ġqu adr
Ġrepresent aÃ§Ã£o
Ġdeix a
ĠF und
Ġs aiu
pe us
ter o
ĠB ay
Ġt op
do l
ĠPortugu Ãªs
ĠConstant ino
Ġsubstitu ÃŃdo
ĠsÃŃmbol o
Ġe vol
ĠPro jeto
ĠÃ ļ
Ġc m
ic ana
ado ras
ĠÃ¡ra be
erta in
c r
Ġl uc
ent ino
ĠCe arÃ¡
l ei
Ġnasc ido
int er
f al
Ġs enhor
uv en
ĠA FI
Ġsobre tudo
Ġcor o
ocra cia
Ãª nt
Ġpal co
Ġfen Ã´m
ĠFl ora
Ġcon ver
olog ias
Ġru as
ĠB elo
200 3
am i
7 2
Ġac h
20 14
Ġcar Ã¡ter
ĠveÃŃc ulos
ĠO u
Ġv ontade
Ġf Ã¡cil
Ġf ar
er ica
Ġtrabalh adores
pr im
Ġc enÃ¡rio
Ġtor c
Ġfoss em
un as
Ġsu je
te is
Ġvit Ã³rias
Ġdetermin ado
Ġpos iÃ§Ãµes
Ġan ex
ĠI dade
Ġat ua
ĠReg ional
Ã§ ul
Ġm ig
d y
ĠB lu
Ġind ica
it ion
Ġtorn aram
Ġleg al
Ġcic lo
ĠAd v
Ġband as
ult os
ĠF M
ĠBiblio teca
Ġc red
Ġg ar
j u
ĠMar cos
Ġant i
ĠÃ ´
Ġglob al
rat ion
Ġpoder Ã¡
Ġassin ou
b el
t ec
Ġoc idental
Ġ3 3
Ġequip a
Ġd uraÃ§Ã£o
Ġp Ã©s
Ġimedia tamente
Ġdetalh es
and es
ur t
ĠÃ¢ mb
ĠZ el
Ġ194 6
ĠfÃŃs ico
ĠW ol
Ġ ?
Ġl er
Ġpor to
Ġv ert
ĠT Ã©cn
Ġtit ular
ĠH orizonte
Ġexp and
Ġd it
ĠPro grama
Ġaument ar
Ġmatem Ã¡tica
ĠN ight
esso ra
ĠÃ³rg Ã£o
Å Ĥ
int h
minist ro
Ġv ant
6 4
Ġob ject
oc ar
ĠnÃºc leo
Ġ194 7
ĠB ritÃ¢n
Ġfic aram
Ġorgan izaÃ§Ãµes
Ġs il
Ġacont ece
u ar
ĠMich el
ĠP om
ĠUn idas
ĠP ier
Ġv ira
ogrÃ¡f ico
ĠOrgan izaÃ§Ã£o
m at
ĠAl f
Ġcap ela
Ġrelat ivamente
Ġt Ã©r
Ã¢m etro
Ġneg Ã³cios
Ġadminist rat
az er
ĠPro duÃ§Ã£o
d in
Ġescolh ido
Ġengenh eiro
l ie
ĠCom e
Ġreun iÃ£o
Ã´n imos
f t
Ġt ran
ĠCon f
v ido
Ġan ual
az ar
Ġass untos
ĠPernamb uco
ĠS ho
Ġpr Ã©dio
C I
Ġhip Ã³t
em po
Ġfac to
ĠSp ec
Ġlidera nÃ§a
F l
Ï ĥ
nc e
Ġcomp ost
Ġdesenvol veu
Ġd rama
Ġav ent
Ġ195 3
Ġv ou
Ġrec Ã©m
Ġpoder iam
Ã³p rio
Ġtempo radas
ortal eza
Ġed itora
200 2
ĠLu z
A P
ĠB ig
ĠC aracter
Ġpadr Ãµes
Ġreg ional
Ġentre tanto
Ġempres Ã¡rio
po t
Ġc ara
ĠG ust
ĠIt al
pos iÃ§Ãµes
ĠLat ina
ĠP ia
Ġus adas
Ġgol pe
1 00
Ġcolabora Ã§Ã£o
ra ram
Ġprat icamente
ĠPes qu
Ġdisput ou
on ha
ĠEncyclop edia
Ġexempl os
ot es
ĠVic ente
ĠPos teriormente
e da
8 4
I nt
Ġter ror
Ġimpl ant
Ġreligios a
Ġcer ta
ĠCam peÃ£o
ĠPo nte
. --
Ã³s ito
Ġest iv
Ġcheg aram
Ġcaracter ÃŃstica
Ġreceb ido
! "
ĠD ados
land Ãªs
ĠFil ipe
Ġap ag
m asculino
ant emente
ĠJ on
ion e
Ġpr os
al has
Ġse p
Ġen orme
ian ismo
ĠB R
ĠIl has
E I
Ġrelacion amento
t ic
w ork
Ãĥ O
ĠD en
Ġper der
indo ws
Ġfuncion Ã¡rios
ĠIm pera
us h
Ġadvog ado
ific ou
l ad
ĠJ ef
Ġv ag
Ġinf Ã¢ncia
ĠInt eg
amen go
Ġequip amentos
ĠHom em
adr Ã£o
Ġesp alh
Ġmot ivos
ertain ment
ĠLÃŃn gua
ĠMach ado
Ġm it
Ġassoc iaÃ§Ã£o
me ras
Ġcar ga
Ġpra zo
ĠclÃ¡ss ico
Ġ193 8
ĠR ay
Ġam ost
Ġtent a
ĠLib ert
Ġconsidera dos
rat os
Ġtra tado
ĠlÃŃder es
ĠL im
Ġcr ime
Ġlocal idade
Ġcomun idades
ĠRe v
ĠCas o
ĠmÃ©to dos
Ġ195 2
ĠSil v
Ġparcial mente
g eral
n asc
iv is
Ġestud ar
Ġlib ert
ĠrÃ¡p ido
ĠL anÃ§
Ġir Ã¡
Ġper de
Ġrec entemente
Ġcons ult
al i
ĠO x
ÃŃm ica
Ġasc ensÃ£o
Ġa ÃŃ
Ġres idÃªncia
Ġj an
ĠV ista
l ist
Ġextrem amente
Ġpro n
m on
Ġbilh Ãµes
ĠCo imbra
it adas
Ġent ender
Ġpint or
Ġfra se
P R
ĠGab riel
ĠLib rary
eg al
ĠCh icago
Ġadqu ir
ili ares
Ġg a
ĠC ara
Ġ195 1
Ġlig aÃ§Ãµes
Ġpres t
Ġtre cho
Ġlim ite
ĠT ar
Ġ0 4
Ġtri p
th ur
ĠMarc elo
j ecto
Ġferro vi
ĠC atal
Ġcorre nte
R io
Ġcompet iÃ§Ãµes
urg ia
ĠR ub
Ġint era
ĠEstud os
en ov
der e
Ġlocal izados
Ġcham ou
Ġp p
ĠEst as
Ġcor e
ĠEs ses
W ik
g rÃ¡fico
t ambÃ©m
ĠprincÃŃp ios
Ġenc erra
ĠDisc ografia
Ġsust ent
ĠMai or
ÃŃns ula
Ã´n icas
t y
ĠP ot
Ġm ad
Ġre je
el son
Ġprecis o
u per
Ġ ib
Ġf rag
ab ase
Ġcom Ã©dia
re al
ĠRe is
Ġreal izados
Ġin ov
as o
bo x
Ġg ast
ĠPe qu
Ġating ir
re et
an k
Ġcrit Ã©rios
ĠBo a
ou ro
ĠG irl
ĠJ r
Ġc Ã¡l
Ġcoloc aÃ§Ã£o
ip Ã©l
Ġemb arc
ation s
Ġmost rar
ĠM ato
T I
ch os
Ġsim ilar
Ġess encial
Ġcont endo
s ki
Ġpl ant
ĠLiv ro
ĠSant iago
Ġarqu ivos
il ton
Ġt i
ional mente
Ġ Å
Ġperi Ã³d
ĠS r
p us
Ġinv Ã©s
20 15
iss ion
ĠK a
Ġconhec idas
Ġrec onst
p in
Ġ ign
Ġd or
u ca
pl a
ĠCar ioca
Ġp ul
ĠS he
Ġ4 00
Ġescrav os
Ġexib ido
de x
pres a
ei bol
Ġpro b
Ġtest em
ĠOri ental
Ġg o
Ġdisc ipl
d el
Ġimp acto
ĠSecret aria
atura l
ĠLop es
ip es
Ġon line
Ġinvas Ã£o
ma il
Ġle itura
Ã³ cia
Ġprof essores
ĠL an
Ġb izant
ar Ã£o
on omia
ic am
Ġpoder es
ĠF igu
Ġcons ol
Ġs Ã©t
Ġv ac
ĠD am
Ġrec ente
Ġd ito
Ġexist entes
Ġpermit ir
Ġunivers idade
Ġparticular mente
Ã¡c ulo
Ġg ente
Ġdific uldades
p le
Ġ4 8
Ġprinc esa
at ar
ĠG ram
Ġt orre
Ġs ovi
ivers Ã¡rio
ĠDat abase
ĠRom ano
Ġvenc er
Cam peonato
Ġt rÃ¡s
ĠT orre
ĠRec ife
Ġjude us
ĠB ento
n i
Ġc ad
ĠÃ¢mb ito
s k
ĠGe org
: "
Ġ ;
ĠRod rigo
ocl ipe
ĠgÃ©n ero
ĠprÃ³p rias
ĠTorn eio
Ġsus pe
m or
Ġorig inais
Ġ194 9
ĠEngenh aria
in Ã©
Ãº st
ĠGr Ã£
ĠIn s
ĠRes ultados
ĠAtl Ã©tico
Ġdest ino
Ġal deia
Ġmilh Ã£o
Ġb reve
um p
Ġo ce
it amente
Ã©l gica
id entes
ĠBar ros
Ġmic ro
te d
Ġpo nte
Ġmanif esta
ĠS erg
Ġsu porte
Ġped iu
ĠPÃºbl ico
ap e
Ġtem plo
Ġt rou
ĠÃģ l
Ã´m bia
er do
am o
ĠLuc as
Ġsitu ado
Ġcham ar
our n
Ġinfant il
Ġter rest
icial mente
B T
Ġcont ÃŃn
Ġutil izando
or it
Ã©c ulo
Ġre quer
ĠBÃŃbl ia
ĠXV II
ĠVas co
o que
ĠF ort
ĠMinist ro
Ġcham a
im edia
ĠVenez uela
at i
ĠK o
Ġ9 78
Ġf rac
Ġ193 6
Ġf rut
ce ae
w ell
Ġmarc ado
Ã©t rica
Ġpre defin
ĠH av
ĠmÃŃn imo
Ġbat er
ĠAer oporto
Ġart ilh
h r
Ġfat ores
od y
Ġro ub
Ġm estre
ĠÂ °
Ġf r
Ġpesso ais
Ġvis ita
Ġer ros
Ġroman os
as to
ĠT ab
Ġrespons abilidade
Ġcons ecut
Ġbloque io
Ġsign ificado
ĠEcon omia
ĠsatÃ©l ite
Ġlocal izaÃ§Ã£o
ĠÃ´ nibus
Ġsem if
w an
Ġco p
b ilidade
Ġintel ect
id ez
Ġg rat
Ġsub t
Ġde leg
ab e
ĠW indows
ĠAdminist raÃ§Ã£o
Ġrepresent ando
ipÃ©l ago
ĠMun icÃŃp
Ã¡st ico
Ġa Ã§
Ġsemelh antes
ĠRe vista
Ġ193 4
ĠDin amar
Ġintro duÃ§Ã£o
Ġs o
ran ge
m entos
Ġpel e
Ġver e
ĠEd ward
Ġjapon esa
ĠÃ³rg Ã£os
Ġ3 4
ĠGre en
Ġ und
Ġinstr umentos
ĠF Ã³rmula
Ġo x
st em
ĠU E
Ġd ura
ĠOri ente
k et
ĠW at
Ġfundo u
r Ã©s
Ġm anhÃ£
ĠH al
Ãª me
Ã³ cio
Ã³g ico
ĠcomeÃ§ ar
u iz
6 2
r in
em Ã¡tica
Ġre aÃ§Ã£o
Ġterre no
id ro
ĠEn s
Ġpens amento
ĠU rb
Ã³ so
elh as
ĠA ires
Ġt ela
Ġarqu ivo
Ġtom ou
ĠM osc
r ista
ĠF ortaleza
Ġat mos
Ġac um
ĠP az
Ġinc ent
Ġgra Ã§as
ĠO ne
Ã©r ico
Ġ193 7
8 3
ĠMend es
Ġtrans port
ĠWik i
N U
Ġinstal aÃ§Ã£o
7 9
Ġp eg
ĠM orte
ĠDe put
ĠmÃºs ico
Ġpre feitura
Ġ Ã³p
ĠWal ter
Ġelimin ar
Ġviv eu
E P
Ġser ve
ĠU r
Ġrom ana
ĠC P
at u
ĠFl amengo
s erv
Ġoportun idade
Ġdo enÃ§as
Ġmora l
Ġcan cel
ar io
Ġedif ÃŃcios
D A
icion Ã¡rio
ĠMar gar
ĠP elo
Ġen g
c an
of t
m ond
Ġj ard
Ã¡ via
Ãº car
Ġdoc umento
Ġofer ece
Ġab erta
ĠC ria
anc es
Ġbo as
N Ã£o
Ġd ial
Ġocup aÃ§Ã£o
Ġpara da
Ġcar d
Ġex cel
Ġhistori ador
ĠP into
on i
Ġequ il
ĠA os
ant os
A c
Ġb ens
b at
Ġc ren
ÃŃs ica
Ġpossu ÃŃa
Ã§ u
an Ã§o
ĠprÃ³xim os
ĠB Ã©lgica
ĠSeg uranÃ§a
Ġcas ado
ĠGros so
Ġsex ta
k in
ĠB aixos
Ġvol unt
ĠV ice
ing er
Ġcam inh
Ġinterpre taÃ§Ã£o
Ġaud iÃªncia
Ġestabel eceu
ĠBarcel ona
en z
ĠDom in
ĠBr uno
ĠGu arda
k u
ran da
ĠTerc eira
Ġre ver
Ġcoment Ã¡rio
ĠR oss
ĠMet ropolit
Ġc Ã¢mara
Ġh oland
ĠFl uminense
ow er
Ġcidad Ã£os
Ġsecret Ã¡rio
Ġposs ÃŃveis
ĠAd am
Ġb ola
us e
Ġtiv esse
' t
8 1
Ġfol has
Ġre duÃ§Ã£o
Ġop Ã§Ã£o
Ġautor ia
Ġmilh ares
Ġjorn ais
Ġmar gem
Ġigre jas
Ġmu Ã§ul
Ġa nc
inth ians
ust o
ĠBe at
Ġdom Ã©st
Ġv az
Ġf i
Ġest ran
ĠComp any
fre do
il has
Ġdest as
Ġadap taÃ§Ã£o
Ġeuro peu
Ġpert ence
ĠJo e
ĠMed icina
ĠPol ÃŃtica
Ġ193 3
Ã¼ r
Ġorgan izado
Ġindic ado
Ø §
ĠB org
ĠindivÃŃdu o
Ġele g
Ġaer oporto
Ã© lia
Ġtrabalh ando
C o
ĠClass ificaÃ§Ã£o
7 1
Ġaval iaÃ§Ã£o
% )
Ġag rÃŃc
c ulos
ĠBo ok
wik i
Ġmant Ã©m
ic i
Ġcons umo
b urgo
il ia
il aÃ§Ã£o
ade ia
Ġpret end
c al
ĠCh ris
Ã©t icas
ĠJÃº n
Ġsing ular
ĠAssoc ia
E T
b erto
Ð º
Ġser es
Ġestabel ecer
is es
re ta
ĠFo nte
f utebol
ĠV ia
ĠF ut
7 4
Ġpatro c
in ete
Ġdo ze
ĠB art
ĠAl i
pr Ã³prio
ĠCol Ã´mbia
ĠeconÃ´m ico
ĠInform ation
d s
ĠL ink
Ġd anÃ§a
Ġcap a
ĠindÃŃg enas
f ogo
Ġbus c
Ġs Ã©ries
Ġinteg rantes
Ġv in
Ġcan ad
or gan
on c
pec to
og a
Ġaut ora
Ġal imentos
ĠI MD
Ġinicia tiva
Ġv ive
Ġhttp s
ĠSu pre
b ita
ab eth
in f
ĠV ill
Ġsegu ido
Ġbair ros
emit Ã©rio
Ġpe da
Ġp ista
ĠV el
un Ã§Ã£o
ĠT en
Ġgu arda
Ġ *
Ġt a
ad y
Ãº ncia
ĠPro t
Ġdef ender
ĠDes ta
Ġocorr er
Ġ193 2
Ġram o
ol i
al t
at Ã³rias
ĠSe gu
b ar
ĠJ ones
Ġhum or
Ġfranc eses
Ġlon ge
Ġav iÃ£o
Ġne ut
C C
Ġaust ral
ĠB ell
ora da
Ġcr Ã©d
Ġp ion
ĠG rand
Ġco leg
ĠAr thur
z y
ĠmÃ¡qu ina
B ill
ceb ispo
S T
Ġverd adeiro
Ġpou cas
rim Ã³nio
% ,
6 1
8 2
do este
ĠCol le
Ġg reg
Ġposter ior
ra y
ĠC iÃªncia
Ġb rig
Ġim press
H ist
l an
Ġesp acial
ĠQu anto
ĠHou se
ĠEnt ertainment
Ġrespons Ã¡veis
ĠW ay
ĠTr in
on na
Ġentre v
Ġag ricultura
ĠH ip
ĠAm ericano
c ore
Ġeuro peus
Ġtempest ade
Ġh e
ĠAp ar
Ġfuncion amento
Ġfig uras
Ġf Ã©
ĠC orn
Ġ193 5
graf ias
ĠUru guai
ĠS erv
Ġdifer enÃ§as
ĠN ick
ĠV ide
Ġserv ir
Ġatlet as
Ġfic Ã§Ã£o
ĠM aran
ĠK at
Ġp ast
aix Ã£o
Ġp asso
Ġdesc rito
Ġgarant ir
Ġtra duzido
Ġres g
Ġrepresent ante
Ġp an
Ġc e
Ġart ÃŃstica
ĠMed alha
emb urgo
ĠDem ocrÃ¡
Ġin gress
Ġencont rou
ĠSte ph
ĠH ow
M G
Ġt onel
ĠPor tanto
ĠgÃªn eros
Ġco op
ĠcrÃŃt ico
S h
ĠNew s
Ġp iano
ĠEs sas
u ch
ĠF eminino
ĠPort al
iz aram
Ġescrit os
Ġcandid atos
ĠVol ta
Ġmed alhas
Ġpers pect
it ter
ie ta
Ġconc ord
ĠCor inthians
Ġpr Ã¡ticas
Ġengenh aria
Ġult rap
al ves
Ã¡ ce
Ġg Ã¡s
Ġconv idado
Ġinv ad
I L
t riz
ĠRoc ha
A nt
Ã§ amb
peon atos
Ġmora dores
Ġv c
Ġap aix
Ġal vo
Ġcar ros
el lo
Ġintern a
irit ual
Ġd anos
ul to
199 9
6 9
ĠMov imento
Ġurb ana
u va
Ġdispon ibil
Ġf atos
ĠT y
Ã³g rafo
? "
ĠInf ant
Ġv aga
Ġrec entes
Ġpap a
rev endo
Ġco z
. ).
ĠmÃ¡ xima
ĠPod er
6 3
Ġaj udou
ĠFern andes
Ġassum ir
Ġcomb ust
Ã³ quia
id i
ul ou
ĠhistÃ³r icos
Ġcha ve
os e
Ġo it
ĠV ers
20 16
Ġcab o
Ð »
Ġbranc a
Ġdisput ada
an z
ĠC hec
Ġp ena
ĠO este
ÃŃt ico
Ġfil Ã³so
Ġg aro
ĠS um
Ġcrist Ã£os
Ġgrav ado
Ġl abora
ĠL ong
Ãª x
Ġd anÃ§
r icos
Ġmed iev
ĠM ost
ret anha
qu esa
ĠU lt
Ġant ec
ĠCar olina
ĠRe vol
Ġent idade
rop ri
ĠWil son
ip s
Ġc av
ĠT ime
Ġcor rig
Ġt Ã³p
7 3
ĠZ ona
g ada
Ġs ai
Ġpra ia
Ġinteress es
ĠAtl Ã¢ntico
u ega
ĠI ra
p to
Ġexpl oraÃ§Ã£o
Ġrelacion adas
Ġcon ex
ĠTex as
Ġl ados
Ġf estival
Ġ19 18
ĠT imes
Ġfam osa
Ãº l
Ġexper iment
Ġh osp
ĠN ordeste
Ġche f
Ġindivid uais
gre g
Ġquis er
Ġal fab
Ġren da
al Ã©m
ve do
Ġart ÃŃstico
ĠGo ogle
Ġpre domin
ĠOr to
Ġsen ador
ĠC ra
ol h
Ġcons elho
Ġform ando
Ġm est
mo nt
isc al
Ġpro xim
Ġb or
et n
ĠJÃºn ior
Ġultrap ass
ĠB ad
Ġ uns
ĠBra ga
Ġen d
Ġno tas
Ġpermit indo
ĠSug gest
Ġlim ites
ĠS ta
Ġun iverso
ĠA Ã©rea
P r
Ġhon ra
Ġadminist rador
Ġs ÃŃtio
ĠSt an
t am
Ġn ordeste
Ġin Ã©d
se y
ion ado
et ria
Ġampl amente
f im
Ġflores ta
er y
ĠN ap
ĠN elson
ĠU p
ĠDinamar ca
ĠSuggest Bot
Ġdenom inado
Ġab ra
Ġconf und
Ġpermit iu
Ġflu xo
Ġgu ard
ĠAg Ãªncia
n ot
ĠGonÃ§ alves
ĠA present
Ġespanh ola
ĠV II
Ġat ores
ut as
Ġsegu indo
ĠGoi Ã¡s
ĠN orth
Ġsem i
rag Ã£o
Ġre per
ĠSo ares
amb igu
ĠL Ãº
Ã³t ica
Ġin Ãº
ĠSÃ©r gio
ĠlÃŃ qu
I V
ĠEuro peu
____ ____
Ġdifer enc
Ġp ri
ÃŃnc ias
Ġdesc reveu
Ġcon ect
ĠAg ora
ĠEsp orte
ĠTax onom
in es
ĠProf essor
Ġp Ã´
er m
ĠPara guai
ĠH igh
ag n
Ġam ericanos
ĠColle ge
Ġdu que
ĠH ung
Ġl av
ĠM edia
Ġdeb ate
Ġe fic
ĠEst rada
ing os
Ġquadr inhos
ĠJo h
ĠCur itiba
R S
ĠC ho
el aÃ§Ã£o
ĠDef esa
Ġform am
E D
ut h
ĠL ist
Ġag rad
Ġim poss
ĠP ens
ĠCol l
ĠDire tor
Ġpart ÃŃc
m ais
ĠvÃŃt imas
Ġf antas
Ġt imes
ĠIm perial
ĠG rav
ĠRoy al
az a
ed entes
Ġconfl itos
ĠdÃº vida
Ġcomp ra
Ġag reg
ĠM Ã©d
Ġsegu iu
Ġr ural
rog as
Ġmod ern
Ġrevel ou
Ġfam iliar
Ġ3 9
Ġdenom inaÃ§Ã£o
Ġus ou
Ġdisc os
ro c
Ġ q
if orm
ĠG io
ĠCon fede
ategor ia
Ġpromov ido
ĠCam peÃµes
Ġdec reto
A T
ĠAl m
Ġutil iza
ĠEsc Ã³cia
Ġim perial
Ġinclu ir
ĠIr m
Ġelev ado
Ġfacil mente
Ġs inais
Ġexclus ivamente
i Ã³n
c es
f und
k ins
Ä ĩ
ĠS l
ĠS Ã¡
ĠPer fil
Ġpart idos
ĠRece pÃ§Ã£o
Ġassin atura
ĠNor uega
ĠO k
und iais
Ġar ma
Ġfemin ina
Ġ ÃŃ
Ġres ist
qu et
ĠGal eria
Ġcur to
he im
Ġposs am
f Ã©u
ĠW W
it age
Ġcons ag
Ġ0 9
Ġlink s
ĠWilliam s
ĠFo x
Ġcont udo
Ġform al
Ġdefin ido
ĠEnc ont
Ġdese jo
ĠT am
Ġclass es
iz ador
Ġinter rom
futebol ista
ÃŃ am
A d
Ġest iver
Ġpo dia
Ġ192 9
Ġtonel adas
no w
Ġacred ita
Ġsu d
ĠPar Ã¡
ĠC uba
ĠPre feitura
ĠC os
Ġfal eceu
Ġprote ger
Ġc Ã´n
unt a
Ġaqu ela
Ġlon g
Ġpra Ã§a
Ã¢n g
Ġproduz iu
Ġc ivis
ĠIMD b
Ġcal or
Ġcar naval
Ġig ualmente
I M
k es
Ġpromo Ã§Ã£o
Ġcoment Ã¡rios
ĠH it
Ġferram entas
gu eira
ran o
Ġaprov aÃ§Ã£o
ĠFreder ico
ĠS ong
ĠÃ¡rv ores
rid ge
am ericanos
ĠD ra
b i
Ã³r ica
Ġmod erno
ĠgalÃ¡x ia
Ġv ence
Ġg ig
Ġcar tas
Ġdenom inada
Ġjust iÃ§a
ĠC le
era nte
ĠEst ende
Ġcor pos
Ġinf ra
Ġrev istas
Ġ0 5
rest ling
ĠM ol
Ġdisc urso
Ġdire ta
Ġnecess Ã¡ria
Ġcob ertura
Ġjunt ou
Ġfo co
ĠalcanÃ§ ar
ĠK n
Ġcontin ente
l iga
ĠquÃŃm ica
Ġmed ic
Ġac ha
ĠRa inha
Ġav es
Ġflores tas
Ġvocal ista
Ġc erc
Ġex at
min o
ĠmÃºs icos
Ġreconhec ido
ĠSou th
Ġord ens
Ã§ amento
iv ais
do wn
il ity
Ġcan ais
ĠÃ¡c ido
Ġpara das
Ġ19 10
ĠVi eira
ĠAn os
ell y
Ġm Ãºlt
l l
P ort
Ġesfor Ã§os
Ġinter val
Ġcomem ora
i ri
ĠD al
ĠHer itage
Ġprodut ores
as on
Ġa ulas
ĠG ot
Ġind icaÃ§Ãµes
u Ã¡ria
ph y
Ġconcl usÃ£o
ĠH ab
ht m
ra ta
Ġqu in
ett i
ĠUnivers al
Ġenvi ado
ĠÃ¡rv ore
5 00
ĠBo w
Ġmost rou
A F
ĠJ ov
Ġob st
ĠWh ite
Ġdes emb
Ġgrav ou
âĢ Ķ
Ġan iversÃ¡rio
Ġart ic
a o
it ivas
ĠP Ãºblica
Ġext erna
f ace
Ġexce Ã§Ã£o
es i
ent or
ĠW all
199 8
ĠH y
Ġmarc ada
in adas
ĠHol ly
Ġab re
Ġexc eto
Ġpap Ã©is
j ar
ĠM elo
Ġpres idÃªncia
Ġestrang eiros
Ġchin Ãªs
ĠDig ital
ai re
Ġus am
Ã³ leo
at ina
ĠAlb ert
U N
or c
Ġ4 9
Ġdivid ido
Ġv endeu
ĠL ic
Ġpo bre
Ġinaug urado
ĠS us
Ġtel enov
uss Ãµes
Ġresol ver
Ġcontrat ado
Ġaus Ãªncia
at ivamente
Ġhist or
ĠelÃ©t rica
Ġequival ente
ar quia
iet y
ĠM ike
Ġmom entos
Ġcar ne
Ġpropor cion
Ġnum eros
Ġesfor Ã§o
Ï Ĥ
Ġag ente
Ġtrein amento
Ġt rem
M an
ĠT eix
Ġret om
Ġtrop icais
ĠRec eb
Ġexpl os
Ġecon om
ĠSant ana
Ġanim aÃ§Ã£o
ĠJ ord
Ġtent ando
Ġpres s
ĠA k
Ġper f
ĠRafa el
id al
ib e
ĠLe w
Ġsitu aÃ§Ãµes
Ġpar lam
ĠB ab
ĠF u
Ġra c
Ġdin astia
ec idas
ap or
y er
ĠFo ot
ĠÃºlt imas
C ont
ĠE ug
Ġretira da
Ġj e
Ġ19 17
Ġcap ÃŃtulo
Ġ19 14
est os
Ġesp ÃŃrito
ke y
ĠC orte
Ġassassin ato
ĠG ame
Ġrev isÃ£o
Ġaeron aves
ĠâĢ ł
Ġraz Ãµes
Ġrepresent antes
Ġe g
Ãºm eros
ĠT ay
Ġcum p
ĠAnd rade
Ġv indo
ru d
it Ã¡rios
Ã³n ica
Ġcom issÃ£o
Ġencont radas
ar reg
Ġdia gn
Ġcoloc ou
E d
Ġwik i
Ġpre d
Ġref let
Ġc ron
Ġins etos
ĠZel Ã¢ndia
Ġperson alidade
Ġespa Ã§os
t ores
ĠÃ© t
lo ad
ĠW ood
v isÃ£o
Ġsob era
ĠP ri
Ġpaul ista
ĠSebast iÃ£o
ĠJohn son
ĠU FC
Ġon da
Ġun iÃ£o
" "
Ġen dere
qu ad
ĠCl Ã¡
Ġdesl oc
Ġenv iou
ip edia
Ġmost rando
ĠTrabal h
e o
Ġte at
Ġb is
Ġar co
20 17
ĠArqu it
Ġc aiu
Ġb iol
ĠK enn
Ġinstal aÃ§Ãµes
ĠL Ã¡
dos o
ĠP T
ĠE ric
Ġv s
Ġb aix
Ġconce itos
Ġref lex
Ġdist ritos
Ġin do
Ġdesc reve
Ġs amba
Ġreligios o
Ġh orÃ¡rio
Ġj uda
Ġped ir
ac os
T e
Ġd ubl
Ġconsequ Ãªncia
ĠS endo
et ano
ĠPac ÃŃfico
en ia
Ġposs ivelmente
ĠN ig
ura is
ĠAn im
Ġro b
se is
Ġcompara Ã§Ã£o
ĠN essa
Ġcent ros
ĠPr Ã©mio
ĠOp en
ĠTe am
Ã³t ico
ĠMc C
Ġtrans ferÃªncia
ĠTur quia
ĠAm erica
ĠE c
ĠT ratado
Ġorgan izada
ĠFranc o
Ġ1 20
Ġest ando
Ġexecut ivo
Ġg elo
olog y
st a
ul e
Ġ192 2
Ġvend ido
Ġv andal
Ġverd adeira
ĠEv ang
Ã§ ados
ach ada
ĠCaracter ÃŃsticas
Ġca fÃ©
Bill board
ĠTo da
ĠM Ã©dio
Ġ4 2
ĠS ev
ril ha
Î µ
ĠespecÃŃf ico
Ġassoc iado
ĠM TV
Ġcria ndo
Ġrec ord
Ġfl or
Ġren ome
Ġaeron ave
Ġs Ã¡b
ĠâĢ ĺ
20 22
Ġclass ificado
Ġbrasil eiras
ic ismo
Ġs oz
Ġobjet ivos
ĠC ass
est ro
Ġcres ceu
p ed
Ġsub met
arg as
Ġ19 19
Ġexib ida
D B
ĠLa w
ĠDec reto
em entar
raf t
Ġat ivo
Ġge om
ĠC Ã³digo
Ġor b
ĠDes criÃ§Ã£o
ÃŃr culo
r us
Ġj o
Ġ15 0
pl an
Ġmed icina
Ġdivulg aÃ§Ã£o
Ġna quela
Ġesp et
and er
ur us
Ġexp ediÃ§Ã£o
ar ta
ĠP erson
Ġ( -
ist er
ambigu aÃ§Ã£o
Ġlegisl aÃ§Ã£o
I T
Ġna z
ĠÃį nd
Ġest end
ĠGon z
ĠTaxonom y
ĠPol Ã´nia
Ġrelat Ã³rio
Ġmes mas
Ġcr imes
Ġsac erdo
ĠC ri
ĠN ome
Ġim pres
U m
iv ado
ĠGu inÃ©
ĠCat edral
Ġimig rantes
ai os
Ġpre Ã§o
Ã¢n io
Ġampl a
Ġsim ult
Ġatu ar
Ġabs or
ĠC unha
Ġ4 7
Ġapresent ada
Ġcompon entes
et al
ĠQu em
ĠCap itÃ£o
B l
ĠChrist ian
ug a
b ack
ze vedo
ĠTecn ologia
d ire
ĠB lo
ĠEl iz
iz ade
Ġrep ublic
F L
b il
Ġc ro
Ġl Ã³gica
ĠFranc is
I O
ä º
Ġred ire
Ġres erva
Ġnome adamente
rÃ¡f icos
Ġh el
Ġab riu
met ragem
Ġvide oclipe
Ġmov iment
Ġ u
Ġ5 5
Ġcont ar
Ã´m ica
ĠMan ch
Ġindepend entes
Ġtra tar
ĠJÃº lio
ĠL ive
Ġapresent ando
Ġcri ados
D on
âĢ ĭ
ĠCap ela
ĠJer us
etr Ã³leo
t ados
le d
ĠCar ta
s oc
ÃŃn d
ĠfÃ¡b rica
ĠTeix eira
ut or
Ġfort emente
t im
Ġdesc riÃ§Ã£o
Ġ192 8
Ġtra v
Ġra Ã§a
av ier
ĠEd iÃ§Ã£o
Ġal tas
Ġ7 5
Ġempre go
and emia
Ġresult ou
Ġeste ja
ĠPre to
V ID
ĠPar lamento
ĠM apa
ut ion
Ġres ulta
Ġ6 4
ĠY e
in ense
Ġsu f
ĠP ira
ĠÃģ lb
Ġexper iÃªncias
nc h
Ġp se
Ġas pecto
ÃŃ v
Ġ193 1
ĠBu enos
un n
Ġpos so
Ġpublic ados
Ġexp ul
ĠB ut
eric anas
Ġp adre
ad ia
Ġas seg
icip ais
t ivas
Ġcol una
Ġact ual
ĠAp enas
Ġrevol ucion
on Ãªs
Ġh em
Ġconhec er
port ivo
Ġdis sol
Ġf rota
Ġex pres
ĠMi randa
CB I
Ġd rogas
ad d
Ã¢n icos
Ġlo jas
ĠM aca
ĠperÃŃ odos
Ġcham adas
Ġconcent raÃ§Ã£o
h u
Ġrepresent ar
ĠI N
cl u
Ġdescend entes
Ġc ens
ĠN CBI
ĠPa ula
Ġp lay
ÃŃ fer
Ġlev ado
ĠAssocia tion
Ġ0 6
Ġpint uras
Ġesp orte
ĠG od
Ġpo esia
ĠU F
ĠBat ista
Ġlic enÃ§a
Ġc anto
Ġincl inaÃ§Ã£o
ĠL ÃŃb
Ġsol ar
Ġa vi
ĠConc eiÃ§Ã£o
Ġdocument Ã¡rio
ĠFranc esa
es co
Ġexist ente
ĠBarb osa
om en
ter os
Ġcl ientes
Ġhabil idades
ĠTrabal ho
Å «
199 7
ĠSoc iety
Ġinim igos
A B
E n
Ġb atal
te x
Ġmat riz
Ġm am
ĠWik imedia
ĠEn g
Ġbiblio teca
Ġt an
ĠDes ign
a w
ĠH u
k en
Ġsud este
av era
Î ·
Ã¡ ut
c ast
Å ¡
ĠveÃŃc ulo
Ġc adeia
Ġvir ia
Ã «
B o
x ual
h l
Ġutil izadas
Ġexat amente
iv idades
ĠM ate
f eminino
Ġpac ientes
à ¸
on der
Ġcum pr
j Ã£o
Ġinst ru
Ġsignific ados
ĠServi Ã§o
Ġn oroeste
Ġconhec eu
ex t
Ġpos icion
ĠlanÃ§ ar
Ġel et
Ġder ru
ĠFac ility
Ġor iental
r inho
ÃŃm etros
ĠC up
ĠMu itas
Ġd ista
Ġprotagon ista
Ġc atal
Ġda ÃŃ
Ã³ x
po nt
Ġdesemp enh
Ġgre ga
ĠK ong
Ġtoc ar
l ado
âĢ ľ
eb ook
Ã¡ vio
Ġf ace
ĠV in
Ġliv res
Ġ æ
ĠAr n
Ġcresc ente
ĠÃº til
ĠSt reet
Ġorient aÃ§Ã£o
ĠCan Ã§Ã£o
ĠX III
ĠM estre
ĠL us
her e
ĠCirc uito
j unto
Ġguitar rista
ĠS ag
Ġhomen age
Ġs orte
ed as
per o
Ġapar ecer
Ġl ou
ĠJef f
Ġassist ente
ĠcientÃŃf ico
Ġo pt
ĠMic ros
Ãªm ica
Ġcr imin
ĠComun idade
Ġcl ÃŃn
Ġg erais
ĠFil osofia
ane amente
Ġprej ud
Ġ192 6
ĠFel ipe
Ġ19 12
ĠK u
Ġtrans iÃ§Ã£o
Ġexist ir
ĠKar l
at ual
Ġinc Ãªn
ĠdÃ©c imo
ol ar
Ġdec ide
Ġmar gens
Ġcar b
Ġtom ada
Ġpl ural
orre nte
ĠPara ÃŃba
Ġsal v
Ã¢nc er
Ġcerim Ã´nia
ĠT ak
Ġj uiz
u as
en Ã§Ãµes
ĠT av
Ġad mit
ĠGu er
Ġaltern ativa
Ġgrav aÃ§Ãµes
Ġexib iÃ§Ã£o
Ġalte raÃ§Ã£o
Ġinstr umento
Ġdific uldade
Ġdivid ida
ĠPier re
Ġ192 4
Ãª ut
Ġtrou xe
est es
ĠK an
Ġdec isÃµes
Ġpol icial
ĠLon don
ĠM ano
Ġfab ric
Ġalt amente
Ãº ng
Ġrefer ir
Ġca Ã§a
ĠM os
Ġm ente
Ġl anÃ§a
R J
ĠBo ta
ÃŃ via
ĠImpera dor
Ã©r icas
ĠInst it
Ġenvolv endo
Ġatrav ess
ĠAlexand er
Ġme do
Ġjulg amento
Ġesp iritual
Ġpre to
Ġnot Ã¡vel
Ġcom et
Ġapar iÃ§Ã£o
Ġinteress ante
ĠDi ego
Ġlat eral
uven il
ĠSte ve
Ġcon fer
ĠCom itÃª
Ġport al
Ġav is
ĠBar ra
Ġ riqu
ĠG ost
pos t
Ġderro tou
ÃŃb rio
in er
Ġan f
Ġinterv enÃ§Ã£o
Ġac el
Ġapar entemente
Ġsuc essor
Ġdi Ã¢metro
ĠmÃ©d icos
Ġvari Ã¡vel
ĠBra z
Ġn erv
ĠG Ãªn
Ġprof essora
Ġ4 4
ĠÃģl v
ĠN ik
ĠAc t
ĠTer esa
I P
Ġsa ud
av i
. ;
ĠO h
ĠCan al
Ã¡c ulos
d ent
ia ram
Ġinterpre tou
Ġprob abilidade
ĠJ am
ĠIs land
yl l
it ivamente
ĠS Ã©culo
un k
ĠRe present
ĠP C
Ġesc lar
end ente
Ġinteg ral
ĠTom Ã©
ĠBern ard
Ġroup as
ĠUE FA
Ã ĩ
Ġl ine
Ġport as
ĠMaran hÃ£o
ĠG et
ĠO ff
Ġdetermin ada
Ġcrist Ã£
ĠMosc ou
ĠRep ublic
m i
Ġapresent aÃ§Ãµes
Ġperform ance
Ġv ÃŃdeos
ĠÃ³r bita
ĠJerus alÃ©m
Ġen redo
f ica
ess Ãµes
b le
Ġ4 6
S O
ĠH ay
rÃ© ia
Ġamb iental
Ġp le
Ġdever iam
sc he
ĠD io
Ġ ran
un h
199 6
Ġpubl icaÃ§Ãµes
Ġre iv
ĠQu ad
oc os
ourn al
y le
ĠV inc
ĠForm aÃ§Ã£o
Ġ4 3
s el
Ġd urou
ĠS ir
Ġexpl ic
Ġpriv ada
T ube
ĠS un
ĠL ug
. /
I m
Ġc ura
Ġs Ã³l
iv ar
Ġpro postas
f ar
cont in
Ġdist ingu
Ġsat isf
eg as
Ġsu g
ĠG ard
Ġex er
Ġocorr ido
ĠMo Ã§amb
Ġdefin ida
ĠIn icialmente
Ġreceb eram
ĠForm a
id ata
Ġ5 2
Ġnorm as
Ġmo de
ĠOx ford
Ġderro tado
ĠFo und
Ã¢m ico
ĠLiv re
es taÃ§Ã£o
ĠV at
en es
ĠA P
Ġcent enas
ĠCap ital
ĠHung ria
Ġdefin ir
Ġresta ntes
ist os
Ãªnc io
Ġreceb endo
Ï Ģ
Ġin con
Ġof ens
Ġret rat
Ã± a
or os
Ġint eiro
ĠCons erv
Ġlo ja
Ġz onas
ĠÃŃn dice
m el
Ġsu doeste
up i
ĠÃ³ leo
ĠhipÃ³t ese
Ã© us
ĠF Ã¡b
Ġcal c
Ġconf ront
ĠIngl Ãªs
Ġamea Ã§a
ĠJoh ann
Ġforn ecer
Ġer rado
ra te
Ġposter iores
20 18
Ġfuncion a
Ġvant agem
if f
ĠYo ung
M E
Ġprov ÃŃncias
Ã³l ico
im ental
ĠCar n
Ġat os
ĠEsp anh
Ġecon Ã³m
Ġrecom end
ap t
ĠU su
Ġar rec
ĠÃŃn dios
Ġf ura
Ġan Ãºnc
Ġpopular idade
ĠBern ardo
itt le
Ġa Ã©rea
Ġpag ar
Ġesc ultura
ar l
ĠT it
Ãµ em
Ġexc ent
Ġc ho
Ġreligios as
i rou
Ġent erra
Ġlev aram
ar que
Ġrec urso
Ġdescob re
Ġresol uÃ§Ã£o
ĠLe op
rei ras
Ġ rig
Ġs p
Ġ192 7
Î ¼
ĠTay lor
Ġres tante
Ġev ang
Ġparticip aram
Ġf is
Ġper igos
Ġele itos
Ġapar ecem
Ġdescob riu
d iÃ§Ãµes
i ed
Ġaf lu
Ġren unc
ĠOb serv
Ġcost um
id el
Ġestad uais
Ġag entes
Ġpont uaÃ§Ã£o
Ġperman ente
Ġproduz idos
Ġrelacion ado
ĠGio v
Ġapl icaÃ§Ãµes
ĠB BC
Ġac ord
Ġcorre to
ĠP adre
Ġvel ha
Ġm issÃµes
Ġmort es
Ġpopul aÃ§Ãµes
Ġfab rica
ĠBota fogo
un st
Ġat ras
Ġad ultos
Ġinv erno
x x
er i
eg ro
Ġmot ores
C ol
Ġimp Ã©rio
P ara
Ġt ido
Ġ4 1
Ġlig ado
h ist
Ġna Ã§Ã£o
Ġtro c
Ġconsegu iram
Ġocorre m
ĠS or
ĠCl ubes
el le
imar Ã£es
ĠT ony
he u
ĠvÃŃt ima
rÃ©s c
Ġvol umes
ch en
Ġaborda gem
ÃŃt icas
Ġafirm ando
ĠHol anda
ÃŃn ia
Ġsu ic
Ġal tos
ĠS m
ĠA j
ĠV ar
Ġarquit eto
Ġapaix on
Ġsuper iores
ĠG all
Ġ0 8
Ġcoleg as
Ġap rec
20 19
Ġcar gos
panh as
re u
ĠH ard
Ġmens agens
Ġcolon ial
Ġadic ionais
ĠF orte
Ġfic am
Ġexcent ricidade
ĠR amos
Ġneg ros
ĠOrig inal
ru st
Ġins c
Ġinf in
est ino
Ġrad io
ĠProv ÃŃncia
t ua
ĠA ud
E ste
em y
ĠP ela
Ġapar Ãªncia
ĠB em
ĠB all
ĠBar Ã£o
Ġfoto grafia
Ġf ases
um ental
Ġer gu
Ġt iver
Ġab rang
Ġemp ate
Ġm apa
Ġna ve
er d
Ġar re
op a
ĠAf ric
Ġfo c
ific adas
ĠD C
Ġcapaz es
ĠB rig
Ġpr ision
orre ntes
as co
iz e
ĠX II
Ġav iso
Ġtri nta
ia t
en berg
Ġdestru iÃ§Ã£o
Ġmat ar
Ġpot Ãªncia
ĠEns ino
form as
Ġ19 11
as a
ĠT ib
ac idade
Ġext ernos
ro me
el ar
od ia
ĠAmaz onas
ĠCar doso
Ġvia gens
Ġdedic ado
ĠYou Tube
ĠH ans
Ġt um
ĠF red
ĠlanÃ§ ados
Ġevent ualmente
S C
ĠLu a
Ġcorrespon de
ÃŃ zes
Ġcoloc ada
Ġc ertos
er taÃ§Ã£o
ro t
Â» ,
Î »
Ã§ am
ĠB os
orr Ãªncia
Ġcer teza
Ġreligios os
Ġmontanh as
Ġadic ional
ĠPou co
s i
ĠS ÃŃria
il ares
Ã³ b
Ġnecess idades
r Ã³p
Ġdisc ussÃµes
ĠT udo
Ã³g io
Ġem oc
ĠL ula
ĠF ic
Ġgra ve
ĠOpera Ã§Ã£o
ĠCons idera
ul ados
Ġprop Ã³sito
Ġle ite
ara l
via Ã§Ã£o
Ġcontribu iÃ§Ã£o
ĠHolly wood
f am
ĠFaz enda
ĠFri ed
ĠC y
Ġfam iliares
Ġf est
it ante
Ġp av
Ġdes m
Ġreg ress
Ġdet ect
ĠP u
ip os
ĠXI V
Ġevid Ãªncias
d ica
ĠV argas
ĠY our
Ġbas es
ĠinÃº meras
Ġunivers idades
ĠPalm eiras
Ġb ordo
Ġenfrent ar
Ġn eu
ĠF is
Ġ19 13
Ġcomput adores
id d
Ġre quis
ĠN am
Ġfunc ional
Ġdesenh os
ĠL este
Ġ0 7
Î º
Ġ5 9
Ġab rir
Ġelev ada
ĠâĢ ĭ
ĠSc i
id ou
Ġg osta
Ġaltern ativas
e al
Ġviv em
p an
ri Ã§Ãµes
vel mente
Ġg osto
Ġit ens
Ġb rilh
ont o
Ġeta pas
ĠM Ã©dia
gu eiro
Ġter iam
Ġcast elh
ĠMoÃ§amb ique
ĠCon hec
199 5
ĠRel aÃ§Ãµes
Ġescol her
Ġc iÃªncias
Ġpr ivil
ĠT ai
ĠHist ory
ĠAc red
Ġcust os
Ġpud esse
Ġsal as
Ġcanad ense
Ġ192 5
Ã©re o
ĠF aixas
if orme
Ġprov en
Ġinaug urada
Ġbel eza
Ġv ÃŃrus
ve ja
Ġs essÃ£o
Ġre voluÃ§Ã£o
ĠF erra
Ġmol Ã©c
Ġcor oa
ĠIl l
ĠM ir
Ġres s
Ġexpl icar
ad i
Ġt iro
ÃŃ qu
g ado
Ġconst elaÃ§Ã£o
Ġretorn ar
ĠCruz eiro
ĠEliz abeth
Ġace ita
R ev
Ġnos sos
Ġz ero
Ġfaz enda
Ã³l ogos
Ġaprend iz
ĠJ uventude
Ġdescob rir
Ġdetermin ar
Ġcap it
Ġch uv
ĠbritÃ¢n icos
ĠGovern ador
Ġconserv aÃ§Ã£o
ĠP ost
ĠFranc Ãªs
Ġd an
ess as
ĠSt one
ĠGu imarÃ£es
Ġdisput ado
rav am
Ġat leta
v ora
ĠPhil ip
fe ita
Ġcont as
ĠLit eratura
Ã³st ico
ĠL ut
ron s
ot as
ĠK en
ĠBel Ã©m
Ġha ja
ĠAc ho
P h
Ġconhec e
Ġmat a
Ġdeclara Ã§Ã£o
s ub
Ã§ ando
ĠMad onna
Ġ6 5
Ġretira r
ĠN atural
ĠI sa
Ã³p teros
ĠAbra Ã§os
Ġlarg ura
B retanha
ro nto
Ġsex to
ĠG ama
Ġamb ient
Ġbl oco
Ġt io
Ġs ites
ro z
Ġ19 21
ĠP R
Ġind icaÃ§Ã£o
Ġbranc os
Ġl itoral
ĠF ase
D E
Ġrevol ta
Ġidio ma
Ġf ator
ĠcÃ´n sul
ĠC art
Ġemb aix
Ġsint omas
Ã³qu io
h ol
end Ãªncia
ĠÃ¡ l
Ġ5 1
Ġopin iÃµes
iz adores
Ġrecus ou
ĠSy stem
ocra ta
Ġdim ensÃµes
ĠB is
Ġest rÃ©ia
l ot
Ġenvol ve
Ġpa in
ÃŃn ios
Ã´m ico
ĠL og
ec om
Ġestabel ecimento
ĠfenÃ´m eno
Ġaj ust
m ica
Ġenc om
Ġconsc iÃªncia
ĠM Ã¡r
Ġh arm
j ac
Ġneg ro
if a
Ġpou ca
M P
ĠN i
ĠN eto
ĠPesqu isa
M a
Ġcam ada
ĠmÃ¡qu inas
Ġal iados
ĠC ax
Ġdes per
lig aÃ§Ã£o
Ġ19 00
ĠT on
red ores
Ġfil os
h at
ĠL oc
ĠC ov
Ġperd endo
Ġreg ionais
ĠT ob
Ġcert as
Ġintit ulada
ĠB rad
B ar
Ġcorrespond ente
Ġdest aca
Ġinic iar
Ġferram enta
ĠEx ecut
f os
ĠD or
Ġpeix e
Ġal uno
ĠL as
Ġpar edes
ĠMicros oft
ĠclÃ¡ss ica
S al
Ġpro jecto
ed y
at em
ĠÃģ rea
ann i
in ando
Ġmant endo
id aÃ§Ã£o
rit as
Ġdef ic
ĠLocal izaÃ§Ã£o
Ġbr inc
S tar
ĠP av
tura s
199 2
ĠHel ena
ra qu
ĠN um
ĠCol umb
Ġdesign aÃ§Ã£o
ĠestratÃ©g ia
ĠVerm elho
pira Ã§Ã£o
Ġpag amento
Ġhid rog
m ore
Ġpens ar
ĠP ublic
ĠB ase
Ġgrav ada
Ġurb ano
ĠCO N
ĠLew is
enc iado
Ġmu da
co ol
vi ado
Ġeleito ral
Ġmont anha
imp ÃŃ
Ġd ÃŃ
Ġart ific
ĠGar cia
Ã© e
Ġintern o
199 4
Ġf irm
Ġsur pre
Ġestud ante
Ġdirec Ã§Ã£o
ak i
ĠFor Ã§as
Ġconsidera r
ĠLegisl ativa
Ġdisput ar
ĠSam uel
ĠJun ior
est ar
ĠSÃ©r via
ĠâĢĭ âĢĭ
ĠV III
ce pt
f el
Ã´n ias
Ġestabel ecido
ĠC B
Ġb aixas
ĠK ir
Ġp etrÃ³leo
Ġlut ar
G eral
Ġaux iliar
Ġm ental
ur no
Ã©r sia
Ġgovern os
Ġmarc as
ĠVi ena
Ġp ior
ĠCam ar
re at
our t
Ġand ar
ĠM ess
Ġreduz ir
ĠHit ler
Ġpredefin iÃ§Ã£o
it udes
ĠB rian
ĠAl ice
Ġins criÃ§Ã£o
ĠHug o
C or
ä ¸
Ġdo no
Ġvari Ã¡veis
Ġ192 3
ĠC E
Ã¡ pol
Ã¢m etros
Ġtraz er
Ġf Ã³rmula
ar ias
ĠV elho
Ġr Ã©
ĠHar ris
Ġpro gress
Ġtend Ãªncia
Ġcont am
ĠCO VID
Ġpass am
Ġcient istas
Ġm undiais
ĠS pe
Ġrit mo
ĠD iocese
ĠGro up
Ã³r ida
Ã³p io
Ġir reg
ĠFoot ball
k h
Ġc itado
Ġf ib
ĠPl ano
Ge ografia
ĠDu arte
ĠâĨ Ĵ
Ġperspect iva
w art
Ġcomp rov
Ġcompre end
S a
Ġ( )
Ġren d
Ġconquist ar
ĠN ar
Ġ= >
ĠEs qu
M y
Ġinim igo
Ġmo da
ĠBranc a
rat ivos
Ġmot iv
f ia
Ġ ras
Ġarg umento
Ġadqui riu
ĠÃļ lt
rÃ©sc imo
Ġeg ÃŃp
ĠTor res
ĠM eu
ĠR an
Ġab ast
Ġcin emat
ĠHot el
ĠB ert
Ġc Ã¢m
ce pÃ§Ã£o
ĠRel ig
Ġjog a
ĠVer bo
Ġconsidera das
Ġcirc ulaÃ§Ã£o
Ġfac uldade
ĠNeg ro
ĠPesso a
iv eram
Ġpropriet Ã¡rio
ĠG in
Ġest aria
Ġrevel a
Ġf Ã³s
Ġpar ede
ert ido
Ġtur ismo
Ġhab ilidade
Ġdesc ul
Ġsu pl
ul Ã¡rio
ou ri
e taÃ§Ã£o
Ġconc eb
Ġintelig Ãªncia
ĠAr ch
) ",
int endo
Ġc Ã¢ncer
ĠLig ht
Ġre is
est ina
Ġocorre ram
Ġsepara Ã§Ã£o
Ġestat uto
Ġc Ã©u
Ġf asc
o y
Ġdeput ados
ial mente
Ġde ram
Ġc ub
er ca
Ġo per
ĠH ong
Ġmediev al
r Ã´n
ro b
Ġmagn itude
ĠRad io
m al
or idade
Ġf achada
em an
mo d
Ã´n ios
Ġperman ece
Ġdig itais
ĠF ez
ĠD eb
Ġdirig iu
ĠS Ã©
ĠCon go
Ġcam peÃ£
ĠMunicÃŃp io
Ġl us
Ġter mina
Ġteor ias
ĠSecret Ã¡rio
Ġcaus ou
ĠSim on
Ġrepresent ou
ĠPro p
Ġconfirm ou
ĠPont a
Ġg in
cri pt
ap p
Ġcar deal
Ġinic iais
Ġb ur
Ġassoc iados
Ġman ip
ĠTur ismo
Ġenvolv idos
adre z
Ġcaus ar
Ġf eliz
ch es
Ġho tel
Ġcomum ente
. ),
Ġna o
idad a
Ġ19 15
Ġrecup eraÃ§Ã£o
Ġreb aix
Ġsubt rop
ĠGost aria
Ġcoloc ados
Ġident ificaÃ§Ã£o
Ġrefer ido
ĠPubl ish
Ġt era
Ãº rb
Ġtransform aÃ§Ã£o
ĠJac ob
Ġnucle ar
ĠR ou
Ġcas ada
ĠEs pa
Ġab und
Ġinter med
Ġs ig
ĠCl ar
Ġtaref a
Ġcompost os
A b
P T
Ġdo ce
Ġmod ernos
ĠVi etn
Ġm i
Ġtelenov ela
g Ãªn
o o
pr Ã©st
oc rat
Ġseg ura
Ġag Ãªncia
esp Ã©c
Ġcu jos
Ġassist Ãªncia
S A
it Ã³rio
empl os
ĠA dol
Ġdes v
Ġprot esta
ĠprÃ³xim as
Ġper fil
il hos
ĠM am
ĠB est
ĠÃ©t n
Ġcont er
ĠOce ano
w er
ĠAl ta
ĠAnt h
Ġgra us
Ġconf ianÃ§a
gre d
Ġ orn
Ġarg umentos
Ġconstitu iÃ§Ã£o
ia ntes
Ġalg orit
Ġle ve
p son
Ã³d ulo
re e
ĠCom ics
Ġneg Ã³cio
Ã¡ gua
ĠD O
Ġin ativa
ost on
Ġital ianos
ĠEs pera
ĠS ar
Ãº jo
Ġdestac am
Ġatmos fera
os h
ĠL P
ĠRog er
Ġext inÃ§Ã£o
Ġcirc uito
Ġcel ular
M elhor
ĠC N
ĠC ord
Ġace itar
Ġm ural
Ġperd ido
Ġexerc ÃŃcio
cam peÃ£o
ess es
Ġnot Ã¡veis
ĠAl t
Ġcul to
Ġcat Ã³lica
Ġsuc edido
Ġf lex
Ġ5 4
Ñ ĥ
Ġconclu iu
Ġdispos itivos
o te
ĠComun icaÃ§Ã£o
v id
Ġinflu Ãªncias
E sc
da y
Ġvoc Ãªs
Ġinteg raÃ§Ã£o
Ġe ixo
ÃŃl ica
ĠB air
ran a
ĠMar ques
c or
Ġdep ende
re y
ĠReceb eu
ĠB ulg
ĠR ol
ĠStud ios
ĠIs l
ĠLibert adores
Ġs ÃŃ
Ġm ando
ĠMar io
ĠCon ferÃªncia
ific ador
Ġt rama
Ġpropag anda
Ġp asse
Ġv ento
Ġprov Ã¡vel
ĠDeput ados
id ge
ĠEr n
eb re
ach ar
ĠE ast
Ġpro emin
ob ra
l og
ĠH ero
Ġsubstitu ir
I s
il ho
Ġest ilos
ĠEx iste
Ġimped ir
ĠFilip inas
P l
pl ay
ĠY an
ĠDire itos
ĠNet work
alh Ã£es
Ġaqu is
Ġil um
art h
Ã¡s ia
ĠAra Ãºjo
Ġb i
Ġab ord
Ġenciclop Ã©dia
Ï ī
it aram
ĠFl Ã³rida
Ġenfrent ou
Ġrecom enda
k ov
Ġident ificar
Ġassoc iada
Ġmost ram
ĠNo ite
ĠWik idata
Ġp andemia
ĠM and
Ã³r ter
Ġcandid atura
ĠQu atro
Ġmet ropolit
Ġpeix es
Ġmar ÃŃt
Ġ25 0
Ġm orrer
Ġ19 16
ĠIra que
ar de
ro mo
Ġinc ap
Ġcomb inaÃ§Ã£o
ĠComun ista
ura dos
man da
Ġpesquis adores
am as
ĠW ell
ĠtÃ©cn icos
ĠSpec ies
Ġtermin ar
Ġm orta
Ġfund adores
ĠRen ato
Ġpre f
199 0
ol do
Ġno tor
dut or
ĠMu ito
Ġforn ece
Ġpergu nta
D O
il lo
ĠM ira
Ġv inc
Ġestrel ado
il v
fer m
ĠFac ebook
ei Ã§Ãµes
Ġ Ã³t
ĠR uss
Ġcal endÃ¡rio
Ġclara mente
Ġab st
Ġbenef ic
Ġg ab
man os
Ġcole ga
ĠA zevedo
Ġg anha
Ġinterpre tada
tu res
ĠConstantino pla
Ġn ele
ĠU l
ĠAn na
Ġacont ecimentos
Ġa nte
ĠCamp inas
ĠN AS
ĠCl ara
ĠBro ok
ĠN intendo
Ġb ras
ĠZ Ã©
ĠPra ta
p ha
isc onde
Ġsoc i
ĠBo y
Ġt ese
Ġexpl ica
in aÃ§Ãµes
id entais
isc os
ĠMate us
raf os
C ap
ĠC ou
ribu iÃ§Ã£o
Ġnot ÃŃcia
ik o
via mente
P ortal
ĠP etro
Ġap ost
Ã¢n icas
ĠespecÃŃf icos
at Ã©
Ġprecis am
b rasil
Ġest amos
Ġcomp at
Ne w
Ġl hes
ĠM ud
Ġsu port
enc iamento
Ġ5 6
ĠEd itor
it Ã©
Ġclassific ou
Ġreal iza
Ġextre mo
Ġde mo
ĠV illa
ĠTer min
ĠB erg
om ot
Ġconc ordo
ĠJ enn
Ġdesenvolv ida
Ġst atus
ros a
Ġequil ÃŃbrio
Ġf iscal
Ġenc arreg
ĠFo to
Ġorig ens
Ġ190 8
Ġra ÃŃzes
Ġrep orta
ĠL ac
ĠI X
Ġcomp ar
Ġtent ativas
ĠMont eiro
P E
199 3
Ġch Ã£o
Ġsucess os
Ġon ze
Ġcl iente
ĠLu x
Ġd ign
ab le
Ġapren der
ĠInv est
ĠV itor
Ġap art
Ġap ropri
Ġinteg rante
Ġconstitu ÃŃdo
Ġext inta
Ġopera cional
ĠP io
ĠNap ole
Ġqu ente
ol os
ĠB ir
ĠR ui
Ġna Ã§Ãµes
c in
ar is
ig an
ri e
jet Ã³ria
Ġconstitu em
Ġmec anismo
if ÃŃcio
gues ias
Ġrevel ado
Ġb ru
ĠTe ve
Ġres tos
c ios
in st
ĠB rand
ĠCast ela
ro w
ĠCol e
U L
Ġb ast
om os
Ġapo iar
ĠTempo rada
ĠG as
ĠK on
Ġnecess Ã¡rios
Ġhistori adores
D F
ic on
ort es
ĠS of
gan Ã§a
Ġcultura s
i ras
la h
ĠFilm ografia
ĠfilÃ³so fo
ul aÃ§Ãµes
Ġvaria Ã§Ã£o
Ġfran quia
ĠGust avo
um i
r indo
oc as
Ġpre n
Ġfam osos
ĠOr ch
Ġcompre ensÃ£o
U R
ce p
ren Ã§o
Ġdesign ado
Ġpres os
Ġ Ãªx
ĠIn ic
ĠRob in
ĠCom Ã©rcio
Ġrepresent am
ĠMor eira
rat ivo
Ġ ia
ĠCar lo
ĠBol ÃŃvia
ĠB ispo
ĠGo od
Ġde pressÃ£o
Ã³r gia
Ġfam a
Ġdiv isÃµes
wik ipedia
ĠB et
ut u
Ġescrit Ã³rio
Ãªme as
Ġsubstitu iÃ§Ã£o
ĠDent re
ĠConfede raÃ§Ã£o
ĠW restling
Ġ5 3
ĠTra duÃ§Ãµes
Ã¨ re
Ãº p
Ġac ervo
Ġdedic ada
Ġcaval o
ĠH unt
Ġhuman idade
ĠP ad
du aÃ§Ã£o
ĠA R
ig aÃ§Ã£o
ĠU R
Ġda quela
Ġent idades
Ġis l
ĠAt let
Ġfund os
Ġal ma
Ġconc erto
ĠSupre mo
ug h
Ġcas ar
Ġgrav ar
Ġv ias
Ã¡s io
ĠF ora
ĠCh art
Ġdispos itivo
ect ion
ĠCamb ridge
Ġcarb ono
m issÃ£o
Ġg r
era da
ĠCl ark
Ġre le
Ġeuro p
da Ã§Ã£o
Ġinclu iu
ĠaÃ§ Ãºcar
ĠAl fredo
Ġt ort
ro duÃ§Ã£o
Ġpovo ado
N ova
ĠP ovo
ĠB ak
ÃŃl ico
ĠEst ou
Ġastero ides
ĠF ord
Ġan ualmente
ĠÃ¢ ng
E nt
c ent
Ġsal var
ĠN uno
ĠUsu Ã¡rio
ĠAt enas
h ip
ĠHa w
ĠT u
ĠS T
pl ic
Ġass inado
ĠA L
Ġesc reve
Ġo vos
Ġ8 5
Ġm Ã¡g
res sÃ£o
Ã¡r b
l iv
ĠM ix
Ġsuger e
ĠAs h
ĠAl an
ĠAz ul
Ġeletr Ã´nico
Ġrecup erar
e qu
ĠF ÃŃsica
ĠEx press
one y
Ġs ant
ĠR ick
Ġmod alidade
Ġmun icipais
ĠSa ud
ĠU A
Ġman usc
Ġc os
es pera
Ġv ent
Ġescrit as
ĠMe io
Ġimpress ion
St ation
ĠS BT
Ġres sal
Ġconv ite
Ġtira r
Ġrelev ante
ĠMa ia
Ġsuc essÃ£o
ro co
ĠF ons
ag on
Ġtermin ando
z ar
Ġmes a
ĠL en
20 20
Ġdescend Ãªncia
Ġcaus as
N O
Ġ %
Ã©m ica
al es
Ġverm elha
Ġconj untos
Ġsub ord
ĠMano el
Ġcontribu ir
co pa
Ġlat ino
ĠC ount
ĠA BC
Ġma jor
ĠF ight
ĠInform aÃ§Ã£o
Ġag ress
eir ista
Ġprofund idade
Ġv amos
ador ia
ĠArt igo
eg an
Ã³n imo
Ġsur ge
ĠLeon ardo
Ġcor rupÃ§Ã£o
ĠOr qu
Ġganh ando
S uper
ĠB omb
Ġdef ende
Ġavi Ãµes
ĠD ream
Ġconc ep
ĠF ront
Ġparticip aÃ§Ãµes
V er
ĠO d
r s
ĠV iol
Ġfil has
Ġconv idados
Ġpil otos
ev in
I G
ĠR E
ĠR TP
ĠWol f
ĠNasc imento
il de
Ġl ux
Ġdire cion
Ġcontrol ar
j Ã¡
Ã³ ide
Ġrel atos
rÃ¡f icas
o x
Ġacont ecer
gl as
id iano
elh eiro
Ġver ificar
Ġinclu ÃŃdo
Ġfinanc eira
pl as
Ã¡r qu
ĠA qui
nasc ido
Ġderiv ados
ĠIndepend Ãªncia
Ġreconst ru
Ġadminist radores
Ġarg entino
ĠpartÃŃc ulas
Ġtransfer ido
Ġs elo
Ġcam panhas
ĠAm ericana
Ã¢ne os
Ġcol oca
ĠLou renÃ§o
ĠG ib
Ġencont rava
ĠPara na
Ãº ne
Ã©n ia
ĠBra ganÃ§a
ãĢ į
an na
Ġem prÃ©st
in ia
ĠCrist ina
el ado
Ġatu ando
tion s
l en
ãĢ Į
C E
ĠS ic
Ġam izade
Ġm ission
Ġab ol
ĠOl impÃŃ
Ġcontro v
ĠAd jetivo
Ġn ut
ĠM ant
ĠFranc e
Ġ189 0
Ġde manda
Ġtemperatura s
Ġpont a
ĠMag alhÃ£es
Ġinaug uraÃ§Ã£o
Ã©d ios
ĠAnd erson
Ġsitu a
Ġalc ance
ĠLor ib
ro und
Ġped ras
ÃŃss imo
P er
Ġb ons
Ġro ta
ĠNic ola
us Ãµes
Ãªn is
ĠcatÃ³l icos
ĠV Ã¡rios
ĠDes emp
Ġpron unc
Ġb oca
Ġdout rina
Ãº lio
Ð ²
Ġsim bol
ĠCo elho
Ġg rÃ¡fico
Ġen x
ren s
Ġexp ect
ĠTelev isÃ£o
Ã´ lei
io la
u ki
Ġcam isa
Ġpol it
Ġdef endeu
199 1
Ġcol or
ĠAss is
ĠR ac
Ġconstru iu
ĠAd ria
Ġesport es
d ig
Ġj a
Ġdec is
Ġles Ã£o
at Ã³rios
ĠT rad
Ġpossu ir
m us
ĠRe b
Ġsignific ativa
ĠC av
Ġpe de
ĠMus e
Ġelimin ado
Ġdom ingo
b en
i ers
ĠV il
Ġel ite
ĠgalÃ¡x ias
qu istÃ£o
k an
z as
Ġpar Ã¢metros
Ġnome aÃ§Ã£o
Ġcost as
anal to
ĠF ra
Ġ6 00
ĠPl an
Ġdepend endo
ĠSteph en
ro f
ĠL and
ĠK ent
Ġnome ou
Ġocup ou
id s
Ġim pressÃ£o
ĠCh ico
Ġdiz em
Ġespera nÃ§a
ĠespecÃŃf ica
Ġac erca
Ġquad rados
Ġterrest re
Ġda qu
on f
Ġprat ica
iz ava
Ġescol ar
Ġconex Ã£o
Ġpor te
ĠMat t
ĠDav is
r Ã¢neo
Ä į
ĠsÃŃmbol os
ĠIn don
Ġce do
Ġcont ava
ĠSer ies
ĠT ok
to p
ĠhÃ¡ b
Ġin Ãºmeros
Ġpol iciais
ang er
ĠdÃ©c ima
Ġf estas
ĠR ita
ĠL av
ĠPed ra
Ġreconhec ida
c ara
d ist
ĠB elas
ĠDu as
ue gu
Ġinspira Ã§Ã£o
ĠS pr
ĠCar ol
ĠC oraÃ§Ã£o
Ã©re bro
Ġconsider ou
c ur
Ġincl usÃ£o
Ġprocura r
Ġwikip Ã©dia
Ġnotor iedade
R eg
ĠN BA
ĠUn iverso
Ġcap ÃŃtulos
Ġobserv aÃ§Ã£o
Ġ8 00
des ambiguaÃ§Ã£o
Ã¢ne as
ol ha
ĠFigu ei
Ġsom a
Ġaust rÃŃ
Ġlig ada
198 9
Ġespect adores
S E
l av
ede u
ri p
Ġinterval o
Ġprim o
Ġconf ronto
ĠmÃ©d ica
Ġar cebispo
ĠSe x
ell er
om Ã©
ug e
ĠAnt ec
Ġmo eda
Ġcom ida
ĠF antas
Ġperman ecer
P ol
Ġp ico
Ġorgan izar
Ġdiscut ir
al ho
ran Ã§a
Ġcont os
ĠG P
Ġc adeira
ĠA y
Ġ190 6
Ġunivers al
ĠAre na
Ù Ħ
Ġvis itantes
Ġeuro peia
Ġpos t
ĠEx emplos
Ġterrit orial
Ġofer ta
Ġverd ad
Ġquin ze
ob a
j an
Ġen sa
Ġmatem Ã¡tico
Ã ¸
Ġjust ific
Ġrece pÃ§Ã£o
ĠEqu ador
ĠN unes
Ġar b
Ġacus ado
ĠN em
Ġequ aÃ§Ã£o
Ġatac ante
cr Ã¢nia
ĠM ata
Ġnegoc iaÃ§Ãµes
Ġdit adura
Ġsub sequ
Ãº ria
Ġresult ando
Ġinterpre tar
Ġs h
ĠA M
ogrÃ¡f icas
ĠM P
Ġl istas
ĠBill board
Ġrepresent ado
Ġ á
ĠM Ã¡
Ġquais quer
pos tamente
ĠFons eca
ut i
Ġpac iente
Ġint ernas
ĠCh eg
ĠMin eiro
d ie
Ġc Ã¡
ĠJa ime
Ã¢ng ulo
qu ist
ĠAl v
P o
Ġav anÃ§o
Ġlim itada
Ġt ensÃ£o
Ġcam peÃµes
Ġorden ou
ĠClÃ¡ udio
j ust
Ġpresid encial
Ġl ider
ĠL ab
Ġme us
ĠCap it
ĠDom ingos
Ġcastelh ano
r icaÃ§Ã£o
Ġs um
ĠT rop
Ġcri adas
Ġveg etaÃ§Ã£o
f an
Ġcri ador
Ġapar ente
Ġn ativa
ĠP ho
land esa
Ġsurg imento
ĠPro gram
Ġdestac ou
Ġim postos
Ġplata formas
ta is
Ġbio grafia
Ġb ic
Ġrev is
ĠVol ume
UC N
il Ã¢ndia
Ã³r um
Ġdesc rever
Ġescrit ores
Ġsing les
Ġenvi ar
ĠPar te
Ġrespon der
Ġef ica
Ġguer ras
Ġtra diÃ§Ãµes
ĠQu int
ay a
Ġqu ero
Ġrus sa
Ġd orm
Ġpro clam
ei g
ĠB oston
Ġpo bres
Ġv ing
Ġaqu ilo
Ġcomp rar
Ġcard ÃŃ
Ġes co
ntes e
ĠS av
Ġbanc os
ent u
Ġpermit em
g overn
Ġb acia
Ġis rael
Ġprodut ora
im ir
Ġop Ã§Ãµes
Ġtecn ologias
Ġeletr Ã´nica
ĠB ag
Ġs inc
Ġespanh Ã³is
b ras
Ġdout orado
C D
if t
Ġwikip edia
ĠF undo
uro c
Ġlig ados
b an
Ġque im
ĠEn redo
Ġcob re
Ġvig or
Ġmec an
ĠTw itter
ĠK al
Ġarquit et
Ġmult ipl
Ġprepara Ã§Ã£o
Ġaliment aÃ§Ã£o
t is
ou ch
ĠMar vel
ĠX avier
Ġpat rimÃ´nio
Ġcombust ÃŃvel
ĠW P
Ġindic ada
ĠMaca u
Ġfo gu
Ġac ert
Ãºm ero
ĠFil me
s ky
Ġb ÃŃbl
Ġgreg os
qu ita
Ġque bra
ĠIn dustrial
Ġaument ou
Ġâ Ī
O n
re iros
ĠB our
ĠC ir
ĠCa etano
Ġt ras
ĠF r
ĠAc esso
Ġpre en
Ġata car
Ġfilm agens
ĠIv an
Ġgrat u
el i
ĠGe Ã³rgia
ĠCor r
ĠHer m
htm l
Ġinic iada
ĠCent er
arc ial
ĠFin lÃ¢ndia
A g
Ġat iva
ĠEl imin
ro na
Ġpro met
Ġmet e
Ġfront eiras
o Ã§Ã£o
Ġ5 8
Ġhom osse
Ġintelect ual
ran ha
Ġconhec imentos
ĠDou tor
Ġchin esa
Ï ħ
Ġaf ro
port iva
ac he
ĠHum an
Ġcaus ando
Ġco inc
ĠD ol
Ġsubstitu indo
x os
Ġv entos
ĠU crÃ¢nia
Ġtrib os
ĠDou glas
ĠO NU
... )
ĠGiov anni
ĠP ert
Ġofer ecer
ĠTro fÃ©u
ĠInfant aria
ĠG h
ĠM ik
ĠF ire
ĠT Ã³quio
ĠNasc ido
ĠG ordo
Ġdever Ã¡
Ġreform as
Fl ora
Ġat ender
Ġpre Ã§os
ag ar
Ã³g icas
Ġlut as
Ġacus aÃ§Ãµes
Ġinspira do
Ġregular mente
C al
g Ã¡
Ã³g icos
Ġass ume
ĠD ifer
Ġresta ura
Ġpar ecer
Ġamb ientes
Ġbra Ã§o
ĠWW E
ĠincÃªn dio
in z
ĠS n
Ġouv ir
Ġref ug
Ġcu jas
Ġc ine
Ġpublic adas
ĠPat rimÃ³nio
ĠBro ad
ĠMar te
Ġnecess Ã¡rias
te u
Ġexist ia
Ġestabel ecida
ÃŃ amos
ĠD own
Ġsofr er
ĠV iv
Ġrodo via
ĠD os
ed idos
Ġal ianÃ§a
Ġcu idado
Ġd Ã£o
on esa
era dos
Ãº va
Ġobserv ar
Ġespecial ista
Ġdeus es
ĠS ete
Ġat itude
ĠInter ior
ĠSing les
ra ph
rav Ã©s
Ã©r s
d amente
ĠD iscussÃ£o
Ġ5 7
Ġneg ra
ĠTh om
ĠFre itas
Ġm Ã¡s
anc ip
ĠParticip ou
ĠMar cel
ĠB ac
ĠT oc
ĠCl asse
Ġtransmit ido
MD B
ĠD il
ĠW in
ĠPrinc esa
ĠContin ental
ĠT endo
ĠV ivo
abel as
Ġlib eral
ĠExt ernas
Ġtem por
Ġespecial istas
Ġol ho
Ġesquer do
iform es
ĠEn gl
ĠsÃ©t imo
Ġox ig
Ã ļ
Ġorb ital
Ġpro duÃ§Ãµes
Ġvi eram
ĠCha p
Ġherd eiro
U ma
ĠV lad
Ġmarc ando
Ġperc urso
ĠJ ane
Ġan ime
ĠFre nte
Ġpod iam
M us
ĠPlay Station
ic ologia
Ġsu eco
ĠPl ane
Ġprol ong
Ġpar es
Ġint eraÃ§Ã£o
ĠindÃŃg ena
il es
Ġcons igo
ĠPic tures
Ġre port
ira l
t her
ad j
ĠI UCN
ĠT an
ist ro
Ġpo ema
Ġdes fil
Ġpreocup aÃ§Ã£o
L A
Ġcl im
ĠcomeÃ§ am
Ġsab ia
Ġanc est
H e
Ġpo emas
Ġcam peonatos
ĠAndre w
r imin
ĠV ou
ĠTor onto
Ġcorr idas
ĠE duc
Ġol h
Ãºc ho
ĠMill er
P al
s ito
Ġgera r
ĠM is
ĠR ica
Ġmec Ã¢nica
in gue
Ġv apor
Ġdes ist
ĠAst ronomia
Ġpara r
ĠTe oria
mira nte
ĠEp is
ur ch
ĠIn ÃŃcio
Ġacresc entar
Ġr ico
Ġtermin al
ĠIB M
t aram
el m
Ġtrib o
ĠSu c
Ġparticip a
ĠEsc rit
ĠC ec
nc o
ian e
Ġr ica
Ġintens idade
ĠAst ero
Ġcont ando
ab o
Ġens in
Ġvirt ual
Ġsu fic
Ġvend idos
Ġgo ogle
Ġconden ado
Ġde via
ou th
Ġtaref as
ĠPrincip ais
ĠA B
Ġaprov ado
Ġabsol uta
os sa
Ġm ara
ĠB uc
Ġconf usÃ£o
Ġatu ava
Ġde mit
jet os
ĠGu y
Ġag rup
ĠJ ogo
Ġfal ando
Ġequip as
ĠPen ÃŃnsula
ĠK evin
Ġentre ga
Ġdirig ida
Ġf arm
iv ada
ĠMa jor
ĠNev es
Ġl enda
Ġentre gue
Ġr um
Ġjunt ar
Ġcant ar
v endo
ĠP eix
ĠD J
fe ta
Ġcol Ã´nia
om an
ĠPol it
Ġconfig uraÃ§Ã£o
ĠM oura
Ġh i
Ġch uva
Ġbl og
Ġingress ou
Ġj am
ĠA C
ĠP ai
ĠJ ay
ĠdÃº vidas
ĠAntec edentes
im undo
ug os
Ã³r icos
ugu Ãªs
Ġc il
Ġatribu ÃŃdo
Ġcaval os
ĠMar ie
Ġinteg rar
Ã§ adas
Ġb ac
Ġj uÃŃ
igu idade
Ġexcl u
Ġconc ertos
ĠE M
Ġdem ol
Ġconstitu ÃŃda
ĠVol eibol
Ġaument a
u ou
ĠGr Ãªmio
ĠB anda
Ġcar ioca
Ġpal est
ĠCo nte
Ġacred itava
ĠEx emplo
ĠDire c
Ġexcel ente
ãĢį -
im inal
ĠL Ã©
ĠTe od
I l
ĠL ord
ĠBen jam
Ã į
ĠH or
ĠK elly
Ġdivers idade
Ġenvolv ido
ri ram
ĠA h
ĠO i
Ġprec ip
Ġfinal idade
Ġb anh
Ä ±
Ġda tas
sh ire
ĠTest amento
Ġ190 5
Ġconstitu i
Ġfilos Ã³f
at ra
ĠAmb os
ĠO m
ĠWar ner
Ġprote ÃŃnas
Ġfug ir
' .
ri k
Ġacompanh ado
ĠA da
it ro
ĠG estÃ£o
Ġfab ricaÃ§Ã£o
ora r
Ġch ance
Ġcomplet ar
Ġamost ra
ch t
ĠCon n
ĠH art
Ġorgan ismos
pp ing
Ġ190 9
Ġcomprom et
Ã©l ica
er es
Ġm inhas
ist ente
Ġrespon d
ĠMat h
ĠDi Ã¡rio
Ġre ta
ĠEv entos
ern idade
Ġemp at
Ã Ĺ
Ġa Ã§o
Ġc anh
ĠA N
Ġfaz Ãª
erc ial
Ġsol uÃ§Ãµes
ĠDire Ã§Ã£o
t rans
on ial
Ġman eiras
Ġeletr Ã´nicos
Ġmanifesta Ã§Ãµes
Ġ190 7
et ta
Ã©n s
ac tos
vi Ã¡ria
Ġfo t
Ġext ens
Ġc Ã©rebro
as ter
Ġass ent
ra st
ia nt
ĠEm p
Ġle itor
ĠS her
inh eiros
Ġdec rÃ©scimo
je Ã§Ã£o
Ã³t ipo
ÃŃ so
Ġesc oc
ĠCor onel
greg aÃ§Ã£o
og en
ĠcomeÃ§ ando
ha ck
Ġsin dic
Ġmorre ram
g i
Ġm or
ĠM endo
Ġexc ess
ĠM ap
ĠLanÃ§ amento
ren se
Ġtelev is
Ġat ivos
Ġjapon eses
ĠestÃ¡ tua
Ġace itou
Ġp Ã¡t
ĠL ittle
Ġj ardim
Ġad iÃ§Ã£o
ĠMil Ã£o
Ġproteg ida
Ġredire cion
Ġriqu eza
Ġquad ros
ĠAng el
Ġimposs ÃŃvel
Ġm emb
Ġestud iosos
Ġalte rar
Ġac lam
nes to
C an
ĠD NA
op s
ÃŃf ica
w eb
Ġa ve
om bo
Ġam iga
ĠS E
des ign
M ed
Ġcomb at
ĠcÃ©l ula
ĠM ult
Ã³ via
Ġdistint as
Ġsu postamente
Ġpar entes
Ġvot ar
Ġcirc unst
Ġbus car
Am ericano
Ġrepro duÃ§Ã£o
Ġan el
Ġin de
ĠP inheiro
at ch
Ġl idar
Ġele ita
Ġcompos iÃ§Ãµes
Ġdes n
Ġmost eiro
i ense
ĠC Ã³r
Ġb ud
Ġconsidera ndo
Ġden unc
Ġgol eiro
Ġcorre ta
Ġquer er
Ġher Ã³i
ad er
198 7
Ġfinanc eiro
D es
Ġo i
Ġconstru ÃŃdos
Ġderro tar
Ġcrit Ã©rio
Ġcor das
Ġdef ine
ĠT s
Ġon das
Ġrelacion ada
Ġparticular es
z inho
ÃŃ gio
ard ia
Ġnome ada
Ġed itado
le os
Ġat raÃ§Ã£o
ĠAnt iga
Ġtax as
Ġocas iÃµes
Ġex posiÃ§Ãµes
Ġan Ã¡l
ĠAg ost
Ġaquis iÃ§Ã£o
in dic
Ġexp orta
Ġdo b
ĠM ana
Ġmant ido
Ġv ender
Ġest radas
Ġmon umento
z an
ab orou
ĠB aixo
era nÃ§a
Ġsim ilares
Ġind ire
Ġson ho
n ov
ĠF esta
Ġcoloc ando
Ġinvest imentos
ec os
Ġdefin itivamente
Ġserv idor
ĠMetropolit ana
Ġfut ura
ĠcÃ³p ia
Ġinvest imento
b our
Ġinclu ÃŃa
ĠJov em
ic ados
ĠLÃº cio
E mb
Ġpret ende
ĠC asc
Ġjog ando
r ul
Ġor Ã§amento
ĠAnt igo
ĠÃ¡ra bes
Ġsuje ito
em e
Ġcu idados
Ġad mira
ĠCel tic
Ġas i
Ġser iado
ĠLago a
Ġext into
Ġinter face
Ġvaria Ã§Ãµes
ĠEstre la
Ġlabora tÃ³rio
ĠM az
ĠCome Ã§ou
s uc
id en
Ġsurg iram
Ġdupl o
Ġf on
ĠM etr
ĠMag n
Car ioca
g et
ĠP IB
ÃŃt icos
o gue
Ġsemelh anÃ§a
ĠMulher es
Ġco d
ru c
. âĢĿ
ud ia
Ġdiscipl ina
ĠZ o
Ġpes ca
itar ra
ĠEl as
Ã¡ quia
Ġinic iado
Ġidio mas
Ġbase ados
Ġdin amar
eliz mente
Ġinterrom p
ĠTav ares
D o
ĠM asculino
ĠEuro pe
Ġint uito
Ġcoment ou
ĠmÃ¡ r
Ġamar elo
ĠÃģlv aro
I t
ĠD rag
Ġapos ent
ĠAtlet ismo
ĠP ires
Ġdez enas
ĠCat ar
Ġcul min
ĠÃ³ b
Ġa ula
ic es
Ġav Ã´
ĠIB GE
Ġplac as
ĠtÃ³p ico
Ġt es
ĠT ig
Ãºs culo
plan ada
Ġc ÃŃrculo
Hist Ã³ria
ĠestÃ¡ gio
ĠGu ad
Ã©n io
Ġro da
Ġrespon deu
ÃŃfer os
v ias
ĠC ategoria
Ġorqu estra
g ru
ĠAn ne
Ġespecial izada
Ġescrito ra
ĠespecÃŃf icas
ĠAstero ide
ĠV era
Ġdes ast
Ġadicion ar
ÃŃ sa
ĠP ower
Ġcontinu aram
Ġtrib unal
ĠCax ias
Ġirreg ular
ĠS ofia
f ri
Ġtec ido
fam ÃŃlia
ĠCorre ia
ĠS ky
ĠGal es
Ġreun iu
Ġimplement aÃ§Ã£o
Ġn or
ĠL ady
Ġam ist
Ãºm ulo
Ġmo nte
Ġgradu aÃ§Ã£o
Ġpos itiva
ĠVas con
Ġconsider Ã¡vel
ĠHow ard
B R
c ap
Ġlim itado
ĠcatÃ³l ico
ilv Ã¢nia
ĠÃ Ĥ
Ġver bal
Ġ190 4
clu indo
u is
ĠK am
ÃŃss ima
Ġvirt ude
Ġampl o
h ard
ĠS ony
Ð ´
198 8
i Ã§o
Ġpl aca
orre g
Ġconfirm ado
Ġmencion ado
Ġlat erais
Ġacab ar
Ġartilh aria
con hec
ĠPl at
ĠMar sh
Ġref l
ĠPro te
ÃŃnd rome
Ġc itar
and ra
Ġest acion
ĠHe art
Ġinstal ado
Ã³ lio
Ġplanej amento
Ġautor izaÃ§Ã£o
est ado
ĠP in
ĠMat riz
o j
t adas
if ique
ce deu
ing en
ian Ã³polis
Ġaprov ada
Ġpreserv aÃ§Ã£o
Ġ6 6
Ã© f
Ġ1 000
Ġcontinu idade
ĠRib eira
H F
ĠEn d
N a
ĠJ ason
Ġdesenvol ve
Ġid Ã©ia
Ġirm Ã£s
ro cos
Ġint im
Ġprot estos
ĠHam ilton
ĠDesemp enho
Ġesc av
Ġindic ar
Ġlider ou
" ?
Ġind iano
Ġh ard
ĠS itu
Ġaut onomia
Ġset ores
Ġnat ivos
Ġadvers Ã¡rio
ĠEx pl
Ġol har
Ġfech ado
ĠCar naval
ĠEl ect
Ġdupl as
ol or
Ġrec on
ĠInstit ute
ĠR i
ĠL ud
ĠRos e
Ġapel ido
Ġvis ÃŃvel
Ġviz inhos
ES P
it an
ab ulÃ¡rio
ass a
Ġocup a
Ġcump rir
Ġen erg
Ġrec rut
am Ã¡
Ġdis posiÃ§Ã£o
ĠSo und
ĠB ei
Ġ9 5
oriz ont
ĠB ul
ĠB ack
ĠCon d
ĠOrqu estra
m ai
Ġfre qÃ¼
Ġdim ensÃ£o
ĠB ry
Ġcol unas
Ġexpl icaÃ§Ã£o
Ġplac ar
Ġfr uto
ĠArquit etura
% ),
Ġtorn am
ĠgÃ©n eros
Ġm ent
un has
Ġimplant aÃ§Ã£o
og raf
Ġit em
Ġlegisl atura
Ġpros segu
Ġmarc ar
Ġtransform ar
ĠAbra Ã§o
u an
Ä «
Ġlon gas
ĠBan k
ÃŃ rio
ech al
Ġc en
Ġn ela
Ġpos itivo
ĠBus ca
Ãº b
ĠMac ho
ĠLiv ros
l ando
st rias
Ġesc re
Ġim per
ĠRy an
ĠG i
Ġint eiramente
ĠK y
Ġres postas
Ġass al
ÃŃl ios
b Ã¡
ĠÃŃ nt
Ġconst rut
ĠVen eza
ÃŃ odo
Ġinclu ÃŃda
ĠCh in
Ġselecion ado
l ag
ren do
ĠColumb ia
Ġtra jetÃ³ria
ĠPat rick
iam i
Ġcrist al
ĠDec l
Ġevol u
Ġcren Ã§a
d eias
ĠSilv eira
ĠlÃŃqu ido
Ġsub espÃ©c
Ġge ogrÃ¡fica
ĠN Ã³s
Ġfal ha
Ġhosp ed
Ġcu rios
ĠLa ura
ĠBlu e
Ġm ong
ĠD Ã©c
ĠD eix
ho p
Ġregist rado
ĠEr nesto
ĠTrans porte
Ġentrev istas
Ġjam ais
t r
ron g
Ġdem ocracia
Ġinterpre tado
ĠGran des
ud os
ĠDemocrÃ¡ tica
ug aÃ§Ã£o
Ġrepro duz
Ġran king
ĠD ark
Ġpro posto
Ġger ou
ĠclÃ¡ss icos
s ing
ĠS id
ĠV iana
ĠEs lov
Ġprojet ado
ĠAm ar
Ġdecid ir
Ġpart iu
ĠSol ar
f ei
Ġpar lamento
Ġvis ando
Ġentra ram
ĠBandeira ntes
ĠrÃ¡ dios
ĠPop ulaÃ§Ã£o
ou ros
Ġequip amento
Ġ190 3
Ġclassific ados
B e
Ġesc revendo
ios as
ĠSt ory
ett s
Ġremo Ã§Ã£o
ĠM ec
ult or
ĠAr ist
Ġconv en
ĠNapole Ã£o
ĠS O
ĠAmaz Ã´nia
Ġc emitÃ©rio
Ġas as
Ġexempl ares
ĠGre at
Ġrebel des
ĠmuÃ§ul manos
Ġf el
Ġesc ond
Ġcam adas
ĠCor oa
Ġcal cul
Am ericana
G en
Ġs ons
ip a
Ã© reas
Ġv idas
Ġentre g
ĠIr Ã£
Ġoce ano
Ġsimult aneamente
ef ic
iqu ei
iv es
ĠCom ando
Ġrad ical
f ase
Ġsemif inal
Ġinstru Ã§Ãµes
ri x
Ġobt ido
Ġmol ec
Ã§ on
Ġum as
ilh Ã£o
ĠcrÃ©d ito
ĠIndon Ã©sia
) ".
i jo
m m
ĠC ob
Ã¡b ia
ul es
ĠB ast
ĠD et
Ġdem ocrÃ¡
A nd
che fe
Ġemerg Ãªncia
ĠS anc
ag ner
ram as
Ġ- >
ĠConc ordo
Ġpersegu iÃ§Ã£o
Ġv ivos
rig ht
ĠCas ou
Ġseg mento
ann el
Ġ190 1
Ġje ito
Ã¢n sito
s w
Ġna val
Ġv inho
Ġh ect
ers a
ĠanÃºnc io
Ġ188 9
Ġendere Ã§o
Ġconst antemente
Ġmed iante
Ã¡c tica
ac re
Ġj uventude
Ġprof issÃ£o
ĠMar s
ĠMar ÃŃa
Ġaprendiz agem
M L
Ġm ix
Ġpar Ã¡g
ĠSt ad
Ġcompet iu
198 5
Ġnar rativa
Ġt abelas
ĠC ient
Ġv og
ĠD essa
ĠGu ard
ĠInt el
Ġid Ãªnt
ĠJac ques
Ġl as
ĠRe y
Ã©r pre
Ġdesconhec ido
ria m
ĠEle itoral
ĠT emplo
ip se
ĠSocial ista
ĠFinal mente
ĠÃ³p era
Ã³d romo
V A
ĠA D
im ens
Ġconquist ando
Ġprec isÃ£o
Ġd iocese
Ġhabit at
ĠRom an
Ġacresc ent
Ġutiliz am
er ias
Ġg as
Ġro chas
Ġlit eral
Ġexecut ado
ez as
Ġcrist Ã£o
Ġbater ista
ĠR ico
Ġan arqu
Ã³r cio
ĠCar o
t re
Ã ¦
Ġp erante
ĠFre e
Ġy ou
w i
il er
Ġgrav es
ro up
Ġcon ferÃªncia
Ġconf i
ĠRom ana
ĠSin Ã´nimos
ĠNeg ra
an ge
ĠP ant
ĠBe ach
ĠT own
Ġesc apar
Ġrelev antes
Ġcor onel
ĠE S
am ina
Ġvenc edores
Ã¶ r
Ġliter Ã¡ria
ĠVat icano
ĠB la
Ġsu gest
ĠNob el
F or
ĠPat rimÃ´nio
Ġenf at
Ġcomp utaÃ§Ã£o
Ġ189 1
ĠJust in
P P
f i
ĠL t
Ġfic t
Ġg an
ĠfÃŃs icas
Ġrelev Ã¢ncia
Ġros to
ĠServi Ã§os
il at
ĠV ig
ar on
as tero
Ġb act
Ġin ex
Ġhabit ats
ĠJ ournal
Ġm orf
ele Ã§Ãµes
ill er
rÃ¡f ego
Ġoportun idades
Ġpriv ado
198 3
ĠPia uÃŃ
g es
ach us
ĠH ome
ĠT es
ĠCont ra
ĠBru ce
Ġcontempor Ã¢nea
ĠolÃŃmp ico
Ġp ura
oc olo
ev a
p aro
Ġj es
Ġa x
Ġaf il
ĠagrÃŃc ola
ĠR iver
ĠL am
Ġmen ina
Ġconstru Ã§Ãµes
ĠK h
Ġ7 8
Ġretorn a
Ġesqu ema
Ġvandal ismo
ina e
ev o
Ġperm issÃ£o
Ð¸ Ñ
r ÃŃvel
en ed
Ġmen ino
Ġvo os
Ġle itores
ĠMus ical
Ġo pon
Ã© ias
ĠMun ique
Ġat ira
Ġâ ľ
Ġgaro ta
Ġf Ãªmeas
ĠInv erno
Ġproced imento
ĠAnth ony
M in
id iocese
Ġbl ocos
Ġimp rov
ĠlanÃ§ aram
k list
ot h
m ag
Ġtem pl
Ġg ira
Ġor i
Ġig uais
Ġcontribu iu
Ġreun iÃµes
el t
Ġfund amentais
Ġestrang eiro
Ġde g
ĠChe fe
ele ito
Ġinf l
Ġdedic ou
Ġ idos
Ã³r dia
Ã¡st icas
Ġmarc ados
aran ja
ĠS S
op her
Ġpoder oso
Ġexer ceu
Ġhid ro
Ġre man
se a
ĠIm prensa
Ġdestru ir
Ġessencial mente
Ġse ca
Ġdiv erg
Ã ¥
our ce
ĠL abora
ora l
Ġsub div
Ġpat ri
t ivos
Ã© le
em pre
Ġaux ÃŃlio
ic us
Ġprim eiramente
de ram
ĠJo ana
Ġil eg
ĠAng ra
Ġfal ecido
Ġsubstitu ÃŃda
Ġprev isÃ£o
ĠMargar ida
av y
Ġvere ador
Ġcrist ianismo
Ġlidera do
Ġconcep Ã§Ã£o
r Ã´
ĠC ad
Port ugal
Ġc em
io grafia
Ġap er
Ġa Ã©reo
Ġinteg rou
ĠmÃºlt ip
ĠOh io
Ġn it
ut t
Ġpor Ã§Ã£o
Ġorgan ismo
Ġtransform ou
Ġprev isto
ĠL ind
Ã³s itos
Ġtri un
Ġocorr Ãªncia
ĠMel lo
Ġcer eb
Ġbas ta
ĠGram my
im ologia
ĠD ur
Ġac amp
ĠAb reu
Ġv ende
Ġant rop
quet ebol
astero ide
Ġper igo
Ã§o is
ĠhistÃ³r icas
Ġa der
Ġcont rad
Ġdecl inaÃ§Ã£o
ĠCorpo ration
Ġderru b
Ġf rio
ĠÃ¡ udio
ert ida
Ġconstitu cional
ve y
ĠAn at
met ros
I R
ĠBo as
ĠLin ux
ran ga
emb er
ĠMet al
ĠArqu ipÃ©lago
Ġag l
ĠconteÃº dos
ĠRa ul
ĠDis pon
ĠS emin
Ġap re
Ġen via
Ġdecl ÃŃnio
pe de
ÃŃc ies
ĠSal Ã£o
Ġadolesc ente
at her
Ġpar ecem
ific ando
Ġespera do
Ġadequ ado
Ġprim Ã¡ria
Ġingl eses
Ġenvolv imento
Ġcir urgia
ĠSam pa
ÃŃ dios
Ġten ente
r Ã³
Ġ7 2
Ġafirm aÃ§Ã£o
Ġrad iaÃ§Ã£o
g y
j ado
ic ando
ĠCom pl
Ġfica va
ĠD ata
Ġser t
Ġfede rais
ĠBorg es
Ġcomp il
Ġperceb er
ro le
ash i
ĠLib erdade
om em
rav o
Ġpat ente
Ġviaj ou
Ġ Ø
id ent
ei ga
ĠF all
Ġvag as
Ġ Ä
ĠBulg Ã¡ria
G O
Ġinform ou
off s
ĠGer m
Ġavent ura
ob ili
ĠGu an
Ġder iva
ĠGonÃ§ alo
Ġre clam
Ġra ramente
ĠSal a
ĠCa io
" (
w ig
ĠB eira
Ġrep Ã³rter
Ġcient ista
Ġfinanc iamento
ĠD ona
ĠI g
Ġvert ical
Ġet n
ĠbÃ¡s ico
ĠMaur ÃŃcio
Ã³t icos
Ġnobre za
Ġprop Ã´s
ion ar
P res
ĠReg imento
Ġresid Ãªncias
p u
Ġfor Ã§ado
t icas
ĠR esta
ĠV enc
Ġexecut ar
Ġ187 0
Ġmar inha
Ġemisso ras
ĠFried rich
k t
Ġb ei
ĠindÃº strias
Ġfa Ã§a
Ġlar ga
ĠMacho Carioca
Å Ł
Ġcur tas
ĠSara h
ĠDesc ob
r idade
w ick
ol ia
ĠÃģ gua
Ġocup ar
Ġs op
Ġocup ado
Ġdo n
Ġh ost
Ġcontra ste
ĠeconÃ´m icas
Ã ²
U F
ix os
Ġr urais
ĠMuse um
Ġt ol
ĠM Ã©rito
ort os
Ġlidera da
Ġdescend ente
Ġpos tos
ĠÃģlb uns
ĠEx ter
Ġnaveg aÃ§Ã£o
it Ã¡vel
ĠS ig
Ġim un
Ã©t ricas
Ġcer co
A p
Ġcur va
Ġnecess ariamente
ĠL ob
lo yd
Ġadolesc entes
Al l
inc ial
Ġvenc endo
Ġast rÃ´n
Ġnor uegu
Ġe uros
ĠA po
Ġest ende
ĠSy d
al in
an im
Ġdirig ir
Î Ń
re tos
ĠFÃ¡b io
Ġin dustria
Ġes g
ĠMar quÃªs
Ġcor d
cel os
Ġencer rou
ant i
ĠChar lie
ĠBat t
Ġbar co
Ġmit ologia
Ġconst a
ĠPara l
Ġdeix aram
ĠtÃ©r mino
ĠVide o
qu eira
Ġra iz
Ġtre chos
ĠB ull
Ġconsequ Ãªncias
Ġprision eiros
l hes
ĠTer rit
ent ares
Ġb uroc
Ġesc udo
ĠDe ad
ĠCab ral
t Ã³rios
Ġdesenvolv idos
aran i
ĠCom b
Ġtrans l
ĠT i
ĠR av
ĠL ov
az ine
ĠProf iss
Ë Ĳ
Ġrot eirista
Ġecl esi
ĠN az
Ġabra Ã§o
ĠM ace
Ġar bit
Ġmov er
ĠEx per
P or
ĠM Ã¼
ĠN uma
Ã¡ss ico
ĠI D
Ġregist rada
Ġintro duzido
Ġram os
Ġsint et
Ġatend imento
Ġv itor
Ġbas icamente
in am
Ġc ass
rea k
Ġru ÃŃnas
ĠAust ral
Ġfura cÃ£o
ugos l
Ġcol oqu
Ġfaz iam
Ġ6 8
Ġtrip ulaÃ§Ã£o
te rap
Ġh Ãºng
ĠEx posiÃ§Ã£o
son aro
dic es
Ġescolh ida
Ġsu ÃŃ
Ġmil ho
Ġjard as
Ġmete or
Ġ6 2
Ġca ir
ĠEn viado
Ġsubs p
Ġdo wn
ĠQu inta
ĠEx p
Ġno bres
Ġapresent ador
ĠDon ald
ĠC ron
â Ļ
ĠMar iana
ĠÃģ ra
Ġabrig a
C H
X X
in Ã¡rios
ĠO S
Ġprov is
Ġfacil itar
ĠL ot
Ġlit era
S p
Ġdes cont
ĠSt ate
ĠP erc
Ġext erno
ÃŃs io
Am ericanos
Ġf ui
ent ura
Ġabandon ou
t z
ro d
Ġne er
ĠA nc
Ġsub mar
Ġcompanh eiros
Ġpais agem
ĠJim my
Ġindic ando
j ou
t us
as te
Ġpro gresso
Ġnos sas
Ġimp uls
Ġ7 6
b ach
w o
Ġsob rinho
Ġcol Ã©gio
iment a
Ġnasc ida
Ġsignific ativo
in ador
ĠN eu
Ġar ist
S anta
ĠC rit
qu el
qu ed
Ġv inha
Ġcomp rou
rat ivas
ian g
Ġbenef ÃŃcios
Ġalfab eto
ĠÃ¡l cool
ĠS ap
ĠJ ur
Ã©m ios
y th
Ġal inh
Ġdec orrer
quer que
Ġquart as
ĠPol Ã³nia
m il
el ia
Ġele itores
an es
ĠAp ol
198 6
ap so
Ġmac hos
ĠB ia
ĠArqu ivo
ĠLink s
Ġ ida
iv id
ĠB i
ĠF ont
Ġvis itar
Ġdi Ã¡rio
Ġn eto
Ġmost rado
Ġarqu ipÃ©lago
o per
Ġpart id
ĠcÃ¡l culo
Ġparlam entar
Ġdom ic
Ġconc essÃ£o
Ġret irou
Ġrep Ãºblica
Ġcomb ater
ĠCrist Ã³
s p
Ġ é
ĠM S
Ġcon dic
Ġex ame
int eg
Ġrefer ida
uda Ã§Ãµes
ĠBair ro
Ġ" )
Ġp ira
ĠM ex
Ġped idos
Ġsel v
Ġrele vo
ĠE ver
Ġsem entes
Ġcond ec
Ġaval iaÃ§Ãµes
Ġentend imento
b etes
Ġconsidera m
Ġsent ir
ĠBe y
ĠT un
ĠCar mo
Ġsent imentos
Ġmon ito
ĠXX I
Ġline ar
Ġsovi Ã©tico
ĠOlimpÃŃ adas
ĠAp ple
ĠcontÃŃn ua
ĠT ele
Ġpass os
Ġ8 8
ĠLe andro
ĠCr Ã©d
Ġcompanh ias
ĠK os
Ġpos itivas
b iter
Â ´
Ġem ancip
Ã³ metros
Ġconc edido
Ġtec idos
ĠDio go
ĠN aval
ir me
Ã³p ia
ĠFil mes
ĠMora es
ĠPequ im
b as
it avam
ĠM it
Ġesc ap
ĠAll en
ĠM iami
Ãº stria
Ġ188 0
Ġbranc as
Ġacred itam
Ġchuv as
ĠP ab
ĠN enh
Ġprof unda
Ġfol cl
Ġm Ã³veis
Ã©rc itos
Ġjornal istas
g rÃ¡fica
l ogia
eg r
Ġpertenc entes
ĠGordo n
Ġre in
Ġdecid iram
Ġca Ã§
ht t
ĠP ais
ĠCar d
it Ã¡rias
198 1
Ġretira do
Ġdesaf io
Ġdesf ile
ĠC urso
Ġpre l
Ġcicl ista
Ġjan ela
bo y
ĠBol sonaro
Î¿ ÏĤ
g ios
n ie
Ġc Ã£es
ĠD iz
he ad
Ġespet Ã¡culo
ra z
Ġcon g
ver so
ĠBraz il
achus etts
ĠAb d
Ġaleg ando
Ġestat ÃŃsticas
ĠC af
Ġv istos
ĠQu art
con ce
Ġparc eiro
ĠAlem Ã£o
ĠestÃº dios
ĠAlf red
n ik
Ġp et
Ġo nt
k k
ĠB ud
Ġper if
atem ala
ĠP ico
Ġl ac
Ġfinanc eiros
Ġbatal has
isco pal
ĠN u
ĠbÃ¡s ica
ĠTrin dade
ĠAt ravÃ©s
W e
t empo
Ġtorn eios
Ġmod ificaÃ§Ãµes
197 9
ĠJ ess
Ġdestac ado
pr imentos
rag al
h um
Ġson o
Ġsecund Ã¡rio
Ġt rÃ¡fego
ĠQu er
Ð¾Ð ²
p ass
Ġp Ãªn
ĠH amb
Ġtrans c
ar ra
Ġes bo
ĠK i
Ġinc orre
198 4
Ġcoop eraÃ§Ã£o
ĠManch ester
it Ã¡
ĠEm pres
ĠAl ago
ĠC R
Ġcin emas
Ġsec Ã§Ã£o
Ġrelig iÃµes
Ġcompanh eiro
Ġrig or
g in
Ġrel ato
s im
Ġapresent ados
lb um
ĠHou ve
Ġcolon izaÃ§Ã£o
Ġhect ares
P G
ĠP E
Ġob ed
lex o
ĠBen ed
Ġpen ÃŃnsula
to ra
Ġacab aram
Ġtrabalha va
Ġsemif inais
Ġmen inas
b ul
Ġc ai
ĠM og
Ġconv ersÃ£o
Ġprepara r
Ġtor res
m Ã£o
la u
ĠExecut ivo
ĠT iago
Ġg ado
ĠU til
Ġmist er
ĠcÃ¢m era
on do
Ġb er
Ġambient ais
ĠD A
Ġ6 7
cri Ã§Ãµes
S an
p Ã©
Ġviol Ã£o
ĠGil berto
ig ual
ec iam
Ġdeix ado
Ġfrut os
Ð ¹
ec Ã§Ãµes
ĠMar x
in us
ig i
Ġ6 3
Ġfic h
ĠEsp Ã©c
ĠAg ricultura
Ġurb an
ĠTÃ©cn ico
ĠNAS A
ĠBenjam in
Ġ rib
re z
at han
ĠH op
Ġportugu esas
Ġinterpre ta
Ġ190 2
ĠCer ca
tec as
it uras
ĠB atal
C ons
Ð ¼
era mente
Ġdist inÃ§Ã£o
Ġfal ou
ĠConv enÃ§Ã£o
Ġartific ial
Ġsegu ro
Ġescol heu
Ġbras Ã£o
po ol
Ġsegu idores
ĠPr Ã©
Ġdin Ã¢mica
e Ã§a
Ġno min
ant ar
Ġcirc ular
Ġh orizont
Ġserv indo
ĠM r
Ġdest inado
Ġimp arcial
enh ores
Ġexper imental
ĠcientÃŃf icos
ĠMana us
ĠC icl
Ġindic am
Ġpublic ar
ĠDent ro
Ġun iforme
gres sos
Ã©s imo
ĠNot ÃŃcias
Ġaplic ada
Ġrece p
Ġinfra estrutura
ĠM orreu
ĠH D
ĠRo ad
Ġsepara dos
Ġaliment ar
Ġsubst Ã¢ncias
Ġelabora Ã§Ã£o
Ġpergunt as
ĠPa quistÃ£o
ĠHist or
ĠPet ers
Ġarmazen amento
h ang
Ġcom entar
!! !
ĠAl guÃ©m
Ġad m
hou se
g s
in cluindo
Ġest il
Ã©t rico
ĠR enas
Ġhum anas
ĠSud este
ĠB y
ap ura
vi Ã¡rio
Ġdivid idos
Ġcert amente
Ġparal elo
b ell
Ġab us
ĠSampa io
ĠA ta
Ġtre ze
Ġfug a
Ġdis para
Ġrel ativa
Ġobject os
Ġado tou
rat es
Ġobserv ou
fil me
ĠmÃŃn ima
u iÃ§Ã£o
ĠT enn
Ġrecom p
al ena
ĠO g
ĠFlor ianÃ³polis
Ġgab inete
Ġopera dor
ĠRus so
Ġjan elas
Ġmedic amentos
Ġh Ãºm
ĠIn Ã¡cio
Ġinc idente
rade Ã§o
Ġreper c
Ġ7 00
Ġdomin ante
Ġpert urb
ĠJos h
Ġconj unt
p ado
ĠT anto
ĠG ames
Ġquil Ã³metros
Ġc ita
ent re
Ġcol oque
Ġcheg am
Ġroman ces
Ġdistint os
ĠArt igos
ĠGeral do
ar Ã©
ara Ã§Ã£o
ĠD ivers
Ġdista nte
Ġreman esc
Ġco gn
enc iar
H z
ĠEst rutura
Ġvend idas
Ġcompon ente
Ġm erg
f ato
m un
ret t
Ġquar enta
c imento
h on
im ate
it ana
Ġg raf
ĠG ren
Ġrep utaÃ§Ã£o
qu ina
ĠR ab
ura dor
ĠMost eiro
Ġbrilh ante
Ġgoogle hack
Ġv istas
ĠSa x
ĠAugu st
v ard
ion Ã¡rio
Ġdescob ertas
Ġregist rou
Ġjud icial
ĠsÃ¡b ado
Ġen ferm
ino is
Ġclassific ada
il s
ĠD ance
Ġoc identais
Ġlon gos
d is
Ġs ap
ĠFl Ã¡vio
ĠConstitu cional
Ġsubst Ã¢ncia
Ġdi Ã¡logo
Ġf os
ĠP D
ĠjurÃŃd ica
P art
et eria
ent amente
ĠS ak
Ġcam inhos
Ġcaracter es
port uguÃªs
n as
en zo
ĠRib eirÃ£o
Ġdesconhec ida
ĠNig Ã©ria
b ot
c y
ĠU CI
Ġ189 6
Ġintens a
Ġremov er
Ġpropriet Ã¡rios
f inal
Ġcost umes
Ġbom ba
Ġresid entes
Ġsuic ÃŃdio
Ġbar ra
ĠMem orial
Ġib ne
ecom un
Ġv idro
ĠAm aral
Ġren deu
198 0
ĠvÃ¡l ida
do xa
ag re
Ġev idÃªncia
Ġrepresent ada
Ġpublic idade
Ġdiagn Ã³stico
t ual
ĠV elha
Ġve jo
ĠM atos
ĠT odo
Ġassass inado
om i
Ġobt endo
Ġbr in
Ġfortal eza
Ġco t
al ia
Ġman gÃ¡
ĠSp ace
Ġ189 8
à ¥
Ġc ento
ÃŃ ce
Ġre organ
Ġconqu istas
198 2
Ġjorn ada
ĠM inha
Ġ8 4
Ġjornal ismo
b us
Ġdiz ia
M o
ĠR ang
ras s
tor y
Ġsug estÃ£o
Ġs essÃµes
ĠC acho
ĠJohn ny
ĠT rav
Ġprim avera
Ġrev est
Ġsubtrop icais
Ġac har
Ġform almente
ĠIn stitu
Ġsim b
ĠTh reat
Ġtransfer iu
Ġsoz inho
ĠT ag
ĠFound ation
A ng
ĠV isconde
Ġcol oraÃ§Ã£o
Ġtrans par
Ġsex uais
Ġminist ros
Ġenf raqu
ĠR J
ĠL ag
ĠVascon celos
f ra
ĠS ign
int es
Ġh ebra
Ġsugest Ãµes
w en
ĠC out
ĠM orr
ĠK az
ĠAr c
ux a
ĠMed iter
Ġcomplex os
du st
Ġpass agens
Ġinstal ada
ĠCh annel
Ġilum inaÃ§Ã£o
et im
Ġt ut
Ġmin im
Ġsent imento
o pl
ĠC Ã¡
ĠLe ite
Ġbas quete
ĠPar Ã³quia
ĠelÃ©t rico
Ġvence dora
Ġnorm a
s ur
Ġperson alidades
Ġresol veu
ĠGet Ãºlio
Ġpara s
Ġcant ou
ĠMont en
Ġrest riÃ§Ãµes
ĠmolÃ©c ulas
L isboa
Ġs anto
ÃŃc ulo
Ġcorre ntes
Ġencontra ram
Ġmecan ismos
ast as
ĠSci ence
ĠNew ton
N T
Ġf ras
iss em
ĠMo ore
Ġcontinu am
Ġvaria m
Ġdiminu ir
ĠC ost
Ġl os
Ġtorn ado
Ġanunc iada
Ġexerc er
Ã© b
ÃŃ der
Ġapresent ava
ĠBook s
m ad
Ġo tom
Ġgu ia
Ġrecord es
Ġem ig
Ġaval iar
az es
ĠChrist opher
Ġsed iada
Ġencer ramento
l is
u querque
Ġcaval aria
Ġare ia
U E
ip er
Ġconst antes
Ġempre end
Ġ ç
Ġprocess amento
Ġcom bo
Ġ189 5
Ġintelig ente
ĠagrÃŃc olas
Ġ ×
ĠC and
Ġen quad
Ġmat ou
Ġinteg rado
Ġado tado
umb le
É Ĳ
Ġex ÃŃlio
Ġabandon ar
Ã¢nd alo
y ch
Ġan s
Ġca uda
Ġobserv aÃ§Ãµes
Ġproxim idades
L iv
Ġb ack
avi era
ĠD all
ĠDe fin
Ġ6 9
Ġra Ã§as
Ġfuncion ar
ĠUn idade
Ġserv ido
an ca
ou d
ĠL amb
Ġorgan izou
Ġreun ir
P C
ĠF eira
Ġaproxim aÃ§Ã£o
ĠGreg Ã³rio
Ġexpres sa
" ".
Ġen z
Ġcontin ental
ann y
Ġre Ãºne
Ãª mea
pre feito
ĠSer Ã¡
ĠGirl s
qu im
ĠA ragÃ£o
ĠT ol
Ãºr g
ec as
Ġinv ent
Ġlig adas
rel l
te ra
Emb aixada
ĠC um
et ra
Ġ189 7
ĠBru x
ĠEspanh ola
ĠD ick
Ġtoc ou
ĠTec hn
id aceae
ĠN ich
Ġra st
Ġproduz idas
Ġcresc er
Î ¬
ĠU K
ulos a
Ġconstru ÃŃdas
Ġpsic ologia
Ġaflu entes
ĠC all
ĠH ora
Ġcomp ens
ĠMor ro
Ġcert ificado
É ¾
ĠT emp
Ġhom Ã´nimo
ier i
ĠAlg ar
ES CO
Ġdeclara do
Ġp ernas
ĠPan amÃ¡
Ġjur is
s or
pres ente
ĠN O
Ġpr ost
Ġcont o
ĠCom and
Ġmerc ados
ĠGÃªn ero
ĠPro bl
Ġpertenc ia
R a
ĠB urn
Ġneg ativo
Ġleg ais
v ision
Ġ Ãªn
ĠV oz
Ġafirm ar
Ġextra ord
ĠRodo via
ran iano
ĠFol ha
Wik i
ol uÃ§Ã£o
ĠCon forme
anc el
Ġpeda g
Ġp ne
int on
asc ular
Ġigual dade
Ġens aios
Ġvaria nte
Ġtorc ida
Ġbizant ino
Ãºs c
Ġtur istas
Ġcab elo
E nc
Ġtorc edores
Ġp aixÃ£o
Ġo v
Ġext ragal
Ġalgorit mo
Ġmando u
Ã©m on
Ġac Ãºst
ĠCh am
us ias
ing ham
ĠMar rocos
ĠEuro visÃ£o
ĠÃªx ito
ĠÃºn icos
p el
ĠR at
Ġact ividade
ĠOn de
Ġproced imentos
Ġc Ã£o
gua Ã§u
ĠOlÃŃmp ico
it Ã¢nia
Ġes fera
Ġne ve
Ġimpl ica
ĠFran z
ĠfÃŃs icos
Ġefica z
ram entos
Ġh eranÃ§a
Ġaut Ã´n
Ġtransmit ir
bo ok
Ġfal antes
Ġreceb em
Ġlev am
Ġcidad Ã£o
ĠAj uda
all y
Ġtelef one
v idos
Ġde ntes
A A
Ġse quer
ĠF arm
ĠLa ure
Ġsoci edades
Ġg rÃ¡ficos
Ġcl ipe
Ġsal to
ĠH em
ãĥ ¼
Ġpar Ã³quia
ĠLu ÃŃsa
Ġreconhec er
Ġquant idades
Ġconvoc ado
ĠpÃ´ de
Ġexplos Ã£o
Ġact ualmente
ĠHum anos
cons ultado
ĠNicola u
Ġextragal Ã¡ctica
Ġn uv
Ġesp ada
ly n
st ad
Ġconsequ entemente
Ġobject ivo
ĠSyd ney
ĠT at
ĠAnt Ã¡r
ĠJap an
ĠS ent
ec cion
Ġtal entos
Ġdram at
Ġc Ã³r
ĠA uto
AM PA
Ġm obil
ĠD uc
Ġ189 3
Ġef ect
Ġpubl ica
adj uv
er on
ĠC idad
Ġre ag
ĠB it
Ã´n us
Ġoc or
ex o
ĠAlb uquerque
Ġtrat ados
fel d
Ġmar co
Ġchin eses
ĠFlores ta
ĠMass achusetts
ĠsÃ©t ima
er iormente
Ġse v
ĠBritÃ¢n ica
Ġm ach
Ġb ura
Ġ9 9
Ġaument ando
L ei
Ġp asta
ĠF ur
ĠAl ianÃ§a
Ġ7 7
ĠWh it
Ġconvers a
Ġvul c
ĠVietn Ã£
i Ã¡ria
Î ¯
iv ismo
Ġar roz
ter min
Ġconsegu indo
Ġmo edas
äº º
ĠM eg
ĠD og
Ġindustria is
H O
ich i
ĠFiguei redo
) )
ĠF ig
ĠK er
form ula
Ġvis itou
Ġensa io
Ġra ios
ĠPre c
Ġin oc
ire i
ĠM Ã£e
es is
ĠCo orden
Ãĩ ÃĥO
Ġse Ã§Ãµes
ol s
ĠB aviera
ĠG am
Ġcant ando
Ġcompre ende
o i
ach el
Ġcomplet ou
Â» .
Ġantec ip
fei Ã§o
Ġest uda
ĠTai wan
C r
ĠK ara
ĠGeral mente
Ġdist o
Ġdestac ar
Ġbis pos
ul ando
Ġg ama
la us
ole do
ĠdanÃ§ ar
M e
Ġc unh
Ġfol ha
Ġholand Ãªs
F F
Ġint Ã©rpre
Ġel ect
ĠJos ef
Ġtal ento
ĠSport ing
ĠEl is
iter Ã³i
Ġanalis ar
ĠÃªn fase
Ġc itaÃ§Ãµes
Ġating e
Õ ¡
ĠGu atemala
ĠDom ingo
Ġdedic ar
Ã¡t ima
Ġcoorden adas
S oc
ĠP ok
ĠCon j
ĠDav e
Ġestiv esse
ĠOriginal mente
ÃŃ o
ket ing
Ġp ic
ĠA do
ĠH id
Ġal ien
Ġpar ecia
ĠAr Ã¡bia
Ġquer em
Ġresta uraÃ§Ã£o
Ġbot Ã¢nico
Ġelog iou
j amento
qu enta
Ġf Ã©r
Ġorden ado
m ida
Ġb ara
Ġconclu ÃŃdo
m und
Ġal imento
ios amente
Ġmanif est
ĠTom Ã¡s
Ġprecis amente
ĠOrig em
ĠVerm elha
s et
ĠA pl
ĠM embro
Ġreg rav
Ġb aixos
Ġ189 2
Ġjust amente
Ġenvol veu
ĠM etro
orr ido
Ġsubstitu iu
Ġespera r
em ento
ĠP ast
ĠMod erna
197 5
S ch
ĠTrans portes
Ġlemb rar
Ġlus Ã³f
qu ista
ĠF air
ill y
anc ha
Ġtransmit ida
Ġpol eg
Ġaqu elas
ĠPat r
Ġsan gu
Ġcorrig ir
ĠTrabalh adores
ĠA post
Ġg ent
Ġam ante
ph p
ĠAmb iente
de f
ĠK le
Ġmon arca
Ġassoc iaÃ§Ãµes
ĠOl iver
L es
U T
Ġdiminu iÃ§Ã£o
ĠOrto grÃ¡fico
Ġe ficiente
Ġleg ado
a j
ĠA ur
ĠR iv
gu arda
ĠAlb um
Ġp Ã³
il io
Ġreg ulares
Ġlut ou
Ġaprov ou
Ġth at
Ġalte rado
ĠGoi Ã¢nia
Ġre aÃ§Ãµes
Ġsobreviv entes
ĠacadÃªm ico
ĠCatal ogue
ĠMetr Ã´
H A
Ġem issÃ£o
ĠB Ã¡rb
ĠPres idÃªncia
Ġdel la
ĠMas ter
ĠArm adas
Ġhi erar
ĠD as
ĠN Ãºmero
ĠBa ÃŃa
al th
ĠT ais
Ã¶ n
egan istÃ£o
L ove
Ġform aram
Ġcor on
Ġ6 1
Ġcaus ada
Ġaplic ado
ĠR ous
Ġaplic ativo
L E
w ar
Ġcompl ement
ci Ã³n
Ġembaix ador
int ur
Ġentre ten
Ġpol in
ĠCam panha
gu ez
form aÃ§Ã£o
Ġapar elho
ĠL ake
ĠUn der
art ar
Ġmon st
ĠRu y
ecomun icaÃ§Ãµes
Ġdistribu ÃŃdos
et on
Ġtr Ã¢nsito
Ġderiv ado
Ġfest ivais
ĠÃ¢ng ulo
Ġgen Ã©tica
Ġindepend entemente
re nce
ĠM ount
G ra
im i
ĠM ei
ĠSa udaÃ§Ãµes
Ġlim p
Ġf ec
Ġv as
Ġen gan
Ġbol sa
Ġsur presa
aco te
raria mente
Ġferrovi Ã¡ria
Ġvol eibol
or iais
Ġl eu
ĠT ch
Ġdeix e
ĠCha ves
ĠVir gem
a ux
m u
ĠC ai
du ta
ĠsÃ³ cio
gred ientes
ĠP il
Ã©r icos
Ġr ÃŃg
ĠMat emÃ¡tica
ĠAgost inho
h em
Ġadequ ada
an de
ĠC S
ed ro
ton a
Ġdireto ra
Ġextre ma
ĠB enn
us ca
Ġx adrez
ÃŃdu os
en stein
ĠM id
elh ado
Ġeurop eias
Ġoxig Ãªnio
ent ista
era no
enc es
Ġcond ados
ĠcientÃŃf icas
ĠQue en
Ġm istas
ĠC esar
Ġw ww
ĠS C
Ġprov ar
ĠCaval eiro
Ġpossibil idades
ÃŃ as
Ġass emb
Ġviv ia
Ã³qu ei
Ġmest rado
C ent
i ador
Ġf ome
ĠB rito
ĠSoc orro
Ġsacerdo te
ĠThreat ened
ĠCom ercial
Ġapl ica
uz il
Ġ186 4
ar ro
Ġh or
ĠmÃ©d ias
ĠHa iti
Ġpriv adas
h or
ĠV Ã´lei
fe ras
ĠalcanÃ§ ando
Ġab uso
Ġr icos
ĠAf eganistÃ£o
ĠLeg enda
Ġs enso
Ġb eta
Ġtraz endo
ĠtÃŃp ico
il iano
ĠQu ÃŃmica
in y
Ġb ro
ĠK l
Ġ189 4
ĠJ ard
Ġ18 60
Ġ188 5
ĠCol Ã´nia
ĠMal ta
ĠBen fica
ĠSem pre
Ġconclu ÃŃda
Ġag ric
ĠAb erto
ĠChec klist
Ġsuger iu
Ġcine asta
Ġno Ã§Ã£o
ik i
Ġcomplex idade
ri nt
Ġ uc
Ġpag ina
Ġprev Ãª
Ġcolabora dores
Ġperceb e
ĠquÃŃm ico
an co
Ġres pira
ĠBo e
Ġafirm am
Ġunivers itÃ¡rio
ĠAlexand ria
Ġbra Ã§os
ĠAm Ã©ricas
ĠTh at
Ġmascul ina
Ġal tar
ret amente
ĠSport s
ĠVirg ÃŃnia
ar ial
ria mente
Ġreg res
Ġro und
Ġseg mentos
ĠMil ton
Ġentreten imento
ĠE ta
ĠV ÃŃdeo
Ġpoder Ã£o
ĠLux emburgo
ĠPro duc
Ġmed alh
el y
Ġb rev
Ã©d ias
Ġneg ativa
M en
ab ara
Ġ >
ou se
Ġal b
ĠW ork
Ġ7 3
Ġ188 8
Ġnumeros os
ĠDispon ÃŃvel
Ġc ach
ĠD j
Ġra cional
Ġleg ÃŃt
197 8
Am erican
Ġreduz ida
R ei
ĠM G
Ġper cepÃ§Ã£o
Ġha vendo
Ġsal Ã£o
Ġsent iu
ĠRa imundo
Ġgera Ã§Ãµes
Ġd il
ĠNas ceu
Ġvolunt Ã¡rios
ĠP etr
Ġpobre za
u er
Ġcont empl
Ã³n ico
Ġm os
Ġj azz
ĠCh ip
ant il
Ġmon arquia
Ġtradicional mente
Ã³ w
ÃŃg ios
ĠD icionÃ¡rio
ĠI gu
pl es
eix o
qu al
Ġsu pre
Ġcent rais
Ġfoto grafias
ĠC ac
Ġos t
Ġpast or
ĠInd Ãºstria
Un ivers
ĠA Ã§Ã£o
ĠA ch
ras se
Ġsub stantivo
ĠPro ject
Ġfer idos
Ġcren Ã§as
ol n
ĠT exto
orn os
Ġgig antes
ĠPer ÃŃodo
ĠForm as
Ġ è
Ġbel ga
Ù Ĭ
es pec
Ġesport ivo
Ġo ral
ert on
vo z
en i
Ġre eleito
ĠJ unt
Ġsens aÃ§Ã£o
S er
b or
Ġn u
abil idades
ĠM ada
Ġdif und
ĠPer form
Ġprom oc
ogrÃ¡f icos
Ġdown load
Ġt u
ĠCam inho
Ġtec lado
Ġserv idores
ĠcrÃ©d itos
Ġconsidera Ã§Ã£o
cl ass
Ġapresent adora
ĠMag azine
l ados
ic iÃ¡rio
ĠM arac
Ġfor em
In st
ĠsatÃ©l ites
Ġc Ã©le
ĠU b
Ġar rem
Ġmag ist
Ġre pl
ĠJ ava
Ġocup ada
D a
s ou
ĠD un
Ġex Ã©rcitos
Ġdom ÃŃnios
ĠBritÃ¢n ico
Ġagl om
ul adas
rad es
ĠTh is
Ġjunt a
ĠTa ilÃ¢ndia
ĠRos Ã¡rio
erb ai
ĠVinc ent
Ġre ab
Ġparticip ando
ĠParana ense
ĠP Ã³s
Ġret rato
Ġexpl icou
ĠAn Ã¡lise
Ġinfluenc iado
ĠDar win
Ġ à¤
Ġ9 8
ilh elm
Ġmanif estaÃ§Ã£o
Ġliter Ã¡rio
Ġt rom
imin ar
Ġsusp ensÃ£o
ĠperiÃ³d ica
ĠCristÃ³ vÃ£o
ĠC idades
ist ema
Ã¡st icos
Ġp isc
orn ia
at ou
Ġcolet iva
al g
ĠS int
Ġma u
Ġcompet ir
Ġacom panha
Ġmem Ã³rias
ĠMonten egro
y an
Ġsegu em
ĠJu iz
ĠVictor ia
Ġ rat
ĠN ag
ĠH il
ĠBill y
Ġcircunst Ã¢ncias
Ġin qu
ÃŃst a
Ġacompanh ar
Ġcomprom isso
ha us
Ġav enida
Ġteat ral
ĠEs portes
ĠDist ribuiÃ§Ã£o
rol l
ĠEn ergia
Ġmud aram
Ġfavor Ã¡vel
Ġreper tÃ³rio
Ġac ons
ib le
Ġace ito
Ã³ lia
Ġsub ter
ĠH ond
ĠMac ed
ĠUS P
Ġinvestig aÃ§Ãµes
ĠP ep
Ġmet Ã¡l
Ġdisc ÃŃp
Ġven ez
Ġcompre ender
S ub
Ġ za
Ġ" .
ĠN ice
Ġres ul
ĠOr lando
ĠSuper copa
Ġpovo aÃ§Ã£o
Ġb ord
Ġating indo
Ġreduz ido
Ġinfant aria
Ġal ter
Ġren asc
Ġn ad
ĠFre ire
Ġprem iaÃ§Ã£o
Ġp ir
Ġtel esc
Ġperde ram
ĠemprÃ©st imo
Ġf rust
Ġconclu ir
ĠanÃ¡l ises
ĠÃĤ ng
ist ia
ĠConc ÃŃlio
Ġdes enc
Ġ189 9
Ġvi rou
ĠbÃ¡s icos
ĠB ang
ĠOt to
Ã Ł
al os
ĠD ut
Ġtra Ã§os
Ġrel anÃ§
Ġintern os
Ġdocument aÃ§Ã£o
ĠP ag
ĠCh i
Ġmod ernas
ĠMov ie
at ed
ĠT ru
ez es
Ġautom obil
at ia
Ġad ulto
Ġcoloc adas
ch el
op le
ect ura
Ġresta urante
Ġsignific ativamente
terap ia
M ic
ĠR and
ĠL obo
ĠCh urch
ĠAn al
Ġtorn aria
Ġpra ias
Ġefic iÃªncia
Ġt rens
ĠGu ara
Ġsepara do
Ġdefens or
ho je
ĠAnd y
Ġcost uma
ĠvÃ¡l ido
ĠD iam
ĠfenÃ´m enos
A v
Ġent usias
ĠX box
Ġcant ores
Ġdistribu ÃŃdo
it ri
ĠInform aÃ§Ãµes
ĠvÃ¡l idos
Ġinter c
ĠEstat ÃŃstica
Pa ulo
S AMPA
ador ias
ĠLib eral
ĠL ang
ĠD ir
Ġofer eceu
id em
ul u
ĠTr ump
Ã¡ut ica
Ġp Ã¡
ĠB og
Ġgig ante
ĠL ine
ĠF Ã¡tima
Ġviv iam
Ġbomb arde
Ġreserv as
Ġofens iva
Ø ±
Ġ up
Ġl an
ĠJ unta
Ġper feito
Ġentrev ist
es Ã£o
ese arch
Ġpropor Ã§Ã£o
Ġp Ã¡ss
ĠC emitÃ©rio
lin es
Ġadministrat ivo
ĠB apt
ĠG rac
Ġped indo
ĠMat the
ĠConv ento
r inha
ian i
ĠToc ant
ĠVlad imir
ĠCout inho
Ã³ ides
Ġsobre nome
ver m
ĠMediter rÃ¢neo
ĠF A
ĠestÃ¡ vel
Ġger m
Ġtran st
do c
ĠS qu
ĠB ou
ĠR al
Ã± o
Ġimedia to
ĠjurÃŃd ico
ren os
ĠFran Ã§ois
ĠPal estina
Ġvere adores
j in
ĠW ind
itu ais
Ġcol Ã´nias
Q ue
h m
ĠTal vez
ĠP ers
Ġdetermin aÃ§Ã£o
Ġfinanc eiras
ĠOn line
Ġs c
ac ab
Ġ18 50
Ġcol apso
Ġcru c
ĠIll inois
Ġp end
Ġ1 18
Ġmet odo
Ġating ido
197 4
Ġtoc ando
Ġrus sos
ĠPens ilvÃ¢nia
Ġs eleÃ§Ãµes
ĠÃ¡ rb
und es
Ġpol Ãªmica
Ġ11 0
Ġfa Ã§o
Ġsobreviv Ãªncia
F ranc
Ġsol dado
Ġcontinu aÃ§Ã£o
Ġferrovi Ã¡rio
Ġrec olh
Ġvis uais
ĠJon athan
M O
in ce
ĠMo on
Ġassin ar
Ġdesconhec idos
Ã³x ido
Ġapresent adas
Ġapar iÃ§Ãµes
Ġatribu ÃŃda
Ġenvi ados
Ġrece pt
ĠS to
ĠMor gan
Est a
ĠR ow
ĠO nt
ĠJ ab
Ġex am
Ġfil tro
B O
ĠL ast
ĠT oledo
ĠG az
Ġdes pre
Ġdestac ando
Ġweb site
P rim
Ġel etro
ÃŃt ios
asc ar
ĠHe in
ĠD est
ws ki
Ġpers a
seg undo
Ġcart Ã£o
Ġcomp ilaÃ§Ã£o
Ġobserv ado
197 3
C P
R ec
s burg
Ġdel ib
ĠC ub
Ġb its
Ġab ertos
Ġrend imento
Ġpreen ch
s ar
ic io
ob re
ĠAtl anta
Ġelev aÃ§Ã£o
Ġdeco raÃ§Ã£o
Ġgaro to
Ġbaix ista
à ¦
Ġm is
ĠP Ã³
ĠT rev
ĠG ast
cl atura
Ġpl atina
Ġlitera cia
G A
ĠRe f
Ġcol her
ĠMa xim
ient emente
Ã³d igos
f ac
on os
Ġest atal
s how
ĠJ ung
Ġz o
Ġreiv ind
ĠInic iou
dist rito
oc Ãª
ĠH and
ram e
ros so
Ġganh aram
ĠWe ek
ĠparÃ¡g rafo
or ias
at re
Ġv ib
Ġv Ã©r
Ġinform ar
Ġmelhor ia
Ġal a
Ġpra zer
ĠCr ime
Jo Ã£o
ĠCarn eiro
Ã³ dia
Ġpre g
Ġdest inada
Ġpse udo
enh as
Ġgrav idade
Ġvi Ãºva
ĠTÃ©cn ica
G l
b os
Ãļ lt
Ġcent ÃŃmetros
umb i
Ġcolon os
Ġcomun ista
Ġmex icano
Ġal iado
ĠU nt
Ġcorre l
Ġefet ivamente
Ġgradu almente
Ã ĵ
Ġant ecess
iss Ã©rie
Ġconsegu em
å ħ
Ġex il
Ġdes erto
ĠW ith
ĠArt ilh
Ġpermit ido
Ġps ico
Ġp t
T R
ĠS ei
ĠL inc
Ġbase adas
ĠSuper man
g al
Ġconv ento
Ġpad ron
Ġfrac asso
Ġf av
anc he
ĠChar lot
Ġreconst ruÃ§Ã£o
ĠI an
Ġprim Ã¡rio
Ã©g ios
Ġescrav idÃ£o
ĠKenn edy
p io
p ers
ĠD ubl
ov ina
Ġpre val
Ġcult ivo
ipl as
ĠA dem
ĠRe forma
co t
pl ant
Ġdisp ens
Ġc it
Ġm Ã³dulo
Ġent radas
ĠNo gueira
Ġcl ar
Ġbase ia
ĠDil ma
ĠSemin Ã¡rio
Ġ188 6
ĠBrit ish
ĠBatal hÃ£o
ĠM A
ĠLocal iza
ĠSoc iais
Ġprofund amente
Ġc ess
ĠC ot
Ġre el
Ġinteg ra
ĠTim or
Ġcon so
Ġsub stant
Ġestabel ece
Ġpud essem
ĠUN ESCO
Ġaustral iano
Ġg el
Ġ3 60
Ġpes c
Ġsal va
Ġdese ja
IN E
Ġveg eta
Ġoit avo
ĠCamar go
Ġpro pon
Ġpe Ã§o
197 7
ĠLat ino
Ġexpress Ãµes
ĠtÃŃp ica
c ro
Ġam ericanas
Ġ8 7
ĠGuan abara
intur Ã£o
ĠT eles
ĠUn ion
Ġenc en
Ġpro ject
int as
ru gada
Ġseg redo
ĠAb u
ĠInd ivid
vers a
eig ht
ĠS amba
da g
Ġsem estre
Ġfal has
Ġcomb ates
Ġl ecion
Ġ7 4
ĠSh in
x uais
ĠR oll
Ġg rÃ¡
ros t
Ġcivil izaÃ§Ã£o
Ġpretend ia
ĠL ingu
Ġpro nto
Ġtra g
ĠNo w
Ġenvi ada
Ġenterra do
Ġc abel
ĠF Ã©
ĠâĢ ¦
ĠOb ra
el and
Ġal deias
Ġle al
Ġtom a
Ġrece ita
ir Ã¡
ion ada
ĠW agner
Ġprote ÃŃna
Ġcolet ivo
Ġteor ema
ĠMarsh all
t ÃŃtulo
ĠC enso
ÃŃt as
Ġaplic ar
ĠBÃ¡rb ara
ĠâĢ Ŀ
i Ã¡
Ã ®
do ras
Ġrec usa
Ġsegu iram
Ġafric anos
Ġrequis itos
n am
ic he
Ġser ra
Ġocorre ndo
j ada
all en
Ġtom b
c u
Ġs Ã©r
do x
Ġpre ta
ĠDe ut
ell es
ĠJord an
g rÃ¡ficas
v an
Ġl azer
Ġmant ida
ĠD re
Ġro de
Ġdisc rimin
Ġil egal
3 00
Ġ Î±
Ġs Ã©rio
ĠD iana
ĠT otal
Ġus e
b s
ĠB uda
ĠO z
ĠBar reto
197 6
ĠLÃŃb ia
ÃŃce is
an ato
rÃ¡ ria
Ġte ologia
ĠBo ys
ĠC ic
Ġesc rev
Ġcr iminal
Ġdetermin ados
197 0
Ġcinemat ogrÃ¡fica
ĠA val
ĠM embros
ol om
ur re
Ġar redores
Ġad jac
Ġimp ul
ĠSt u
ig er
gu ia
ĠMart inho
Ġminist Ã©rio
ĠLuc iano
Ġf ant
ib i
ele y
Ġdivulg ado
Ġestran ho
t icos
ĠCar ey
Ġro taÃ§Ã£o
ĠHond uras
j es
Î ³
el agem
Ġmat Ã©rias
pro v
ĠAz erbai
gra ph
iclop Ã©dia
ĠP le
issa u
Ġintelect uais
Ġpse ud
Ġrestaura ntes
ĠE R
Ġev idente
Ġacred itar
ĠComp et
Ġmetropolit ana
ria Ã§Ã£o
Ġconc edeu
Ġexplora r
Ġab range
Ġpass ava
ĠAp ro
Ġmet rÃ´
ĠFern anda
ĠÃĢ s
Ġsub iu
ĠMa omÃ©
Ġestiv eram
Ġmam ÃŃferos
ri que
oc ado
ĠCin co
ĠLeop oldo
ĠP A
ĠEst udou
Ġant ic
ĠâĨ ĳ
V al
Ġpol onÃªs
Ġconsegu ido
Ġterrest res
S te
å ¤
Ġar rum
ĠR esearch
Ġch il
Ġcompost as
ĠsubespÃ©c ie
ĠDemocrÃ¡ tico
Ù ħ
Ġf aria
ĠD ie
Ġde pos
gu Ã¡
Ġmil has
Ġdel im
Ġpen et
ĠOce ania
Ġs ho
ed s
ĠPr Ãºssia
Ġocas ionalmente
Ġresul tante
ĠMar ina
ard i
Ġmus c
Ġfrequ ent
Ġjard ins
R es
Ġenc am
Ġleg it
L P
Ġt amb
ĠP rado
Ġv isa
ĠF aria
ĠÃ© tica
ĠU ser
Ġtip icamente
ĠM ore
Ġestim ado
j og
s il
ĠB ros
Ġgen es
ĠV Ã¡rias
ĠPab lo
Ġobs c
ĠUS A
ĠMiss ouri
Ġl ab
ĠAs i
ĠOl d
Ġus ava
ĠRuss ell
V ia
ĠM ist
ch in
Ġopera r
Ġhou ver
ĠSin f
Ġpesquis ador
w orth
Ġvers os
Ġatual izaÃ§Ã£o
Ġregul ament
ĠM ort
Ġh isp
Ã©d ico
ĠY u
Ġsol id
Ġgera ndo
ĠP ena
ĠSte ven
Ġp acote
ĠO ver
Ġcomp Ãµem
Ġpos tura
Ġsubst anc
Ġp iso
Ġda va
est rado
Ġcompos itores
O ut
T o
htt p
S c
Ġa uge
ĠO fic
ĠG ill
Ġ9 7
... "
Ġconv idada
ĠLar go
Ġembarc aÃ§Ãµes
ĠdÃŃ vida
Å Ħ
Ġag rem
Ġfac ilidade
Ġesp ÃŃ
Ġass em
Ġacred ito
Ġviaj ar
h us
Ġassoc iadas
Ġvend ida
Ġexig e
Bl ack
Ġsa que
ĠAut om
ĠacadÃªm ica
Ġab ertas
Ġr umo
ĠWal t
ĠeconÃ´m icos
Ġperc ussÃ£o
ub er
Ġcria ram
ĠMart ÃŃn
ĠP as
ĠE ti
ĠAl pes
Ġdisput as
ocol mo
Ġb Ãºl
ĠCar ibe
ĠQual quer
Ġ ÃŃc
Ġf irme
ĠN iterÃ³i
Ġtem Ã¡tica
Ġ9 6
Ġmen Ã§Ã£o
ĠInf ra
ĠLug ar
Ġfabrica nte
b u
ĠM anh
ĠAt or
Ã©l ix
enn is
Ġfuncion Ã¡rio
Ġfarm ac
ĠB il
Ġin ib
Ġrec ol
ĠSu z
ĠAt h
Ġapo iou
Ġjuda ica
D C
ĠCh ild
ĠPor que
Ġperman ecendo
ĠelÃ©t rons
ĠMich igan
ĠC ry
so b
ĠEqu ipe
ĠAer on
Ã ¯
ĠP P
ĠL il
Ġmont agem
Ġtempl os
J os
Ġson da
Ġgarant iu
Ġl agos
Ġpre conce
ĠEd iÃ§Ãµes
Ġlemb ra
f urt
Ġest abilidade
ĠY am
ĠJer ry
Ġdeb ates
Ġfech ada
ĠP am
Ġesp iral
Ġen gl
ĠAnd rea
ĠAut or
Ġf iel
Ġenc ora
ĠJo el
Ġreal izando
Ù Ĩ
und er
Ġdif ÃŃceis
Ġt ag
ĠfÃ³s seis
bour ne
B r
ĠP ow
Ġter renos
Ã´m etro
Ġexp ed
Ġ8 1
Ġr iscos
Ġconfund ir
int os
ĠGo y
M ad
ens idade
ron ic
ĠAcad emy
Ġnumeros as
ĠsÃŃ ntese
Ġir Ã£o
Ġlig eiramente
ĠEspÃ©c ies
ar iado
Ġo posto
ĠC az
Ġ7 1
Ġmarc ha
ĠFre i
Ġ188 2
Re ferÃªncias
in ot
ĠE va
ĠL omb
Ġmat ando
u que
ĠAt ual
att le
s ec
Ġa Ã©reas
Ġt rio
ĠAt riz
Ġcin quenta
Ġtom ando
b ury
Ġde usa
Ġreconhec eu
ator ial
Ġbot Ã£o
Ġro das
ĠCl emente
Ġpen al
Ġcos m
ĠA dic
ĠR S
ĠRe vel
ĠSist emas
ĠJog ador
l on
ett y
Ġprocura ndo
Ġrespect ivos
________ ________
n io
Ġproduz indo
Ġsent enÃ§a
Ġmult idÃ£o
ĠArt s
ĠCrÃ©d itos
Ġcam pon
Ġarm adas
Ġv Ãªm
ĠCom put
par ou
Ġfilm ado
Ġplan etas
Ġcontrov Ã©rsia
ac iais
ĠâĢľ "
Ġcompos itora
Ġmass as
d isc
ĠLe o
ĠPl ata
Ġcat edral
Ġident ificado
Ġace itaÃ§Ã£o
Ġmora r
Ġprovoc ou
f en
end s
Ġpopular mente
Ġexc esso
Ġ ira
Ġpl eno
ĠlanÃ§ adas
Ġadapt ado
o rando
ĠB ara
ĠGol s
É Ļ
est ade
ĠPrim eiros
ĠolÃŃmp ica
Ġcon duta
ÃŃd ias
ĠMora is
Ġt oca
ĠM itch
ĠW ilhelm
ult ores
Ġfavor Ã¡veis
ĠSem ana
Ġurb anos
gen eral
Ġbact Ã©rias
Ġco g
Ġrel ativo
Ã¨ s
Ġabs ur
Ġp ano
ent r
ura ndo
ĠV ersÃ£o
ĠVal ent
ĠBoe ing
Ġd id
cl a
Ġ8 2
ĠbÃ¡s icas
Ġvol tado
Ġgu arn
Ġdesign ar
ĠPerson agens
Ġ188 7
Ġur ugu
J ornal
L C
Ġ/ /
arc as
O ne
Ġrec ta
d ec
ul us
ĠK ol
Ġinterpre tando
Ġcort es
ĠI z
ĠSom ente
Ġproxim idade
u ÃŃtas
v est
ĠA x
Ġb eira
Ġres um
ĠWay ne
Ġv ital
ĠH ers
inos sa
ĠBat eria
Ġdemonst ra
Y ou
Ġt ria
Ġre daÃ§Ã£o
Ġent rando
Ġfl ora
ĠProc esso
o ito
Ġ ut
Ġper fe
ĠAr que
ĠOb ama
ĠA ga
ag er
Ġfantas ia
Ġs ente
ro ck
Ġest up
ĠlanÃ§ amentos
inc ip
Ġcons ulta
Ġpublic amente
ĠHou ston
Ġcar n
Ġdecid ido
w ald
Ġf ert
Ġdiv ide
Ġmelhor ias
Ġperc ent
gra duaÃ§Ã£o
c ess
Ġo tim
ic ultura
Ġre inos
Ġl ixo
Ġb ela
Ãº rio
Ġdes vio
ĠPer man
ĠArm Ãªnia
ad s
Ġcom er
ec ta
og raph
ap Ã¡
Ġir rit
Ġacus aÃ§Ã£o
ĠEt imologia
n ess
ĠJ onas
Ġpesso almente
Ġmin uto
Ġtent aram
Ġfrequ entes
Ġassist ir
ĠArm ando
Ġavent uras
iv el
ion ou
ĠZ e
C a
Ġp ist
ĠGr Ã£o
Ġm inas
ĠG iro
Ġlib ertaÃ§Ã£o
Ġvenc ido
Ġarm ada
ĠAssemb l
ĠLaw rence
Ġaper feiÃ§o
Ġo itava
Ġcar gas
Ġprot et
a gu
ĠW ho
tom os
C amp
Ġc itada
Ġos sos
ion a
com um
ĠMot or
Ġrival idade
ĠYan guas
L ou
Ġf rat
gu ay
Ġag ir
Ġconc orrentes
ĠOr le
ĠSerg ipe
ect or
Ġcorr er
ĠCel so
Ġexclus iva
Ġconfront os
ĠMace do
anh as
Ġado Ã§Ã£o
Ġreconhec e
Ġprem iado
adjuv ante
p ing
an du
ĠServ ice
os hi
ĠI st
fer ence
Ġ18 0
Ġdemonst rar
Ġfras es
Ġ ),
in ess
ha w
ian ista
Ġpol ar
ĠNov os
Ġ188 4
ĠBeat riz
ĠEs pero
Ã¡pol es
G B
Ãº dio
Ġlocal izadas
part amentos
Ġinternacional mente
Ġesport iva
ĠK ra
Ġpad ro
o is
ar to
Ġ" âĢľ
Ġassum indo
Ġcore ano
Ãºrb ios
ĠN azar
ĠJ ar
Ġrefer ente
ile y
ĠGal iza
Ġadqui rir
Ġasseg urar
Ġmar keting
Ġtr igo
Ġfix a
Ġautora is
ĠM C
ĠL is
fre y
ĠTorn ou
Ġdes at
Ġprof undo
Ġmin eral
ĠAc re
ĠInd iana
Ġman ual
Ġsep ultado
Ġvegeta is
ĠE is
Ġdes igual
end ador
Ġviz inhas
ĠPesso as
ĠRus sa
un ar
ĠG odo
Ġcont agem
Ġdesc art
Ġv asta
Ġchef es
c idade
Ġast rona
Ġempreg ados
P M
u ke
dor e
Ġsac rif
ĠAgu iar
z en
Ġt rÃ¡fico
Ġabsol ut
Ġrem ix
Ñ Į
ĠF icou
ha i
te b
Ġinfer iores
i adores
ĠR O
Ġpre ferÃªncia
ĠSal om
Ġne w
og rama
ĠEl eiÃ§Ãµes
ĠRog Ã©rio
T S
Ġt eto
ec ht
Ġg ases
ĠÃº m
Ã³n oma
Ġlut ador
Ġjustific ativa
ĠV isÃ£o
Ġext ensa
Ġmand atos
áĥ Ĳ
ĠC Ã¢nd
Ġin duz
unda Ã§Ãµes
Ġeste jam
Ġcontempor Ã¢neo
l ink
m undo
Ä ĥ
ĠTerc eiro
Ġf Ã©rias
ĠV az
Ġim posto
Ġempres tado
ĠHar vard
ĠSerg io
O l
ar ense
Ġl in
ĠMo z
ĠU TC
ĠSuper liga
ĠBat man
Ġcontrat os
p iter
Î ¸
ĠG arc
Ġser via
Ġesc onder
Ġfranc esas
ĠPe Ã§o
Ã¡n dez
Ġhomosse xual
D ire
k ar
an Ã£
Ġl aranja
ens on
Ġlev ada
Ġtend em
ĠI guaÃ§u
co Ã§o
Ġcomp or
Ġins u
ĠSaud ita
ĠW ars
Ġapo iado
ĠRom Ãªnia
ĠCro Ã¡cia
Ġreporta gem
ugosl Ã¡via
re ga
ĠM ala
Ġdesc onf
ari edade
ul p
ĠG anh
Ġan gl
ĠCom posiÃ§Ã£o
Ġcomun as
ĠMerc ado
ĠStad ium
ĠGen ebra
ĠJÃº piter
Ġparlam entares
t Ã³ria
Ġra zo
Ġcomun icaÃ§Ãµes
Ġinspira da
Ġafric ana
ĠM ack
Ġv es
Ġapo ia
s in
ĠF Ã©lix
ĠG Ã¶
Ġadministrat ivas
j ornal
Ġvaria ntes
Ġabandon ado
Ġcre io
ĠLinc oln
Ġfil t
ĠL itu
Ġinst ruÃ§Ã£o
ren d
ĠArt ur
Ġinicia ram
Ġpeg ar
ĠmuÃ§ul m
Ġmolec ular
ĠPr Ã³
Ġserv em
ĠPh ill
ĠOc idente
sen al
ĠVers ion
Ġdesm emb
C omo
ĠN FL
ĠFal eceu
ĠDin astia
ĠRac ing
p is
ĠPor ta
ĠÃī vora
Ġmin erais
Ġexp uls
Ġrebel iÃ£o
Ġco leta
Ġl Ã¢m
Ġcons elheiro
197 2
Ġdeclara Ã§Ãµes
Ġprot esto
Ġest arÃ¡
Ġpro nt
Ġ7 9
Ġgovern amentais
way s
Ġprest ÃŃgio
Ã©rs ias
f ort
Ġest ÃŃm
Ġvo zes
Ġrap per
Ġo raÃ§Ã£o
Ġcont inha
Ġenc h
Ġsal Ã¡rio
Ġregist rados
Ġapag ar
ĠM issÃ£o
Ġfre guesias
ĠDan i
ĠFrank lin
ĠPs icologia
p y
ĠH ell
Ġcha p
Ġeduc acional
ĠAir lines
Ġdesn ecess
Ġmag ia
Ġpion eiro
ores c
Ġter Ã£o
ĠmÃºlt iplas
h in
ire n
Ġag rac
Ã©s io
gua ia
Ġmod os
Ġide ais
Ġprop riamente
Ġdesaf ios
Ġest Ã©tica
ri es
Ġcomp uta
ĠMod ern
C ha
f ol
Ġcaus ado
ĠCu rios
Ġcoz inha
v ila
in ente
ĠGu ia
Ġ8 6
Ġ9 2
Ġdev emos
Ġcaracter iza
Ġsepara das
Ġreiv indic
Ġapart amento
f ig
ĠB oca
ĠU g
ep pe
Ġvari edades
Ġmex icana
ĠHamb urgo
V ol
at ive
Ġj un
Ġsecund Ã¡ria
Ġint eira
enc er
Ġautom Ã³veis
ĠSel v
Ġprom ulg
Ġint enso
Ġnas ce
ĠHer z
Ġcereb ral
F il
ĠÃ¡ tomos
ĠHon ra
ĠIndepend ente
H ar
Ġp Ã³l
ĠE N
Ġcol omb
Ġfal am
Ġrepresent aÃ§Ãµes
ĠTh iago
ĠSud Ã£o
kes pe
achar el
ĠB iel
Ġconc reto
Ġfal ado
b and
at ividade
ul i
Ġcap itais
M on
R ob
Ġa viaÃ§Ã£o
ine a
ĠInt roduÃ§Ã£o
Ġprot ocolo
Ġn esses
ĠA S
ĠG av
ĠPrem ier
ĠB eb
ĠF irst
âĢ Į
Ãªm ico
ĠCo ok
Ġproven ientes
Ġfam osas
ĠPat ri
ĠEspa Ã§o
Ġd ita
orn e
esse is
Ġdestru ÃŃda
Ġnucle ares
M em
ok u
Ġru g
ĠquÃŃm icos
eric Ã³rdia
Ġtur co
ĠMes quita
Ġestrang eiras
Ġpres a
um bo
oc e
ĠU so
Ġpoder osa
Ġexist iam
ĠPre feito
her ine
Ġfrequ ente
196 7
ĠProfiss ional
G al
ĠEst rang
Ġdire tores
ĠMen or
fl ix
Ġvolt aram
ĠAcred ita
z ig
ĠE y
Ġb Ã´nus
ĠAl ess
ĠSh ar
Ġfrac ass
ĠSof tware
B I
io us
ĠJ unto
ion ista
ulos e
Ġescrit Ã³rios
ĠGl Ã³ria
ĠBer lin
Ġaplic ativos
ĠFlor enÃ§a
u itos
Ġper das
ĠAb el
Ġpossu indo
Ġalem Ã£s
Ġident ific
ĠUlt imate
ĠRous se
C S
E le
ul am
un ais
Ãº bal
ĠIl ust
ĠArqu idiocese
ĠtÃ³p icos
ĠT ed
Ġex port
ÃŃm etro
ĠItal iana
ĠSic ÃŃlia
iment aÃ§Ã£o
ĠPo is
Ġ187 8
D ie
ĠV ÃŃt
Ġh ero
ot ipo
ĠAr mas
Ġ8 3
ĠMal Ã¡sia
qu ez
ĠW a
Ġag Ãªncias
Ġcham ando
Ġelimin ada
Ġba ÃŃa
V I
anc y
Ġmarc iais
Ġsab or
ĠPlant s
Ã©s ima
ĠCl aro
ĠCont a
ut ar
ĠT uc
ĠIn g
Ġcar o
Ġconc edida
Ġpl Ã¡stico
ĠCont role
ĠGol fo
G o
res se
Ġh orr
anh os
Ġestrel ou
Ġroup a
T ra
Ġse co
ĠWil d
iqu eira
Ġdivulg ar
do nt
Ġcon form
Ġsem an
com p
Ġger ente
ĠB aixa
Ġform ados
ade qu
Ġins pi
Ġmerc adorias
Ġf ita
ĠM ons
Ġsu cedeu
ĠEst ocolmo
ĠCar ter
ĠalcanÃ§ ado
Ġro cha
th ers
ĠCont empor
ĠGold en
il and
ĠB ond
ir im
enc ias
ust er
ĠSt and
Ġorgan iz
Ġcontempor Ã¢neos
ĠDoc ument
Ġprej uÃŃ
Ġv elhos
Ġof ic
Ġ15 00
Ġid Ã©ias
ĠGra nt
ĠS ib
Ġutil izou
Ġproduz em
Ġcomem oraÃ§Ã£o
ĠR ho
ec eria
ĠN Âº
rÃ¡ gio
ĠBas ÃŃlica
D om
ĠB eth
Ġproc urou
ĠOl ym
Ã©l ico
Ġtrabalh am
ĠRes erva
ĠIb Ã©rica
ĠIsa ac
Ġtra duÃ§Ãµes
isc he
rig a
Ġche io
h ara
Ġcrit icou
es ias
gu age
Ġan at
Ġgovern ante
Ġru im
Ġsovi Ã©ticos
ĠHav ia
Ġhidrog Ãªnio
L ista
Ġpl as
Ġinic io
Ġcicl one
ĠCatar inense
Ġt on
ĠC A
cl us
Ġpud er
Ġpl ena
Ġcontro lo
Ġfer ido
Ġem bal
il Ã¢ncia
ĠH i
Ġmar x
ĠMa uro
Ġche ia
yll um
b ranc
á Ģ
Ġp istas
ĠV amos
ĠRe ich
ÃŃc ulos
Ġ8 9
Ġamost ras
p en
Ġcar vÃ£o
Ġviz inho
Ġcaptura do
Ġcil ind
ĠTocant ins
A f
Ġp ude
ic tion
Ġcar idade
Ġrest ring
ĠOt om
Ġintroduz iu
l fo
ÃŃ vio
ĠT ito
ĠN Ã¡poles
ĠEti Ã³pia
d am
iz z
od es
ĠCar deal
ĠBar ry
ĠPre v
Ġess enciais
Ġadolesc Ãªncia
Ġc itados
ĠS ert
Ġlar go
Ġmeta is
Ġancest ral
ĠMendo nÃ§a
av as
Ġfaz end
Ġcompara do
ov Ã¡
Ġesc uro
Ġab ert
Ġmus eus
ĠMc K
pec ies
ĠH og
ril ho
Ġarran jos
Ġaposent adoria
Ġt iros
ĠS ang
ĠF ul
ora Ã§Ãµes
Ġestabel ecidos
ĠMen ezes
Ġcart Ãµes
ĠRepublic ano
op era
Ã³l icos
Ġdefin idos
197 1
Ġrecup era
Ø§ ÙĦ
Ġdefic iÃªncia
ĠC i
Ġast er
is ma
Ġl ua
ĠD ub
ĠEd gar
ĠS eria
ĠV ocal
Ġar c
ĠCria Ã§Ã£o
c at
pe ito
la x
Ġloc omot
Ġtempo rariamente
ĠBer k
Ãºp ula
Ġestabel ecimentos
Ġlat itude
Ġvest ido
id ional
ĠT ap
ĠK now
ĠIn dic
Ġmon umentos
Ġdestru ÃŃdo
urn as
Ġat rib
ĠÃºn icas
Ġcolet Ã¢nea
Ġdefens ores
ĠCharlot te
ĠM ong
Ġmil ÃŃmetros
Ġviv endo
Ġnerv oso
Ġconcordo u
D S
ĠF ogo
ĠG ius
Ġform atos
ĠnÃºc leos
Ġdaqu eles
sing les
Ġret rata
ĠMont real
ĠM onst
Ġmin issÃ©rie
Ġfut uros
Ġrenunc iou
m id
et ing
Ġg ay
ĠI re
ĠWeb site
ĠAlago as
Ġp Ã£o
gu erra
Ġrel ata
Ġvol tas
Ġprov id
Ġfic aria
ĠE C
Ġvis itas
Ġ188 3
H ol
u ado
im al
ĠP it
ĠL G
Ġrefer entes
Ġviz inha
Ġtransform ada
Ġsobrev iver
P re
in stein
Ġt Ã¡x
st ar
Ġand amento
ĠGa Ãºcho
ĠRon aldo
R I
z os
ad el
ĠC it
ĠC ine
Ġb il
Ġsim pat
em on
Ġdes port
Ġout ono
ora dos
Ġ10 1
Ġintroduz ida
ĠN H
ĠI gn
ĠSant uÃ¡rio
vo a
196 9
ĠEcon om
Ġconsist ia
Ġrenov aÃ§Ã£o
ĠUR SS
Ġajud ando
Ġlong itude
Ġsig la
Ġvol tada
ĠMad alena
ĠastrÃ´n omo
Ã °
um an
ĠI dent
Ġhip er
E A
Ġs ÃŃtios
Ġass inal
ĠCr ÃŃtica
Ġespera va
ĠBarb ara
Ġhel ic
' m
Ġmod alidades
Ġcomplex a
L O
Ġm Ã³vel
ac as
Ġcomp Ã´s
ĠCon gregaÃ§Ã£o
ĠPal e
Ġestabel eceram
Ġprev ista
Ġinov aÃ§Ã£o
ĠBab y
or p
ed oria
ĠCol orado
Ġtrabalh ado
ĠRon ald
Ġles Ãµes
Ġartilh eiro
L ive
Ġam ador
Ġpe ito
ies el
Ġros a
Ġpain el
e jo
ic adas
Ġpr Ã©dios
ĠH ern
Ġnacional idade
Ġadicion ado
ÃŃs ia
Ġcaracter izado
Ġens inar
Ġampl iaÃ§Ã£o
b is
Ġequ aÃ§Ãµes
ĠH ud
Ġgrav idez
ĠPol y
Ġfl utu
ĠavanÃ§ ou
ul hos
Ġextrem idade
Ġexce p
S il
u pe
ĠG ul
Ġes pont
Ġand ares
Ġatlet ismo
Ġsangu ÃŃn
ĠS yl
Ġreg ente
Ġinic iando
Ġconquist ado
Ġacresc entou
ĠSing apura
ĠJo an
ĠReg ina
Ġfrequ entou
ĠSte wart
kespe are
L uc
Ġmar ch
ĠQu est
ĠclÃŃn ica
R ock
Ġv iva
ĠF emin
Ġ3 50
ĠVoc abulÃ¡rio
ĠcontÃŃn uo
ĠP ur
ãĥ ³
Ġresg ate
Ġsobera nia
Ġc ano
Ġ" ...
ĠH end
ĠCar m
Ġacab am
oria mente
Ġhosp itais
P ra
Ġde i
ar u
ĠD S
ac her
Ġpr Ã©mio
". "
Ġcer Ã¢mica
Ġma estro
Ã´m icas
Ġvest ÃŃgios
onc Ã©
Ġencam inh
c amp
Ġex ag
Ã³s io
Ġtent am
ĠDem ocrata
Ã¡ss io
Ġanf ÃŃb
ĠGard en
Ġconc orda
Ġlib ras
Ġatac ou
Ġvac ina
y on
er ro
il t
ĠGu iana
Ġcap ita
Ġviol aÃ§Ã£o
ĠSong s
Ġabast ecimento
ĠT rat
av ÃŃrus
ord em
Ġgrav adas
Ġdif usÃ£o
Ġ186 8
Ġdemonst rou
olom eu
Ġc Ã³digos
ie f
ĠMa j
Ġpossu ÃŃam
Ġ186 7
ĠCalif ornia
Ġfrag mentos
Ġs Ã©
Ã¡ lbum
iol og
pi ranga
ĠBus h
ir d
ern e
Ãºc leo
govern ador
l ock
al as
ĠSh el
ĠMat er
Ġdiss emin
ĠG ri
Ġh ino
Ġsa x
Ġeditor ial
Ġenvol ver
x to
in idade
at um
ol icismo
ok o
Ġobt idos
Ġexpect ativa
Ġ9 3
ĠAc ordo
Ġ188 1
Ġremov ido
Ġcult iv
l ler
ĠG aza
ĠJ ama
Ġperman eceram
ĠEuropa ea
Ġquer iam
ald i
ot s
Ġtotal izando
Ġobs erva
ĠacadÃªm icos
M C
j ara
ĠC BS
ĠN ab
l us
ĠM om
Ġb iologia
ho t
ment aÃ§Ã£o
ĠWat son
Ġmar g
Ġtotal idade
ĠBrux elas
us eram
Ġins ist
Ġvant agens
Ġcostum am
eg os
Ġen riqu
Ġsol os
ĠSen egal
Ġnam orada
Ġpain Ã©is
G S
ĠL ike
Ġqual ificaÃ§Ã£o
Ġinf ecÃ§Ã£o
Ã³l icas
Ġtom adas
y st
Ġf Ãªmea
ĠHer bert
Ġmara v
im on
ĠS A
ul antes
ĠCom ent
rag ens
Ġdetermin adas
ocrat as
Ġconv enÃ§Ã£o
ĠPres biter
Ġcost ume
Ġconsider e
Ġtran qu
Ġeleg eu
P orto
or um
ÃŃc ula
Ġado tar
Ġcens ura
ĠeconÃ³m ica
R ed
i y
Ġo m
al s
Ġcomun istas
ran e
ros c
Ġinf ect
Ġcul pa
Ġde po
Ġs it
ĠAn exo
Ġisol amento
ĠStan ley
C ruz
M ac
Ġc ig
ag en
ĠRe un
Ġac ham
og Ãªn
ĠK id
ĠZ ero
Ġrefer em
fic iÃªncia
triz es
c ost
ak u
Ġfi Ã©is
Ġcoop era
Ġliteral mente
ĠGius eppe
ĠL iver
gu er
Ġdes lig
ru ta
Ã¡g io
ĠEd ifÃŃcio
Ġide ologia
Ġpreserv ar
ĠA TP
Ġj Ãº
ĠV all
Ġprecis ava
Ġcoorden aÃ§Ã£o
Ġamea Ã§as
c le
ĠG amb
Ġlib erais
Ġexper imentos
Ġhou v
Ġprivil eg
S o
ĠF Ã³rum
Ġquad rado
Ġsuger em
Ġacamp amento
Ġdo ente
Ġbic ic
ĠNov as
Ġparc eiros
Ġexclus ivo
Ġatra ir
Ġadquir ido
Ġd r
Ġfal sa
ĠNet flix
Ġpredomin antemente
ra nt
ĠC itaÃ§Ã£o
ĠT upi
19 45
ĠEngl ish
ĠP enn
ĠB eck
Ġamar ela
C ast
l ib
at ado
Ġenc aix
ĠFel iz
Pa ul
nasc ida
Ġpor n
ĠFranc esco
Ġcob erta
Ġsubst ituto
Ġderiv ada
ĠF ica
ĠT ub
Ġpes coÃ§o
Ġlingu agens
Ġs oviÃ©tica
Ġdes ac
inal do
ĠDe ath
Ġinvestig ar
Ġestat ÃŃstica
Ġempreg ado
ĠK urt
Ġsuper vision
ĠConst ru
L I
Ġs enhores
ĠDou ro
Ġrit ual
Ġmus ic
Ġamist oso
Ġ" -
ĠR ena
ard s
lu z
Ġ187 1
ĠPont o
ĠF unc
Ġcaval eiro
Ġbusc ando
ĠâĪ Ĵ
ĠhÃºm idas
T unes
Ġf io
ĠH umb
ĠK ub
Ġgol e
áĥ ĺ
Ġl ob
ĠJ air
Ġvol tando
Ġamea Ã§ada
ĠPesso al
Ãļlt imas
p tos
s om
ĠM ul
Ġex ames
ram ar
Ġcu idar
Ġtro nco
ĠSim pson
Ġmad rugada
un ista
iss Ã¡rio
Ġdesenvolv idas
Ġcoloqu ei
Ġpoleg adas
an go
ĠNo te
Ġinstr ument
Ġfar inha
Ġexpand ir
Ġp ago
ion amento
ĠV ai
Ã¢m icos
af ric
Ġpertenc em
ĠAzerbai jÃ£o
L S
y t
rÃ¡ g
ĠestÃ¡ gios
ĠCan ada
Ġtransfer ida
Ġrever ter
qu ei
ĠCh er
Ġro tas
Ġ9 00
ĠSe ja
Ġvari ados
Ġaltern ativo
ĠGer man
Ġcaptura r
Ã¢m icas
Ġapo nta
Ġhip ot
Ġencont ros
Ã³n imos
Ġceleb raÃ§Ã£o
Ãª a
ant is
Ġat raÃ§Ãµes
Ġrel Ã³gio
st one
ĠI SO
Ġconc ret
Ġfa una
Ġj uvenil
Ġper u
Ġcal ib
rÃŃc ulo
ĠLabora tÃ³rio
Ġ( ...)
et z
Ġaf und
Ġasc endÃªncia
ĠGas par
i Ã¡rios
Ġv ic
Ġapresent aram
ĠTelev ision
re en
ĠO N
Ġ187 5
Ġclassific adas
Ãºn el
Ġhebra ico
H S
ĠM Ãºs
Ġconv ert
Ġmundial mente
ãģ ®
ĠAmb iental
ĠÃįnd ice
Ġ ÃŃdo
ĠF ield
Ġag rav
ĠPen al
Ġbeb idas
Ġveg etal
Ġt Ãºmulo
Ġ13 0
Ġcaracter izada
Ġtransform a
Ġdivid idas
Ġ186 5
ĠAdam s
Ġg rafia
Ġg anho
per t
Ġge ografia
Ġsat is
Ġinstr umental
qu eiro
and as
enc iou
ĠBr un
ĠJer sey
Ġouv ido
ĠP aram
Ġg rÃ¡fica
Ġpre viamente
ĠDe ve
Ġdeter mina
Ġcorrespon dem
ĠestratÃ©g ias
ĠEditor ial
o Ã§Ãµes
ĠMc L
Ġsepara r
p orta
Ġanim ado
Ġbar cos
Ġlut adores
Ġth is
Ġbenef ÃŃcio
Ġperform ances
Ġadvers Ã¡rios
ĠPublish ing
ĠintÃ©rpre te
Ġhor Ã¡rios
Ġal l
ÃŃn o
ĠAm y
Ġav Ã³
Ġtro car
Ġsepara da
Ġverb etes
att an
V P
ag ram
ros o
Ġsufic ientes
L os
is os
Ġn ono
ic anos
ĠCamp bell
ĠProc ess
ĠSho pping
Ġgeom etria
f r
Ġsequ Ãªncias
ĠCla ude
ĠPrincip al
ĠF ant
ĠV aria
Ġsal vo
Ġviol ino
Ġacompanh ada
Ġaux il
Int ern
ĠMada g
C opa
ĠR achel
Ġrece itas
ent s
ĠC ru
Ġin just
Ġmet ro
Ġ186 1
Ġassass ino
ĠEta pa
oc aÃ§Ã£o
Ġcol ecion
erra do
Ġins criÃ§Ãµes
ĠBo x
Ġemit iu
Ġimig raÃ§Ã£o
ĠhipÃ³t eses
Ġco er
Ġprop Ãµe
Ġpes ado
we et
u ada
um ont
ĠS ay
ĠW omen
ch al
ĠSa xe
Ġativ ista
Ġvot ou
Ġa ren
ĠN ass
Ġac identes
Ġcompl ementar
ven Ã§Ãµes
ĠEspera nÃ§a
Ġont em
C in
L ib
in ista
ĠS as
ĠLe itura
ĠRec ursos
riz ona
ĠInd ian
Ġentend i
Ġdeleg aÃ§Ã£o
M aria
e h
Ġma Ã§
Ġdisse ram
Ġagu ard
ĠAlgar ve
ĠHan na
Ġno men
ĠT inha
Ġprim a
esse e
Ġcant a
v et
Ġf Ã£
an ga
Ġinter fer
Ġ14 0
Ġvel oc
Ġcha ves
Ġent ende
Ġper egr
Ġ18 30
ĠbritÃ¢n icas
Ġfogu ete
P O
Ġs ÃŃndrome
ĠC ult
Ġl ag
ĠG ian
ĠGra Ã§a
Ġcole Ã§Ãµes
Ġprecip itaÃ§Ã£o
Ġar cos
Ġsec reta
Ġpat rul
Ġla Ã§os
ĠFic ha
ĠR A
Ġb icam
ĠJ azz
Ġcheg ado
Ġrespon de
Ġocup ando
ĠRa il
ĠMargar et
ĠTen ente
Ġm old
il Ã£o
Ġest abil
Ġ18 40
ĠPes o
ĠSpec ial
c ultura
ĠM ob
ĠB ela
Ġcham ava
ĠAust in
-- --
ĠÃŃn dices
Ġpresid entes
ĠGonz aga
ĠF aro
od Ã£o
raf a
Ġver so
Ġrelat ado
Ġreperc ussÃ£o
ĠHein rich
Ġdo aÃ§Ã£o
oc he
ed endo
ros e
Ġperson al
ĠMod elo
ĠLeon or
Ġt antos
Ġlinha gem
Ġv iram
ĠSt ra
ĠZ imb
Ġpens a
Ġband eiras
Ġferro via
Ġperfe itamente
ĠC ert
Ġac entu
Ġdisput adas
Ġinteress ados
Ġcicl ismo
ĠPesqu isas
ĠV ik
Ġpar ques
Ġad ulta
Ġprev enÃ§Ã£o
a Ã§
er da
Ġt ap
ĠF avor
ĠAn dor
ari us
unid enses
Ġbilh eteria
Ġher Ã³is
ĠaustrÃŃ aco
ĠK as
Ġcol aborou
ĠOc up
M B
et Ã¡rio
ĠW ater
Ġcorre Ã§Ã£o
Ġempre ende
ĠBroad way
us er
ĠPro mo
196 8
Ġpad res
ĠCacho eira
Ġqu entes
Ġproib iÃ§Ã£o
Ġvil Ã£o
Ġrepublic ano
ĠJeff erson
et to
Ġesp ir
ĠMunicÃŃp ios
ĠLÃº cia
Ġm anda
id ia
ha b
ĠU HF
Ġesp ess
ĠMar ta
ver de
Ã³r icas
ĠPol o
Ġtiv essem
Ġreb at
l it
ĠâĢ Į
ĠW y
Ã³g rafos
ĠEsc olas
Ġfranc o
Ġparal is
Ġcir urg
Ġarran jo
um inos
Ġ9 1
ĠLe al
ĠMon umento
ĠToda via
Ġ !
Ġc ana
ĠD ion
ĠN ada
ĠPar ece
Ġcorre dor
Ġdepend Ãªncia
Ġprotesta ntes
ĠAl as
Ġaqu ecimento
Ġtransform ado
Ġorqu ÃŃde
ĠsuÃŃ Ã§o
Ġp ux
ac ar
Ġanunc ia
ĠfÃ¡b ricas
Ġnaz ista
Ï Ĩ
ĠT anz
Ġapar elhos
Ġnot ar
ĠLeg iÃ£o
ĠUg anda
D er
ĠL ad
Ġan uais
ens as
olog ista
Ġdec orrÃªncia
Ġhierar quia
ĠL yn
ĠD ant
Ã³p ez
Ġcontra taÃ§Ã£o
Ġra ro
Ġapro fund
Ġconfig ura
Ã´n ima
Ġmud ando
ĠFre guesia
Ġcorre c
Ġderro tas
Ġ187 6
t ividade
qu inho
ĠH ub
ĠK ate
Ġport os
Ġmarc aÃ§Ã£o
Ġnovel as
ĠTermin al
l ess
ĠC aixa
ĠCon sequ
os ter
ĠN unca
ĠG or
ĠCar men
ĠQu eiro
Ġ16 0
Ġnaveg ador
ĠFerra ri
Ġcanh Ãµes
a ust
ig e
Ġado tada
Ġobt ida
Ġdipl oma
Ġincent iv
de on
Ġcor retamente
ĠCl ima
Ġrelat ou
ĠGu itarra
ĠX uxa
are jo
Ġcul inÃ¡ria
Ġtub o
idal go
ĠBey oncÃ©
ĠGoy tac
Ġp enas
ĠM ast
ĠCam inhos
dut ores
Ġdinamar quÃªs
it ano
ĠAr cebispo
ĠGab inete
I F
Ġo ra
ĠFin anc
Ġtan ques
Ġd ano
ÃŃc l
ta ntes
ĠB Ã³s
ĠT O
Ġesc ultor
Ġ18 48
Ġensin amentos
ĠA to
co a
Ġdia m
ĠThe atre
ĠEstre ou
E E
ĠC ia
Ġcl Ã£
Ġed itou
Ġdez esseis
Ġespect ro
Ãºr gica
Ġefic Ã¡cia
ĠmÃºltip los
Ġ urg
Ġt ende
ho ra
ert ar
Ġger enciamento
ĠLar ry
Ġl i
Ġmud ado
Ġconfirm ada
Ġgarant ia
Ġsupera r
Ġfich eiros
H er
or rog
in amente
ĠL anc
ĠT ara
Ġb it
ĠSt udio
Ġmostra ram
ĠGab ri
Ġincorpo rada
isf Ã©rio
Ġconsecut ivas
* *
av el
enc iada
ĠCl ique
Ġparticip ado
ĠpÃ¡t io
Ġesg ot
Ġlimp eza
m art
Ù Ī
Ġen vel
Ġsal Ã¡rios
Ġgal eria
196 4
Ġurb anas
Ġlux o
ĠC ip
Ã¡ lt
iqu ote
Ġgast os
Ġutil idade
Ġatual idade
ĠPra ga
ĠC ort
ores t
Ġcompet Ãªncia
ĠGra Ã§as
ĠExpress Ãµes
Ġcomerc iantes
ĠperiÃ³d ico
i h
n s
Ġinter m
Ġpl en
Ġdivid ir
ag an
ĠW o
eu x
Ġcer veja
ĠÂ »
Ġenvolv idas
ĠpÃ´ r
P e
b ase
eg ra
Ġbar ro
ĠArg Ã©lia
Ġnatural mente
Ġpac otes
ĠVis ual
ĠNorm almente
Ġembarc aÃ§Ã£o
ĠSor oc
urre iÃ§Ã£o
y u
ĠR as
Ġele ger
Ġlat ina
Ġnorm ais
ĠNeg Ã³cios
Ġend Ã©mica
ĠExter iores
B at
Ġs am
Ġcam pus
Ġmed ia
ĠBow l
Ġexporta Ã§Ã£o
W hat
Ġg ord
Ġat ivamente
Ġdu c
Ġtrans portes
ĠTrabal hou
ĠRevol ucion
Ġtend Ãªncias
Ġdirec tor
Ġvet or
Ġneut ral
F utebol
ĠMar ch
ĠAm aro
Ġver des
Ġpromov eu
Ġmencion a
Ġs antos
re tas
Ġfo z
Ġpal e
ĠCo oper
Ġpres tar
Ġc i
Ġm ÃŃdias
Ġ" ,
ĠÃº teis
Ġsub ir
Ġapar eceram
i quia
ĠG ay
Ġal erta
ĠSoc cer
Ġdefin idas
v iew
se qÃ¼
ĠH orn
Ġcomp r
end ido
Ġsignific ativas
Ġach ei
ĠMatthe w
Ġa ra
Ġp ianista
un idade
Ġes f
Ġdisc ord
ĠCal d
Ã¡pol is
Ġza gueiro
4 00
ĠS oph
pres so
Ġfal ada
Ġinstitu cional
As s
Ġinser ir
ĠBapt ista
Ġc itaÃ§Ã£o
it amento
ĠT ij
ern al
Ġmov ido
Ġ187 3
T er
Ġcat iv
Ġfug iu
ĠFab iano
orreg iÃ£o
n ing
ĠL isa
rit ic
Ġus os
ĠSe an
Ġdefin itiva
ĠComand ante
Ġm ob
Ġf ique
ig Ãªncia
Ġinf lam
Ġlib eraÃ§Ã£o
ĠP asc
ĠG ent
Ġcomun icado
ĠMerc edes
Ġmemb rana
Ġjuris diÃ§Ã£o
ĠV egas
Ġim pre
Ġespecial izado
ĠLÃŃb ano
ĠAdria no
Ġm ito
et ar
Ġass ust
ĠCas amento
Ġacompanh amento
Ġescoc Ãªs
ĠN ad
ĠH isp
ĠVer e
uc ho
olog icamente
Ġmen inos
ĠMan s
itor ia
ĠReg ul
ĠMal i
Ġorg Ã¢nica
er ing
Ġ10 5
Ġpra to
ĠEqu ip
es pect
Ġf ixo
ĠN acionais
Ġr ivais
Ġdesenvolv eram
Ġestre ita
Ġaer op
Ġ187 9
Ġtransm issÃµes
R om
g round
ant ic
ĠSha kespeare
Ġescultura s
l at
Ġm g
Ġdis far
Ġdisp ers
Ġdisp Ãµe
idd le
ĠP MDB
ĠN ord
Ġconsidera va
etro it
ĠRobin son
ĠE arth
Ġfaz endas
Ġfic ado
ĠRec re
ĠRep ubl
we en
ĠM MA
ĠG ia
ĠI d
ĠNa k
Ġsag rou
in dade
ĠP t
uc ano
arg ento
c il
Ġpo ntes
and ade
Ġbiblio tecas
ad eiras
am oto
ĠC ross
Ġre pressÃ£o
Ġ187 7
Ġsen Ã£o
ĠÃģlb um
à ®
Ġde partamentos
qu ÃŃmica
ĠS z
Ġcont Ãªm
vel and
Ġcob erto
Ġarrec ad
ĠN BC
Ġinflu entes
Ġestar em
is i
Ġres ÃŃduos
ĠIn dex
Ġfort una
ĠPortugu eses
Ġemp ur
ĠEpis Ã³dio
ĠLiver pool
Ġcom igo
ĠAss unÃ§Ã£o
Ġ186 3
Ġobt enÃ§Ã£o
Ġbeb ida
ĠBeat les
Ġv inda
ĠR ural
av er
ĠFranc a
ĠSil vio
Ġp h
ĠP itt
Ġluc rativos
Ġfrut as
m ons
Ġ ì
Ġresta bel
Ġ187 4
Ġtrein ar
" -
k ow
Ð ±
he us
Ġpl at
Ġlidera dos
Ġutiliz ador
ĠRem ix
× Ļ
ĠB izant
az zo
Ġdez oito
Ġfemin inas
c ÃŃnio
Ġdem as
Ġreflex Ã£o
ĠhÃ¡b ito
re ia
qu Ãª
Ġnome ados
Ġtempo ral
Ġreal izaram
Ġdec ret
Ġestrutura l
Ġconserv ador
Ġbomb ard
c Ãµes
Ġt Ãªnis
ÃŃ br
Ġinteress ado
n us
Ġa te
rit e
ĠIn oc
dor f
Ġinflu ente
Ġvot ado
Ġagreg ado
Ġbrev emente
Ġd inossa
ĠB ec
Ġpr orrog
ĠTer es
ĠSte v
Ġimpres so
Ġdesenc ade
is Ã©s
de ais
Ġof f
ĠZ en
ĠThe od
ĠPer ry
Ġbar Ã£o
Ġabsol uto
ĠProp ri
ĠP Ã¡
Ġpass ada
Ġestabel ecendo
Ġi Tunes
ĠAugu sta
Ġsubs idi
ĠCaf Ã©
Ġcabel os
g ov
m s
Ġpar ecido
Ġent ram
Ġcri pto
Ġdesenvolv endo
Ġnomen clatura
Ġf res
Ġdesign ada
Ġd ieta
ent imento
ĠC anto
Ġg rÃ£o
az on
Ġmig raÃ§Ã£o
I dent
ĠL Ã³pez
ÃŃs seis
Ġinclu ÃŃdos
Ġconsum idores
Ġentre gar
out ube
Ġlo te
Ġl embro
Ġ18 34
ĠPl analto
Ġer rada
ĠComp lexo
og n
ĠK rist
ete or
Ġopera cionais
B B
W ar
ad io
Ġinst ituto
ĠWik iquote
Ġmed ir
Ġdesempenh ou
Ġving anÃ§a
ĠChip re
Ġde dica
ĠMag no
ĠGra ce
ĠMarc us
Ġrespect ivas
Ġdemonst raÃ§Ã£o
Ġremo nta
at ur
Ġfal so
Ġfal ecimento
Ġsom os
Ġvil as
ĠPri x
B ase
pe ras
Ġpou so
Ã³d ulos
ĠPat ric
ĠInf lu
ĠBras Ã£o
ĠcÃ©le bre
ĠP ut
Ġl entamente
ri en
ĠEm presa
Ñ ı
Ġs y
ĠSe is
Ġinclu ÃŃam
Ġlev ados
Ġ186 6
Ġdiscipl inas
ĠGarc ÃŃa
Ġcom itÃª
ran iana
Ġac hou
Ġdev ast
Ġmens al
Ð° Ð½
ĠComm un
ĠLud wig
W h
ĠAnt io
Ġpalest ras
h ado
Ġf eira
ava ÃŃ
ĠLu ke
Ġenvolv em
Ġlevant amento
M al
p g
ĠS IC
ĠB ez
ato es
Ġrevel ar
ĠOrto doxa
e is
ĠM ens
pl er
anc ou
ĠGra ham
ĠGar y
Ġcolabora r
Ġcidad ania
ĠSum mer
ĠjÃº ri
d ir
Ġinteg rada
alh es
ĠprÃ© via
Ġverm elhos
Ġescolh idos
ĠOr d
ĠAtl Ã¢ntica
Ġcorrespond Ãªncia
E uro
U M
Ġat l
ĠPrinc ÃŃp
ĠLes lie
Ġemoc ional
Ġproemin ente
Ġinspi rou
V ocÃª
ĠO st
ĠEm ira
Ġarm ado
Ġ186 2
ĠPont if
Ġbeb Ãª
ĠFe ito
Ġencom end
G rande
id imens
Ġter Ã§a
Ġ9 4
Ã³n icas
ĠEd die
Ġdi ariamente
Ġprest ig
ĠProte Ã§Ã£o
S on
Ġf atal
Ġem bl
Ġac Ã§Ã£o
Ġestre ito
Ġexpress ar
over y
Ġaustral iana
ĠRelig iÃ£o
Ġrecep tor
Ġlegit im
" /
y p
ĠÃ¡ t
ĠPara ÃŃso
ĠMa u
ĠCab e
M T
in du
ĠT ent
eb er
Ġperman ecem
Ġrefug iados
M ag
R o
Ġt ouch
ĠP asso
ĠF im
ĠAd ela
M ont
z io
Ġ ~
ĠK itt
Ġjude u
Ġpri or
ĠHarris on
ig en
Ġg reve
eg el
Ġdes empre
enco nt
Ġcons elhos
ĠQu eb
ĠSt alin
EI RA
Ġadquir ida
Ġfot Ã³grafo
ĠDe an
Ġw ill
Ġvo taÃ§Ãµes
Ġfut uras
Cl ube
ĠT ÃŃtulo
Ġsu prim
le z
he z
ce de
Ġfal s
Ġjunt as
Ġofer ecido
Ġacad emia
ĠCorr Ãªa
â Ī
ri fic
Ġal ong
ĠPubl icaÃ§Ãµes
ĠBak er
re f
em entos
Ġdem issÃ£o
Ġren om
ĠTo y
Ġpriv ados
ĠFrank furt
ĠMem Ã³ria
ĠBour bon
b aixo
Ð ³
ĠC arac
ĠT rilha
iz antes
ru g
ĠRes pon
ĠEv ans
Ġsen adores
Ġno ut
Ġas a
ĠJo y
ĠCat Ã¡logo
ĠCan ad
Ġprepara do
Ġproib ido
I X
ĠJa gu
Ġt ard
Ġparticip ante
Ġsa indo
Ġconvenc ional
S u
b ie
w ich
ĠA rizona
ĠF en
Ġgara nte
Ġassal to
ĠCÃ¢nd ido
re p
ĠC ul
ĠG ou
ĠAs c
B ro
S ol
ĠN A
Ġg est
Ġne ur
Ġson hos
Ġinicia tivas
ĠFam ily
ĠConsidera ndo
ing e
ow a
Ġequil ib
Ġregres so
ec on
ab y
Ġact ividades
ĠJul ia
Ġcaval eiros
Ġo mb
Ġb ag
Ġ187 2
ĠRub ens
ĠJenn ifer
! ",
Ġt ia
ĠE ur
ĠT enho
ĠCh amb
Ġmod ificaÃ§Ã£o
ĠJul io
ĠSw ift
Ġec oss
ĠBob by
ĠTab ela
Ġs ess
rop ec
Ġvin dos
Ġpar ou
ĠPar ker
ĠSp encer
Ġdo na
oqu ial
Ġencarreg ado
ĠTenn essee
uc ky
Ġtur ÃŃstico
land eses
Ġtom ado
ĠIgre jas
Ġpermit ia
196 6
tu as
ĠPerform ance
Ġurugu a
p df
Å ¾
Ï ĩ
Ġform aÃ§Ãµes
ug ar
ĠCam peonatos
Ġorig inou
Ġemancip aÃ§Ã£o
Ã¡ us
ig amente
ĠN ash
est res
pro duÃ§Ã£o
N ov
Ġm ira
ĠL agos
ĠJ ob
ĠQu ase
Ġgovern amental
Ġarg entina
iqu em
ĠS old
il da
ĠE SP
ĠD im
uc ar
ĠMa h
Ġdesemp ate
Ġsofre ram
t em
ĠL ap
Ġro ch
Ġjog ado
ĠEl ias
ĠStu art
Ġprim Ã¡rias
ĠAt las
ick s
ĠjuÃŃ zes
it ariamente
ĠD ura
Ġcin za
Ãºrb io
ĠPeix oto
T U
ilh eira
P ar
Ġt ive
cam peonato
Ġaprend izado
Ġsuspe ita
ĠThom pson
ĠC andid
ĠS ard
ta h
Ġver ifica
contin ental
t ure
ĠB Ã¡s
Ġcons ole
Ġorgan izados
Ġfra co
design ada
Ġrefl ete
b in
il as
ut s
Ġreb otes
oph yllum
Ġmorta is
F re
m erc
io t
Ãº do
Ġproven iente
ĠA va
ĠN an
po des
Ġres umo
and ia
Ġesc ura
ĠWal ker
Ġwik is
196 3
Ġcomand os
Ġpropor cional
ĠquÃŃm icas
Ġnoruegu Ãªs
D own
am ericanas
ĠP Ã©
iv ista
ĠEm pre
Ã¢ meras
Ġcor da
Ġdiv isa
ĠPal av
Ġconver g
Ġb in
Ġun ir
Ġacord os
ĠLac erda
Ġd ÃŃg
id ando
ÃŃ aco
po de
Ġdes ab
ĠAb aixo
ien ne
Ġlingu ÃŃstica
Ġcontrat ou
Ġcarreg ar
) -
b urn
ĠS N
rit al
ĠCh an
ril l
Ġprom essa
Ġanex o
Õ¡ Õ
Ġda tada
ĠP intura
Ġl am
nes ota
ĠYe ar
Ġopt ou
Ġjes uÃŃtas
Ġc adas
ĠPre ta
Ġbomb as
P at
s s
re ra
ĠP Ã¡t
ĠCom para
Ġad iante
ĠInf ante
ĠCaval c
ĠLi je
ĠMÃ¡r cio
( "
er Ã¢ncia
ĠSt ock
Ġparticip am
Ġmod ificado
Ġtel espect
Ġsab endo
ĠTom atoes
Ġaleg ou
d icaÃ§Ã£o
m ico
ĠH ig
ĠhÃ¡b itos
á ¹
Ġn essas
ĠP atro
Ġperman Ãªncia
Ġang lo
ado u
Ġin adequ
Ġen orm
ĠNe y
Ġmand ar
ĠHom ens
ĠPatr ÃŃcia
Ġd icionÃ¡rio
Ġv endo
ec ado
Ġh it
ĠGu arani
ĠEsp acial
ĠPo int
Ġcruz amento
Ġang ol
F inal
Ġsu eca
Ġdes ap
av en
Ġplanej ado
Ġrevolucion Ã¡rio
en za
ĠT iro
gu i
Ã´ r
ĠMarac anÃ£
ĠSqu are
g rÃ¡ficos
p ic
ill on
Ġtransform ando
Ġd um
Ġcr ista
ĠIm agens
Ġtermin aram
Ġocorr ida
Ġpot Ãªncias
n ar
Ġ- ,
cer ca
Ġfib ras
an us
ĠJ ude
Ġcen Ã¡rios
Ġantecess or
ĠP ir
Ġesp ero
ĠUnivers itÃ¡rio
ĠEstre ia
ĠB ien
ĠDall as
n orm
ĠR ond
ĠF itz
ist s
Ġdial eto
ĠAfric ano
v re
ĠP ink
ĠMar echal
Ġaut ob
Ġsec reto
ĠPÃºbl icas
Ġdesp esas
Ġatmos f
ĠDeput ado
ĠBad en
Ġplay offs
ĠK han
Ġmar t
Ġtr ig
Ġcabe Ã§as
ĠCrist iano
ĠPod emos
Ġafric ano
T rans
Ġc rate
ĠIn dust
Ġcons piraÃ§Ã£o
iss or
ĠKan sas
F e
Ġd uma
ar en
196 5
Ĥ ¬
ĠD od
ĠSe de
Ġneg ou
Ġsel et
Ġquart os
Ġluc ro
Ġcoinc id
id encial
Ġsobre n
Ġdivulg ou
ĠmÃ¡r more
Ġrecept ores
m ac
v ersÃ£o
Ġper feita
ĠMc G
C at
S em
ras h
Ġim pede
Ġencont rei
umb er
ĠBel g
ĠPi etro
ĠTest em
æ ĸ
Ġp erna
Ġprot Ã³tipo
Ġsurg ir
Ġdep Ã³sitos
asto ral
ĠMo to
Ġsobreviv eu
ĠGanh ou
O b
d ico
Ġ ).
Ġsem anal
jet ivos
Ġderro tando
encia tura
Ġelabora do
Ġter Ã§o
pos a
Ġcor redores
pr incip
Ġtre ino
ĠAlem Ã£
Ġfech amento
Ġcir ÃŃlico
u j
est rada
und i
Ġmat ric
Ġdetermin ou
Ġ186 9
Ġcho que
ĠPresbiter iana
ĠH im
Ġext raÃ§Ã£o
Ġsof ist
Ġestad unidenses
Ġcumpr imento
ĠProc urador
ĠLy on
ĠApresent a
ĠJohann es
Ġas pira
era nos
ĠÃ¡ r
ĠSet Ãºbal
Ġrodo vias
ocol ate
Ġmural has
c ob
t w
ĠCh allen
Ã´m icos
ĠLeon ard
Ġs ÃŃl
Ġda qui
ĠM Ã©to
Ġsu posto
ver d
ĠRa in
Ġrevel aÃ§Ã£o
Ġdispon ibilidade
Ġdiplom ata
ĠB ola
ĠT Ã¡
Ġtom aram
Ġapren deu
Ġinser Ã§Ã£o
ĠMur phy
ĠCle veland
Ġdiagn ost
in dex
Ġf ei
Ġ1 19
ĠD anny
Ġpres as
Ġev ac
10 1
Ġprojet ada
ĠMo isÃ©s
Ġdiretor ia
ĠSha k
igh ter
h el
al iz
ur na
Ġar ra
Ġdesc rev
ĠLe x
Ãªn ios
Ġestabel ecidas
ĠQuad ro
Ġl ento
et ive
ĠJ in
des de
Ġlev es
ĠAss untos
osp el
Ġespet Ã¡culos
ĠsÃ³l ido
Rev ista
Ġreel eiÃ§Ã£o
ĠAntio quia
. ",
L i
v ent
ĠH at
Ġreceb idos
il son
ĠE voluÃ§Ã£o
ĠWall ace
Ġsobera no
Ġmanusc rito
i rando
ĠIn Ãªs
Ġru p
ĠS car
ed itar
Ġexist iu
Ġperceb eu
ĠÃ³t imo
Ġmanusc ritos
ĠÃ¡rb itro
re go
ch am
") ;
Ġrep ara
Ġprec urs
ĠLus itana
al is
Ġf ebre
Ġcont rib
ĠQu into
ĠVal ley
Ġmac ho
Ġpec ul
ĠdomÃ©st ico
Ġincap az
ura i
anc ho
ĠRo que
Ġfi Ã¡veis
core ano
Ġdesloc amento
Ã ¬
um ba
ĠY osh
Ġsol t
Ġren Ãºncia
Ġpais agens
Ġsecund Ã¡rias
Ġconsecut ivos
" ",
M at
al ismo
Ġsur gem
Ġmoviment aÃ§Ã£o
L o
L et
ĠB irm
ĠO ak
us as
Ġrev ert
ĠGra y
ĠBot Ã¢nica
Ãºnc ias
Ġcoron avÃŃrus
Ġo pos
al so
ĠMar inho
Ġch ances
ĠIn aug
ĠRecord es
ĠPont os
ĠEncont ra
ĠQueiro z
19 60
ĠAm igos
Ġsocial ista
ĠQue ens
Ġpun k
B issau
Ġde dos
Ġa onde
Ġn Ã³
ĠE cl
ul sÃ£o
ĠT up
Ġalg odÃ£o
Ġr id
Ġinform a
Ġir landÃªs
ĠSalom Ã£o
f ranc
Ġestrang eira
Ġtestem un
ĠApol lo
Ġ io
ĠJ en
ĠAn ag
Ġinterpre taÃ§Ãµes
Ġretorn ando
ĠConst ruÃ§Ã£o
Ġsuje itos
M art
qu em
ĠL ow
ĠL una
Ġdistribu ÃŃdas
ĠSo ul
gra phy
ĠL loyd
Ġj ul
Ġ18 59
Ġmin i
Ġexecut ada
Ġdefend endo
ĠSus an
en ix
ando m
ĠCal das
Ġconfi Ã¡vel
Ġmerg ul
D I
ĠN oroeste
ĠG om
Ġgovern adores
Ġadminist rado
Ġperd ida
Ġacess ÃŃvel
J ust
c ica
Ġs or
ĠR eno
ĠÃ©p ocas
ĠSil ver
ream ing
ĠRot ten
E UA
M I
w al
Ġd iga
un de
ĠD ob
ed idas
Ġac idental
Ġconsidera velmente
Ġmest res
Ġdesast re
j unt
o ia
Ġrec uper
ĠMont es
Ġident ificados
don da
Ġaleg ria
ĠAur Ã©lio
F S
ot hy
ĠFo z
Ġto que
196 2
es o
Ġf om
nc a
ĠD etroit
Ġpro jeÃ§Ã£o
Ġsuc edida
Ġrev og
Ġtrib uto
B usca
Ġre aval
Ġmil itantes
Ġcrit icado
ĠInc lu
ĠSpr ing
Ġimpul so
C N
P I
a il
Ġus aram
ĠSe ul
Ġho t
Ġtrib ut
ĠPass ou
ĠinÃ©d ita
il eu
Ġin espera
ion Ã¡rios
uro ra
ĠSe Ã§Ã£o
ĠTe ologia
Ġreconhec idos
ĠEmpres as
Ã ½
Ġg ri
co d
Ġper io
ĠSu p
Ġdist anc
Ġprecis ar
ĠSin dic
ĠavanÃ§ ar
ĠG ara
ĠAm ster
Ġtr il
Ġtri Ã¢ngulo
Ġhard ware
Ġvog ais
P s
f ul
å Ń
al he
um ÃŃnio
ĠG ut
Ġcam a
Ġrom Ã¢ntico
ĠSim Ã£o
Ġlut ando
Jo hn
C har
Ġe rud
ĠF le
ĠV iva
ult Ã£o
ĠFl ash
Ġpat rimÃ³nio
ĠLor enzo
Ġbrig a
ĠC lay
ĠWh at
Ġbizant inos
Ġpromoc ional
ĠF rom
Ġant agon
Ġinclu ÃŃdas
Ġgra de
Ġlegisl ativo
ĠNor onha
Ġdram Ã¡tica
ĠS lam
ĠF at
Ġdesc ritas
ĠCont rol
Ġabrig ar
Ġvira da
ĠP rat
ĠL inda
Ġinv enÃ§Ã£o
ĠRec entemente
Ġrap az
Ġhaver ia
C he
ĠRec onhec
Ġjunt aram
ĠCin emat
ĠS ra
Ġempres Ã¡rios
Ġfig ur
Ġmult i
Ã³c itos
Ġrespond ida
Ġl Ãª
Ġin er
ĠI ugoslÃ¡via
Ġad esÃ£o
ĠCons ult
val do
Ġvar iar
Ġrit uais
Ġat itudes
ĠMa k
Ġestim ativas
?? ?
ĠPeters burgo
ĠP O
ĠN in
ĠAr ro
Ġw as
adr Ãµes
ÃŃr culos
Ġrug by
Ãª vÃ£o
emb ora
ĠMin d
Ġtermin ado
F ran
is ebol
ĠG Ã©n
amb ul
Ã¤ r
ĠIndivid ual
Ġc Ãºpula
Ġemb aixada
Ġher b
Ġefet ivo
Ġconsum idor
d r
Ġm ess
ĠM ina
hec o
Ãªm icas
ĠdomÃ©st ica
Ġvaz io
ĠTob ago
umble dore
ĠPok Ã©mon
C idade
i Äĩ
ĠA ux
ĠE th
ĠL emb
Ġconc orrÃªncia
Ġw h
ĠPer d
Ãºc ha
Ġqueb rado
Ġdescul pas
NO CC
ĠJama ica
ĠL our
ĠAl ente
Ġnot ic
Ġsent idos
ĠMe tac
ĠCatal unha
ĠPert ence
ais e
iz ante
ĠEm my
ulg ar
ĠLeop old
Ġfarmac Ãªut
Ġd ren
ern er
ĠIm ag
Ġvend endo
Ġvari adas
Ġfra ca
Mus ic
ĠTeod oro
es ley
ĠB urg
ĠF lu
ĠCol et
Ġpal m
Ã¡c ter
Ġdet Ã©m
Ġdiplom Ã¡ticas
ĠTerrit Ã³rio
Ġacons elh
C asa
Ġm Ãº
Ġv ÃŃnc
Ġh orm
Ġempre gos
ĠGru pos
Ġlevant ar
Ġrum ores
ĠMath emat
it ic
ĠD umbledore
ĠEst ÃªvÃ£o
ĠÃģ guas
ĠPot ter
at is
ĠF iz
Ã¡l ogos
Ġpatroc ÃŃnio
ĠJ uvent
Ġir iam
Ġgen e
Ġimpera tivo
Ġaz uis
Ġpredefin iÃ§Ãµes
Ġ Ã³s
ĠN eb
Ġex posto
ĠCol omb
ĠSal es
Ġdefin itivo
ĠKn ight
ĠOtom ano
J e
ud as
Ã³t icas
Ġcomport amentos
ĠPod em
ĠAmaz on
ĠMur ray
ĠUrb ano
Ġt ons
art es
Ġdefin iu
ĠInter pre
Ġquart el
y ne
ĠG R
Ã¡l ico
ĠFre qu
ÃŃg ena
Ġremanesc entes
Ġcorpo ral
ĠRes oluÃ§Ã£o
Ġcat Ã¡logo
Ġofer ecendo
Ġsed iado
Ġgram Ã¡tica
Ġhouv esse
ĠC AR
ĠL emos
Ġb rut
ac ha
ĠSub div
Ġhorizont al
ĠA leg
Ãª ne
ab ama
Ġdest inados
udo l
Îº Î±
Ġp uro
Ġn isso
Ġg rit
Ġal arg
B ol
Ġg ato
ĠManh attan
ĠAssembl Ã©ia
Ġt im
ĠM ang
ĠM oss
Ġre cl
ĠB ass
Ġpass ap
ĠNa quele
ĠFl and
Ã¢nc io
z ia
Ġpun iÃ§Ã£o
ĠVirg inia
ĠGuer ras
Ġsant uÃ¡rio
er ou
Ġsof rendo
ĠRevol ta
Ġd ro
or is
ic ho
ĠM ut
ĠM Hz
ĠV Ãªn
ĠPer gu
ĠBro thers
ĠInf elizmente
ĠHom en
alt is
ĠD ennis
Ġad jetivo
ĠEd ition
Ġess Ãªncia
ĠRodo lfo
Ġtort ura
qued os
Ġ12 5
Ġbem ol
Ġmin eraÃ§Ã£o
ĠArn old
ĠMetac ritic
B ra
Ġco ver
Ġf um
Ġj unÃ§Ã£o
ĠK ap
Ġaut ent
Ġlig ando
ĠMcC art
ĠMis ericÃ³rdia
Ġque ix
ag i
ev es
ĠsÃ³ dio
ĠMo ham
Ġpromov e
Ġbloque ado
W A
Ã©c t
ĠEx cel
Ġrefer indo
ars Ã³via
Ġcred itado
ad uras
ar Ã©m
Ġm issa
ĠT ira
ĠPr ince
Ġdisput ados
ĠGil bert
ĠPS DB
Ġelog ios
p Ã©t
Ġc Ã¢meras
Ġser p
Ġvis Ãµes
Ġespera ndo
ĠBiodivers idade
Ġagrem iaÃ§Ã£o
ancou ver
B ig
Ġsofr ido
Ġanf itri
ĠHunt er
D R
ĠA T
ĠL orde
Ġg ame
ĠavanÃ§ os
ĠNic olas
ĠOpera Ã§Ãµes
ĠFreder ick
Ġentreg ou
f atos
ĠN Ãºcleo
Ġclass ificar
Ġbas quetebol
Ġexcl usÃ£o
Ġofic inas
it ies
ĠS ens
ĠCh el
Ã¢n ime
ĠGe ogrÃ¡fico
Ġorient ais
Ġhaver Ã¡
ĠColl ins
Ġco ral
Ġt antas
ri entes
Ġ18 35
orre ndo
ĠMin nesota
Ġresol ve
Ġrad icais
cha ve
Ġgr Ã£os
Ġn ona
ĠL ock
and in
Ġus avam
Ġenvolv ida
Ġestim ativa
ĠFut sal
ĠEsqu adrÃ£o
Ġreceb ida
Ġexempl ar
Ġdestac ados
ĠMad ison
Ġdo aÃ§Ãµes
ru pt
Ġpol uiÃ§Ã£o
Ġelimin atÃ³rias
Ġnam orado
ĠBlu es
Ġdemit ido
e as
s Ã©rie
Ġd adas
Ġcom edia
ĠF rit
Ġal co
Ã©re z
ĠhÃºng aro
Ġm ista
om y
Ġbor der
ĠEvang elho
os ev
ĠL apa
ĠG aga
pl ica
ĠVer betes
ĠHers chel
A ra
e e
ĠL em
ĠW el
Ġroman as
R ep
b ur
an ie
ĠA G
il iv
ĠL INE
ria no
Ġcar Ã¡cter
ĠDes p
Ġforn ecimento
tex to
Ġprotagon istas
ĠMaced Ã´nia
Ġ if
Ġpro to
ĠestÃ¡ tuas
Ġindic ativo
Ġincom um
ĠPel Ã©
Ġassist Ãªncias
ĠCole Ã§Ã£o
Pres idente
ĠAdela ide
ĠP age
ĠL enn
ip pi
19 59
Ã¢m ide
Ġcha pa
Ġcad eiras
S eg
Î ´
Ġt ru
ĠT ipos
Ġpos itivos
Ġexpl ÃŃc
Ġimedia ta
obo x
Ġhistor icamente
Ġmong es
on ÃŃm
Ġna uf
Ġes mag
ĠAnt rop
Ġpes ados
ĠIs lÃ¢ndia
ton s
Ġsab em
ĠHero ÃŃsmo
ancel er
Ġaerop ortos
Ġencont ravam
Ġtur ma
ĠRes ultado
Ġexib ir
ĠFor ce
Qu ando
Ġpreocup aÃ§Ãµes
Ġconver teu
Ġc aixas
Ġpo etas
amb o
icas se
Ġdepend ente
ĠGeorg es
Ġrast re
ĠVÃŃt or
Ident ificador
Q U
gu ei
Ġgarant indo
å ı
Ġno ca
ĠG Ã³
ĠCar to
Ġvide o
ĠHud son
ia to
Ġesc Ã¢ndalo
Ġab rindo
und as
Ã¤ n
ĠPlat Ã£o
ĠHumb erto
es ch
do xo
Ġh ÃŃbr
19 58
ĠGra to
Ġengenh eiros
ĠWar ren
orou gh
Ġmanifesta ntes
rÃ³p ole
pr imento
ĠFerro viÃ¡ria
Ġdesapar ecimento
Ġdial etos
u ando
Ġdec ad
Ġpes ada
Ġrelat Ã³rios
ĠAdol fo
å °
Ġno ites
Ġsof rimento
Ġdesenh ada
idel idade
ĠW oman
Ġim Ã³vel
Ġopera do
Ġtest ar
Ġrad ial
Ġcomplex as
Ġdomic ÃŃlios
Ġtrag Ã©dia
U SP
j eiÃ§Ã£o
Ġa i
ĠM O
Ġgovern antes
ĠWik is
Ġma us
Ġcria turas
Ġacont ecendo
Ġfoto graf
Ġacompanh ou
Ġm eias
ĠS iqueira
Ġal vos
icos e
Ġhom ic
re dos
at aÃ§Ã£o
Ġre esc
Ġj ura
ĠQu arta
ĠCol ombo
Ġneut ro
g aro
Ġs ang
ap ro
Ġexecut ados
Ġp om
io m
at on
Con us
ĠK om
our s
Ġcontrol ada
Ġinser ido
Ġnegoc iaÃ§Ã£o
ĠErn st
W orld
w ara
Ġf uzil
eg ovina
eb e
Ġilust raÃ§Ãµes
ĠSac ro
Ġisrael ense
ad Ã©l
Ġse qÃ¼
Ġat rap
Ġinst ant
Ġofer ecem
ĠAdol f
d ale
ĠS ed
ĠR Ã©
19 50
atura is
Ġcompl icaÃ§Ãµes
Ġbloque ar
Ġafast ado
É Ľ
Ġ Ø§ÙĦ
ro id
un i
ĠN ilo
og s
ĠAl iados
ch ester
Ġgen eal
Ġelet ricidade
ĠCou to
Ġvas os
Ġaf inal
Ġmod ificar
mos s
Ġprat os
Ġencerra r
ĠTrin idad
R ol
ÃŃ bal
Ġb ut
Ġcont est
ĠMar ino
Ġch Ã¡
Ġra ra
Ġexper imento
ĠGre y
Ġcomando u
Ġreg isto
ĠAb adia
ende d
Ġdefin iÃ§Ãµes
Ġconquist aram
196 1
ĠelÃ©t ricos
gru po
. (
T om
qu ando
Ġt artar
Ġv ass
Ġesp aciais
Ġch ar
Ġcur tos
han na
Ġintera Ã§Ãµes
ĠdomÃ©st icos
Ġnaz istas
Ġ ÏĢ
ĠD isco
Ġsu posta
ĠW u
Ġhom e
Ġconv idou
Ġterc eiros
Ġinstal ar
Ġprat icar
Ġqueb rar
D r
ĠA sa
el amente
ĠPo esia
ĠBan gl
ioc es
Ġmel odia
ĠUs ina
ĠAdv og
Ġharm onia
ĠLINE AR
Ġc itando
ĠF ria
se udo
Ġ18 55
ĠSo y
Ġpri oridade
ĠMitch ell
Ġs ino
Ġf la
ĠH avaÃŃ
Ġat ende
ĠInst agram
rag on
Ġorto grafia
jog ador
Ġm ÃŃsseis
em ias
ĠC ay
Ġque ijo
ĠM esa
ĠLu ta
Ġsubter r
p esso
ĠP AR
ĠTer ry
ĠBal tim
ĠPac heco
Ñģ ÑĤ
ĠMedia Wiki
adÃ©l fia
ĠM ega
Ġqual idades
ĠTV I
Ġgera do
æ ľ
ĠV a
Ġ18 57
Ġforn ec
Ġfech ar
ĠItal iano
Ã¡rqu ico
obili Ã¡rio
Ġneer landÃªs
Ġtouch down
Ġs k
ĠVis eu
Ġgin Ã¡stica
ĠPontif ÃŃcia
P D
S ec
ĠC Ã©u
ĠB ronze
ĠAr senal
Ã¡s coa
ĠAc ess
ÃŃnc ipes
Ġcirc und
Ġterre mo
Ġ rif
ĠD anÃ§a
se de
Ġir re
Ġgra Ã§a
Ġarm ados
ĠHill s
prim eiro
u ka
ĠF ame
Ġap Ã³st
Ġen ga
ĠVer dade
Ġpl analto
Ġrom p
Ġpens ando
Ġcel ulares
ĠAlexand ra
ĠGran ada
D em
Ï Į
Ġap elo
Ġatrav essa
ĠCB F
Ġapropri ado
Ġmission Ã¡rios
ĠR uth
Ġ18 22
Ġcl and
Ġsom bra
ĠGo ul
Ġtermin ais
Ġimprov is
T ER
ĠA ff
ĠM all
ĠR ia
Ġquad ra
Ġtab ul
Ñ ĭ
it ions
ĠD if
ĠG un
ĠVan essa
Ġevol ut
ĠBened ito
ĠP un
te o
Ġdist Ã¢ncias
quis iÃ§Ã£o
Ġacess ar
ĠJog adores
ĠApar ecida
M el
n ell
Ġt ij
Ġref rig
ĠChrist mas
ĠP ul
ion istas
ed ente
og l
Ġ18 58
ena u
ak a
Ġexpl od
Ġequip ado
ĠMed eiros
ĠSem if
ĠBrand Ã£o
r idades
s ka
Ġn ativas
st al
Ġb u
ĠCon junto
Ġpens amentos
Ġcres ce
ĠBast os
H o
Ã¡ p
ĠB acia
ĠEnc iclopÃ©dia
Ġregress ou
ĠP Ã©rez
ĠO ur
Ġac aso
Ã©r g
ide a
Ġbat eu
Ġindic ou
ĠComun icaÃ§Ãµes
ĠJe ovÃ¡
z el
in ville
Ġem oÃ§Ãµes
ĠP RO
ĠO per
Ġpromov ida
Ġfech ou
Ġtraduz ir
ĠLt d
ĠBaltim ore
Ġw e
Ġsens ibilidade
ĠmolÃ©c ula
g ie
w all
ĠP aixÃ£o
po d
Ġass entos
Ġtr ic
ĠinÃ©d itas
stad t
ust os
Ġsol ares
Ġfund ar
Ġpra Ã§as
Ġcomerc iante
Ġti rou
at Ã¡rio
iv aÃ§Ã£o
reg on
Ġinflu encia
ĠBÃ³s nia
Ġa feta
st rong
Ġpos ta
ĠPa Ã§o
Ġfl ag
ĠG O
Ġneg ativos
ilh Ãµes
Ġprev en
ĠCheg ou
osev elt
era n
uri que
Ġnoca ute
ĠG rim
era tion
ot ti
endo u
Ġab at
Ġinter rog
Ġconvenc er
Ġeconom ista
ĠC oc
ĠL eb
ĠI G
Ġsom b
ĠpÃªn altis
ĠG T
19 39
Ġret ratos
Ġobrig aÃ§Ã£o
Ġfront al
ĠSegu indo
ĠpartÃŃc ula
Ġtera pia
Ġmedalh ista
g art
Ġno iva
ob ia
if olia
Ġ18 36
ĠCh ang
isc ons
Ġtur cos
Ġmon op
Ġmagn Ã©tico
r g
ĠV eg
ĠK ings
Ġab rigo
ĠY ang
Ġexib idos
Ã³f ilo
Ġprovoc ar
Ġsess enta
ro ugh
ĠS ever
ĠP y
ĠT ip
ĠJ ong
ĠPre z
ier re
Ġdesign er
ĠHel en
ĠCamp ista
Ġmencion ada
Ġtera p
Ġopon ente
ĠR ud
ĠL ane
et ic
eg aÃ§Ã£o
ĠTh or
ĠMes o
ĠNat han
Ġalfab et
Ġcalc ular
w itz
ia bÃ¡
ic ius
ĠG ana
ac iÃ³n
Ġan da
uc al
ĠPe ople
Ġcrist Ã£s
Ġ40 4
Ġcrit ica
Ġassassin atos
Ġevent ual
ĠAth let
i Ã¡t
Ġm Ã©rito
Ġb elo
ĠEm ma
ĠInt era
Ġcontin entes
Ġdesapar eceu
Ġacert ou
ĠMar iano
Ġqu Ã¢ntica
ĠP adrÃ£o
ĠÃ ĸ
ĠV arsÃ³via
ĠSe a
ĠPl ace
Ã¢nt icos
Ġm entais
eg er
ĠRe yn
Ġencont rando
Ġdiv ert
Ġrepresent ados
Ġexp or
Ġident ifica
ĠDel ta
Ġflu ido
ĠEspanh ol
Ġgosta va
Ġn ativo
Ġmar quÃªs
Ġdesc ritos
Ã¡t il
ign e
ok a
Ġatu aÃ§Ãµes
Ġvenc eram
ĠLegisl ativo
Ġesbo Ã§o
el op
". ..
Ġpol o
Ġtr ilhas
Ġmass acre
Ġvig iar
ĠDrag on
Ġselv agem
c ell
Ġt ua
ĠC is
ch y
enc iados
Ġcri ei
Ġpresid enciais
id ium
ĠPro gress
Ġnatural idade
Ġatac ado
ĠE rit
Ġfal ecer
Ġvo ar
imb urgo
US A
ĠL ÃŃder
ist emas
ida y
ral h
ĠMass a
Ġj antar
ĠW he
Ġart ÃŃsticas
ust ent
Ġneg ativas
ĠNic ol
Ġproteg ido
IB GE
Ġdissol uÃ§Ã£o
ĠBrig ada
Ġtelespect adores
j un
Ġs enhora
ĠM inho
ĠT ipo
ĠK in
Ġpres taÃ§Ã£o
Ġvers ion
ĠPal ma
ĠFantas y
Ġlib era
Ġautom Ã³vel
ĠMaur ice
Ïĥ Î±
ĠFrancis ca
Ġleal dade
Ġb anho
Ġcol igaÃ§Ã£o
tor s
Ġrom Ã¢ntica
Ġcolabora dor
ĠID H
ĠJess ica
inot ÃŃcias
c us
ĠE X
Ġen vio
ĠcomeÃ§ ado
Ġpes os
Ġalte rada
ĠRen Ã©
Ġcunh ado
ac ta
Ġmar rom
Ġderro tados
Ġlog otipo
ĠAlente jo
g rande
Ġb lu
ĠV ancouver
ĠEm an
ot ado
Ġ18 54
Ġrec orrente
Ġprov incial
Ġquer endo
Ġexerc ÃŃcios
Ġabandon ada
ĠMach ine
Ġabsolut amente
d if
Ġt ig
Ġpar Ã¢metro
ĠMag ic
Ġexecut ivos
ĠSy m
Ġapont ado
Ã¡ lez
Ġdiv ina
ĠRenas cimento
M as
f io
v ios
x i
at ic
Ġcont abil
Ġdis posto
ĠlanÃ§ ando
Ġsuper visÃ£o
let as
Ġeduc acionais
ĠRev iew
C R
P aris
ĠP ent
ĠW ant
ĠTom my
Ã³c rates
rel Ã³gio
8 00
B el
ĠS ri
Ġconfirm ar
Ġexig Ãªncias
ĠÃ¡c idos
Ġgrat uito
ĠCov id
Ġabund Ã¢ncia
Ġprost itu
a ugu
ĠB abil
Ġlig ar
Ġnasc ente
Ġresol v
Ø ¯
ĠB ran
ĠF ama
ĠAr co
Ġjog abilidade
Ã¡r m
Ġflores tal
Ġregul amento
Ġexpand iu
Ġpros per
ĠÃįnd ias
iction ary
ĠBizant ino
Ġf ina
it led
ĠC ase
ed i
ĠAl ma
Ġra cio
ĠCal endÃ¡rio
ĠR h
Ġenc ant
Ġroman iz
Ġdout r
â Ĩ
Ġ" Â
Ġb orda
Ġpoder osos
Ġdesenvolv edores
Ġtel as
ĠMil an
Ġresta urar
Ġsecund Ã¡rios
ĠÃģra bes
Ġd Ã©
Ġf ara
Ġb ale
Ġgovern ou
ĠLor ena
Ġpil ares
Ġpeda Ã§os
ĠCra ig
A st
x as
ĠL ado
ĠH ad
ĠHerm ione
Ġdiscrimin aÃ§Ã£o
e do
Ġg Ãªme
ĠH as
end ia
ĠPart y
Ġanim ada
rac ha
ĠVel oso
Ġpecul iar
M od
iz ation
ĠEspec iais
Ġprofund as
ĠTrabalh ista
B u
emb erg
Ġren der
Ġmap e
Ġpion eiros
ÃŃfer o
Ġdista ntes
E B
ĠJ i
ĠAn ÃŃbal
ĠLu anda
Ġorgan izadas
Ġcandid ata
Ġesqu el
Ġatra iu
Ġsag rado
Ġt upi
ĠA V
ĠR ios
Ã³t eles
c c
ĠV ing
Ã©c io
/ ,
Ġn estes
Ġpart ilh
ĠEs planada
Ġmodern izaÃ§Ã£o
Ġexpul so
Ġidos os
h ia
Ã Ĭ
ĠV eiga
Ġdiv Ã³rcio
ĠOr t
Ġtec lados
Ġcapac idades
Ġdivid iu
Ġbilh Ã£o
ĠSand ra
Ġcurios idade
ĠRal ph
Ġcon fede
ĠH erc
Ġrec ip
ĠCr is
Ġinstal ou
ĠMor eno
Ġmem or
Ġbio grafias
Ġabando no
vid Ã©u
lah oma
ĠContempor Ã¢nea
r Ã³i
est inos
ĠCl inton
Ã³l oga
ĠSen na
ĠNenh um
f ante
al em
Ġ18 51
Ġmon ge
ĠRo osevelt
ĠIngl esa
ĠFin anÃ§as
ĠExt ra
Ġefet iva
ig ma
ess ion
ĠNe il
T erra
ĠIn do
Ġev itando
Ġdeix am
Ġatribu iÃ§Ã£o
rÃŃ guez
ĠDomin icana
Ġholand eses
it m
rÃ¡ ul
ĠPr Ã©mios
Ġremo del
ĠIta p
Ã§ Ã¡
Ġda tado
et Ã¡ria
Ġpal estra
Ġrelat ivos
Ġlivre mente
Ġesqu ad
Ġqueb rou
ĠP inh
on da
end entes
Ġrec re
Ar g
Ġdeclara da
ĠCrist Ã£
Ġenfrent aram
Ġinfant is
Ġintermed iÃ¡rio
ĠFight ing
Ä Ļ
ĠK ey
ĠJos e
ph ia
ovi Äĩ
Ġagrac iado
ĠLG BT
Ġcar reiras
ĠY a
Ġapar ecendo
Ġampl iar
aran j
Ġdout or
Ġorqu est
ĠSpe ars
Ġf ria
ie ve
Ġacont ecimento
Ġcirc uitos
ĠBorg onha
Ġpseud Ã´nimo
t an
Ġn Ã³r
Ġf us
at su
enc iosamente
Ġmant iveram
ĠCent ury
ĠFern Ã¡ndez
Ġobrig atÃ³rio
ĠMetropolit ano
Ġdistingu ir
Ġtras eira
M eu
z z
ĠT ran
Ġsu ave
Ġform adas
ĠSim one
ĠSi erra
e ur
Ġd uro
Ġc ÃŃrculos
ĠB ren
Ġint enÃ§Ãµes
Ġtr iste
Ġcri adores
dut os
Ġsou be
ĠDÃ©c ada
ĠAndor ra
ra x
em Ã¡tico
ĠT rem
19 53
Ġdifer encial
áĥĲ áĥ
p id
ĠD ak
Ġent endo
Ġsegu idos
Ġver ificaÃ§Ã£o
Ġlim itaÃ§Ãµes
Ġcontribu i
ĠAmb as
Ġrac ial
Ġpatri arca
Â Ń
Ġs r
ĠL ara
ĠL ak
sa y
ĠmÃºs culos
Ġdec ol
ĠPrim avera
Ġpec uÃ¡ria
! )
Ġd ie
Ġco uro
Ġest ima
ĠHe avy
Ġsustent Ã¡vel
ĠCÃ³r do
b anda
t it
Ġt ram
ec ha
ov ich
Ġcont ing
ĠGu ide
ĠSe attle
Ġtro fÃ©u
ĠSol o
yl an
Ġelev ados
EN T
ĠDecl araÃ§Ã£o
ĠD este
est ruturas
Ġcl ero
Ġsub m
ĠRes ende
Ġgent il
d an
Ġc itadas
Ġt elhado
Ġl iqu
Ã³ ia
ma in
Ġ10 2
ĠCop as
ĠFa una
ĠestratÃ©g ica
Ġconver ter
O este
Ġa mo
or eto
Ġex pon
Ġentre gues
all es
ĠVal le
Ġmort alidade
Ð° ÑĢ
ĠOff ice
ĠGuad al
i ja
l ight
n ico
Ġal v
ru da
Ġte Ã³rico
Ġrev ers
Ġconsegu i
ĠDem ocracia
ĠCap ÃŃtulo
Ġatribu i
Ã©re os
ĠLitu Ã¢nia
A o
t ria
ĠA aron
ĠR un
Ġ18 56
ĠSe p
Ġregist rar
ĠRod rÃŃguez
Ġdenom inaÃ§Ãµes
Ġajud Ã¡
ĠRot h
ĠIsl Ã¢mico
Ġbura co
M adeira
i ya
Ġcant ada
ÃŃg enas
ĠMod el
1 20
f iz
Ġb os
Ġcon ferÃªncias
he Ã§o
enc ar
Ġespecial izados
Ġatras o
v ira
Ġco efic
ai or
Ġcont atos
Ġar rast
Ġac ol
ĠK ay
ĠAn jos
ĠQu ir
ĠFl am
Ġcur v
Ġmant inha
ĠavanÃ§ ado
ĠPetr Ã³polis
Ġp enso
re o
ĠB uck
Ġbar ragem
ĠTele f
+ +
b ophyllum
Ġt eu
ĠM Ã¡g
ĠRay mond
ĠGonz Ã¡lez
Ġcont acto
ĠCent re
Ġguitar ras
Ġcole Ã³pteros
ĠNob re
Ġconex Ãµes
Ġinfin ito
is ÃŃvel
ĠL ion
Ã³p tero
Ã¢m bio
Ġdivulg ada
Ġsacerdo tes
z zo
ĠM AR
ug as
rada Ã§Ã£o
Ġdev oÃ§Ã£o
Ġvis ÃŃveis
ĠSab e
ĠBarros o
Ġvenez uel
Ġhot Ã©is
qu in
ĠN ÃĥO
oc ada
Ġesc ulp
ĠVol dem
Ġcampon eses
ĠE D
ĠRe form
Ġfun gos
Ġdisput aram
Ġselecion ados
ĠNorm an
Ġconvenc ionais
Ġt ente
ĠS ut
ĠE ar
Ġ18 20
ĠsÃ³ cios
ĠMichel le
L ife
Ġt Ã¡
ĠM elhores
ĠSant arÃ©m
Ġsa ÃŃram
ĠMo ta
Ġcontribu indo
Ġtrata va
Ġlist ados
A lb
Ġp q
em ann
Ġfil iado
Ġ18 53
ĠÃģ r
Ġcria tura
aca o
ĠTur ner
Ġvig ilÃ¢ncia
ĠJÃº lia
Ġapont am
g ers
ĠM ino
et y
ĠK ill
ĠAn ast
ĠIrm Ã£os
Cont in
ĠBlo od
Ġap rim
ĠCop enha
Ġexib e
ĠExt re
Ġmarg inal
c ategoria
× ķ
à ²
ĠF our
min ster
Ġcontrol ado
ĠdÃŃ vidas
Ġp i
ÃŃ ada
ĠT ha
Ġh eter
ane amento
Ġbat izado
ĠRes posta
Ġeleito rais
ĠMen ino
Ġfabrica ntes
ĠArist Ã³teles
Ġassemb leia
R et
S m
Ġqu Ãª
ur p
Ġdesc revendo
ien e
Ġdes ag
ĠAl onso
Ġinter ferÃªncia
Ġperman entes
Ġsocial ismo
ĠAlb Ã¢nia
ĠUrb ana
ĠpÃ¡ss aros
se u
ĠAnt eriormente
Ġman chas
ĠDav i
Ġorden aÃ§Ã£o
Ġmotor ista
ĠMara v
T ime
Ġco ragem
ul ante
ĠD id
ĠN ames
Ġres idente
ĠGu a
Ġmed iÃ§Ã£o
Ġmist Ã©rio
Ġempreg ada
ĠLanÃ§ ado
ĠEslov Ã¡quia
ĠRond Ã´nia
Ġo vo
Ġal umÃŃnio
Ġcham am
Ġnum eraÃ§Ã£o
Ġbo x
Ġindic ados
Ġelev adas
ĠMel bourne
Ġincorpo rado
ĠEncont ro
Ġexpect ativas
Ġafil iada
D oc
r d
ĠP int
on ista
ĠG ig
Ġconc orrente
Ġconfirm aÃ§Ã£o
ĠTrad ic
' :
Ġa ze
Ġn eb
Ġ18 49
Ð¾ ÑĢ
ĠFut uro
ĠColl ection
y ama
at l
Ġof ÃŃcio
ĠEd ge
ĠVoldem ort
- )
ut es
ĠN ort
Ġab out
ch ar
Ġfal Ãªncia
iado ra
Ġapar ecimento
Ġcomb inado
Ġnasc er
uk u
ĠBart olomeu
p age
Ġed it
Ġdesta ques
Ġbar reiras
Ġcomand ada
Ġâľ Ĩ
ĠAsi Ã¡tico
d entes
Ġo us
ĠL ec
Ġh ep
Ġcer e
Ãªn ior
ãģ Ħ
ĠWar ri
ĠD ed
co ord
Ġinter ino
Ġun Ã¢nime
Ġcomun icar
Ġconv iv
Ġverm elhas
Ã³m ica
aut or
Gen eral
Ġin gredientes
pl ice
ry s
Ġcob rir
Ġcontinu amente
ĠTur n
Ġadapt ar
Ġoit avas
ĠPho enix
I CA
Ġ18 52
Ġra ras
Ġmin eiro
Ã¡c ios
Ġvide og
Ġmer ece
ĠBry an
Ġfel icidade
p ent
Ġ ãĢĮ
Ġp ub
in adores
is ch
ĠEm ily
ot her
ins ki
Ġclass ificaÃ§Ãµes
Ã³qu ias
ĠSebast ian
ĠFigu eira
Ġreal iz
Ġreal izam
Ġinc rem
ĠAg radeÃ§o
ĠBl um
Ġnat aÃ§Ã£o
ĠPass os
Ġpul mon
Ġsinc ron
on izaÃ§Ã£o
Ġb et
ĠCam eron
Ġcontribu ÃŃram
ĠInf Ã¢ncia
h om
p zig
ĠO range
Ġpro j
ĠRe bel
ĠK or
eix e
Ðµ Ð½
ĠJornal ismo
Ġadministrat ivos
p ina
ĠR udol
19 30
Ġfund ament
Ġpap al
Ġtur ÃŃsticos
Ġfac uldades
Ġtan que
C as
ĠM Ã´nica
ou gh
ĠG an
Ġcar bon
Ġden Ãºncia
Ġlig as
Ã¡r ze
ĠÃĵ pera
Ġc Ã¢n
Ġm orrido
ĠPro jetos
ĠBon if
ĠfilÃ³so fos
S am
g om
Ġn i
it su
Ġsal ient
Ġlib erado
encial mente
Ġconduz iu
ĠGoul art
Ġ @
ĠP Ã¡scoa
Ġcon gresso
az e
ades h
Ġconsist ente
Ġale atÃ³ria
b ad
Ġs cript
Ġf arÃ¡
ĠJ uvenil
Ġab Ã³b
Ġprov oca
ĠUS S
Ġescrav o
Ġcro moss
teb rados
ado w
ion ando
19 55
Ġcol ina
ris h
Ġrepro dut
Ġplan ÃŃcie
Ġconduz ir
Ġincon sc
Ġsubmar ino
Ġtelesc Ã³pio
ĠÃĤng elo
ĠBiel orr
C M
Ġ Ã³dio
Ġv a
ific amente
ĠFern Ã£o
Ġrecomenda Ã§Ãµes
ĠRang ers
Ġde vol
Ġum idade
ĠS ingle
og Ãªne
rio ta
Ġcr Ã´nica
ĠFil adÃ©lfia
ĠAd rian
ĠMart im
Ġconcent rar
Ġgram at
ĠRoss i
g r
ĠL ins
ĠG and
Ġrod adas
ĠBerk eley
H el
M et
u res
Å Ľ
ĠP iment
de us
ĠI S
ac io
Ġcaus ados
Ġcomb inando
fo i
Ġrest rito
Ġexpul sÃ£o
r ero
z za
Ġh ex
Ġtransform aÃ§Ãµes
ĠAct ualmente
ĠLije also
. Â°
or ies
ĠCont rov
Ġrelat ivas
ĠHenri ques
Ġcic los
Ġemit ido
Ġinterval os
Ġrac ismo
ĠDefin iÃ§Ã£o
ĠNich olas
T AN
g ard
Ġ ri
ad Ã£o
Ġt anta
em s
Ġdo entes
ĠP rud
ĠH esse
Ãº gio
ĠDes cul
Ġval idade
Qu ÃŃmica
ĠcÃ¡l culos
Ġtransport ar
ĠRan king
Ġs anc
ĠN y
ido ra
ĠK ane
ĠÃ¡ s
Ġme de
Ġconj ugaÃ§Ã£o
ĠDay s
Ġbor bol
ĠAlm ada
Ġproemin entes
ÃŃ rem
ĠD ÃŃ
ot t
Ġfavor ito
Ġpint ores
ĠAle j
Ġnegoc iar
ĠCicl ismo
Ġ <
ĠD esa
ĠH ur
ĠRe port
ĠEsp ada
Ġdirig entes
ĠMe ta
Ġtest amento
Ġdimin ui
Ġcoorden ador
Ġsoz inha
ĠFoto grafia
ĠGodo fredo
P op
19 56
Ġbar reira
Ġautom Ã¡tica
ĠCrist ianismo
in amento
ul ha
ĠT et
Ġro l
Ġincorpo ra
Ġartic ulaÃ§Ã£o
Don ald
ĠConserv aÃ§Ã£o
Ġdramat urgo
ĠPÃ³ voa
ass i
ĠPa iva
ĠAnt o
ĠArm strong
ĠBien al
ag ora
Ġtra iÃ§Ã£o
Ġver ific
ĠIm agem
land s
ĠSac ramento
Ġmanip ulaÃ§Ã£o
Ġespess ura
s an
v ide
Ã ¹
ĠK iss
ĠAp ocal
ĠEntre vista
Ġsuperf ÃŃcies
ĠProt ecÃ§Ã£o
ĠInfant il
Ġbrin quedos
b Ã©ns
ĠE us
Ġprim itiva
Ġsemelh anÃ§as
ĠCla udio
augu rou
Ġat er
ĠCon cl
ĠGal vÃ£o
Ġdeb aixo
Ġveloc idades
onÃŃm ia
? ),
Ġp ig
ĠA viaÃ§Ã£o
ĠSal to
ĠLib ertaÃ§Ã£o
Ġfra ude
ĠavanÃ§ ada
M iss
Ø ¨
ar um
id iana
Ġb ando
Ġb ares
ĠÃ Ĺ
Ġac olh
ĠK el
Ġav Ã³s
ĠMiss iss
Ġmetodo logia
H C
ro e
Ġfal sas
ĠEd son
Ã¡b ulo
ĠArm ada
abil itaÃ§Ã£o
Ġsert ane
ĠBatt le
S im
on ica
Ġcon duÃ§Ã£o
ass in
ĠMar il
Ġep id
ĠDiv ision
Ð¸ Ð¹
arn aÃ§Ã£o
ĠS now
ĠH us
Ġar r
19 20
Ġtrans vers
Ġfe iti
Ġdev idamente
Ġcul p
ij i
ĠTw o
Ġign ora
t ir
Ï İ
ch an
ĠAnt unes
Ġfund aram
Ġpude ram
p elo
ĠCom endador
Ġfun eral
Ġgram as
? ",
ic t
ĠE instein
Ġin defin
ĠV ul
ĠK ur
Ġ18 24
Ġ18 37
Ġcol he
Ġdef esas
Ã¢m bia
Ġens inou
ĠDel gada
Ġconcent ra
ĠAlt ern
Ġdign idade
M or
m icas
Ġre estrutura
ĠF aixa
ĠW ard
gan g
los s
Ġregist radas
ĠFun chal
ĠPolit Ã©cn
el Ã£o
ĠM im
ĠR ora
ĠW ang
duc tion
Ġfilho tes
ĠAv eiro
ĠEmb aixada
Ġtrib unais
Ġvul ner
ĠCount ry
ĠApo io
B a
R el
Ġl ema
Ġpro fer
Ġab orto
Ġinform Ã¡tica
Ġconj unta
Ġbar ras
Ðµ ÑĢ
ĠCla udia
ĠEvang el
Ġc itou
ca ju
Ġcl Ã¡us
ĠPar c
ĠM ust
ĠO mar
ĠH Ã©lio
pe da
ĠAnt iguidade
ĠIntern acionais
Ġtel ecomunicaÃ§Ãµes
ĠHe ad
Ġpag a
ĠCu iabÃ¡
ĠMÃ©d ici
Ġo ver
Ġt inta
on go
Ġconc orrer
Ġcu ri
Ġref rÃ£o
As soc
Ġsil Ãªncio
ĠObserv atÃ³rio
ĠProduc tions
ĠgrÃ¡ vida
ĠTestem unhas
Ġil umin
ĠLa u
ke e
ish i
gon al
Ġenf im
Ġdesemb arc
Ġsubsequ entes
ĠAlbum s
ĠCic lo
Ä ĵ
Ï į
Ġp ega
ic ul
ri er
ĠH off
ĠGu edes
ulos o
Ġcontro la
ĠDiv ino
D iv
É Ķ
an Ãªs
bl oque
ĠDis p
Ġsup orta
ĠSelv agens
ĠSubdiv isÃµes
ĠD ipl
ĠT R
iz o
ĠEst ratÃ©g
Ġ4 50
ĠVer d
Ġmarc ante
Ġtrabalh ador
Ġdescob riram
ĠRousse ff
ĠS omb
ens os
Ã¡ce as
Ġl enta
ĠV est
Ġint r
Ġ18 21
amp ton
Ġnasc eram
ĠGaz eta
n ica
ĠC IA
od ar
ĠAn gl
yl us
AD E
am an
at ualmente
ĠB ach
ĠD irig
Ġal mo
af a
ĠLei ria
Ġdeleg ado
ĠKir k
ĠmÃ¡s cara
B al
b org
gu em
ca o
ard os
Ġparc iais
Ġconserv adores
ĠtÃŃp icas
Ġrecomenda Ã§Ã£o
Ġt ensÃµes
ĠI ron
Ġdos e
est ad
Ġrelacion amentos
ĠtÃŃp icos
ĠÅ ł
ĠKent ucky
ĠTun ÃŃsia
- "
re Ã§Ã£o
ĠE ul
uc ci
tor ia
Ġvis ibilidade
uz z
mar Ã©s
Ġdi Ã¡ria
Ġprocess ador
ĠLuz ia
D N
D ia
D ou
l Ã©
z entos
at riz
ĠH T
Ġdest inos
ĠX ang
Ġinst Ã¢ncia
Ġtestem unhas
ĠHard y
ĠConj ugaÃ§Ã£o
ĠGoytac az
á ŀ
Ġb rilho
iam os
Ġinform ado
Ġdeter io
Ġprot ocol
ĠRobert s
ĠSn ape
Ġtranst orno
iscons in
u ja
Ġl ida
ei Ã³
Ġ18 46
rÃ¡ tico
Ġjust o
Ġhost il
Ġguarn iÃ§Ã£o
T a
Ġe ixos
Ġadap taÃ§Ãµes
Ġelet rom
ĠCarlo ta
I SBN
T ur
ad eu
ĠR est
ĠCom Ã©dia
Ġconf ess
Ġjur ista
Ġcrimin osos
ĠMÃ¼ ller
Ġmusc ular
ĠTij uca
ĠC our
ĠO regon
Ġac opl
he ta
Ã©t ricos
ĠCl Ã¡ss
Ġmot oc
Ġcert ificaÃ§Ã£o
Ġencerra da
ĠRena ult
n or
Ã§ aram
gu ard
Ġ18 00
20 21
Ġbo xe
Ġdirig e
Ġdistribu ÃŃda
! ".
B er
st ru
po ra
ĠNa quela
Ġreconhec idas
Ġsuger ido
ĠEcon Ã´mica
Ġclara s
er ie
Ġar itm
ĠMar ÃŃt
Ġden Ãºncias
Ġleg enda
ĠAf rica
Ġnar iz
De us
Ġrebel de
entu res
V en
ĠV es
Ġext ras
ĠOs w
Ġforn eceu
Ġpriv at
udio vis
pp en
Ġimped iu
ĠSur in
ĠSupre ma
Ġos so
Ġal oj
Ġfe ud
Ġw ork
ĠRel acion
Ġcorrespond entes
Ġsexual idade
Ġesclar ecer
ĠGi ul
Ġgas olina
Ġs pin
ic ut
qu ÃŃm
at inga
Ġafirm aÃ§Ãµes
Ġenorm es
á º
ĠF la
Ġar ranc
Ġdire trizes
Ġtr im
Ġexcep cional
k as
as Ã£o
ĠL ost
Ã§a o
Ġ18 45
Ġca indo
ĠProbl emas
D ec
Ġdes a
ver y
iss as
Ġra ros
ĠLu igi
Ġfin landÃªs
ĠGa ia
ST OR
Ġconceb ido
D el
D isc
Ġd Ãª
Ġl endas
19 36
Ġpont as
ĠTrabal hos
ĠNev ada
ĠinÃ©d ito
ĠCE O
ĠOrch idaceae
ĠConte xto
ĠO v
ĠT ric
ĠRe fer
ĠEle ito
Ġman sÃ£o
ĠCont as
ĠLeg ado
ĠHug hes
Ġs aga
ĠA ge
ĠC ortes
ĠQu ero
Ġrepresent ava
ĠCor e
ĠSal azar
Ġfuncion am
Ġobt iveram
Ġaprove itar
ĠTrop ical
ĠUnt itled
E r
ĠAl abama
Ġlat inos
ĠmÃ¡g ico
k el
Â ³
Ġest ip
ĠH ob
ib er
ter ra
19 57
ĠSeg a
Ġvis itante
Ġnecess ita
ĠNat ureza
Ġsubsequ ente
Ġatrib utos
g am
qu eles
Ġper pet
Ġed itada
ĠBu eno
ĠEv ent
ĠBus iness
Ġarre don
ĠDubl in
ĠÃŃc one
on ga
ĠEst ava
ĠK ids
Ġun e
Ġconf ia
Ġparc erias
Al em
c ount
g ate
qu ias
Ġl uminos
Ġg rad
ir s
Ġ18 42
Ġapro xima
Ġsignific ando
Ġenfre nta
Ġmelho ra
ĠP la
eg ado
19 54
Ġ18 44
ÃŃf icos
Ġobserv ando
ĠCha gas
Ġred ig
Ġtrav ess
s car
nt i
es h
ĠM eteor
ĠV ac
Ġint eiros
Ġ18 31
Ġinteg ridade
ĠLou ise
ven en
ĠWell ington
Ġagric ultores
ĠR PG
Ġpro pos
Ġdist inta
Ġsim p
Ġprodut ividade
Ġcombo io
Ġap ris
Ġdiv indade
ĠPlane jamento
Ġc inturÃ£o
Ġrec onc
Ġpal ha
ĠBel ize
Ġjust ificar
ĠVen ceu
Ġverb os
Ġlibert ar
ĠConn ect
ul te
irm Ã£o
Ġfor Ã§ada
ĠJul iano
Ġaus ente
ĠtÃ©r mica
ilat eral
entr ional
T op
V ida
Ġal usÃ£o
Ġatu am
Ġexecut iva
Ġimpera triz
Ġrebaix amento
Ġtria ng
ĠE k
ĠM ura
Ġext enso
Ġrec icl
ck er
Am or
Ġgera da
ĠÃ¡t omo
ĠJuvent us
H a
ĠN ancy
ĠG ad
Ġsof rem
Ġforn ecem
Ġpropor Ã§Ãµes
ĠLic eu
Ġtriun fo
ĠFland res
Ġin augurou
man uel
Ġtr ist
Ġsab emos
Ġaproxim ar
Ġlidera r
Ġbl ind
Ġtempest ades
ĠFund ada
ĠOk lahoma
Ġapaixon ado
ĠEpis Ã³dios
X T
\ '
ĠD F
ve j
Ġoc ult
ĠZ amb
ĠAc ab
ĠFranc es
Ġtur b
Ġanunc iaram
Ġfort ificaÃ§Ãµes
ĠAll an
Ñģ Ðº
aliz Ã£o
or Ã¡
or iano
ĠA pre
ĠS ai
ta va
19 51
ĠSam oa
ĠJunt amente
B ad
ĠD antas
ĠF eder
ĠW ander
ĠEst udo
Ġbat ata
Ġprotesta nte
c et
Î ²
Ã§ al
ĠE f
ĠNo el
Ġinter venÃ§Ãµes
ĠÃģ rv
Ġtoc ada
ĠHum ano
ĠAbra ham
ĠKe ith
Ġdit ador
Ġdecis iva
Ġt et
ta g
Ġcomp ras
Ġcas amentos
xim adamente
ĠInst al
Ar qu
Ġrefor Ã§o
ĠDescob erta
M ov
ent ure
ĠT osc
Ġpar to
co tt
Ġacred itavam
Ġdese jos
cla udio
c abe
m ir
Ġfuncion ou
Ġpers as
Ġsep ult
Ġcot idiano
G er
p ra
as p
ĠB oc
ĠF an
Ġb ip
Ġest ere
Ġh ier
ĠAm anda
Ġ17 0
Ġprocura dor
Ġaflu ente
ĠGuard ian
enc y
Ġvol ante
Ġ10 4
Ġpron Ãºncia
ĠMÃ©d ico
ĠPetro bras
Ġassent amento
Ãºsc ulas
Ġv Ã©s
ei ri
ha il
ĠJ STOR
Ġexpl icaÃ§Ãµes
ĠCat herine
ĠTer ror
Ġident ificada
Ġcru el
Ġpeda Ã§o
Ġavis ar
i Ã¡n
ri ka
Ġat entado
Ã³n ias
ĠReg istro
old s
ĠMen eses
Ġencerra do
6 00
G rand
j claudio
m uito
ĠD ul
ess ete
Ġadminist rada
ĠNos so
Ġdestru iu
Ġcompara da
ĠParticip antes
Ġdesp orto
Ġintera g
ĠcardÃŃ aca
Ġpne um
Ġnuv ens
acab ana
Ġde volv
Ġt Ãºnel
Ġre pos
Ġfo ge
Ġconc ursos
ĠHer mann
Ġne ta
ĠBu ff
Ġcomand ado
ĠParticip aÃ§Ã£o
Ġsolic itou
ĠBor is
ĠAcred ito
ĠPublish ed
Ġdorm ir
as i
ĠB ald
ĠD it
Ġsegu idas
isc ais
Ġempres arial
ĠLuc ia
ĠDa w
ĠMary land
Ġterror istas
ĠcardÃŃ aco
U P
ec esse
ĠL iter
ĠF rota
ed it
Ġ18 38
Ġ10 6
Ġapos entou
Ġpredomin ante
t ur
Ġra iva
ĠSte el
Ġge ogrÃ¡ficas
Ġabsor Ã§Ã£o
Ġrepublic anos
ĠAga in
Ġde com
Ġp ent
ic iano
ru po
Ġesp elho
quer da
Ġmora is
âĢĻ ,
ĠPS D
ĠCec ÃŃlia
conhec ido
ĠLt da
E F
c ura
ĠP ack
ĠK ob
ud el
ĠIn dia
Ġcol ect
Ġhabit aÃ§Ã£o
ĠPe dag
ĠRel atÃ³rio
ĠKar en
Ġherd eiros
Ġavis os
ĠÃļlt imo
Ġm Ã³dulos
Ġg arg
Ġest ariam
Ġinc idÃªncia
ÃŃg ado
Ġinfluenc iou
Ġsorte io
ĠMud anÃ§as
Ġsufic ientemente
ĠAless andro
B lu
Ġn ord
ĠV ascular
Ġus ina
vol ta
ĠGu ar
Ġho p
Ġrev ersÃ£o
Ġfin anÃ§as
Ġcat ar
Ġfemin ista
ĠOc orre
ĠDia nte
ÎŃ Î½
Liv ro
á ¸
Ġl ido
ot ar
ĠestÃ¡ dios
sc ha
Ġhon or
Ġbal ada
Ġare na
Ġcad eias
Ġestacion amento
U B
å ľ
ĠF ighter
ĠI C
Ġpar ente
19 40
Ġimp actos
ĠBol iv
Â» ."
che vi
Ġpotenc iais
Ġescal ada
ĠBow ie
Ġrenome ado
ĠBrook lyn
ĠMorr is
Ġ10 3
Ġle ito
ĠCa Ã§
ĠGra du
Ġenvi adas
ĠChel sea
V O
y ing
ĠCh en
Ġcapital ismo
Ġaud iÃ§Ã£o
Ġsuport ar
n is
ĠB ai
ist ano
Ġpor co
Ġsu primentos
Ġant iguidade
lt on
Ġjapon esas
Ġargument a
Ġcancel ado
Ġmediev ais
Ġcav erna
Ġfei jÃ£o
at oriamente
Ġb olas
ac y
est im
Ġ18 39
Ġ18 32
Ġet nia
Ġep iscopal
Ġreun iram
b ÃŃt
r Ã³f
t ema
it aria
ĠL ip
ur sÃ£o
ĠK Ã¶
Ġen do
of re
ĠBo ul
ĠFer din
Ġturn Ãªs
ĠArtilh aria
f ora
ic an
Ġf an
Ġv era
ĠL up
Ġal ert
Ġmu do
Ġinf elizmente
Ġconv ertido
ĠAng elo
Ġpertenc er
ĠTur ing
ĠMad ri
Ġdor sal
Ġrecuper ou
ĠCon ce
Ġrep ris
Ġinc end
Ġcort ar
ĠmarÃŃt ima
ĠSurin ame
ĠA ce
el ada
ĠC H
il do
Ġb ir
ĠMar g
ĠUn idades
ĠSt ars
ĠGo a
tic es
ĠPlane ta
ĠC ena
ĠP on
ĠH idro
Ġper ten
Ġreg Ãªncia
ĠBrasil eiros
ver g
Ġmant idos
Ġfer imentos
Ġast ronomia
Ġcresc endo
eir inha
Ġsens ÃŃvel
Ġadvog ados
Ġprivil Ã©gios
ĠElimin atÃ³rias
Ġexped iÃ§Ãµes
an ol
ĠB iologia
ed ra
ĠSt re
ĠAt uou
ĠThe ory
Ġrefer endo
Ġestud ado
Ã³t ipos
ĠCamp us
ĠErn est
S om
h art
er te
ic to
ĠR az
ĠF ei
ĠT ut
Ġen gra
Ġpart indo
ma ke
ĠCrist al
Ġorg ulho
ĠFu ji
ĠanÃºnc ios
S D
Ġa res
Ġcan s
Ġobserv ada
Ġsignific ativos
ator ze
ĠMonte vidÃ©u
can Ã§Ã£o
Ġrob Ã´
app y
in son
ĠC C
il is
ri Ã£o
Ġ18 47
Ġcons pira
Ġpa u
pr ise
Ġelimin ados
Ġobrig ados
Ġsusp enso
ia o
ĠD ylan
19 52
Ġdia nt
adÃ¡ ver
ĠParticip aÃ§Ãµes
Ġrem un
Ġexer ce
Ġâľ ī
! ,
ĠG ior
Ġam a
Ġag enda
Ġimp or
Ġescol ares
Ð½ Ð°
ĠPrem iers
Ġm y
Ġm ala
Ġres ide
agem ent
Ġcond essa
ipl inar
Ġinfluenc iada
Ġenvel hec
ĠB ug
Ġcon seqÃ¼
Ġan Ã©is
ĠK re
Ġdep Ã³sito
Ġlog ÃŃstica
Ġtelef onia
Ġpara na
ĠMar ÃŃlia
af fe
Ġsuperf icial
Ġliter Ã¡rias
Ġvac inas
not ÃŃcia
Ġtes ouro
ĠB orn
Ġsem inÃ¡rio
Ġhist oria
Ġgrav it
ĠTe jo
pr ima
Ġlit ros
Ġgl Ã¢nd
ĠMc M
Ġpromov endo
Ġrest riÃ§Ã£o
s ic
ĠP M
Ġl unar
Ġex aust
Ġh os
Ġh ol
20 1
Ġreal ity
ĠTer ras
fo nte
ĠConc elho
Ġafast ar
Ġarrec adou
âĻ Ń
D an
Ġpara dig
ant agens
ura das
Ġpre via
Ġcent enÃ¡rio
Ġrevel ando
Ġmand ado
Ġbe isebol
ĠÃģlv ares
ĠCum primentos
ĠNazar Ã©
( )
p ho
Ġ áĥ
ent ados
ĠAl encar
Ġobt Ã©m
ĠRet orno
ĠSom Ã¡lia
Ġconden aÃ§Ã£o
Ġmural ha
e os
n on
ĠR oland
Ġb acharel
Ġprim ord
Ġdoc ente
Ġcat olicismo
Ġbiol Ã³gica
ĠSoroc aba
s son
do b
ĠT ogo
ĠJ esse
19 49
ĠDes se
Ġdisc ursos
ĠCan nes
Ġganh os
Ġcaracter ÃŃstico
Ġinstal ados
Ġdeb at
Ġorient ado
Ġade ptos
vis or
Ġp age
Ġt Ãªx
ros Ã£o
ĠEst ilo
pro f
ĠDis put
Ġacus ou
Ġsust entar
Ġarque olÃ³gicos
ĠManch ete
Ã¡ut ico
Ġcostum ava
ent ral
it em
ĠP ros
ĠP enha
Ġb re
ĠU tah
Ġcomp rado
Ġmu ro
Ġto x
Ġdomin ar
ĠWest minster
ĠUs ando
Ġcomemora r
achar elado
Ġpolit icamente
Jos Ã©
r ino
Ġn estas
Ġpor cent
Ġman ch
ĠAb out
ĠEsc rita
ĠHar old
ĠItal ia
Ġreporta gens
Ġimparcial idade
F M
end imento
Ġfinal izaÃ§Ã£o
Ġinc rÃŃvel
Ġcorre io
!! !!
ĠDoc e
Ġinfl aÃ§Ã£o
Ġd aria
Ġc ra
Ġo g
ĠP ov
Ġtra Ã§ado
Ãªn ico
Ġado pt
ĠLei pzig
ĠInvest igaÃ§Ã£o
I nd
t to
Ġp etro
iv odia
ĠL iz
ri ar
ĠI R
ĠArt istas
Ġcel este
Ġpesquis ar
ĠAbd ul
ĠSint ra
ĠON G
ĠS lov
ĠM our
ĠR ut
oc acia
Ġed ito
ĠSt ore
ĠPre para
Ġresol vido
Ġdelib era
v iv
ĠV on
Ġdes ent
19 48
ĠCor o
15 0
Ġdeput ada
Ġps iquia
ĠBarb ados
ĠPhil os
ĠPremiers hip
in Ã¡rias
it ual
ĠK ath
Ġpres tes
Ġespecial izaÃ§Ã£o
Ġdet alhe
ĠmÃ¡ xim
Ġouv iu
Ġprovoc ando
ĠEngenh eiro
L este
v ial
Ġin al
). "
Ġpes adas
ĠEp iscopal
Ġguer reiros
ĠS ÃŃl
ul ador
ĠT her
Ġin gressos
ĠV O
ĠEst Ã£o
ĠAl pha
ga e
ĠEl eiÃ§Ã£o
ĠCal c
Ġparc ela
ĠRa w
rog Ãªnio
Ġsust en
ĠperiÃ³d icos
Ġbor racha
Ġabrang ente
ĠF ala
Ġof icina
Es p
Ġdiscut ido
ĠAlas ca
ĠW ii
ĠW onder
ĠAm Ã©rico
ĠHol mes
Ġluz es
Ġmec Ã¢nico
ĠRora ima
er l
ro la
Ġre itor
Ãº rias
pe ach
Ġadv ento
ĠJul ian
H al
ĠA us
on io
ĠD yn
Ġg Ã³tico
19 38
ĠVit Ã³rias
Ġjulg ado
Ġpergunt ar
ĠLoc uÃ§Ã£o
Ġressal tar
Ġolh ada
ĠÃģra be
L in
Ġdo nos
ol ÃŃtico
ÃŃc ulas
Ġ12 8
ĠNe pal
ĠGall ery
ĠegÃŃp cio
echt enstein
Ġsubsidi Ã¡ria
. -
r Ã¶
Ġo raÃ§Ãµes
Ġen venen
ix on
Ġgovern ar
Ġret rans
Ġsoc io
Ġadapt ada
ĠFun Ã§Ãµes
ĠCapit ania
Ġclim Ã¡ticas
al us
ĠC T
ĠE ram
ĠH old
ĠEl lio
olog ical
Ġfac Ã§Ã£o
ĠRes umo
ĠSet or
ĠConstitu inte
Ġmeta bol
ĠcÃ¢mara s
Ġvin das
ĠÃįnd ico
Ġreorgan izaÃ§Ã£o
H y
ĠC rio
Ġ( âĢľ
Ġcl Ã©r
ĠAr ruda
Ġcorre u
ucle ar
Ġmotiv aÃ§Ã£o
peach ment
ro po
ro tas
ĠF est
Ġmil itante
Ġsab edoria
Ġast ron
ĠLeg end
led ge
iliv ros
L L
w ing
Ã¡ v
Ġ10 9
ach t
Ġsubstitu ÃŃdos
Ġajud am
Ġatac aram
Ġcaptura dos
P edro
Ġf ur
Ġr ÃŃt
ĠFre guesias
Ġprel iminar
Soc iedade
7 00
or Ã©
ĠD out
se x
ĠH orta
Ġdesenvolv em
Ġmant Ãªm
Ġobrig ada
Ġremo nt
Ġafast amento
Ġpred adores
Ġvog al
ĠOsw aldo
P lay
m Ãµes
us co
et i
Ġper do
Ġ18 33
Ãªm icos
ĠMont anha
Ġatribu ÃŃdos
ĠMiss Ãµes
ĠFlor ida
Õ «
en ko
Ġ3 000
ĠAt ividades
ĠPar lam
Ġbar roco
Ġfede raÃ§Ã£o
ĠNat aÃ§Ã£o
ĠDesign aÃ§Ã£o
Ġposicion amento
ro y
ul k
Ġar ru
Ġdirig ente
ĠTur im
Î· ÎºÎ±
ĠCamar Ãµes
Ġv asto
Ġal mirante
Ġ18 08
ĠDe ep
ÃŃn ica
Ġsec as
ĠBol sa
ĠRet orn
Ġtub erc
Ġlabora tÃ³rios
Ġdesist iu
ĠTechn ology
ĠBangl adesh
Ġp Ã³dio
Ġc is
ĠB un
ĠInt erv
Ã¡ce os
Ġcomedia nte
ĠP ete
Ġtur ÃŃstica
Ġcob ranÃ§a
Ġviol enta
ĠGust av
Ġira qu
ĠSoy uz
at ing
Ġv t
ĠB A
era na
Ġsob rinha
ĠCas as
ĠCre io
mil itar
Ġfolcl ore
Ġcomputa cional
Ġe go
ĠT ess
ist entes
ho o
Ġdos es
ran Ã§as
ĠCom itÃ©
eb all
ĠCol in
Ġestrutura is
Ġajud aram
Ġdeclara r
ĠSug iro
ĠRepresent antes
Ġrebaix ado
ĠRol ling
r er
ĠF orest
Ġin ver
Ġorgan iza
Ġdescob ertos
ĠSc ha
ĠSim ples
Ġquant ia
Ġrefor Ã§ar
Ġpreconce ito
ĠC ano
Ġl inf
co te
ĠAss um
ĠSol id
ĠMic ro
Ġbizant ina
Ġcach orro
F lor
S ab
Ġd urado
ĠS M
od er
ot eca
ĠEn erg
Ġcur vas
ĠBu arque
Ġdific ult
Ġnar ra
Ġconcl usÃµes
cur id
ĠEM I
ĠEurope an
Ġcativ eiro
u Ã¡rios
or ig
ĠW end
ÃŃc ero
Ġjog ada
Ġcur rÃŃculo
ĠForm ou
Ġcomercial izaÃ§Ã£o
Ġimpera dores
Ġmatem Ã¡ticos
Ġingress ar
Ġhomosse xuais
Ġh al
ĠW isconsin
Ġcomp Ãµe
19 46
Ġinv entor
Ġsa em
ES C
Ġassin aram
ĠLond rina
ĠHo ras
Ch rist
Ġholand esa
Ġeclesi Ã¡stica
ĠD raft
Ġh et
Ġar ter
Ġim Ã³veis
19 47
Ġmic rosc
Ġsin Ã´nimo
lov Ã¡quia
ĠcÃ¡l cio
Ġagrad Ã¡vel
ĠSag rado
ĠNenh uma
K ing
w eight
ĠC M
ĠN ÃŃ
ect os
ax e
ĠDa ÃŃ
ĠDev elop
Ġceleb rar
Ġdro ga
l ich
ric e
ure l
ĠBr idge
Ġequival entes
Ġlav agem
Ġdetect ar
ĠGin Ã¡sio
Ġa u
Ġs Ãº
ĠJ us
Ġcas ais
tt i
Ġer va
ĠSte in
Ã¢nt ara
ĠProv incial
Ïĥ ÏĦ
Ġtrip ulantes
Ġincent ivo
ĠÃ³t ima
Ġv ivas
Ġinst a
ĠRom ero
mas ter
ĠJul iana
Ġsucess ivamente
Ġinvad iu
Ġpref ixo
ĠVenc edor
C T
S I
en er
ĠG ang
ĠJ uda
te au
Ġex ata
ria na
Ġtra Ã§Ã£o
ĠCh Ã¡
ĠDisc ordo
ĠvÃ¡l v
ĠNorm andia
Ġdefend ia
ĠFis her
l oc
ĠT ake
Ġdes espera
Ġcr Ã¢nio
ĠMan n
Ġinaug ural
Ġdemonst rado
Ġartes anato
Ġabsur do
Ġdinossa uros
S ul
i ens
ĠI SS
ĠCh Ã¢
ĠZ ac
ĠAnd roid
Ġgen erais
Ġguer rilh
Ġga Ãºcho
Ġtrou x
Ġpeg ou
Ġconfi Ã¡veis
"/ "
W est
Z A
Ġ ral
Ġm ina
ĠP L
ĠD iss
Ġshow curid
ĠWest ern
Ġancest rais
ĠIre ne
in ava
ul ina
Ġ18 15
ĠAm apÃ¡
Ġ11 5
Ġneg rito
ĠCr ise
ĠCons elheiro
su per
Ã¨ ne
Ġrot ina
Ġhem isfÃ©rio
Ġalgorit mos
c iÃªncia
Ġda tam
ĠM ou
ĠR ess
Ġconstitu ir
ĠSim Ãµes
Ã³rm ulas
ĠImpera triz
Ġobst Ã¡culos
Ġterap Ãªut
Ġ( ),
ĠM iz
ov aÃ§Ã£o
19 18
Ġfal hou
af f
Ġmort as
ĠHug h
ĠTok yo
H ow
c ada
p ta
ĠN ever
ĠJ ak
ĠRe ferÃªncia
Ġdu quesa
Ġ10 7
Ġprov Ã©m
arÃ¡ gua
enn es
ĠInter continental
Ġuc raniano
ĠWeek ly
Ġpreven ir
M arc
g ebra
al to
ĠA A
ĠF ura
Ġ10 8
Ġfor Ã§ados
ĠOb s
ĠPoss u
Ġpriv acidade
ĠComm on
ĠBonif Ã¡cio
D icionÃ¡rio
V ila
Ġcom eter
ĠP unk
ol f
Ġre met
Ġ18 41
ĠSt orm
je Ã§Ãµes
Ġimpl ementar
Ġarquit etos
Ġreduz indo
fund ador
ĠEng ine
ĠGabri ela
j adas
Ġs ultÃ£o
ĠP all
ĠM Ã³dulo
ĠD ante
op hy
Ġinst rut
Ġsist emat
uv as
Ġmont ado
Ġdesenh ado
orf ismo
s ide
Ð ·
ic z
ri pt
ĠPart idas
ĠIntel igÃªncia
Ġatrap alh
ĠS ovi
Ġsu bl
ĠI owa
ĠmÃºs culo
Ġdi Ã¡rios
ĠHe itor
ĠFal cÃ£o
Est ados
Ã¢nd alos
enz ie
R oy
Ġde dicaÃ§Ã£o
in co
ar co
Ġf ÃŃgado
Ġpres um
Ġca os
Ġlegisl ativas
Ġbrinc adeira
ĠHop kins
ĠC resc
Ġl ament
Ġj uros
ĠV ital
Ġsub ida
uc as
Ġvig ente
Ġfilm agem
ĠPequ eno
Ġsubtrop ical
ĠTanz Ã¢nia
. ".
W C
Ġconsag rado
ĠConhec er
ĠlusÃ³f ona
Ġsacrif ÃŃcio
cica ba
Contin ental
er ife
qu eios
Ġam adores
ĠFil ha
Ġnasc idos
ĠFel ix
ĠEcon Ã´mico
Ġpropag aÃ§Ã£o
Ġlou v
Ġaclam ado
Ġintim amente
Ġmix agem
ĠIst ambul
ÃŃ nt
ĠB od
ĠF iscal
ĠI da
ĠH ag
Ġesc asse
Ġpol ic
Ġdist Ãºrbios
Ġun ificaÃ§Ã£o
Ġtex t
Ġsin f
ocl ipes
Ġelabora r
ĠLi echtenstein
n ight
Ð ¿
os Ã£o
ĠC ora
Ġpr Ã¡tico
19 41
Ġinclu ÃŃram
ĠMed ina
Ġdever Ã£o
ĠBer m
Ġmult im
Ġmem orial
Ġprem iada
Ġdiminu iu
ĠStud ies
ĠEman uel
Ġb elas
ob ras
ĠU ber
Ġobserv ador
Ġmont ar
gn Ã³stico
ĠEstud antes
Ġobst ante
Ġpasse io
ĠPiment el
u os
å ®
re nt
Ġb ala
eb o
ĠDes ertas
Ġdenom inados
Ġarquit ecto
Ġacus ados
ĠSen ador
Ġentend ido
ĠPom bal
ĠResta uraÃ§Ã£o
Ġabert amente
H en
y g
Ġ2 20
ĠN E
Ġ18 25
ĠAm Ã©lia
ĠPro posta
Ġmat erno
Ġprov ou
pect iva
ĠEr mida
aqu istÃ£o
ID S
ĠSab oia
ĠÃ¢ n
Ġconsult ar
Ġperspect ivas
ĠST F
Rol ling
i ques
ent on
ap s
Ġac ar
Ġaut Ã³noma
Ġform ais
uven is
Ġc acho
qu est
ĠC ÃŃrculo
Ġv Ã¡
ĠR jclaudio
ĠG og
ĠW right
ĠIn fin
ast re
ĠZ a
uma Ã§a
rov ias
Ġapos entado
Ġdefend em
Ġjud iciais
Ġnut rientes
ĠZimb ab
p int
19 19
Ġob viamente
Ġav ist
Ġsec ular
Ġanim ados
ĠBomb eiros
ĠDut ra
Ġurugua io
I r
c ido
Ġl obo
Ġpar Ã³quias
Ġprim os
Ġcl ique
Ġgol pes
Ġvet erano
Ġpira tas
m Ã¡tica
m Ã£e
ĠS Ã³crates
Ġin ev
Ġes m
ĠAl mirante
Ġcam ar
ĠCal v
ĠVal or
Ġinvest ir
Ã³c ulos
Ġintroduz ir
ĠPom peu
ĠÃ©tn icos
ĠPast or
ç Ķ
Ġs anta
ĠB undes
Ġcomp ete
Ġpre feitos
ĠPro m
Ġz h
Ġsul f
Ġarquit ectura
Ġpaul istas
ĠKenn eth
ĠCai ro
o ja
Ì ģ
on al
Ġal fa
Ġres c
Ġsegu ros
F ranÃ§a
Ġp iores
Ġs amb
Ġb ico
Ġtrabalh aram
Ġacab aria
Ġatravess ar
ĠGin Ã¡stica
Ã§on aria
Ã¡rze a
ĠS eix
ĠCh uck
ĠAr l
Ġsub con
Ġtrans aÃ§Ãµes
Ġdez essete
Ġle Ã£o
aca u
ĠComp utaÃ§Ã£o
ĠVir tual
ĠRog ers
Ġargument ou
Ġgratu ita
á Ī
an ne
ĠT ul
Ġdet ecÃ§Ã£o
ĠLeg al
ĠDisc overy
ĠArn aldo
Ġgri pe
A lex
N ovo
j ando
Ġde posto
ĠN inguÃ©m
po nto
ĠAl deia
Ġag radeÃ§o
rat as
ĠEl len
Ġdem arc
ĠAng ela
Ġacont eceram
Ġpermit iram
1 10
S ha
Ġdo ou
ĠE vol
ĠT rio
Ġest al
ĠV amp
Ġpass aria
oca usto
Ġmascul inos
Ġexcel Ãªncia
Ġfis icamente
D iÃ¡rio
d Ã¡
É ¨
ia ra
19 42
Ġmat erna
ach i
Ġacont ecido
mar k
ĠrÃ¡p idos
ĠOri entais
Ġtelevis iva
Ġacrescent ando
Ġsubdiv id
g ara
p ur
om et
Ġest endeu
Ġcons orte
Ġneg lig
apar te
Ġatribu iu
Ġcicl istas
ĠMerc ury
Ġfabric ado
yth on
Ġe rig
ĠA ri
Ġam az
rÃ¡ tica
Ġconhec em
Ġtrat ada
Ġnav ais
dom ÃŃnio
ĠAdria na
Ġfogu etes
ĠfreqÃ¼ entemente
ĠQueb ec
Ġtril ogia
å ·
Ġ icon
ĠG ur
Ġout org
ĠBl og
Ġdisp ersÃ£o
ĠPan ama
ĠLat in
Ġvisual izaÃ§Ãµes
the plant
ĠGeorg ia
ĠDuc ado
Ġchap Ã©u
h ua
ĠT as
Ġreg imento
Ġind iana
ang ular
V ic
s endo
tenc ourt
Ġregist ra
ĠForm ado
ĠBah amas
Ġtransfer ir
ĠOff icial
ÃŃqu ias
Ġsupl ente
theplant list
k ai
ĠL ub
ĠI F
19 35
Ġcar deais
Ġdest inadas
In f
heim er
ĠFront eira
Ġescav aÃ§Ãµes
Ġdeg radaÃ§Ã£o
Ãºrg ico
ĠdiscÃŃp ulos
Ġsusten ido
h im
k ina
o de
Ġdist into
Ġr icas
ĠMont anhas
Ġvenc ida
Ġconclu i
ĠSin Ã´nimo
Ġesport ivas
Ġwikip ed
ĠolÃŃmp icos
Ġresg atar
ĠProgram as
Ġtempor Ã¡ria
mid t
T r
Ġcom arca
Ġus ual
Ġcor rendo
Ġhom Ã´nima
Ã¡b io
Ġali Ã¡s
Ġrepet ir
on eses
ĠR ig
ĠV id
co pia
Ġaf res
Ġclass ifica
ĠHar vey
ĠLiv ing
Ġresid encial
ĠLÃŃn guas
ĠJud iciÃ¡rio
Ġconsol idaÃ§Ã£o
Î¼ ÎŃÎ½
Ġimpression ante
ĠW as
ĠGu ido
Ġval es
Ġpovo amento
Ãºsc ula
1 16
S ta
T M
Ġp ernamb
os so
ĠD ram
ĠF i
Ġnot ou
iment ar
ann er
ĠVol ks
ĠSte f
Ġdesign a
ĠSec und
Ã³f ona
ĠÃĵ scar
Ġpatro no
Ġgar otas
Ġmode rado
Ġdeg rad
ĠAval iaÃ§Ã£o
ĠB rÃ¡s
ap enas
Ġesqu adrÃ£o
Ġexig ir
Ġpromo tor
inter pre
ĠPhill ips
ĠDant add
f us
ĠL ava
Ġpr Ã©mios
Ġun a
ĠLu ft
ĠOl ga
ĠMan if
ĠMac eiÃ³
ĠLet ra
ĠBut ler
Ġcatal Ã£o
Ġfura cÃµes
âĨ Ĵ
ĠJ ake
eg re
Ġh indu
Ġcons entimento
ĠSal am
Ġprat icado
Ġdepend em
Ġpne us
O h
Ġp Ã³st
Ġre vez
ĠD Ã¡
ĠG raf
Ġpr ÃŃncipes
Ġsol ucion
Ġcond ens
ĠDan ilo
Ġjulg ar
ĠPu erto
ĠD ale
ĠG ato
ord s
Ġmet as
ĠOr g
ĠMad ame
Ġby tes
ĠCorn Ã©lio
Ġmob ilidade
Ġrup tura
ĠC ÃŃcero
im en
oc ÃŃdio
Ãº bio
ĠW inter
Ġenc ost
ĠSul liv
Ġbat ismo
Ġluc ros
ĠegÃŃp cia
Ġsubstant iva
Ġmarav ilhos
Ä Ł
ivers ity
Ġag ropec
Ã³p ios
Ġlim ita
Ġmand ioca
ĠRel aÃ§Ã£o
Ġindivid ualmente
Ġenciclop Ã©dico
Ġpartid Ã¡rios
idimens ional
G P
W il
Y o
k ia
it ud
ĠA vel
im er
Ġex posta
inh ar
Ġcontra part
Ġobrig aÃ§Ãµes
ĠEstre las
ĠAlc Ã¢ntara
Ġguard as
ĠClÃ¡ udia
Ġbast idores
Ġassem elha
Ġastrona utas
G ood
V ir
p ubl
ara da
ĠB ord
ĠO ra
ĠF ace
Ġjog aram
ĠAp Ã³st
Ġgrande za
Ġprev ent
ĠFa ust
Ġisol ada
Ġespalh ou
adel phia
ĠS era
ĠP iano
ĠK ab
Ġconc orreu
Ġprec oce
Ġbeb er
×Ļ ×
H ot
du a
Ġtra dutor
Ġver ifique
Ã³p ico
Ġsal do
ĠCop acabana
par te
ĠBielorr Ãºssia
ĠC anc
ĠF low
ĠF BI
le e
ĠEn rique
Ġdom ingos
ĠEv il
Ġpisc ina
m ing
m ata
Ã¡ con
at ure
ant h
Ġpr osa
Ġinter iores
Ġcontinu ava
Ġadicion ados
ĠCel eb
Ġsobreviv eram
ĠMot ta
Ġroub ar
ĠVin icius
Ġsatisf aÃ§Ã£o
ĠConte Ãºdo
ara do
Ġre lax
un ham
om ba
ur m
Ġint enc
ĠTe or
Ġata ca
ĠCap a
Ġconquist ada
Ġdin am
ĠDr um
ĠNic arÃ¡gua
Ġesport ivos
Ġapont ou
ĠPlan et
Ġrecomp ensa
ĠParam ount
Ġem oÃ§Ã£o
Ġre at
ĠBar n
Ġnecess itando
Re al
Ġfict ÃŃcia
ĠMount ain
ĠestÃŃm ulo
S ant
Ġno taÃ§Ã£o
ĠN est
sa ka
Ġlev ava
Ġmin oria
ĠCo w
Ġcomand antes
Ġexig iu
Ġcompartilh ar
fri ed
ĠRegul amento
âĪ Ĵ
ĠSulliv an
Ġc adÃ¡ver
is chen
ent uras
it ta
ĠA urora
ĠM sg
ĠB ed
Ġed ificaÃ§Ã£o
Ġexce Ã§Ãµes
ĠSat urn
Ġderru bar
Ġprision eiro
v ana
Ġt ch
Ġt uf
en go
ĠA i
Ã¡ z
ol es
Ġl ance
ĠG NU
if ul
Ġar ca
Ġag ressÃ£o
ill es
Ġpal cos
Ġvo ivodia
ĠSa f
Ġpertenc iam
Ġaplic ados
ĠclÃ¡ss icas
ĠCro w
princip almente
Ġ iam
al k
rit amente
Ġus ualmente
ĠInt ro
rop ical
ĠFl av
Ġ24 0
ĠDu quesa
ĠChamp ions
ĠCaval eiros
Ġretom ada
ĠSev ilha
Ġabund ante
Ġfict ÃŃcio
c eto
h ing
ad inho
ĠAt enÃ§Ã£o
ĠAt enciosamente
Ġdec orre
Ġ11 2
ĠOb er
Ġnacional ista
ãĤ ĭ
ĠBas ket
ĠVo o
ĠPlant Base
Ġpromet eu
Ġselv agens
ĠâĢĿ ...
Ġcog um
Ġdesigual dade
ĠFemin ina
ĠMississ ippi
t ice
Ġque ima
Ġart ÃŃsticos
elh eiros
Ġdire tÃ³rio
Ġproc eder
Ġresult aram
Ġanunc iar
Ġrespons abilidades
Ġobrig atÃ³ria
Ġencer rando
Ġarque olÃ³gico
Ġbiol Ã³gico
ĠComb ate
Ġracio cÃŃnio
Ġs l
ĠF ay
ĠN ele
Ġes lov
to wn
Ġh u
ĠK ri
Ġha ve
Ġmar inhas
Ġk o
Ġ17 89
ĠAt os
Ġarte fatos
Ġvira r
ĠStan ford
Ġadmit iu
ĠBir d
Ġisl Ã¢mica
ĠP ix
Ġv amp
ĠD ragÃ£o
ĠV ilar
Ġent orno
me z
Ġind isc
Ġcontra st
ĠEsc reveu
Ġservi ram
Ġrazo Ã¡vel
Ġprorrog aÃ§Ã£o
z im
ĠA ÃŃ
el ine
ĠF lo
ĠG elo
Ã©m ico
Ġdes pro
ĠEst abel
19 33
ĠCer ro
p ter
ĠPa olo
ĠDu plas
Ġresg at
dire tor
ĠÃļlt imos
Ġsindic al
Ġconform idade
A na
ĠL E
Ġra b
Ġleg almente
val or
Ġru ÃŃdo
ĠAv iso
ĠMad re
B est
s Ã©culo
ĠB ron
ĠH Ã³quei
Ġneg ras
Ġsec tor
ĠMil es
AN D
Ġaprove itamento
Ġhomenage ado
Ġconso ante
Ġtabul eiro
Ġqu i
ĠC ust
ant ismo
Ġ18 43
Ġnot Ã³rio
ĠEd imburgo
ĠCent enÃ¡rio
ĠBr uns
Ġtrat ando
ĠsÃ³l ida
Ġevang el
Ġperigos o
ĠMÃ¡ ximo
ĠJur ÃŃd
Ġinqu Ã©rito
ĠPatric ia
c ruz
p este
Ġqu im
ĠS v
Ġdes contin
Ġam ig
Ġdesc riÃ§Ãµes
ĠGu inea
Ġfemin inos
rang ular
ĠDa ily
Ġceleb ridades
Ġnuv em
ĠHerz egovina
d ensidade
Ġco adjuvante
Ġv id
ĠF O
ĠN iel
Ġb isse
ĠMat heus
Ã¼ n
ĠGal o
Ġsequ est
Ġsobreviv ente
Ġconvers as
Ġpergunt ou
Ġsupera ndo
ĠBay er
Ġoper Ã¡rios
Ġcontrov Ã©rsias
D is
ĠS ide
ĠP ec
ĠM Ã´n
Ġl en
ĠEst ima
Ġmar echal
ĠSe gue
ĠZ ap
Ġsuger ir
ĠClar ke
Ġsono ras
Ġempreend imento
m ers
s y
ĠV ern
if era
ab as
ific am
ĠCam ilo
Ġind en
Ġequ iv
ĠSch um
iqu iÃ¡t
Ġtrat amentos
Ġvar iando
Ġcrimin oso
ĠemprÃ©st imos
ĠKos ovo
p ida
and os
Ġconsegu ia
Ġtoda via
divers idade
Ġinfluenc iar
Ġsusp ense
Ġincom pl
ĠSanc ho
ĠOnt Ã¡rio
ĠSindic ato
g le
Ġdes res
ĠEm ÃŃlio
Ġfal ava
Ġfor Ã§ando
ĠCont ribu
Ġblo queios
Ġturn os
Ġextre mos
Ġescre vi
Ġreaval iar
c Ã§Ã£o
ĠC res
ig ua
ĠD ei
Ġb est
ens iva
Ġdu eto
ĠDes portiva
Ġdiv is
ĠIm ig
ĠBe a
Ar m
ĠTem er
ER J
ĠConc urso
rol ogia
Ġdubl agem
Ġescasse z
L ond
M il
Ġc amb
ĠO ta
ĠL inhas
ĠF av
ĠN aÃ§Ã£o
ac tion
Ġcomp acto
Ġ18 26
eb a
bo w
Ã¢m ia
Ġadminist rar
gres sÃ£o
ĠRo ta
Qu em
Ġenz ima
ĠacÃºst ica
it io
io leta
ĠS amb
ĠArt ista
ĠAv en
Ġprocura m
Ġdedic ados
ĠBon aparte
ĠRam alho
Ġsuspe itas
J ac
ĠS ix
ĠDu ff
Ġassoc ia
Ġinteress antes
Ġaleg aÃ§Ãµes
Ġexec uta
ĠCria nÃ§a
ĠAfric ana
ĠAdem ais
Ġproject os
S anto
l em
Ġt b
il able
ĠT um
et icamente
av iÃµes
ĠAl eixo
ĠAr ra
Ġr Ã³t
Ġorig inÃ¡ria
Ġforn o
ĠBr id
ĠCha pec
Ġlevant ou
Ġplant aÃ§Ãµes
ĠespÃŃ ritos
ĠConnect icut
or us
Ġdo g
de pois
ĠK ai
Ġdev o
Ġval eu
Ġconden ados
Ne ws
ĠmarÃŃt imo
Ġv emos
Ġfort ificaÃ§Ã£o
Ġassin ada
ĠAmor im
Ġcancel ada
Ġproporcion ar
Ġreflex o
ĠPhilip pe
R ugby
Ê ĥ
Î ®
id ero
ĠR um
Ġg ros
Ġin g
ĠI piranga
Ġcaus am
Ġtax on
ĠBarb uda
t ime
Ġp onde
ĠO w
et il
ĠRe ed
ch Ã¡
Ġinform al
ĠHer man
ĠmÃŃn imos
Ġeduc ado
Ġacess os
ĠPho to
f oro
ĠP ano
ho ven
ĠH ino
Ã¼ ck
rim ir
Ġestim ular
Ġtecn olÃ³gica
Ġclassific ando
cam po
Ġdiminu indo
Ġso ja
Ġcombat entes
N C
n ologia
s burgo
ĠL eme
ĠÃī d
ex tos
Ġcompet Ãªncias
Ġsen ado
Ġba iano
Ġvisual izaÃ§Ã£o
ĠInteg raÃ§Ã£o
ĠCount y
f ect
n u
v ador
y i
Ġco ura
ĠB anc
ĠIn icia
Ġus er
ĠCh em
Ġnome ar
Ġretira dos
Ġtestem unha
Ð¸Ñ ĩ
ĠAeron Ã¡utica
f ast
ĠS ad
Ġmost rava
ĠMinist ros
Ġgal ego
ĠRand y
k al
ĠP ist
ĠE ag
Ġb ov
ĠAl te
Ġab al
Ġhabit ual
") :
ĠAc tion
Ġinvest idores
ĠChe v
Ġroub o
Sub stantivo
A ranha
j ados
Ġ ÃŃmp
es qu
ĠC Ã¡l
ut ores
19 29
ĠPres tes
Ġdet etive
Ġperd idos
Ġexpress ou
Ġespalh ados
G U
n eu
Ġem issÃµes
Ġte Ã³rica
ĠAnd ers
Ġopera dores
Ġcruz eiro
Ġconvers ar
ĠVirg in
ĠAli Ã¡s
ĠBenn ett
w on
Ġf Ã³rum
Ġpre tas
Ġdisput ando
ĠSch w
igu ar
Ġperc orre
Ġtransfer idos
ĠProv is
Ġexter iores
Ġdesempre go
Ġterremo to
ĠLu iza
Ġw restling
ĠAg rÃŃc
ef a
Ġviol ento
Ġtam anhos
Ġsolic itar
soc ial
Ġp ente
ĠT emos
ag anda
ur ia
Ġ18 28
ategor ias
Ġespecial izadas
Ġresta uro
ĠÃ³b vio
ĠOrle ans
Ġem poss
on ne
Ġre jeiÃ§Ã£o
ora h
Ġext ingu
ĠPa u
ĠOl inda
ack Down
fl ora
ĠInvest ig
Ġmission Ã¡rio
mus ic
Cent ro
Ġarrem ess
I dade
y at
it ismo
ut su
Ġes qui
ag res
Ġter rÃŃvel
Ġel ÃŃp
ĠAt t
Ġgrav ados
Ġcontrat ada
haus en
H P
Q L
Ġm osa
ic le
Ġf ul
ĠC iro
ĠO wen
Ġrep ou
ĠÃ³r f
Ġemp ates
Ġcens os
if as
Ġel Ã©ct
ĠAl var
rav os
ast os
Ġcria tividade
Ġcirc uns
ĠPh ys
Ġaument ado
Ġamor oso
Ġvul cÃ£o
ĠPira cicaba
ĠeconÃ³m ico
Ġespir ituais
Ġe rupÃ§Ã£o
ĠS po
ĠB O
et ismo
per m
Ġlev emente
Ġmin eira
ph is
Ġve ic
Ġtraz ia
Ġacidental mente
S obre
Ġd ragÃ£o
ent inos
ĠB retanha
Ġes go
ĠSt ark
Ġcaus adas
ly s
Ġaplic adas
Not as
Ġlemb rado
Ġilust raÃ§Ã£o
Ġreje itou
ĠConserv atÃ³rio
ĠFÃ¡b rica
ĠIndust ry
orn ing
ch ia
ĠDe p
Ġun anim
Ġvia ja
Ġassist ido
Ġterror ista
Ġanarqu istas
Ġbicic leta
ĠInoc Ãªncio
Ġprosper idade
h ada
k ian
el d
Ġpor quÃª
Ġver gon
Ġamb ic
Ð° Ñ
ĠBas quete
ĠBur undi
ĠVia gem
ĠCaz aquistÃ£o
ĠAnto ine
D P
Ġc et
ĠD I
ĠW i
min as
Ġreal ista
com e
Ġestre ar
sh i
Ġ idades
or Ã£o
Ġf Ã¼r
Ġcas aram
Ġte Ã³logo
Ġret ratado
Ġ11 1
Ġfrequ entar
Ġgeneral izada
ĠLan guage
Ġurban izaÃ§Ã£o
Ġblu es
B OL
k ra
Ġqu atorze
Ġsist emÃ¡tica
Ġcria m
icÃŃp io
ĠPal at
Ġren al
Ġcost eira
ĠLiv raria
Ġnar rador
ĠLo ja
ĠRem o
ĠÃ¢ng ulos
ĠCasc ais
Ġhelic Ã³ptero
' )
ĠL O
ĠG us
Ġfor Ã§ou
Ġir landesa
Ġobserv ados
ãĤ ¹
ĠAle ks
ĠOce an
Ġmel od
Ġfortal ecer
ĠCP I
M aior
R aw
ĠA F
ĠT ang
Ġat en
ĠAl fab
ĠK hal
ĠWik ilivros
ĠBen g
Ġisol ado
ĠPel otas
ĠSystem s
Ġasi Ã¡ticos
Ġn ec
ĠS alles
ĠLig aÃ§Ã£o
ĠJo inville
ĠY ale
ĠPr iv
ĠEl vis
rim as
Ġexplora dor
Ġdob rado
M F
j ano
Ġp ilha
ĠM estrado
ĠN ero
ĠCar val
ĠBe au
ĠMe yer
Ġpens ou
Ġtit ulo
ĠincÃªn dios
tempo rada
ĠÃŃdo lo
Ġcrate ra
N ational
ĠM org
Ġdis postos
ĠMar ine
ure m
Ġderro taram
ĠBol onha
Ġdesemp enha
rel Ã©trica
Ġpreocup ado
Ġplan ÃŃcies
ĠApresent aÃ§Ã£o
Î¼ÎŃÎ½ Î¿ÏĤ
Ġa rom
ĠP ente
ĠM Ã©r
Ġcas ca
Ġte Ã³ricos
ĠSal d
Ġmant eiga
Ġmora va
Ġexecut adas
Ġdepend entes
Ġbol iv
ĠMost ra
Ġprogress ivo
Ġdecad Ãªncia
I tal
c ias
á »
Ġex postos
Ġ18 23
Ġav en
iol Ã³gica
ĠSal gado
ĠAnd reas
Ġsubstitu i
Ġresta urado
ĠEu cl
ĠBas quetebol
ĠG erar
ĠH od
Ã´ nc
ĠAr y
Ġpass ados
ĠJul es
ĠPap ua
Ġteat rais
ĠMadag ascar
S pace
ĠW ei
19 37
ĠZ eus
ile ia
ans en
Ġcost eiras
Ġcast elos
Ġpais ag
ĠBot an
Ġbiblio grafia
Ġcerc ado
Ġverdad eiros
gom ery
c ole
m sg
p ap
Õ ¸
Ġp Ã©t
it te
ĠF rag
ĠT iet
Ġna ves
Ġpro ve
ian na
Ġref Ãºgio
Mar ie
Ġtestem unho
down load
Ġsaud Ã¡vel
ĠegÃŃp cios
Ġp io
Ġh ig
Ġun icamente
fil ia
ĠAtl antic
Ġesqu ecer
Ġcort ado
ĠMala wi
p ura
Ġ \
Ġco ca
Ġf iscais
so pa
ĠCl aire
Ġun iu
ĠJul ie
ĠBot elho
Ġinvas Ãµes
Ġmeta f
ĠNav arra
Ġconsult or
Ġsuspe ito
Ġdisponibil izado
ĠTy ler
Ġp in
im an
ÃŃ ntese
ĠGen eal
ĠHol and
ĠChrist ina
ĠMi y
ĠTre k
ĠCorre io
Ġarquitet Ã´nico
Ġdemas iado
Ġperten ceu
ar go
ic ias
it Ã³ria
ĠP inheiros
Ġno b
ĠR och
ĠT rist
ho f
to dos
Ġca f
Ġarm ad
Ġating iram
Ġceleb rado
Ġlibert ado
aÃ§ Ãºcar
L u
g rav
Ġf erv
Ġaut oc
ĠPl ÃŃnio
13 0
fil ho
Ġautom Ã¡tico
Ġguer rilha
Ġestran ha
Ġteat ros
Ġjo elho
ĠApost Ã³lica
1 18
1 14
M ulher
d ar
h s
ad ino
Ġdo urada
ĠI A
undo u
ĠCon quista
Ġpres su
ĠGu itar
ĠSe pt
Ġcant os
Ġunivers itÃ¡ria
Gu erra
Ã¡ce o
Ġverdad eiramente
C orre
em o
ĠS ena
ĠR ace
ab i
Ġdifer e
Ġrep art
ĠMont ana
ĠBel t
ti res
ĠÂ« "
ĠMark eting
Ġconsc iente
Ġdesemb arque
Ġretom ar
ĠdÃŃg itos
E v
Ġd ores
ĠA cont
ĠM ing
ĠB etty
ĠF ior
Ġres son
ĠespÃ©c imes
Ġespecial idade
ĠReg iÃµes
Ġconstitu indo
ĠalcanÃ§ aram
Ġespanh olas
ĠFa usto
Ġconcord ar
U ser
c aras
ĠB au
de t
ĠI f
pl in
Ġdev ida
Ġsal tos
Ġterrit oriais
Ġestad ia
ÃŃb ia
ĠMiss ion
ĠNic ole
utt gart
in aram
ĠF rat
ĠJ as
ud i
ĠLe is
Ġset enta
Ġdecid em
ĠSec ond
Ġi ron
Ġpion eira
Ġnomin al
ĠEmira dos
A z
Ġm uros
en Ã¡rios
ÃŃn odo
Ġestud ando
ann on
IS T
Ġinser ida
ĠLan ka
Ġpesc adores
Ġcom issÃµes
Ġh Ã³quei
", "
cel ino
Ġdiplom Ã¡tica
Ġinvad ir
Ġf ero
Ġtra jeto
ĠÃī rico
Ġunivers itÃ¡rios
sc rito
Ġremov ida
ĠVill age
Ġple ito
ĠSid ney
ĠSard enha
P ap
ĠC em
Ġb ul
Ġin cont
ort Ã¡vel
19 14
ĠDe pressÃ£o
rop riaÃ§Ã£o
Ġacont ecem
Ġlago a
Ġarrec ada
Ġcompat ÃŃvel
Ġalter ou
l anÃ§
Ã§ osa
ĠS uns
ed Ãªncia
ĠK il
ign o
ĠJam ie
Ġlocomot ivas
ĠVÃªn us
G R
an so
on ic
ĠT rom
19 34
Ġpag amentos
Ġforn ecendo
Ġrespe itar
Ġmencion ados
M Ãºsica
Ġd iesel
el is
Ġb ate
ĠJ orn
ĠH ale
ĠH IV
ĠCar la
Ġinst abilidade
Ġman uf
Ġne ocl
Ġdepend Ãªncias
ĠQual ificaÃ§Ã£o
Ġreflet ir
Ġdesfil es
Ġbac ter
ograph ic
Ġcalib re
T ro
d ing
Ġm itos
ro man
Ã© ra
ĠB j
ion ismo
ĠPa ys
Ġdu elo
ĠEsp ÃŃ
ĠCast el
Th is
Ġinov aÃ§Ãµes
Ġresist ir
ĠDra ke
ĠBroad cast
oresc Ãªncia
Ġepid emia
Ġre ac
ĠD ado
Ġex po
Ãªm ia
ĠÃģ reas
Ġsuger indo
Ġhon ras
At l
Ġbud ismo
ĠBla ke
ĠFrit z
Ġus Ã¡
ãĥ «
Ġevolu iu
E p
n era
ĠR Ã©g
Ġ12 7
Ġconstru ÃŃram
Ġcin zas
ĠDr ive
ĠÎ ²
Ġespect ral
Ġgradu ou
Ġexplic itamente
A lt
Ġp ur
un ga
ĠL ay
ĠEm ÃŃlia
reg iÃ£o
ĠBl oco
Ġbio diversidade
ĠCD s
ĠPeix e
Ġhorr or
Ġinterm Ã©dio
ĠY as
Ġimporta Ã§Ã£o
ĠDu ke
Ġfuncion ando
aran Ã¡
Ġmult ip
ãĤ ¤
Ġbr uto
Ġacha va
ĠLaure nt
Ġmonst ro
ĠTrat amento
ĠorquÃŃde a
Ġporcent agem
Ġc ut
Ġco pa
ĠC ourt
Ġal ug
Ġdes g
ĠW itt
end endo
Ġapo iada
Ġfun k
ĠOb ser
ĠBe aut
Ġvalor izaÃ§Ã£o
Ġapel idado
Ġpec ado
Ġsai ba
ĠPasc al
I TA
S i
u y
Ġd Ã³
Ġd rag
ĠAl do
Ġman obra
Ġenfrent am
ĠJer emy
Ġrepet iÃ§Ã£o
gÃªn ero
ĠvÃŃnc ulo
J ack
N Ã³s
x y
Ġa Ã©reos
Ġp Ã¢nt
ĠC Ã¡s
ĠC ach
do uro
ĠT anc
ens en
duz ir
ĠMa in
rop ia
Ġacompanh ando
Ġcerim Ã³nia
Ġdecis ivo
ĠTes ouro
ĠCurios idades
Ġcrista is
ĠMÃ´n aco
Ġs Ã©ria
en ing
Ġre ed
orn a
ĠCom pre
19 24
ific aram
ĠCam isa
ĠUnivers idad
Ġinc or
Ġgen Ã©rico
Ġativ istas
ÃŃmp icos
Ġexig Ãªncia
à¤ ¾
Ġbol sas
Ġselecion a
ĠKe pler
Ġliter Ã¡rios
ĠLop ez
Ġcred ibilidade
ĠDen is
Ġinterromp ida
Ġori undos
ĠvÃ©r tices
Ġadjac entes
ĠPow ell
C all
p ton
Ġ ä¸
Ġm eg
ĠA per
ĠM oro
ĠN Y
ĠBo av
Ġ/ "
Ġarqu iv
Ġdi Ã¡rias
Ġher ed
Ġfib ra
y les
as y
Ġm anto
ĠH ort
Ġdest ro
Ġinter lig
Ġport Ã£o
ate ia
ĠPol ÃŃticas
wik iversity
Ġcombo ios
ĠSinf Ã´nica
Ġp Ã´s
Ġf iquei
ĠP Ã¡ginas
ĠF ras
ĠN ina
ip to
Ġtra iler
Ġvis itada
ĠRom ance
ĠGl enn
Ġinteg rando
Ġbat ida
Ġâ Ĥ¬
ĠÎ º
Ġcicl ones
Ġmer idional
Ġvolunt Ã¡rio
Ġgratu itamente
S he
od oro
19 44
Ġdire tos
Ġestud antil
Ġhip ert
ĠSha w
Ġconsecut ivo
ĠReun iÃ£o
É ª
an ch
ĠF on
00 00
ĠQ UE
Ġrep el
Ġgl ic
ĠCha ve
Ġhon orÃ¡rio
ĠestratÃ©g ico
Ġsubmet ido
ĠRiv era
L eg
V E
eg em
pet or
Ġorg Ã¢nicos
Ġverdad eiras
Ġexporta Ã§Ãµes
Inst ituto
ĠTira dentes
Ġpulmon ar
d al
nt on
ĠA mo
ĠS Ã©t
ĠH is
Ġmod ificada
ĠGen e
Ġinvas ores
Ġregress ar
ĠCarol ine
Ġesquad ra
Ã »
Ö Ģ
Ġt ang
ri us
Ġoc idente
Ġtr in
Ġsof tw
Ġne o
ĠLuc y
Ġdepend er
ĠEqu ipes
ĠShe p
Ġincent ivar
ĠAva ÃŃ
D D
Ġa va
Ġex ato
Ġfinal istas
Ġgen Ã©tico
ĠMont gomery
Ġilust rado
Ġsoftw ares
B en
Ġ" '
Ġcon greg
Ġpo Ã©tica
ria l
19 26
port s
Ġfund ir
Ġrep ass
Ġmov e
ĠArt ÃŃstica
ĠRa quel
Ġadicion ou
ĠMik hail
Intern ational
S ua
m outh
y pt
ant s
Ġ7 50
Ġdever es
Ġpag os
Ġgl Ã³ria
ĠTod d
ĠAra caju
ĠPac ific
Ġilust res
ĠNasc ida
ĠNik ol
Ġgin Ã¡sio
Ġculmin ou
os ul
ĠP OR
ol in
ĠD unc
ap resent
az ia
Ġinf ecÃ§Ãµes
Ġobs ol
Ġfech ados
Ġredirecion amento
A ust
Ġf itas
Ġse io
ol ium
da ct
Ġch ocolate
Ġcol isÃ£o
ĠDes enho
ĠFil hos
Ġbat idas
Ġsepara damente
Ġcompartilh amento
soc iologia
Ġmonito ramento
ĠFig ura
ĠP osto
ĠE ixo
if y
Ġcab ine
Ġtro cas
Ġmo to
ĠCre ek
ĠSuc esso
ĠAlej andro
er teza
or io
Ġf idelidade
Ġmar inhos
Ã¡g rimas
Ġescol has
Ġserv ida
ĠHo pe
itz er
Ġimag inaÃ§Ã£o
ĠYe ars
ĠNass au
H ip
Ġc ib
Ġf Ã³rmulas
en burg
Ġre encont
ta in
ĠD iar
ĠF rib
Ġan jos
gl om
of il
Ġca ud
Ġcal ifa
Ġsecret Ã¡ria
J ul
ĠT amb
ag h
ĠU z
Ġtra je
Ġnov ato
Ġag e
of icial
ĠOl avo
ĠTur ma
Ġher dou
etn am
Ġempreende dor
Ġ ic
Ġa mino
Ġs og
ou ras
ĠH ed
Ġal mas
Ġor Ã§
ĠZ urique
no ta
Ġalt itudes
Es panha
ĠEug Ãªnio
Ġcapit ania
ĠdemocrÃ¡ tico
ĠWork s
ĠRevel aÃ§Ã£o
Ġcolomb iano
Ġo k
ĠP UC
ĠVol tou
AN T
ĠFund ado
ĠTib Ã©rio
Ġs Ãªnior
Ġm ut
ĠN omes
Ġ20 22
ĠK m
Ġant igamente
ĠY outube
ĠAp olo
eir ismo
Ġescal Ã£o
ĠEdward s
Ġdepo imento
ĠM oney
ou co
ran ianos
Ġdes ambiguaÃ§Ã£o
anc ia
ĠGal ax
Ġrom eno
ĠÐ ¡
ĠFilm s
Ġexpul sos
ĠsÃ³l idos
ĠDani ela
ĠCarto on
ĠC AS
com panh
Ġgrav emente
ĠMan ual
Ġautor izado
ĠPal marÃ©s
ĠSob ral
Ġmic r
Ġabus os
Ġsolid ariedade
P ass
h Ãµes
w ater
Ġn in
Ġv iola
ĠB ic
de bol
... âĢĿ
Ġcolon iais
Ã³m ico
ĠObrig ada
Ġrecomend ado
ĠCord eiro
ĠCorr ida
ĠRi hanna
ĠlÃ¢m p
Ġres piraÃ§Ã£o
Ġnov idade
Ġ17 7
Ġlev aria
Ġdescob rem
Ġcomand ar
Ġexig indo
urs Ãµes
Ġpress Ãµes
Ġ ratos
Ġn on
ĠK r
min e
Ġesc ada
Ġ18 01
Ġgovern anÃ§a
Ġrev ital
Ġresult ar
uÃŃ ta
Ġrest rita
ĠOrig ens
Ġcerim Ã´nias
ĠJord Ã¢nia
Ġbrilh antes
ĠMaz uco
at ore
Ġse parou
ist icamente
Ġha vido
dor o
Ġmon itor
ĠMart ha
Ġdistribu ir
ĠNorm al
Wik ipedia
ĠFut ure
Ġacel eraÃ§Ã£o
Ġans iedade
Ġpist ola
Ġaritm Ã©tica
ĠF ara
ĠN ico
ĠH BO
ĠNov amente
Ã´m io
ĠCo hen
Ġson oridade
Ġtecn olÃ³gico
Ġfech adas
Ġtub os
Ġimpres sa
P F
s um
t aria
u it
Ġc la
ad minist
al Ã¡
ĠC id
ion ados
Ġj ac
Ġon d
ĠCh ase
Ã©d ica
Ġoutro ra
ĠHer mes
Ġquad ras
ĠMor umbi
ĠO la
ĠG ert
Ġex ista
he he
ug l
Ġmar inheiros
gua io
ĠAd el
Ġaliment am
Ġglob o
Ġsucess ivas
PS DB
ĠLegisl atura
ĠcÃ¢m bio
Ġante pass
ĠGib son
ĠmuÃ§ulm ana
ĠApre nd
C el
d Ã£o
v ing
al la
de v
Ġim ensa
ĠSu doeste
ĠPort ela
Ġpou p
ĠCas al
ĠSh ort
Ġital ianas
Ġadicion ando
Ġrit mos
ĠCre ta
ĠBrit ann
ĠJov ens
ĠÃ©tn ica
Ġplas ma
G I
Ġde cep
am or
to grama
Ġ18 12
Ġinf ilt
Ġsur to
Ġrelacion a
ĠSte fan
Ġtransmit idos
AD O
Ġterror ismo
Ġcadas t
t ipo
Ġc edeu
Ġest ritamente
ĠG el
Ġacab ado
Ġpat entes
Ġofer ecidos
Ġproib ida
ĠChec a
Ġple be
ĠInfra estrutura
ĠRespon s
ĠPÃ¡t ria
k g
ou c
Ġfil a
ĠCon quist
ost ra
ĠHist Ã³rias
ĠInform Ã¡tica
ĠDivers os
ĠG Ã¡lia
Ġcon gregaÃ§Ã£o
ur idade
Ġpre ce
inas ta
Ġdist or
ĠEsc ultura
Ġfer idas
iet z
ĠWeb er
Sa int
ĠSar ney
ĠprejuÃŃ zo
ĠMast ers
ĠUber lÃ¢ndia
Ġap anh
ug o
19 25
bl es
ie jo
Ġsegu ia
Ġdem andas
Ġcontro les
Ġace ite
ĠMon roe
Ġtraduz ida
Ġsalv aÃ§Ã£o
Ġencom enda
ĠmÃ¡g ica
Ġimper iais
? ,
D u
d eiro
u oso
Ľ »
ad ing
ĠC od
ĠM ia
Ġv ulgar
ĠT era
ĠEl etr
com una
ĠVal Ã©rio
ĠÂ §
uf a
Ġselecion adas
Ġbon ita
ĠFur tado
ĠdiscÃŃp ulo
Ġfert il
ĠBez erra
D i
f u
m embros
Ġ ria
Ġde do
ĠR id
ĠN ett
Ġin undaÃ§Ãµes
rib e
up pet
iss os
ĠRecord ing
pol aco
Ġsuf ixo
brasil eiro
È Ļ
de termin
Ġin ger
Ġcont ida
Ġfil ial
ĠMas on
ĠFis cher
ĠFerra z
ĠShak ira
ĠTiet Ãª
re te
st and
ĠE rik
ĠD oll
ĠF loyd
ĠH its
Ġnome aÃ§Ãµes
Ġed ificaÃ§Ãµes
Ġlocal mente
ĠEl i
com un
ĠAss istÃªncia
Ġconv enÃ§Ãµes
ĠHol land
ĠPhil adelphia
ĠAre ia
ĠTar de
Esc ola
ĠdemocrÃ¡ tica
Assoc iaÃ§Ã£o
Ġs azon
st ra
ĠR ing
ais s
ac ete
Ġan jo
ĠAl a
ĠEn fim
Ġmarc antes
Ġatual izar
Ġsignifica va
Ġcul pado
Ð¸ Ðº
Ġselecion ada
Ġcarreg ado
ĠGreg ory
ĠRevol ution
Ġprecurs or
Ġparana ense
m ol
n em
u idade
ar car
ĠM ural
era ntes
Ġcont extos
Ġcol ar
Ġprogram ado
Ġpat r
Ġdomin ado
ĠCamp ina
ĠCe arense
Ġparal elas
ĠRap hael
ĠEmp ire
âĻ ¯
Ġcondec orado
ro fe
ĠB eg
Ġch umbo
Ġ18 17
ĠPa in
enh os
ĠDes port
ron d
Ġconv ic
Ġdoc es
Ġquad rada
Ġcum pre
Ġencontram os
ĠCorre ios
Ġbe at
Int er
Ġplen amente
ĠâľĨ .
D OS
u adas
or ze
ĠC V
Ġque ira
Ġv inham
Ġg oz
po eira
Ġh es
ĠRe donda
ot er
Ġmar es
ÃŃs se
Ġreal izaÃ§Ãµes
Ġir rig
Ġassum ido
Ġendere Ã§os
ĠSag rada
Ġengl oba
Ġsax of
c ant
Ġf atura
ĠC L
ram os
19 43
Ġreg ulaÃ§Ã£o
Ġag end
ĠPal mer
Ġperman entemente
Ġcirc un
Ġdesign ados
Ġautom at
ĠInf erno
ĠÎ µ
AD A
Ġvert ente
Ġsubord inado
Ġreivind icaÃ§Ãµes
Ġgord ura
G old
as er
ar ga
ĠD ictionary
ĠF itos
Ġos cil
ens or
ĠÃ¡ p
Ġsoc iologia
ĠCast le
arc ado
ĠPe arl
ĠTel ecomunicaÃ§Ãµes
ĠEstat uto
Ġbot Ãµes
Ġviaj antes
Ġplanej ada
Ġdesej ar
Ġrevolucion Ã¡rios
ĠMud anÃ§a
ĠgÃªme os
c z
n ova
Ø ³
ic um
ĠM undiais
Ġal ugu
ual idade
Ġreceb ia
rut h
Ġfranc isc
Ġvest indo
ĠOt Ã¡vio
Ġelabora da
ild ing
Ġvolt aria
Ġaprove itando
Ġrenome ada
ben kian
Ġasi Ã¡tico
Ġaster Ã³ide
Ġdescrev em
ĠAnast Ã¡cio
Lond res
al ina
ĠVal ente
Ġadv ert
Ġobt idas
Ġfiz esse
ĠMy ster
Ġdesenh ista
Ġinsc ritos
Ġprovis Ã³rio
Ġtranspar Ãªncia
Ġmess age
g irl
Ġ ion
Ġs ir
ĠP Ã©rsia
ĠL aranj
ir Ã£o
ĠV iz
Ġfil ant
ÃŃn ico
Ġcompl icado
ĠÂ £
Ġconfl itantes
ĠBas ÃŃlio
?? ??
Ġbater ias
ĠElect ric
Ġconven ceu
it utos
ĠP ista
ĠD rama
ho d
Ġ18 10
Ġ18 29
Ġge org
ĠBro ther
Ġcomplet os
ĠProv avelmente
Ġbot Ã¢nica
Ġbusc ou
Ġdiferenc iaÃ§Ã£o
Ġassent amentos
D en
h omem
ob i
ĠEs s
ĠSt uttgart
ide ae
ingu es
cam peÃ£
Ġsecret amente
Ġpossibil ita
Ġtelenov elas
G erm
a inda
ĠA w
il us
ĠCon fl
Ġlocal izar
ĠDes portivo
ĠBo ard
Ġnatural ista
Ġfinanc iar
ĠComun as
Ġatribu ÃŃdas
Ġvig Ã©simo
Ġadicion ada
Ġdocument Ã¡rios
Ġmencion ar
Ġbanc ada
ÅĤ aw
ĠBrook s
Ġpura mente
ĠMÃ©to do
S F
j Ã³
ĠL af
oc eno
ĠMar i
19 22
Ã³n icos
Ġbo i
Ġrepet idamente
Ġdesf avor
ĠjurÃŃd icas
Ġeng ano
Ġergu ido
Ġcanh Ã£o
Ġtol erÃ¢ncia
ĠCron ologia
ĠIndic ado
G a
w est
Ġcom anda
âĢ ²
ĠPl aza
Ġcal d
ĠMed ic
ĠrÃ¡p idas
F orm
Ġl Ã³gico
Ġam er
ĠCh ad
ĠOs lo
Ġdesc on
ĠX adrez
Ġaut Ãªnt
Ġaqu ando
Ġfac Ã§Ãµes
Ġmascul inas
ĠCO M
Ġcount ry
Ġutiliz adores
Ġdesf rut
Ġpotencial mente
Ġdiss ip
Ġcaminh Ãµes
Ġconso antes
Ġp Ã¡l
Ġco alizÃ£o
it at
ĠA yr
ĠB ale
ĠW erner
ess oria
Ġaut od
Ġpop ulosa
Ġve em
Ġlar vas
Ġdirec tamente
Ãºn ica
Ġemit ir
ĠLut ero
s at
Ä ħ
ĠA ero
Ġre af
ĠF otos
om etria
ass Ã¢n
Ġres pet
Ġun iformes
Ġ13 5
ĠAd Ã£o
Ġcompara r
Ġhid rÃ¡ul
ĠInteg rantes
Ġcav idade
Ġmedic amento
Ġrecomend ar
Ġfara Ã³
m elhor
is ing
se xual
Ġcon duzido
ob l
Ġhabit ada
Ġma qu
Ġacab ando
Ġfunc ionais
Ġvig Ã¡rio
Ġmister ioso
ĠCavalc anti
A ut
G od
j pg
m ia
ĠF ir
ĠV ert
Ġac r
pe qu
Ġfil ogen
ĠAm Ã¡lia
Ġfund amento
Ġtraz ido
Ġdeclara ndo
Ġaux iliares
Ġvolt adas
ĠRepresent aÃ§Ã£o
cor onel
Ġeletrom agn
u Ã©
Ġl ot
Ġg rama
ĠIm ac
ĠJun ius
ĠClass ic
Ġdesej ava
ĠSpe ed
Ġadm ite
ĠSax Ã´nia
ĠB rando
ĠD ela
Ġan orm
ob ar
Ġpar ecida
Ġent e
end i
ĠCol d
Ġgrav aram
ĠLa uro
Ġexper iente
Ġfrequ Ãªncias
Ġsel os
Ġdific il
Ġconsequ ente
Ġguer reiro
irit ismo
ĠNev is
Ġn ervo
Ġm undos
Ġdist ingue
con c
Ġto tais
ĠAnd rÃ©s
ck s
ĠmÃ©d icas
Ġcancel amento
hist Ã³ria
Ġpreen cher
Ġbeta wikiversity
ĠDevelop ment
C ur
D ig
ad aria
ig l
Ġint ra
Ġcomp ressÃ£o
Ġnecess itam
ĠCap acidade
Ġcab os
let t
Ġsac rific
ĠDam asco
Ġapaix ona
Ġescrev eram
Ġfert ilidade
Ġpassap orte
s ha
v ado
er Ã¡vel
Ġqu int
Ġest resse
go w
ĠSe qu
Ġr ingue
des c
ĠSan gue
Ġatriz es
Ġconfirm ados
Ġglob ais
Ġarmazen ar
Ġta Ã§a
Ġfiscal izaÃ§Ã£o
Ġenz imas
Alem anha
Ġ ãģ
ra lia
Ġs Ã©rios
Ġpart ilha
19 28
ĠSt at
Ġcob rindo
Ġtro Ã§o
Ġafet ar
Ġresulta ntes
ĠSci ences
ĠKle in
ĠGul benkian
P L
t in
ut ad
ant eriormente
ĠG ira
ĠV iaÃ§Ã£o
ed u
Ġal iada
ap olis
Ġprim itivo
Ġch oc
Ġass essor
Ġconhec ia
elo deon
con f
Ġcria tivo
Ġ11 6
Ġatribu iÃ§Ãµes
Ġpsic olÃ³gico
R os
ia ÃŃ
it ect
ĠA way
ab ra
Ġmin ia
ĠTe en
ĠTem pos
Ġge ogrÃ¡fico
Ġprot ecÃ§Ã£o
Ġtrat am
Ġconce itu
Ġjust a
Ġexerc ido
Ġcess ar
ĠFitos sociologia
E t
Ġt utor
Ġ( ;
ĠAl fa
ĠUnivers itÃ¡ria
ins ky
Ġgran ito
ĠInst r
Ġx ÃŃc
Ġaleg aÃ§Ã£o
Ġpresid iu
ĠLomb ardia
ĠMcL aren
Ġp la
ist an
ĠG iant
ĠEm erson
Ġreg en
op eraÃ§Ã£o
Ġpa usa
Ġcria tiva
ĠVo ice
Ġesco po
Univers idade
Ġchil eno
ĠSert Ã£o
Ġconfigura Ã§Ãµes
P B
ĠA ranha
ĠT este
era Ã§Ãµes
ĠMar qu
sa x
ĠPa es
Ġopera ndo
Ġcomb inaÃ§Ãµes
Ġgl icose
Ġcandid atas
ĠJer Ã´nimo
ĠlÃŃqu idos
ĠCho ice
Ġava ilable
B ah
er is
ĠR NA
ĠG ente
[...]
