{"!":0,"\"":1,"#":2,"$":3,"%":4,"&":5,"'":6,"(":7,")":8,"*":9,"+":10,",":11,"-":12,".":13,"/":14,"0":15,"1":16,"2":17,"3":18,"4":19,"5":20,"6":21,"7":22,"8":23,"9":24,":":25,";":26,"<":27,"=":28,">":29,"?":30,"@":31,"A":32,"B":33,"C":34,"D":35,"E":36,"F":37,"G":38,"H":39,"I":40,"J":41,"K":42,"L":43,"M":44,"N":45,"O":46,"P":47,"Q":48,"R":49,"S":50,"T":51,"U":52,"V":53,"W":54,"X":55,"Y":56,"Z":57,"[":58,"\\":59,"]":60,"^":61,"_":62,"`":63,"a":64,"b":65,"c":66,"d":67,"e":68,"f":69,"g":70,"h":71,"i":72,"j":73,"k":74,"l":75,"m":76,"n":77,"o":78,"p":79,"q":80,"r":81,"s":82,"t":83,"u":84,"v":85,"w":86,"x":87,"y":88,"z":89,"{":90,"|":91,"}":92,"~":93,"¡":94,"¢":95,"£":96,"¤":97,"¥":98,"¦":99,"§":100,"¨":101,"©":102,"ª":103,"«":104,"¬":105,"®":106,"¯":107,"°":108,"±":109,"²":110,"³":111,"´":112,"µ":113,"¶":114,"·":115,"¸":116,"¹":117,"º":118,"»":119,"¼":120,"½":121,"¾":122,"¿":123,"À":124,"Á":125,"Â":126,"Ã":127,"Ä":128,"Å":129,"Æ":130,"Ç":131,"È":132,"É":133,"Ê":134,"Ë":135,"Ì":136,"Í":137,"Î":138,"Ï":139,"Ð":140,"Ñ":141,"Ò":142,"Ó":143,"Ô":144,"Õ":145,"Ö":146,"×":147,"Ø":148,"Ù":149,"Ú":150,"Û":151,"Ü":152,"Ý":153,"Þ":154,"ß":155,"à":156,"á":157,"â":158,"ã":159,"ä":160,"å":161,"æ":162,"ç":163,"è":164,"é":165,"ê":166,"ë":167,"ì":168,"í":169,"î":170,"ï":171,"ð":172,"ñ":173,"ò":174,"ó":175,"ô":176,"õ":177,"ö":178,"÷":179,"ø":180,"ù":181,"ú":182,"û":183,"ü":184,"ý":185,"þ":186,"ÿ":187,"Ā":188,"ā":189,"Ă":190,"ă":191,"Ą":192,"ą":193,"Ć":194,"ć":195,"Ĉ":196,"ĉ":197,"Ċ":198,"ċ":199,"Č":200,"č":201,"Ď":202,"ď":203,"Đ":204,"đ":205,"Ē":206,"ē":207,"Ĕ":208,"ĕ":209,"Ė":210,"ė":211,"Ę":212,"ę":213,"Ě":214,"ě":215,"Ĝ":216,"ĝ":217,"Ğ":218,"ğ":219,"Ġ":220,"ġ":221,"Ģ":222,"ģ":223,"Ĥ":224,"ĥ":225,"Ħ":226,"ħ":227,"Ĩ":228,"ĩ":229,"Ī":230,"ī":231,"Ĭ":232,"ĭ":233,"Į":234,"į":235,"İ":236,"ı":237,"Ĳ":238,"ĳ":239,"Ĵ":240,"ĵ":241,"Ķ":242,"ķ":243,"ĸ":244,"Ĺ":245,"ĺ":246,"Ļ":247,"ļ":248,"Ľ":249,"ľ":250,"Ŀ":251,"ŀ":252,"Ł":253,"ł":254,"Ń":255,"Ġd":256,"Ġe":257,"Ġde":258,"Ġa":259,"ra":260,"Ġp":261,"os":262,"Ġc":263,"nt":264,"es":265,"er":266,"as":267,"or":268,"Ġs":269,"ad":270,"in":271,"is":272,"ar":273,"Ã£":274,"Ġco":275,"Ã£o":276,"re":277,"ia":278,"Ġo":279,"Ġn":280,"Ġm":281,"Ã§":282,"ic":283,"qu":284,"al":285,"Ġf":286,"Ġt":287,"an":288,"ro":289,"ent":290,"Ã©":291,"id":292,"um":293,"en":294,"it":295,"em":296,"Ġqu":297,"io":298,"Ġcom":299,"ĠA":300,"el":301,"Ġdo":302,"am":303,"st":304,"ĠC":305,"Ã¡":306,"do":307,"Ġum":308,"Ġem":309,"Ã§Ã£o":310,"Ġda":311,"im":312,"ÃŃ":313,"ĠS":314,"Ġ1":315,"Ġque":316,"il":317,"ĠP":318,"Ġ\"":319,"at":320,"Ġ(":321,"ĠE":322,"ara":323,"on":324,"ĠM":325,"Ġv":326,"ul":327,"Ġse":328,"ol":329,"Ġre":330,"Ġno":331,"Ġl":332,"ta":333,"ei":334,"Ġ2":335,"un":336,"ado":337,"iv":338,"Ã³":339,"ou":340,"ĠB":341,"ĠR":342,"ig":343,"nc":344,"ente":345,"Ãª":346,"ut":347,"ec":348,"ĠO":349,"ĠL":350,"Ġpara":351,"us":352,"de":353,"ĠD":354,"ĠF":355,"Ġuma":356,"ĠT":357,"om":358,"Ġb":359,"res":360,"ist":361,"Ġg":362,"et":363,"ĠN":364,"Ġin":365,"Ġna":366,"Ġfo":367,"ica":368,"ĠÃ©":369,"Ġest":370,"Ġpor":371,"ri":372,"Ġ20":373,"ant":374,"Ãµ":375,"ais":376,"Ãµes":377,"Ġsu":378,"idad":379,"Ġ19":380,"se":381,"ĠG":382,"ha":383,"oc":384,"ada":385,"Ġcon":386,"ĠI":387,"da":388,"Ġpro":389,"le":390,"aÃ§Ã£o":391,"ac":392,"Ġes":393,"ir":394,"Ġas":395,"ĠJ":396,"iz":397,"ura":398,"Ġfoi":399,"te":400,"ho":401,"Ġos":402,"ion":403,"Ġex":404,"ĠÃ":405,"Ġcomo":406,"Ġj":407,"idade":408,"to":409,"era":410,"Ã§Ãµes":411,"gu":412,"ip":413,"Ġpr":414,"ras":415,"ĠV":416,"ido":417,"ĠH":418,"Ġpel":419,"ando":420,"ento":421,"ed":422,"so":423,"Ġpo":424,"po":425,"int":426,"âĢ":427,"Ãªnc":428,"Ġdos":429,"Ã©m":430,"eg":431,"ram":432,"og":433,"Ãº":434,"ias":435,"Ġal":436,"ito":437,"Ġat":438,"orm":439,"ico":440,"Ġan":441,"Ġdes":442,"ran":443,"ados":444,"ag":445,"eiro":446,"Ġh":447,"Ġ-":448,"ern":449,"Ġap":450,"av":451,"\",":452,"ob":453,"ur":454,"if":455,"rio":456,"ria":457,"Ġpar":458,"ĠU":459,"ĠnÃ£o":460,"ros":461,"Ġser":462,"Ġent":463,"ov":464,"ab":465,"ai":466,"Ġao":467,"Ġcont":468,"Ġmais":469,"ida":470,"Ġ201":471,"00":472,"ial":473,"amb":474,"ers":475,"ores":476,"ru":477,"ap":478,"Ġar":479,"ĠâĢ":480,"ĠRe":481,"ĠEm":482,"ve":483,"Ġac":484,"Ġsua":485,"eira":486,"fer":487,"ub":488,"mo":489,"ĠW":490,"he":491,"Ġ200":492,"mente":493,"ista":494,"ĠÃł":495,"ens":496,"Ã§a":497,"Ġou":498,"od":499,"Ġtem":500,"ambÃ©m":501,"nte":502,"co":503,"est":504,"Ġter":505,"Ġdas":506,"ot":507,"Ġint":508,"Ġseu":509,"Ã¢":510,"pl":511,"Ġper":512,"du":513,"endo":514,"ort":515,"ce":516,"ĠtambÃ©m":517,"Ġesp":518,"Ġel":519,"ina":520,"čĊ":521,"ing":522,"Ġout":523,"ĠEst":524,"),":525,"aÃ§Ãµes":526,"amente":527,").":528,"and":529,"emb":530,"ass":531,"ib":532,"iÃ§Ã£o":533,"ez":534,"ĠAl":535,"Ãªncia":536,"Ãªncias":537,"me":538,"Ãªs":539,"ora":540,"Ġprim":541,"Ġcomp":542,"Ġres":543,"orn":544,"az":545,"Ġim":546,"ĠK":547,"ess":548,"ulo":549,"ont":550,"Ġen":551,"ional":552,"adas":553,"Ġtra":554,"Ġsob":555,"ian":556,"Ġ3":557,"rasil":558,"ÃŃt":559,"Ġpela":560,"Ã©c":561,"ud":562,"min":563,"Ġdis":564,"ev":565,"\".":566,"Ġesc":567,"Ã´":568,"eu":569,"Ġform":570,"Ġpelo":571,"ĠÃ¡":572,"Ġpos":573,"end":574,"Ġentre":575,"que":576,"ĠMar":577,"vel":578,"Ã¡rio":579,"icas":580,"ios":581,"Ġele":582,"ug":583,"Ġpart":584,"Ġor":585,"amento":586,"ÃŃc":587,"pres":588,"pe":589,"esso":590,"ual":591,"ter":592,"ferÃªncias":593,"ĠsÃ£o":594,"Ġch":595,"ult":596,"imento":597,"Ġpre":598,"Ġfil":599,"Ġab":600,"ino":601,"ĠCom":602,"icos":603,"cl":604,"pos":605,"ire":606,"ca":607,"ĠUn":608,"ocal":609,"und":610,"rit":611,"Ġsobre":612,"Ġmas":613,"embro":614,"ch":615,"Ġass":616,"Ġ18":617,"19":618,"ĠReferÃªncias":619,"Ġob":620,"Ġam":621,"Ã§o":622,"undo":623,"Ġmu":624,"ivo":625,"inc":626,"Ã¡ri":627,"orte":628,"ador":629,"iu":630,"Ġha":631,"idos":632,"anto":633,"Ġmes":634,"Ġnov":635,"Ġext":636,"ĠIn":637,"op":638,"eb":639,"ato":640,"Ġof":641,"ano":642,"aram":643,"Ġreg":644,"la":645,"entes":646,"Ġant":647,"Ġart":648,"Ġmar":649,"sa":650,"ade":651,"Ġsem":652,"ĠCon":653,"ja":654,"inal":655,"Ġcons":656,"inha":657,"ira":658,"Ġcar":659,"per":660,"go":661,"Ġus":662,"idades":663,"Ġcas":664,"entos":665,"enc":666,"ĠNo":667,"20":668,"sÃ£o":669,"ĠEs":670,"Ã³s":671,"ĠAs":672,"ÃŃs":673,"Ġcl":674,"Ġ199":675,"Ġanos":676,"hec":677,"itu":678,"vol":679,"igo":680,"ert":681,"Ġ4":682,"ma":683,"anÃ§":684,"..":685,"ĠBrasil":686,"form":687,"bl":688,"Ġnos":689,"Ġon":690,"ĠCh":691,"ivers":692,"Ġnas":693,"antes":694,"Ġrec":695,"Ġera":696,"rav":697,"ĠAn":698,"ik":699,"der":700,"iÃ£o":701,"ĠDe":702,"Ã¢n":703,"Ã³ria":704,"raf":705,"ie":706,"ĠAr":707,"Ġpres":708,"Ġcor":709,"art":710,"ÃŃn":711,"bal":712,"lia":713,"iva":714,"ĠOs":715,"ana":716,"ĠPa":717,"ific":718,"rÃ¡":719,"Ġcol":720,"unt":721,"ava":722,"Ã©r":723,"Ġforam":724,"ero":725,"Ġte":726,"Ġ5":727,"ust":728,"Ġrel":729,"ĠCar":730,"Ġag":731,"Ġprinc":732,"Ġad":733,"ase":734,"Ġenc":735,"Ã©d":736,"aria":737,"ranc":738,"ĠatÃ©":739,"Ã´n":740,"itos":741,"indo":742,"Ġdest":743,"elh":744,"anh":745,"Ġro":746,"ard":747,"ĠLig":748,"Ġjog":749,"aix":750,"ular":751,"pre":752,"erra":753,"Ġmai":754,"ost":755,"Ġseg":756,"uro":757,"ita":758,"Ġseus":759,"enas":760,"Ġqual":761,"ĠestÃ¡":762,"ral":763,"ĠâĢ¢":764,"ima":765,"ĠSÃ£o":766,"Ġvez":767,"Ġalg":768,"rans":769,"Ġcam":770,"odo":771,"va":772,"Ġpass":773,"Ġsegu":774,"agem":775,"Ã¡rios":776,"ast":777,"ernas":778,"Ġinter":779,"Ġmil":780,"inh":781,"ĠQ":782,"rat":783,"Ġnome":784,"Ġpol":785,"ĠVer":786,"Ġonde":787,"ema":788,"Ġprincip":789,"ĠAm":790,"urante":791,"Ġtempo":792,"rande":793,"Ġconc":794,"Ġimp":795,"Ġdire":796,"Ġtorn":797,"ante":798,"ite":799,"rad":800,"\",\"":801,"Ġfaz":802,"ismo":803,"lo":804,"Ġ198":805,"jet":806,"Ġcidade":807,"idas":808,"pois":809,"Ġver":810,"ord":811,"ver":812,"Ġconst":813,"man":814,"Ġed":815,"eral":816,"Ã³p":817,"Ġposs":818,"Ġlocal":819,"Ã³r":820,"Ġhab":821,"rada":822,"ĠJo":823,"Ġdia":824,"Ġreal":825,"ix":826,"Ġconhec":827,"Ġdesc":828,"esa":829,"Ġtrabal":830,"ĠLigaÃ§Ãµes":831,"rafia":832,"Ġexternas":833,"200":834,"ĠÃº":835,"Ġsub":836,"Ġpl":837,"Ġmesmo":838,"ela":839,"ĠX":840,"Ġmaior":841,"ntes":842,"rib":843,"orre":844,"ula":845,"Ġoc":846,"Ġcap":847,"Ġquando":848,"inda":849,"Ġano":850,"este":851,"ĠGu":852,"Ġ6":853,"TC":854,"izaÃ§Ã£o":855,"icip":856,"ect":857,"ĠQu":858,"Ġparte":859,"ĠCam":860,"Ã©s":861,"istas":862,"Ġaut":863,"Ġpesso":864,"Ãºs":865,"acional":866,"Ġpa":867,"itar":868,"via":869,"Ġtod":870,"eiros":871,"Ġdu":872,"ĠFo":873,"ubl":874,"Ġpop":875,"isÃ£o":876,"adores":877,"ĠSu":878,"Ã¡t":879,"Ġcontra":880,"imo":881,"UTC":882,"Ġprimeiro":883,"gl":884,"Ġme":885,"ugu":886,"fe":887,"elo":888,"dem":889,"Ġtrans":890,"Ġind":891,"ior":892,"Ġhist":893,"Ġtr":894,"ĠPro":895,"Ġsendo":896,"icial":897,"aneiro":898,"Ġpode":899,"Ġ0":900,"her":901,"overn":902,"Ã©ri":903,"ĠlanÃ§":904,"erc":905,"Ġ197":906,"ĠâĢĵ":907,"Ġoutros":908,"enh":909,"Ġ7":910,"up":911,"Ã¡g":912,"isc":913,"ĠPor":914,"Ġincl":915,"Ġdois":916,"Ġk":917,"duz":918,"uc":919,"eric":920,"pon":921,"Ġsuas":922,"ĠjÃ¡":923,"Ġprimeira":924,"Ġaos":925,"Ãºbl":926,"uns":927,"ĠSt":928,"ĠY":929,"iss":930,"Ġra":931,"ay":932,"ign":933,"Ġequ":934,"ide":935,"ital":936,"Ãªm":937,"Ã©t":938,"Ġhabit":939,"ĠPr":940,"icaÃ§Ã£o":941,"Ġ8":942,"ÃŃp":943,"ÃŃvel":944,"iais":945,"Ġfam":946,"irm":947,"dio":948,"rea":949,"Ġmuito":950,"vi":951,"volv":952,"Ġdurante":953,"Ġprincipal":954,"ga":955,"ge":956,"Ġcr":957,"ola":958,"ĠAp":959,"Ġdepois":960,"iam":961,"ne":962,"Âº":963,"Ġvol":964,"ceb":965,"ĠCl":966,"Ã§as":967,"iÃ§Ãµes":968,"Ġencont":969,"ateg":970,"Ġis":971,"ÃŃst":972,"Ġ17":973,"Ġcham":974,"ategor":975,"udo":976,"ĠPort":977,"bo":978,"inas":979,"Ġ15":980,"Ġ9":981,"Ġainda":982,"pera":983,"ĠpaÃŃs":984,"rig":985,"con":986,"Ġgru":987,"ĠAt":988,"ĠÃī":989,"Ġdist":990,"ĠPara":991,"idera":992,"Ġ196":993,"Ġaf":994,"Ġfal":995,"Ġdesen":996,"gua":997,"Ġfinal":998,"of":999,"Ġapenas":1000,"ril":1001,"gan":1002,"Ġartigo":1003,"ĠNa":1004,"ncia":1005,"Ġespec":1006,"ele":1007,"lt":1008,"resent":1009,"anha":1010,"unda":1011,"Ġ(\"":1012,"ine":1013,"Ġcan":1014,"raÃ§Ã£o":1015,"ares":1016,"ĠPaulo":1017,"lu":1018,"ĠEle":1019,"Ġforma":1020,"erv":1021,"ĠSe":1022,"uma":1023,"gram":1024,"Ġgrande":1025,"ĠEl":1026,"izado":1027,"ĠZ":1028,"Ġapresent":1029,"Ġca":1030,"com":1031,"ÃŃcio":1032,"Ġproc":1033,"Ãºm":1034,"Ġr":1035,"Ġcome":1036,"Ġdef":1037,"ena":1038,"Ġ10":1039,"ĠEx":1040,"anda":1041,"Ġdif":1042,"ĠRio":1043,"unc":1044,"ĠLe":1045,"olog":1046,"ÃŃlia":1047,"Ġgovern":1048,"Ġhabitantes":1049,"Ġ16":1050,"ĠInt":1051,"Ġun":1052,"ĠapÃ³s":1053,"lio":1054,"rito":1055,"atro":1056,"Ġcer":1057,"Ġbrasil":1058,"ivos":1059,"pa":1060,"Ãªn":1061,"Ġinclu":1062,"idente":1063,"Ġfe":1064,"Ġmen":1065,"Ġport":1066,"elho":1067,"lb":1068,"rar":1069,"des":1070,"duÃ§Ã£o":1071,"Ġpe":1072,"ipe":1073,"Ġela":1074,"ulaÃ§Ã£o":1075,"Ġinf":1076,"ĠAnt":1077,"Ġret":1078,"II":1079,"ric":1080,"Ġconf":1081,"iano":1082,"ill":1083,"osto":1084,"dos":1085,"Ġinst":1086,"Ġprov":1087,"Ġmat":1088,"ĠSant":1089,"veis":1090,"...":1091,"Ġprof":1092,"ultura":1093,"izada":1094,"Ġorig":1095,"Ġpoder":1096,"tor":1097,"Ġfor":1098,"nto":1099,"anc":1100,"ussÃ£o":1101,"ĠFoi":1102,"Ġdec":1103,"Ã©rie":1104,"Ã³rio":1105,"Ġliv":1106,"util":1107,"itas":1108,"Ã¡s":1109,"\")":1110,"ĠPar":1111,"ĠmÃºs":1112,"Ġthe":1113,"Ġgu":1114,"ĠNov":1115,"ate":1116,"ell":1117,"ĠpolÃŃt":1118,"ice":1119,"Ġmod":1120,"ĠDes":1121,"na":1122,"quer":1123,"Ġdiv":1124,"ublic":1125,"ĠtrÃªs":1126,"ĠâĢĶ":1127,"ebol":1128,"18":1129,"Ġparticip":1130,"present":1131,"Ġev":1132,"Ã¡ria":1133,"Ã¡vel":1134,"inho":1135,"Ġma":1136,"Ġfic":1137,"Ġeste":1138,"Ã³g":1139,"Ġav":1140,"rado":1141,"Ġdez":1142,"ordo":1143,"Ġreceb":1144,"ĠMa":1145,"Ã©dia":1146,"Ġtodos":1147,"Ġutil":1148,"orta":1149,"erg":1150,"Ġhom":1151,"no":1152,"Ġkm":1153,"Ġlev":1154,"je":1155,"Ġmed":1156,"ata":1157,"peon":1158,"Ġman":1159,"13":1160,"Ġoutras":1161,"Ġduas":1162,"igos":1163,"elhor":1164,"Ġsol":1165,"ĠWik":1166,"Ġcri":1167,"ulos":1168,"Ġbem":1169,"ĠentÃ£o":1170,"ribu":1171,"rou":1172,"Ġ12":1173,"empl":1174,"ĠsÃ©c":1175,"ĠAss":1176,"Ġinv":1177,"Ġsist":1178,"âĢĿ":1179,"utebol":1180,"ĠÃ¡lb":1181,"ental":1182,"Ġmet":1183,"ex":1184,"Ġsido":1185,"Ġfre":1186,"Ã³l":1187,"Ġsim":1188,"son":1189,"Ã¡rias":1190,"eram":1191,"ÃŃm":1192,"rop":1193,"ĠLu":1194,"ĠUnivers":1195,"oca":1196,"Ġexist":1197,"hos":1198,"ĠLocal":1199,"Ġmun":1200,"Ġ14":1201,"Ġ195":1202,"Ġdev":1203,"unto":1204,"Ġsoc":1205,"Ã³n":1206,"Ġfilme":1207,"uto":1208,"dade":1209,"ece":1210,"tura":1211,"isa":1212,"Ġ194":1213,"Ġinform":1214,"Ã¢m":1215,"port":1216,"tas":1217,"Ġconstru":1218,"ĠAb":1219,"Ġaqu":1220,"erson":1221,"Ġgrupo":1222,"igu":1223,"Ġseguint":1224,"Ġdifer":1225,"peonato":1226,"esse":1227,"Ġestado":1228,"all":1229,"Ġisso":1230,"Ġconsidera":1231,"ulho":1232,"Ġto":1233,"Ġho":1234,"imin":1235,"cio":1236,"ĠThe":1237,"Ġdisc":1238,"ĠÃģ":1239,"anos":1240,"eiras":1241,"Ġcria":1242,"reira":1243,"ry":1244,"Ġcheg":1245,"ense":1246,"ĠâĢľ":1247,"Ġpossu":1248,"ionais":1249,"Ġcomun":1250,"ron":1251,"Ġbase":1252,"Ġpessoas":1253,"Ġrepresent":1254,"Ġconv":1255,"ĠCol":1256,"The":1257,"Ġdesenvolv":1258,"Ġand":1259,"Ġsegundo":1260,"Ġ13":1261,"tos":1262,"unho":1263,"mit":1264,"ĠBar":1265,"ĠcomeÃ§":1266,"osa":1267,"ĠOl":1268,"Ġpelos":1269,"quanto":1270,"ĠnÃºm":1271,"ubro":1272,"ĠÃ¡rea":1273,"ever":1274,"ĠÃłs":1275,"Ġempres":1276,"ĠHist":1277,"grafia":1278,"ĠJos":1279,"Ġcent":1280,"ĠEsp":1281,"atal":1282,"les":1283,"Ġprop":1284,"ĠÃºlt":1285,"ies":1286,"âĢĵ":1287,"ĠÃ¡lbum":1288,"Ã©rio":1289,"ĠEn":1290,"za":1291,"Ġprogram":1292,"Ġportugu":1293,"rut":1294,"ĠsÃ©rie":1295,"ĠsÃ©culo":1296,"ren":1297,"segu":1298,"ĠregiÃ£o":1299,"atura":1300,"ĠtÃŃt":1301,"ologia":1302,"Ġmin":1303,"emente":1304,"dor":1305,"Ġdesde":1306,"das":1307,"has":1308,"Ġassim":1309,"ogo":1310,"iar":1311,"Ġingl":1312,"ang":1313,"ĠprÃ³p":1314,"esta":1315,"Ġcada":1316,"ĠSeg":1317,"iado":1318,"ube":1319,"agens":1320,"ilidade":1321,"iana":1322,"ivas":1323,"dia":1324,"10":1325,"ugal":1326,"uta":1327,"icÃŃp":1328,"Ġpal":1329,"Ġapar":1330,"ĠAc":1331,"ĠEstados":1332,"Ġestre":1333,"jo":1334,"Ġcin":1335,"ime":1336,"cional":1337,"ĠOr":1338,"Ġpes":1339,"Ġfund":1340,"mos":1341,"ĠespÃ©c":1342,"ualmente":1343,"Ġins":1344,"dic":1345,"erto":1346,"Ġ193":1347,"Ã§os":1348,"Ġpodem":1349,"Ġpartir":1350,"put":1351,"Ã¡gina":1352,"Ġlon":1353,"ach":1354,"Ġalgum":1355,"Ġset":1356,"Ġtinha":1357,"lex":1358,"ĠUnidos":1359,"Ġantes":1360,"Ġpou":1361,"eto":1362,"gre":1363,"Ã´m":1364,"ĠFl":1365,"Ġlug":1366,"Ã¡l":1367,"Ġvida":1368,"ĠpÃºbl":1369,"avam":1370,"Ã¢ncia":1371,".\"":1372,"gem":1373,"ient":1374,"ĠhistÃ³ria":1375,"Ġ11":1376,"edade":1377,"ĠIs":1378,"Ġteve":1379,"Ġorgan":1380,"Ġ2010":1381,"ĠpopulaÃ§Ã£o":1382,"ĠPortugal":1383,"Ġsuc":1384,"ĠfamÃŃlia":1385,"Ġw":1386,"ical":1387,"Ġexempl":1388,"Ġ2008":1389,"Ġval":1390,"ategory":1391,"Ġnot":1392,"Ġoficial":1393,"ton":1394,"Ġatrav":1395,"ich":1396,"our":1397,"ĠFranc":1398,"los":1399,"Ġestava":1400,"ĠEd":1401,"ĠUm":1402,"ĠsÃ³":1403,"ende":1404,"Ġder":1405,"minist":1406,"Ġdeix":1407,"ĠhÃ¡":1408,"Ġprojet":1409,"ity":1410,"edia":1411,"ak":1412,"Ġ2009":1413,"ĠSul":1414,"Ġrep":1415,"abel":1416,"ete":1417,"eria":1418,"evereiro":1419,"Ġil":1420,"ĠIm":1421,"ĠmunicÃŃp":1422,"ua":1423,"ĠEnt":1424,"Ġalguns":1425,"Â²":1426,"iscussÃ£o":1427,"ografia":1428,"Ġcontin":1429,"iga":1430,"ĠPer":1431,"ÃŃf":1432,"Ġmundo":1433,"ilo":1434,"ecess":1435,"vo":1436,"iou":1437,"Ġgrav":1438,"ĠFil":1439,"ins":1440,"ĠJaneiro":1441,"ĠnÃºmero":1442,"Ġjaneiro":1443,"ĠPre":1444,"Ġsa":1445,"Ġdivers":1446,"ĠEuro":1447,"Ġ2006":1448,"Ġamb":1449,"Ġhavia":1450,"Ġsistema":1451,"ĠCor":1452,"Ġdem":1453,"Ġacordo":1454,"ĠBo":1455,"2000":1456,"Ġeles":1457,"Ġapro":1458,"iol":1459,"Ġtrabalho":1460,"imentos":1461,"Ġvers":1462,"Ġ2007":1463,"ane":1464,"Ġpublic":1465,"isto":1466,"Ġrefer":1467,"emas":1468,"Ġimporta":1469,"anÃ§a":1470,"Ġdiz":1471,"ĠmarÃ§o":1472,"issÃ£o":1473,"Ġcond":1474,"pend":1475,"Ġvezes":1476,"Ġtendo":1477,"Ġintern":1478,"ph":1479,"Ġnum":1480,"ok":1481,"ona":1482,"ĠinglÃªs":1483,"Ġ.":1484,"pt":1485,"Ġrev":1486,"Ġvo":1487,"ĠmÃºsica":1488,"Ġmaio":1489,"ff":1490,"Ġmelhor":1491,"ret":1492,"ĠMan":1493,"Ġgeral":1494,"hn":1495,"Ġdezembro":1496,"Ġfazer":1497,"ĠGe":1498,"ĠOut":1499,"Ġgoverno":1500,"Ġcu":1501,"Ġsuper":1502,"Ġinc":1503,"Ġid":1504,"Ġeram":1505,"iaÃ§Ã£o":1506,"arac":1507,"discussÃ£o":1508,"ativa":1509,"Ã³ri":1510,"Ã©l":1511,"para":1512,"otal":1513,"Ġenquanto":1514,"ĠatravÃ©s":1515,"Ġ2011":1516,"eceu":1517,"ĠestÃ£o":1518,"Ġautor":1519,"Ġnorte":1520,"Ġtip":1521,"ack":1522,"rÃ¡f":1523,"enÃ§a":1524,"Ġespecial":1525,"asc":1526,"red":1527,"15":1528,"Ġapo":1529,"Âª":1530,"Ġvoc":1531,"Ġoutubro":1532,"ĠÃ©p":1533,"ĠalÃ©m":1534,"Ġ2012":1535,"ĠdÃ©c":1536,"12":1537,"Ġsetembro":1538,"ede":1539,"ĠtÃŃtulo":1540,"Ġabril":1541,"Ġneg":1542,"Ġcur":1543,"Ã³d":1544,"Ġesta":1545,"Ġjogo":1546,"Ġvis":1547,"Ġlugar":1548,"Ġsal":1549,"Ġcant":1550,"ĠFran":1551,"Ġperson":1552,"itor":1553,"redo":1554,"Ġemb":1555,"Ġseja":1556,"ive":1557,"Ġ/":1558,"enÃ§Ã£o":1559,"ĠperÃŃ":1560,"iente":1561,"Ġagosto":1562,"ĠNacional":1563,"Ġ2013":1564,"taÃ§Ã£o":1565,"orr":1566,"Ġhum":1567,"ĠvÃ¡rios":1568,"Ġjulho":1569,"Ġconsegu":1570,"ulher":1571,"Ġcoloc":1572,"ĠJosÃ©":1573,"Ġtent":1574,"ĠUniversidade":1575,"osta":1576,"Ġfez":1577,"ceu":1578,"Ġbanda":1579,"ÃŃdo":1580,"izar":1581,"ila":1582,"17":1583,"Ġjunho":1584,"Ġnovo":1585,"Ġcaus":1586,"rica":1587,"Ġaj":1588,"ht":1589,"ĠÃºn":1590,"Ġmarc":1591,"undial":1592,"Ã¡tica":1593,"Ġformula":1594,"sos":1595,"Ġtar":1596,"uÃ§Ã£o":1597,"Ġnecess":1598,"aro":1599,"ĠJoÃ£o":1600,"Ġmilh":1601,"000":1602,"ze":1603,"isco":1604,"ong":1605,"stitu":1606,"Ġtotal":1607,"ĠIntern":1608,"enho":1609,"ace":1610,"ĠÃ©poca":1611,"Ġnovembro":1612,"xim":1613,"ĠNe":1614,"Ġden":1615,"Ġinic":1616,"ĠAd":1617,"emin":1618,"Ġpois":1619,"ĠinÃŃcio":1620,"nÃ§a":1621,"eno":1622,"Ġmov":1623,"icamente":1624,"iÃªncia":1625,"Ġestud":1626,"ure":1627,"Ġprec":1628,"ument":1629,"ificaÃ§Ã£o":1630,"har":1631,"Ġproduz":1632,"ĠAg":1633,"reg":1634,"ericano":1635,"Ġ,":1636,"Ġescol":1637,"duc":1638,"Ġoutro":1639,"Ġmus":1640,"ĠTra":1641,"16":1642,"Ġle":1643,"mes":1644,"ĠSa":1645,"Ġpra":1646,"ĠEsc":1647,"ĠTh":1648,"dut":1649,"ĠCampeonato":1650,"ons":1651,"Ġeu":1652,"Ġexemplo":1653,"Ġsign":1654,"ari":1655,"Ġtemporada":1656,"ĠRec":1657,"Ġquatro":1658,"ĠPol":1659,"Ġobjet":1660,"ĠCop":1661,"Ġdesta":1662,"Ġfranc":1663,"Ġescrit":1664,"gue":1665,"Ġpequ":1666,"Ġresult":1667,"Ġfevereiro":1668,"Ġtornou":1669,"ĠEstado":1670,"ĠSal":1671,"Ġmost":1672,"ĠMaria":1673,"Ġpont":1674,"Ġseguinte":1675,"riz":1676,"Ġir":1677,"atos":1678,"adr":1679,"ĠCr":1680,"Ġconhecido":1681,"Ġpap":1682,"ĠperÃŃodo":1683,"Ġcaso":1684,"Ġ25":1685,"amentos":1686,"iblio":1687,"Ġped":1688,"th":1689,"rom":1690,"Ġexpl":1691,"Ġve":1692,"ĠHistÃ³ria":1693,"ĠmunicÃŃpio":1694,"ĠMo":1695,"ĠPl":1696,"eses":1697,"Ġ2014":1698,"14":1699,"uras":1700,"Ġtodo":1701,"rem":1702,"Ġmeio":1703,"Ġcerca":1704,"ĠTe":1705,"Ġqualquer":1706,"Ġ30":1707,"ĠMus":1708,"ĠCo":1709,"ĠUma":1710,"Ã£os":1711,"Ġsom":1712,"aracter":1713,"ond":1714,"ore":1715,"Ġbrasileiro":1716,"ivamente":1717,"iram":1718,"ĠNÃ£o":1719,"Ġ22":1720,"cos":1721,"ival":1722,"Ġrespon":1723,"ĠNova":1724,"ĠRom":1725,"ĠediÃ§Ã£o":1726,"uda":1727,"ĠCas":1728,"199":1729,"ba":1730,"esar":1731,"reve":1732,"ĠReg":1733,"Ġtel":1734,"Ġmenos":1735,"tar":1736,"Ġclass":1737,"Ġ2016":1738,"cia":1739,"ĠComo":1740,"ecer":1741,"ornal":1742,"ise":1743,"asse":1744,"Ġet":1745,"Ġcompet":1746,"ly":1747,"Ġquais":1748,"Ġtur":1749,"Ġmant":1750,"Ġexp":1751,"ilh":1752,"Ġlado":1753,"ĠII":1754,"Ġep":1755,"car":1756,"ier":1757,"Ġlig":1758,"Ġ21":1759,"Ġ23":1760,"ĠWikip":1761,"ĠAnd":1762,"ĠMin":1763,"ifica":1764,"Ġfilho":1765,"Ġsegunda":1766,"ĠGrande":1767,"Ġ2015":1768,"ĠCont":1769,"Ġdevido":1770,"ĠPal":1771,"Ġirm":1772,"ĠvÃ¡rias":1773,"Ã©cn":1774,"enda":1775,"Ġmulher":1776,"ĠCat":1777,"Ġdesenvolvimento":1778,"Ġcontro":1779,"ĠApÃ³s":1780,"Ġentanto":1781,"sas":1782,"ĠLa":1783,"ruz":1784,"ÃŃda":1785,"Ġfun":1786,"Ġmud":1787,"iel":1788,"Ġarqu":1789,"ĠpÃ¡gina":1790,"Ġsab":1791,"onhec":1792,"Ġsent":1793,"Ġsitu":1794,"one":1795,"Ġterc":1796,"entemente":1797,"Ġfim":1798,"Ġig":1799,"inos":1800,"Ġtodas":1801,"Ã©rica":1802,"Ġopera":1803,"Ġtal":1804,"Ġ192":1805,"pr":1806,"Ġfer":1807,"Ġcob":1808,"aval":1809,"Ġtex":1810,"enso":1811,"iver":1812,"Ġcultura":1813,"Ġprobl":1814,"ĠCan":1815,"aixa":1816,"Ġdias":1817,"Ġren":1818,"aixo":1819,"Ġatu":1820,"Ġmorte":1821,"su":1822,"Ġfl":1823,"ow":1824,"Ġ24":1825,"Ġdent":1826,"ĠCent":1827,"Ġalgumas":1828,"ingu":1829,"Ġnova":1830,"Ġvia":1831,"Ġpresidente":1832,"Ġseria":1833,"Ġocorre":1834,"Ġgran":1835,"tt":1836,"Ġ'":1837,"ĠPres":1838,"Ġsur":1839,"ĠVal":1840,"ĠrÃ¡":1841,"iza":1842,"eros":1843,"amos":1844,"ation":1845,"Ġata":1846,"iro":1847,"Ġanter":1848,"mas":1849,"Ġelimin":1850,"ĠSil":1851,"ĠSanta":1852,"fic":1853,"ĠSoc":1854,"Ġgol":1855,"Ġdel":1856,"ĠCons":1857,"resc":1858,"Ġservi":1859,"ĠCal":1860,"ĠPart":1861,"ĠIt":1862,"Ġadminist":1863,"Ġ2000":1864,"ĠGuerra":1865,"Ġecon":1866,"ĠprÃ³":1867,"land":1868,"Ġequipe":1869,"ĠcomeÃ§ou":1870,"ndo":1871,"11":1872,"Ġequip":1873,"ĠCopa":1874,"Ġmuitos":1875,"ĠlanÃ§ado":1876,"ĠproduÃ§Ã£o":1877,"Ġmot":1878,"ax":1879,"Ġz":1880,"Ġtarde":1881,"acion":1882,"Ġtom":1883,"ĠPed":1884,"ĠÃ¡gua":1885,"Ġdescob":1886,"Ġsul":1887,"olÃ³g":1888,"af":1889,"Ġcompl":1890,"Ġ2005":1891,"Ġgen":1892,"ke":1893,"Ġgra":1894,"Ġdefin":1895,"Ġfutebol":1896,"Ġtre":1897,"ĠespÃ©cie":1898,"Ġuso":1899,"Ġesse":1900,"Ġganh":1901,"ĠEste":1902,"Ġcontinu":1903,"ĠArt":1904,"Ã¡veis":1905,"ĠSh":1906,"ĠRep":1907,"Ġacab":1908,"oria":1909,"Ġpossui":1910,"Ġ2017":1911,"Ġpassou":1912,"ĠOb":1913,"Ġprograma":1914,"ĠversÃ£o":1915,"Ġmesma":1916,"iÃµes":1917,"Ġleg":1918,"oso":1919,"Ġmon":1920,"Ġcasa":1921,"Ġref":1922,"iedade":1923,"ĠGl":1924,"Ġcomb":1925,"Ġconj":1926,"ÃŃsticas":1927,"Ġessa":1928,"ĠJohn":1929,"Ġlib":1930,"Ġoriginal":1931,"emp":1932,"ques":1933,"Ġlivro":1934,"Ġcaracter":1935,"Ġativ":1936,"Ġsex":1937,"Ġnacional":1938,"val":1939,"ulg":1940,"Ġjunt":1941,"Ġer":1942,"ĠmilhÃµes":1943,"ago":1944,"ger":1945,"umento":1946,"ĠFede":1947,"Ġinteg":1948,"Ġdeve":1949,"Ġbas":1950,"Ġconqu":1951,"ĠLocalidades":1952,"Ġprojeto":1953,"ames":1954,"ĠvocÃª":1955,"tanto":1956,"Ġprodut":1957,"Ãºblica":1958,"ĠRob":1959,"ĠBio":1960,"'s":1961,"Ġpesqu":1962,"org":1963,"ala":1964,"Ġatual":1965,"ick":1966,"21":1967,"tenc":1968,"Ġfac":1969,"ÃŃveis":1970,"ĠEla":1971,"Ġmilitar":1972,"Ġporque":1973,"Ġquem":1974,"Ġprocesso":1975,"Ġcal":1976,"Ġestabel":1977,"depend":1978,"rando":1979,"amp":1980,"ĠportuguÃªs":1981,"Ġsempre":1982,"posta":1983,"air":1984,"eraÃ§Ã£o":1985,"ardo":1986,"Ġalem":1987,"ĠIgre":1988,"ĠlÃŃn":1989,"ĠSegundo":1990,"ĠLista":1991,"ĠrelaÃ§Ã£o":1992,"ĠCap":1993,"Ġcarreira":1994,"pect":1995,"Ġsof":1996,"erta":1997,"omia":1998,"Ġ2018":1999,"ĠcrÃŃt":2000,"Ġsec":2001,"inado":2002,"ĠFre":2003,"ux":2004,"sia":2005,"Ġru":2006,"stant":2007,"ĠMas":2008,"ĠÂ":2009,"iment":2010,"Ġanim":2011,"ĠEntre":2012,"ĠpaÃŃses":2013,"ĠdÃ©cada":2014,"Ġempresa":2015,"Ã©rc":2016,"ses":2017,"enha":2018,"iada":2019,"Ġnuma":2020,"Ġlim":2021,"Ġfin":2022,"Ġprincipais":2023,"abora":2024,"Ġregist":2025,"are":2026,"ĠPo":2027,"ormente":2028,"ĠGo":2029,"avor":2030,"ĠDem":2031,"ĠAlÃ©m":2032,"Ġdisso":2033,"ensÃ£o":2034,"Ġterrit":2035,"Ġincluindo":2036,"fin":2037,"Ã³t":2038,"Ġ&":2039,"ĠCarlos":2040,"mov":2041,"izados":2042,"irc":2043,"Ġpai":2044,"ama":2045,"ĠSub":2046,"ades":2047,"Ġgrandes":2048,"Ġop":2049,"iormente":2050,"tou":2051,"Ġtipo":2052,"ĠBiblio":2053,"Ġbo":2054,"irig":2055,"Ġ2004":2056,"press":2057,"gres":2058,"Ġmuitas":2059,"ĠCast":2060,"Ġpouco":2061,"imos":2062,"cel":2063,"Ġtermin":2064,"boa":2065,"ck":2066,"Ã¡c":2067,"ĠMat":2068,"ĠIgreja":2069,"feito":2070,"ĠinformaÃ§Ãµes":2071,"ome":2072,"Ġmaioria":2073,"estÃ£o":2074,"orto":2075,"Ã¼":2076,"ĠcanÃ§Ã£o":2077,"ĠInst":2078,"Ġtrabalh":2079,"Ġchamado":2080,"essor":2081,"rag":2082,"Ġtec":2083,"isboa":2084,"ĠFigu":2085,"uais":2086,"cion":2087,"rutura":2088,"Ġpopular":2089,"Ġcab":2090,"uv":2091,"Ġfunc":2092,"ĠpolÃŃtica":2093,"ĠBe":2094,"Ġoutra":2095,"ĠAng":2096,"Ġperman":2097,"ah":2098,"Ġhoje":2099,"Ġ28":2100,"ulas":2101,"ude":2102,"bol":2103,"Ġdecl":2104,"ĠtÃ©cn":2105,"Ġ26":2106,"quia":2107,"ĠFranÃ§a":2108,"ĠNos":2109,"Ġrecebeu":2110,"ĠmÃ©d":2111,"Ġvolta":2112,"Ġ2019":2113,"Ġapl":2114,"Ãªmio":2115,"ÃŃde":2116,"Ġpelas":2117,"Ġlongo":2118,"Ġclube":2119,"leg":2120,"ÃŃcia":2121,"ws":2122,"ĠAmÃ©rica":2123,"Ġbar":2124,"ecut":2125,"posiÃ§Ã£o":2126,"Ġinflu":2127,"panh":2128,"Ġcorre":2129,"Ġtro":2130,"essa":2131,"ung":2132,"Ġdiferentes":2133,"ley":2134,"Ġobra":2135,"Ġestad":2136,"Ġdirig":2137,"Ġcinco":2138,"ock":2139,"ese":2140,"Ġ27":2141,"ĠDurante":2142,"Ã©n":2143,"Ġdeter":2144,"Ġcategor":2145,"ĠMundial":2146,"anas":2147,"embros":2148,"adora":2149,"ĠWil":2150,"Ġjornal":2151,"Ġsucesso":2152,"ork":2153,"Ã´nia":2154,"Ġ1913":2155,"ĠCand":2156,"Ġalt":2157,"Ã¡ginas":2158,"omb":2159,"age":2160,"Ġrelig":2161,"ativo":2162,"ĠNorte":2163,"gio":2164,"radas":2165,"Ġobs":2166,"ĠDire":2167,"ĠAo":2168,"let":2169,"eza":2170,"Ġdisse":2171,"Ġnatura":2172,"Ġdentro":2173,"alh":2174,"50":2175,"ww":2176,"ĠSua":2177,"ĠpÃºblico":2178,"Ġtoda":2179,"Ġacont":2180,"adeira":2181,"ertos":2182,"Ġpontos":2183,"Ġdados":2184,"Ã¡b":2185,"Ġanunc":2186,"ritÃ¢n":2187,"ront":2188,"ĠQuando":2189,"ĠFiguei":2190,"ĠPrim":2191,"Ġjogos":2192,"Ġimportante":2193,"peÃ£o":2194,"rados":2195,"Ã³rias":2196,"ĠPaul":2197,"Ġcorpo":2198,");":2199,"ĠPorto":2200,"Ġguerra":2201,"ink":2202,"Ġol":2203,"ĠHar":2204,"ĠDepois":2205,"Ġconta":2206,"Ġfavor":2207,"Ġdi":2208,"ame":2209,"adamente":2210,"Ġpalav":2211,"Ġserv":2212,"Ġepis":2213,"ogos":2214,"Ġsimpl":2215,"mar":2216,"Ġcapital":2217,"ÃŃstica":2218,"Ġponto":2219,"Ġrelacion":2220,"ind":2221,"ĠSuper":2222,"enta":2223,"ĠVol":2224,"Ġaqui":2225,"ki":2226,"Ġdet":2227,"ĠLisboa":2228,"urg":2229,"ĠposiÃ§Ã£o":2230,"ann":2231,"Ġparc":2232,"almente":2233,"ĠtÃªm":2234,"Ġconstitu":2235,"ka":2236,"Ġado":2237,"Ġafirm":2238,"uz":2239,"usÃ£o":2240,"ĠFigueiredo":2241,"ĠmÃ¡":2242,"Ġprofiss":2243,"ivil":2244,"Ġespa":2245,"Ġvit":2246,"reas":2247,"Ġinterpre":2248,"ĠMil":2249,"Ġ190":2250,"eca":2251,"Ã©rcito":2252,"Ġdisput":2253,"ĠAlem":2254,"ĠEuropa":2255,"rim":2256,"Ġocup":2257,"Ġens":2258,"Ġrespons":2259,"Ġ29":2260,"ris":2261,"ĠIl":2262,"Ġcient":2263,".,":2264,"Ġlit":2265,"ĠEsta":2266,"Ġpapel":2267,"Ġmom":2268,"Ġreconhec":2269,"iores":2270,"ĠMe":2271,"inaÃ§Ã£o":2272,"__":2273,"inhas":2274,"icaÃ§Ãµes":2275,"Ġpermit":2276,"orge":2277,"icl":2278,"Ġide":2279,"category":2280,"ĠTV":2281,"ĠWikipÃ©dia":2282,"fal":2283,"Ġficou":2284,"ÃŃl":2285,"arc":2286,"198":2287,"Ġfora":2288,"ĠTer":2289,"rac":2290,"30":2291,"ique":2292,"Ġfrequ":2293,"ĠAlb":2294,"ĠSer":2295,"arÃ¡":2296,"Ġartigos":2297,"Ġprote":2298,"ĠFer":2299,"elas":2300,"Ġdoc":2301,"Ġdom":2302,"ene":2303,"ĠconstruÃ§Ã£o":2304,"ĠMart":2305,"Ġindiv":2306,"Ġrei":2307,"Ġbat":2308,"ĠSp":2309,"Ġlinha":2310,"ĠSeu":2311,"Ġexper":2312,"ĠTambÃ©m":2313,"Ġsubstitu":2314,"ĠMun":2315,"uel":2316,"Ġnorm":2317,"Ġtexto":2318,"Ġderro":2319,"Ġfos":2320,"rue":2321,"Ġlat":2322,"Ã´nio":2323,"ificado":2324,"vio":2325,"erais":2326,"ĠGal":2327,"Ã©tica":2328,"Ġusu":2329,"Ġalc":2330,"ĠPedro":2331,"eles":2332,"Ġmembros":2333,"ĠlÃŃ":2334,"Ġprincipalmente":2335,"ÃŃa":2336,"Ġ2020":2337,"Ġsocial":2338,"ence":2339,"Ġquase":2340,"tado":2341,"Ġinvest":2342,"Ġ...":2343,"ĠXV":2344,"ile":2345,"Ġ:":2346,"Ġmo":2347,"ĠprÃ³prio":2348,"Ġjov":2349,"fo":2350,"iados":2351,"arg":2352,"Ġ189":2353,"inhos":2354,"Ġobras":2355,"etro":2356,"by":2357,"ĠPat":2358,"Ar":2359,"las":2360,"28":2361,"Ġnenh":2362,"Ġcat":2363,"ance":2364,"ĠRes":2365,"Ã¡lia":2366,"ĠnÃŃvel":2367,"ume":2368,"ĠCandido":2369,"ĠFern":2370,"ĠAlg":2371,"Ġembora":2372,"ender":2373,"ĠHer":2374,"icion":2375,"ĠpossÃŃvel":2376,"urso":2377,"stria":2378,"ĠRa":2379,"ĠRepÃºblica":2380,"ĠPra":2381,"ĠhistÃ³r":2382,"izou":2383,"ĠMed":2384,"ducaÃ§Ã£o":2385,"ituto":2386,"eix":2387,"Ġpint":2388,"enn":2389,"Ġ2003":2390,"ÃŃnc":2391,"zo":2392,"Ġcomerc":2393,"Ġestim":2394,"Ġconhecida":2395,"ĠRo":2396,"Ġprimeiros":2397,"old":2398,"ĠFutebol":2399,"Ġne":2400,"Ġdetermin":2401,"ĠFrancisco":2402,"Ġident":2403,"Ġdeste":2404,"Ġvot":2405,"Ġretorn":2406,"Ġterra":2407,"Ġassoc":2408,"una":2409,"aca":2410,"//":2411,"ĠDu":2412,"ĠPos":2413,"Ġtanto":2414,"true":2415,"Ã£e":2416,"Ġpat":2417,"Ġtelev":2418,"Ġfuncion":2419,"Ġx":2420,"oro":2421,"ÃŃncia":2422,"Ġquar":2423,"ĠInternacional":2424,"ĠDav":2425,"ep":2426,"22":2427,"ĠSte":2428,"ĠLocalidade":2429,"ÃŃg":2430,"ĠporÃ©m":2431,"onst":2432,"ĠReino":2433,"ĠMont":2434,"Ġenf":2435,"emos":2436,"Ġcompos":2437,"Ġindic":2438,"Ġpropri":2439,"Ġorigem":2440,"://":2441,"Ãºde":2442,"Ġpessoa":2443,"erna":2444,"ĠBl":2445,"ash":2446,"Ġvenc":2447,"ans":2448,"Ġjunto":2449,"Ġofer":2450,"ys":2451,"Ġrio":2452,"ximo":2453,"ĠSc":2454,"Ġposter":2455,"ĠHen":2456,"Ġ2001":2457,"Ġidade":2458,"Ġ2002":2459,"etr":2460,"Ã¢ne":2461,"Ġfeito":2462,"Ġsimples":2463,"ĠBibliografia":2464,"ĠÃºltimo":2465,"tante":2466,"Ġrelat":2467,"Ġloc":2468,"ech":2469,"Ġ100":2470,"ĠlÃŃngua":2471,"icipal":2472,"erno":2473,"Ġviz":2474,"29":2475,"ĠDom":2476,"Ġconquist":2477,"Ã¡cio":2478,"isas":2479,"itado":2480,"ÃŃnio":2481,"Ġital":2482,"ĠAf":2483,"Ġ--":2484,"ÃŃmp":2485,"Ġindepend":2486,"ientes":2487,"ĠSou":2488,"Ġbrasileira":2489,"ĠLib":2490,"Ã¢nia":2491,"esia":2492,"Ġinicial":2493,"eleÃ§Ã£o":2494,"ĠAv":2495,"Ġaproxim":2496,"Ġfato":2497,"ĠgÃªn":2498,"Ġdisp":2499,"Ġarm":2500,"Ġlista":2501,"ingle":2502,"ĠNew":2503,"part":2504,"reveu":2505,"Ġcontribu":2506,"defin":2507,"Ġcentro":2508,"Ġrom":2509,"Ġla":2510,"Ġconjunto":2511,"sh":2512,"Ã¡ss":2513,"Ġfase":2514,"ĠrÃ¡p":2515,"Ġdistribu":2516,"ES":2517,"Ġmerc":2518,"ĠTom":2519,"Ġagora":2520,"izadas":2521,"Ã¡r":2522,"Ġtrop":2523,"emia":2524,"Ġating":2525,"Ġnem":2526,"Ġquanto":2527,"ĠJap":2528,"Ġcomum":2529,"Ġvalor":2530,"ini":2531,"be":2532,"SB":2533,"Ġarg":2534,"Ġdever":2535,"ĠAlex":2536,"ĠHe":2537,"Ġnasc":2538,"Al":2539,"into":2540,"agn":2541,"ĠpolÃŃtico":2542,"rios":2543,"ĠTem":2544,"rist":2545,"icular":2546,"ler":2547,"pira":2548,"ĠMal":2549,"wn":2550,"Ġvai":2551,"apa":2552,"ng":2553,"Ġlocalizada":2554,"entar":2555,"Ġelem":2556,"Ġmorre":2557,"Ġquer":2558,"urb":2559,"guas":2560,"Ġmetros":2561,"Ã³dio":2562,"Ġgrupos":2563,"ole":2564,"unca":2565,"ÃŃcias":2566,"ĠNot":2567,"Ġobserv":2568,"ves":2569,"ĠFederal":2570,"Ġexib":2571,"Ġeleito":2572,"ĠBu":2573,"Ġpertenc":2574,"tamente":2575,"ĠAlemanha":2576,"antas":2577,"ipl":2578,"aco":2579,"Ġencontra":2580,"ĠserÃ¡":2581,"ish":2582,"Ġtermo":2583,"Ġfort":2584,"utos":2585,"tion":2586,"enco":2587,"ĠbritÃ¢n":2588,"Ġson":2589,"ĠCa":2590,"Ġpovo":2591,"rang":2592,"ĠIngl":2593,"Ġelei":2594,"\"),":2595,"Ġviol":2596,"Ġdireito":2597,"Ġcirc":2598,"ĠcriaÃ§Ã£o":2599,"Ġcresc":2600,"ericana":2601,"Ã¢mara":2602,"Ġinstitu":2603,"cul":2604,"Ġmater":2605,"Ġampl":2606,"Ġfemin":2607,"Ġ188":2608,"enos":2609,"ĠSan":2610,"Ġmomento":2611,"how":2612,"ham":2613,"met":2614,"Ġdesign":2615,"Ġast":2616,"Ġseguintes":2617,"Ġdiversos":2618,"Ġbus":2619,"Ġmovimento":2620,"Ġestudo":2621,"Ġdiversas":2622,"ttp":2623,"Ġlogo":2624,"ates":2625,"ĠPe":2626,"stantivo":2627,"ecimento":2628,"Ġestar":2629,"Ġhttp":2630,"ĠDo":2631,"Ġmont":2632,"Ġdeu":2633,"pressÃ£o":2634,"Ġchamada":2635,"Ġ=":2636,"Ġroman":2637,"Ã£es":2638,"osp":2639,"itude":2640,"ett":2641,"Ġquad":2642,"Ã¢nt":2643,"Ġusado":2644,"Ġviv":2645,"ĠFac":2646,"umb":2647,"):":2648,"elmente":2649,"Ġmodo":2650,"Ġvend":2651,"ĠespaÃ§o":2652,"Ġfilha":2653,"Ġcidades":2654,"ĠÃºnico":2655,"Ġnovamente":2656,"40":2657,"Ġmeses":2658,"ota":2659,"Ġace":2660,"Ġlhe":2661,"ld":2662,"atalha":2663,"ight":2664,"nd":2665,"Ġsede":2666,"andid":2667,"Ġpersonagem":2668,"Ġge":2669,"Ġinstal":2670,"Ġimpl":2671,"anta":2672,"ĠTa":2673,"Ġche":2674,"Ġigre":2675,"Ġpens":2676,"Ġestrutura":2677,"ĠGlob":2678,"ĠSch":2679,"ĠGr":2680,"Am":2681,"Ġseis":2682,"ĠMu":2683,"ste":2684,"ĠlanÃ§amento":2685,"ĠterritÃ³rio":2686,"esc":2687,"ĠJe":2688,"Ġalte":2689,"ĠRod":2690,"ĠSilva":2691,"25":2692,"ĠTur":2693,"ĠBro":2694,"ĠSanto":2695,"ĠMinist":2696,"ativas":2697,"iqu":2698,"ĠMic":2699,"eta":2700,"Ġestilo":2701,"Ġempre":2702,"isl":2703,"Ġfontes":2704,"Ã£s":2705,"Ġamericano":2706,"Ġtudo":2707,"Ġdecid":2708,"raÃ§Ãµes":2709,"ĠImp":2710,"ĠtelevisÃ£o":2711,"Ġbair":2712,"Ġescola":2713,"den":2714,"ĠEspanha":2715,"ĠRos":2716,"197":2717,"deu":2718,"Ġcampo":2719,"iÃªncias":2720,"Ġher":2721,"porte":2722,"Ġconsiderado":2723,"Ġvari":2724,"Ġpresente":2725,"ĠGru":2726,"ĠespÃ©cies":2727,"Ġ1999":2728,"ĠÃ¡reas":2729,"ife":2730,"ĠSol":2731,"Ġmembro":2732,"fil":2733,"ĠfrancÃªs":2734,"Ġrevel":2735,"don":2736,"Ġtransform":2737,"ward":2738,"ĠParis":2739,"voluÃ§Ã£o":2740,"ĠJogos":2741,"Ġcandid":2742,"uraÃ§Ã£o":2743,"br":2744,"yl":2745,"ĠXI":2746,"Ġgal":2747,"Ġdispon":2748,"abilidade":2749,"Ġmaiores":2750,"genh":2751,"ĠFor":2752,"ĠprÃ³pria":2753,"Ġdenom":2754,"ĠInstituto":2755,"idÃªncia":2756,"AR":2757,"Ġgeralmente":2758,"ĠBra":2759,"ĠmÃ£e":2760,"ĠMon":2761,"ĠBen":2762,"eias":2763,"ĠÃºltima":2764,"Ġdistrito":2765,"Ġprot":2766,"Ġ50":2767,"icais":2768,"Ġfica":2769,"60":2770,"III":2771,"Ġcel":2772,"Ġfilhos":2773,"Ġmulheres":2774,"Ġmand":2775,"Ġmal":2776,"Ġcausa":2777,"Ġilha":2778,"ĠBel":2779,"Ġproblemas":2780,"Ġespanh":2781,"ĠfunÃ§Ã£o":2782,"Ġnunca":2783,"umentos":2784,"ĠmÃ©dia":2785,"Ã¡tico":2786,"Ġtenha":2787,"panha":2788,"Ġjogador":2789,"ibilidade":2790,"Ġ1998":2791,"apon":2792,"ĠCruz":2793,"ĠPortugu":2794,"aran":2795,"Ġestavam":2796,"ĠGra":2797,"cri":2798,"rÃ¡s":2799,"ĠDiv":2800,"aixas":2801,"Ġpag":2802,"Ġapoio":2803,"ĠAssoc":2804,"ĠMc":2805,"23":2806,"jam":2807,"Ġarte":2808,"ĠSim":2809,"ĠUniÃ£o":2810,"Ġreun":2811,"itaÃ§Ã£o":2812,"ĠMais":2813,"ogia":2814,"acidade":2815,"Ġcrist":2816,"Ġresta":2817,"ĠcientÃŃf":2818,"Ġchegou":2819,"ĠEmb":2820,"Ġajud":2821,"ergia":2822,"Ġadv":2823,"estival":2824,"ĠMundo":2825,"ĠAssim":2826,"ĠReal":2827,"Ġgl":2828,"ĠÃºnica":2829,"Ġaer":2830,"Ġexecut":2831,"Ġ1990":2832,"Ġvir":2833,"Ġprocura":2834,"Ġaument":2835,"Ã³rios":2836,"ille":2837,"Ġdiretor":2838,"imas":2839,"Ġprecis":2840,"ĠfÃŃs":2841,"Ġassum":2842,"ĠMac":2843,"ĠTod":2844,"ney":2845,"ursos":2846,"Ġnatural":2847,"ĠArg":2848,"vam":2849,"ogrÃ¡f":2850,"Ġenvolv":2851,"Ġbranc":2852,"encial":2853,"ĠalcanÃ§":2854,"Ġsite":2855,"ER":2856,"ites":2857,"Ġexc":2858,"orld":2859,"ĠlÃ¡":2860,"Ġsignific":2861,"Ġcategoria":2862,"ĠprovÃŃncia":2863,"Ġresultado":2864,"AS":2865,"Ġ187":2866,"Ġhomens":2867,"Ã¡st":2868,"Ġluta":2869,"ider":2870,"ĠAust":2871,"Ã¶":2872,"Ġrevista":2873,"ĠSantos":2874,"ĠApesar":2875,"ĠMor":2876,"ĠIr":2877,"iet":2878,"itora":2879,"elos":2880,"eio":2881,"Ġpadr":2882,"Ġpromov":2883,"ĠDeus":2884,"nia":2885,"uranÃ§a":2886,"sto":2887,"ĠparticipaÃ§Ã£o":2888,"ecido":2889,"Ġacima":2890,"ĠTr":2891,"ĠDan":2892,"Ġrede":2893,"uss":2894,"Ġcargo":2895,"Ġprofissional":2896,"Ġforn":2897,"Ġterceiro":2898,"Ġtiv":2899,"24":2900,"Ġdivid":2901,"Ġ31":2902,"isso":2903,"Ġunivers":2904,"Ġcasos":2905,"rama":2906,"itura":2907,"Ġtri":2908,"Ġmora":2909,"Ġâ":2910,"Ġmusical":2911,"ĠCasa":2912,"ĠPh":2913,"ner":2914,"Ġhomem":2915,"Ġprofessor":2916,"Ġtrat":2917,"ius":2918,"false":2919,"âĢĿ,":2920,"Ġmodelo":2921,"rov":2922,"ĠSet":2923,"Ġacom":2924,"ural":2925,"sol":2926,"ror":2927,"estre":2928,"Ġtest":2929,"ĠHol":2930,"Ġcomplet":2931,"arem":2932,"ational":2933,"Ġconte":2934,"ĠeliminaÃ§Ã£o":2935,"Ġcrit":2936,"ya":2937,"Ġconce":2938,"out":2939,"lam":2940,"Ġjapon":2941,"liam":2942,"ĠEu":2943,"ĠÃį":2944,"Ġeuro":2945,"ith":2946,"Ġordem":2947,"Ġlei":2948,"ĠBiografia":2949,"Ġcategory":2950,"Ġtradic":2951,"ĠcompetiÃ§Ã£o":2952,"ĠformaÃ§Ã£o":2953,"ain":2954,"Ġ1996":2955,"bre":2956,"Ġquant":2957,"Ġsepara":2958,"Ġfrente":2959,"ĠBrasileira":2960,"Ġdestac":2961,"Ġnotcategory":2962,"ĠdiscussÃ£o":2963,"ĠdireÃ§Ã£o":2964,"Ġobrig":2965,"Ġlut":2966,"ãĥ":2967,"ĠCultura":2968,"pÃ§Ã£o":2969,"leta":2970,"Ã©tico":2971,"par":2972,"Ã³nio":2973,"inham":2974,"ĠvÃŃde":2975,"Ġ40":2976,"ĠAcad":2977,"Ġlocais":2978,"Ġcost":2979,"ilha":2980,"Ġfut":2981,"Ġprev":2982,"ĠlÃŃder":2983,"urgo":2984,"jas":2985,"Ġganhou":2986,"Ġacred":2987,"Ġparticular":2988,"Ġven":2989,"Ġplane":2990,"ĠItÃ¡lia":2991,"rev":2992,"Ġnovos":2993,"ĠconteÃº":2994,"ale":2995,"Ġdar":2996,"Ġsemelh":2997,"Ġfilmes":2998,"ĠForm":2999,"ĠChar":3000,"ĠserviÃ§o":3001,"rent":3002,"Ġvel":3003,"Ġescrito":3004,"ĠBr":3005,"Ġreligios":3006,"ĠGen":3007,"ĠJapÃ£o":3008,"uldade":3009,"au":3010,"dios":3011,"Ġjust":3012,"ĠAtl":3013,"Ġcomunidade":3014,"rog":3015,"Ġdata":3016,"alha":3017,"qui":3018,"iste":3019,"Ã´nica":3020,"ĠtÃ£o":3021,"Ġevento":3022,"ĠSec":3023,"Â°":3024,"Ġinternacional":3025,"ĠLeg":3026,"Ġsomente":3027,"Ġanterior":3028,"SBN":3029,"Ġcriado":3030,"inta":3031,"ĠestÃº":3032,"Ġespera":3033,"ky":3034,"Ġfront":3035,"Ġelev":3036,"Ġminha":3037,"ĠPartido":3038,"Ġrespe":3039,"eter":3040,"Ġobjetivo":3041,"Ġarquit":3042,"ĠIII":3043,"ĠBer":3044,"ĠLou":3045,"atÃ³rio":3046,"imes":3047,"Ġautom":3048,"Ġrap":3049,"anho":3050,"ĠCab":3051,"ĠMag":3052,"Ġtrein":3053,"ĠClube":3054,"aug":3055,"Ġresol":3056,"ĠOc":3057,"Ġsurg":3058,"uno":3059,"Ġpoderia":3060,"Ġqualidade":3061,"ĠUS":3062,"Ġacesso":3063,"ĠJÃ¡":3064,"Ġcompanh":3065,"Ġsel":3066,"Ġassin":3067,"ĠLuc":3068,"itores":3069,"Ġ1997":3070,"Ã©ria":3071,"Ġexiste":3072,"45":3073,"ĠBan":3074,"forma":3075,"ĠCha":3076,"izando":3077,"Ġfinanc":3078,"sequ":3079,"ĠirmÃ£o":3080,"Ġvaria":3081,"Ġimportantes":3082,"ator":3083,"Ġtecn":3084,"ment":3085,"Ġmens":3086,"inais":3087,"Ġlet":3088,"ĠEnc":3089,"Ġvi":3090,"Ã¢ndia":3091,"Ġcriar":3092,"ĠEv":3093,"idae":3094,"eir":3095,"Ġsi":3096,"ĠLiv":3097,"ispo":3098,"Ġdig":3099,"Ġantigo":3100,"Ġintro":3101,"sc":3102,"27":3103,"frica":3104,"Ġatualmente":3105,"ides":3106,"undaÃ§Ã£o":3107,"Ġfosse":3108,"Ġnovas":3109,"ĠforÃ§a":3110,"Ġfig":3111,"Ġlivre":3112,"ulado":3113,"Ġantiga":3114,"americano":3115,"ĠinformaÃ§Ã£o":3116,"--":3117,"Ġband":3118,"Ġprat":3119,"Ġbom":3120,"Ġreb":3121,"han":3122,"ĠalemÃ£o":3123,"iÃ§a":3124,"ĠorganizaÃ§Ã£o":3125,"nÃ§as":3126,"ĠgÃªnero":3127,"ertura":3128,"Ġetc":3129,"rÃ©":3130,"ovi":3131,"Ġnat":3132,"Ġhoras":3133,"Ġestudos":3134,"ĠGrupo":3135,"arm":3136,"Ġflores":3137,"ood":3138,"Ġhip":3139,"ĠRib":3140,"ĠLei":3141,"ferÃªncia":3142,"ĠMad":3143,"Ġcontrole":3144,"reto":3145,"tica":3146,"ificar":3147,"respon":3148,"aterra":3149,"ĠGovern":3150,"Ġdisco":3151,"Ġinteress":3152,"itou":3153,"leo":3154,"ĠSam":3155,"ĠConc":3156,"ĠTerra":3157,"Ġhou":3158,"elhores":3159,"ĠPÃ¡gina":3160,"Ġlidera":3161,"bra":3162,"ium":3163,"Ġportuguesa":3164,"ĠWilliam":3165,"ĠvitÃ³ria":3166,"yn":3167,"Ġmaneira":3168,"Ġ1980":3169,"grama":3170,"ĠSo":3171,"ÃŃcios":3172,"Ch":3173,"ĠImpÃ©rio":3174,"acionais":3175,"Ġdupl":3176,"ĠCosta":3177,"Ġnada":3178,"Ġvice":3179,"ĠXX":3180,"ĠepisÃ³dio":3181,"Ġpesquisa":3182,"Ġmort":3183,"ĠserviÃ§os":3184,"ĠYork":3185,"Ġnasceu":3186,"Ġfazendo":3187,"Ġmenor":3188,"Ġy":3189,"ĠAlexand":3190,"quele":3191,"Ġfeita":3192,"ĠInf":3193,"ĠcampeÃ£o":3194,"Ġef":3195,"Ġexcl":3196,"ĠRecord":3197,"ĠUnido":3198,"entina":3199,"Ġatividades":3200,"ĠEr":3201,"Ġcentral":3202,"ubes":3203,"ae":3204,"etros":3205,"anÃ§as":3206,"Ġaplic":3207,"26":3208,"ĠWal":3209,"Ġconseguiu":3210,"Ġenergia":3211,"ien":3212,"Ġact":3213,"ÃŃdu":3214,"ĠÃģfrica":3215,"por":3216,"Ġcenso":3217,"ĠISBN":3218,"lay":3219,"Ġmass":3220,"Ġforte":3221,"ĠCÃ¢mara":3222,"dado":3223,"ĠÃ³r":3224,"Ġsignifica":3225,"ĠSegunda":3226,"dores":3227,"Ġocorr":3228,"Ġrad":3229,"rir":3230,"ĠforÃ§as":3231,"ianos":3232,"ĠInglaterra":3233,"ĠLuÃŃs":3234,"ĠCarreira":3235,"ĠMuseu":3236,"omas":3237,"Ġescreveu":3238,"rais":3239,"Ã³lica":3240,"ĠComun":3241,"Ġdesenvol":3242,"Ġteria":3243,"tes":3244,"aga":3245,"Ġigreja":3246,"Ġapesar":3247,"gon":3248,"ĠFinal":3249,"Ġdireitos":3250,"Ġdesse":3251,"gar":3252,"Ġgara":3253,"Ġ186":3254,"istÃªncia":3255,"Ġimport":3256,"ĠTrans":3257,"Ġserem":3258,"iciais":3259,"Ã©to":3260,"Ġsequ":3261,"Ġprocess":3262,"ĠEscola":3263,"Ġtime":3264,"Ġgera":3265,"Ġ1995":3266,"ori":3267,"ĠChina":3268,"ĠBat":3269,"Ġsociedade":3270,"In":3271,"Ġnav":3272,"Ġterceira":3273,"Ġesqu":3274,"35":3275,"Ġ1994":3276,"Ã©g":3277,"Ġhomen":3278,"Ġsus":3279,"Ġfonte":3280,"Ġalgo":3281,"AN":3282,"Ġlivros":3283,"ĠGar":3284,"ĠpÃ¡ginas":3285,"Ã¢nc":3286,"ef":3287,"Ġvista":3288,"Ġsemana":3289,"Ã¡ticas":3290,"ones":3291,"ĠArm":3292,"Ġsuperior":3293,"Ġalta":3294,"ÃŃncipe":3295,"Ã©u":3296,"ĠDist":3297,"Ġlocalizado":3298,"Ġajuda":3299,"ÃŃstico":3300,"ĠVic":3301,"ĠeconÃ´m":3302,"ĠComp":3303,"ĠÐ":3304,"dou":3305,"ĠdivisÃ£o":3306,"ĠConselho":3307,"ĠBrasileiro":3308,"48":3309,"37":3310,"Ġbairro":3311,"inheiro":3312,"Ġedif":3313,"Ġneste":3314,"ĠWorld":3315,"Ġi":3316,"Ġemp":3317,"As":3318,"ĠBol":3319,"ritos":3320,"ĠJust":3321,"ĠDesde":3322,"ĠRel":3323,"ĠJes":3324,"Ãºc":3325,"ĠMelhor":3326,"Ġesf":3327,"Ġpais":3328,"Ġaprov":3329,"uÃŃ":3330,"UA":3331,"gens":3332,"Ġdesemp":3333,"Ġada":3334,"Ġpubl":3335,"FA":3336,"Ġcantora":3337,"56":3338,"ÃŃr":3339,"ĠLond":3340,"Ġaval":3341,"Ġfede":3342,"unid":3343,"Ġbastante":3344,"Ġmundial":3345,"Ġtrib":3346,"ĠDemografia":3347,"Ġdessa":3348,")\"":3349,"enhora":3350,"ĠrÃ¡pida":3351,"Ġcapacidade":3352,"ĠTo":3353,"Ġempresas":3354,"Ã¡dio":3355,"Ġambos":3356,"ĠRoma":3357,"idamente":3358,"ber":3359,"Ġminist":3360,"ĠSem":3361,"alo":3362,"Ġpartes":3363,"Ġdeput":3364,"Ġobt":3365,"Ġproblema":3366,"ĠaÃ§Ã£o":3367,"Ġdeclara":3368,"loc":3369,"Ġcobertos":3370,"Ġcast":3371,"rand":3372,"Ġlingu":3373,"âĢĻ":3374,"Ġimagem":3375,"Ġmult":3376,"Ġnomeado":3377,"partamento":3378,"Ġdestru":3379,"Ġesposa":3380,"Ġrealizado":3381,"Ġtoc":3382,"xico":3383,"tab":3384,"arda":3385,"ĠHenri":3386,"ĠconteÃºdo":3387,"oraÃ§Ã£o":3388,"Ġapresenta":3389,"ĠEles":3390,"cas":3391,"ĠInd":3392,"Ġinterior":3393,"Ġminutos":3394,"Ġfiz":3395,"Ġ1970":3396,"ÃŃlio":3397,"ecem":3398,"Ġcomercial":3399,"xima":3400,"Ġtais":3401,"ĠVila":3402,"Ġusar":3403,"Ġmorreu":3404,"pro":3405,"Ġvotos":3406,"Ġperm":3407,"Ã¨":3408,"Ġdedic":3409,"Ġjovem":3410,"ividade":3411,"ĠresponsÃ¡vel":3412,"ĠDel":3413,"Ġcorrespon":3414,"ory":3415,"ĠDavid":3416,"38":3417,"oma":3418,"Ġensino":3419,"Ã©is":3420,"amar":3421,"Ġparticipou":3422,"ĠHa":3423,"cont":3424,"ament":3425,"Ġ1992":3426,"ĠEmbora":3427,"Ġaltura":3428,"Ġmelhores":3429,"ĠHo":3430,"\").":3431,"Ġrepresenta":3432,"ker":3433,"Ġvizinh":3434,"Ġraz":3435,"Ġaproximadamente":3436,"Ġnomes":3437,"mea":3438,"196":3439,"47":3440,"ĠOrdem":3441,"Ġtinham":3442,"itada":3443,"ĠprÃ©":3444,"ulares":3445,"Ġwik":3446,"rias":3447,"Ã³f":3448,"57":3449,"Ġtraz":3450,"ĠMunicipal":3451,"ĠpresenÃ§a":3452,"Ġpessoal":3453,"Ġcomplex":3454,"Ãºssia":3455,"idental":3456,"Ġgre":3457,"\":":3458,"ĠGre":3459,"Ġger":3460,"ĠIsso":3461,"Ġfoto":3462,"Ġelementos":3463,"Ġpersonagens":3464,"Ġsentido":3465,"Ġopin":3466,"Ġmeu":3467,"Ġatriz":3468,"ĠestÃºdio":3469,"itivo":3470,"ĠvizinhanÃ§a":3471,"apar":3472,"ĠInter":3473,"Ġocorreu":3474,"Ġator":3475,"36":3476,"ĠregiÃµes":3477,"cionais":3478,"Ġsat":3479,"Ġconfirm":3480,"ĠDis":3481,"ĠPrÃªmio":3482,"Ġouro":3483,"Ġacabou":3484,"ĠlanÃ§ou":3485,"59":3486,"Ġelas":3487,"ĠprÃ³ximo":3488,"alidade":3489,"ington":3490,"Ġbaixo":3491,"Ġatribu":3492,"rest":3493,"Ġpopul":3494,"Ġcujo":3495,"ili":3496,"ey":3497,"Ġdese":3498,"Ġenfrent":3499,"rever":3500,"Ġcust":3501,"ĠDa":3502,"ks":3503,"feitos":3504,"urado":3505,"ania":3506,"posto":3507,"ĠYou":3508,"ega":3509,"berg":3510,"Ġimpera":3511,"Ġcolabora":3512,"Ġmascul":3513,"ave":3514,"edor":3515,"Ġnesta":3516,"OS":3517,"ÃŃb":3518,"Ã³c":3519,"etos":3520,"isÃµes":3521,"39":3522,"ĠGeografia":3523,"Ġ|":3524,"Ġtema":3525,"nta":3526,"ĠFernando":3527,"Ġpac":3528,"AM":3529,"58":3530,"Ġfalta":3531,"ĠBas":3532,"pol":3533,"ove":3534,"ãģ":3535,"Ġurb":3536,"Ġcoment":3537,"Ġverdade":3538,"Ġisto":3539,"ĠLiga":3540,"Ġposteriormente":3541,"esas":3542,"enhor":3543,"rantes":3544,"Ã©xico":3545,"eios":3546,"ĠSubstantivo":3547,"ement":3548,"ĠPop":3549,"Ġcabe":3550,"Ġdeles":3551,"ĠAtualmente":3552,"jos":3553,"Ġtrabalhos":3554,"Ġnoite":3555,"Ġperto":3556,"rita":3557,"Ġapren":3558,"Ã©cia":3559,"Ġcampanha":3560,"Ġtax":3561,"Ġseguida":3562,"gresso":3563,"sg":3564,"Qu":3565,"Ġespecialmente":3566,"ĠexÃ©rcito":3567,"Ġ1993":3568,"ĠPredefin":3569,"ĠÂ«":3570,"Ġclassific":3571,"Ġrus":3572,"Ã±":3573,"Ġretira":3574,"vista":3575,"Ġrot":3576,"Ġeventos":3577,"Ġconfl":3578,"hael":3579,"ĠOliv":3580,"itt":3581,"ĠManuel":3582,"Ġquest":3583,"gn":3584,"ĠsaÃºde":3585,"ĠestaÃ§Ã£o":3586,"78":3587,"ĠGon":3588,"aqu":3589,"ars":3590,"ĠmÃ©to":3591,"ĠLondres":3592,"izaÃ§Ãµes":3593,"ĠGeral":3594,"Ġpalavra":3595,"ĠAst":3596,"Ġinvestig":3597,"itando":3598,"ego":3599,"Â»":3600,"Ġtempera":3601,"ĠHÃ¡":3602,"Ġbio":3603,"Ġmaterial":3604,"ono":3605,"Ġsan":3606,"ĠMet":3607,"46":3608,"ald":3609,"Ã¡lise":3610,"Ġps":3611,"iter":3612,"ĠArqu":3613,"rap":3614,"endeu":3615,"hi":3616,"ĠsituaÃ§Ã£o":3617,"Ġcanal":3618,"Ġacompanh":3619,"ĠusuÃ¡rio":3620,"Ġtab":3621,"ĠreferÃªncia":3622,"Ġdele":3623,"Ġacus":3624,"Ġtermos":3625,"St":3626,"ĠvÃŃdeo":3627,"ui":3628,"Ġsete":3629,"ofia":3630,"Ġfaixa":3631,"guesia":3632,"Ġmercado":3633,"Ġinaug":3634,"Ġalto":3635,"ĠCin":3636,"Ġdin":3637,"Ġvivo":3638,"ureza":3639,"Ġcriada":3640,"ĠDr":3641,"ĠCur":3642,"Ġalguma":3643,"pec":3644,"umo":3645,"sem":3646,"Ġconhecimento":3647,"ãĤ":3648,"riu":3649,"ĠCentro":3650,"Ġsup":3651,"Ġ2021":3652,"Ġimagens":3653,"Î±":3654,"Ġmist":3655,"Ð°":3656,"Ġlevou":3657,"ĠJesus":3658,"Ġequipes":3659,"55":3660,"Ġrespect":3661,"udio":3662,"ĠcrianÃ§as":3663,"ĠMarc":3664,"unidense":3665,"NA":3666,"ited":3667,"avelmente":3668,"Ã³digo":3669,"Ġmem":3670,"ibil":3671,"ĠDev":3672,"Ġpartida":3673,"Ã¢nica":3674,"ĠOlÃŃmp":3675,"ĠCrist":3676,"ĠPan":3677,"Ġrealizada":3678,"Ġfundo":3679,"Ġvig":3680,"Ġconclu":3681,"ĠAle":3682,"ĠCO":3683,"ĠFestival":3684,"orda":3685,"Ġcaval":3686,"ision":3687,"olo":3688,"Ġtam":3689,"33":3690,"ony":3691,"ĠVen":3692,"Ġ1991":3693,"08":3694,"Ġmanter":3695,"ĠquestÃ£o":3696,"elha":3697,"ĠdÃ¡":3698,"ospital":3699,"ti":3700,"iando":3701,"Ġcinema":3702,"oz":3703,"Ġanimais":3704,"ĠdecisÃ£o":3705,"Ġassass":3706,"uros":3707,"Ġguitar":3708,"Ġprimeiras":3709,"ÃŃdos":3710,"lin":3711,"Ġestreia":3712,"ĠSob":3713,"Ġabaixo":3714,"vez":3715,"iso":3716,"Ġboa":3717,"ĠmÃªs":3718,"Ġverd":3719,"Ġsolo":3720,"Ġteoria":3721,"49":3722,"Ġartista":3723,"Ġpartido":3724,"ĠJu":3725,"Ġfra":3726,"onel":3727,"Ġenvi":3728,"ling":3729,"ĠDou":3730,"Ġinteresse":3731,"Ġnenhum":3732,"ĠTel":3733,"ÃŃd":3734,"enÃ§as":3735,"Ġdivulg":3736,"ĠBa":3737,"ĠJorge":3738,"ĠespecÃŃf":3739,"ecion":3740,"Ġanal":3741,"ĠJÃº":3742,"Ġcul":3743,"diÃ§Ã£o":3744,"Ġsistemas":3745,"Ġgarant":3746,"Ġcomand":3747,"Ġfol":3748,"omo":3749,"lhe":3750,"ĠXIX":3751,"ĠSen":3752,"ĠMinas":3753,"rec":3754,"Ã©dio":3755,"wa":3756,"Ġprepara":3757,"ĠindivÃŃdu":3758,"Ã¤":3759,"Ġescrita":3760,"ĠJulho":3761,"essÃ£o":3762,"ĠMÃ©xico":3763,"Ġideia":3764,"ĠSenhora":3765,"ĠPresidente":3766,"Est":3767,"Ġmac":3768,"dustria":3769,"Ġst":3770,"Ġsaber":3771,"Ġreduz":3772,"Ġabando":3773,"Ġredor":3774,"lev":3775,"Ġcruz":3776,"ĠHel":3777,"Ġdemonst":3778,"ĠBah":3779,"Ġpalavras":3780,"Ġpriv":3781,"ĠJul":3782,"Ġdeixou":3783,"ramente":3784,"Ġmarca":3785,"Ġaltern":3786,"ĠcondiÃ§Ãµes":3787,"Ġdens":3788,"ĠSin":3789,"ĠEssa":3790,"Ġcorr":3791,"mb":3792,"uf":3793,"ĠJames":3794,"CA":3795,"âĢĿ.":3796,"Ġpassa":3797,"ĠOri":3798,"ĠDez":3799,"ĠeducaÃ§Ã£o":3800,"ics":3801,"Ġ1988":3802,"ps":3803,"Ġcomando":3804,"Ġsociais":3805,"ĠediÃ§Ãµes":3806,"ĠclÃ¡ss":3807,"ĠmÃºsicas":3808,"ĠEra":3809,"ĠChrist":3810,"ĠAra":3811,"ioc":3812,"ĠRobert":3813,"Ġ1989":3814,"Ġsingle":3815,"Ġaumento":3816,"\";":3817,"Ġocas":3818,"Ġparece":3819,"ware":3820,"ĠMinistÃ©rio":3821,"Ġpequena":3822,"ÃŃtio":3823,"Ġpublicado":3824,"ĠLat":3825,"Ġinstr":3826,"iat":3827,"Ġclasse":3828,"Ġmostra":3829,"Ġcert":3830,"ĠRede":3831,"Ġportanto":3832,"ĠAssociaÃ§Ã£o":3833,"ford":3834,"rb":3835,"Ġusada":3836,"Ġutilizado":3837,"Ġprodutos":3838,"ĠSeleÃ§Ã£o":3839,"Ġrecursos":3840,"Ġdeb":3841,"orc":3842,"Ġtornando":3843,"ĠNas":3844,"Ġ60":3845,"Ġ1960":3846,"way":3847,"www":3848,"Ġdevem":3849,"vida":3850,"Ġcampeonato":3851,"Ġferro":3852,"Ġflu":3853,"Ġveja":3854,"Ġ1986":3855,"Ġvisto":3856,"\",\"\",\"":3857,"TV":3858,"iguel":3859,"ĠseguranÃ§a":3860,"ĠVi":3861,"Ġcole":3862,"Ġdizer":3863,"Ġcivil":3864,"gos":3865,"Ġestes":3866,"Ġoito":3867,"Ġtornar":3868,"ĠMod":3869,"ĠcaracterÃŃsticas":3870,"arina":3871,"ĠDi":3872,"ocidade":3873,"etas":3874,"ĠMen":3875,"ĠAbril":3876,"guÃ©m":3877,"ĠAugu":3878,"ĠAntÃ´nio":3879,"Ġexistem":3880,"Ġcompre":3881,"ĠprincÃŃp":3882,"Ġamor":3883,"ĠMaio":3884,"Ġlo":3885,"34":3886,"icar":3887,"Ġinicialmente":3888,"Ġoeste":3889,"ĠJer":3890,"itÃ£o":3891,"orado":3892,"ĠFam":3893,"ĠVida":3894,"ĠPrimeira":3895,"Ġusando":3896,"ĠDia":3897,"Ġesses":3898,"ĠMel":3899,"eratura":3900,"Ġit":3901,"Ġentrada":3902,"uito":3903,"Ġdomin":3904,"Ġcontrat":3905,"Ġengenh":3906,"oporto":3907,"ĠEstat":3908,"ĠPrinc":3909,"ĠpadrÃ£o":3910,"peu":3911,"Ġcoisa":3912,"ĠpÃºblica":3913,"rel":3914,"eth":3915,"Ġformas":3916,"ĠAcademia":3917,"ven":3918,"onia":3919,"adÃ¡":3920,"olas":3921,"09":3922,"Ġ+":3923,"ĠProf":3924,"Ã³dios":3925,"onas":3926,"Ġsuperf":3927,"inte":3928,"Ġassist":3929,"Ġtrabalhar":3930,"Ġmec":3931,"Ġcompara":3932,"Ġcasamento":3933,"ĠPossu":3934,"dendo":3935,"ixo":3936,"Ġartistas":3937,"Ġproposta":3938,"ontes":3939,"ĠPaÃŃs":3940,".)":3941,"ĠprÃ¡tica":3942,"ecendo":3943,"Os":3944,"Åį":3945,"ĠNossa":3946,"Ġindivid":3947,"Ġquil":3948,"ko":3949,"ĠTrib":3950,"ĠSetembro":3951,"orden":3952,"ĠAgosto":3953,"ĠNotas":3954,"Ġestimada":3955,"Ġintel":3956,"forme":3957,"Ġquarto":3958,"til":3959,"ĠAlguns":3960,"Ġrece":3961,"Not":3962,"Ġblo":3963,"ericanos":3964,"ĠTal":3965,"32":3966,"SP":3967,"amental":3968,"ĠJack":3969,"ĠinfluÃªncia":3970,"Ã©rcio":3971,"ĠcomeÃ§a":3972,"illa":3973,"Ġsuger":3974,"ID":3975,"Ġexig":3976,"Ġmudou":3977,"ĠeleiÃ§Ãµes":3978,"Ġcapaz":3979,"Ġdirigido":3980,"ress":3981,"ĠLet":3982,"ĠDec":3983,"Ġsac":3984,"Ġexerc":3985,"ĠCentral":3986,"ĠEUA":3987,"Ġprova":3988,"rael":3989,"Ġjuntamente":3990,"ĠnecessÃ¡rio":3991,"Ġdific":3992,"Ġpers":3993,"ĠExÃ©rcito":3994,"inada":3995,"vos":3996,"Ġaz":3997,"Ġconcent":3998,"Ġdensidade":3999,"line":4000,"Ġfab":4001,"ĠAinda":4002,"Ãªmios":4003,"Ã©re":4004,"ĠAward":4005,"eras":4006,"Ġtradicional":4007,"54":4008,"Ġaleg":4009,"ĠMiss":4010,"Ġanunciou":4011,"ĠAll":4012,"rico":4013,"gas":4014,"ĠAnton":4015,"Ġmanif":4016,"ĠOutubro":4017,"rativa":4018,"Ġdemais":4019,"An":4020,"Ġverm":4021,"Ġcolet":4022,"ĠimportÃ¢ncia":4023,"Ġperc":4024,"31":4025,"ĠFel":4026,"Ġmol":4027,"Ġtipos":4028,"untos":4029,"ĠConstitu":4030,"07":4031,"Ġcurso":4032,"ĠÃŃn":4033,"ĠCondado":4034,"hy":4035,"Ġvoltou":4036,"ĠRich":4037,"inar":4038,"06":4039,"Ġpequeno":4040,"edades":4041,"zes":4042,"ĠBranc":4043,"ĠelÃ©t":4044,"icina":4045,"Ġseguir":4046,"ĠTrabal":4047,"Ġcontr":4048,"BC":4049,"urn":4050,"unal":4051,"orde":4052,"Ġhouve":4053,"Ã¡n":4054,"Ġban":4055,"ages":4056,"ĠSocial":4057,"Ã©rios":4058,"Ġataque":4059,"44":4060,"rimento":4061,"Ġessas":4062,"ĠGab":4063,"Ã³rico":4064,"Ġvenceu":4065,"ĠRei":4066,"etes":4067,"Ġresultados":4068,"IN":4069,"Ġluz":4070,"dice":4071,"ilar":4072,"Ġprogramas":4073,"ĠInform":4074,"ĠArgentina":4075,"ĠCidade":4076,"Ġ1987":4077,"ĠCamp":4078,"Ġescolh":4079,"Ġcrio":4080,"adre":4081,"ĠMiguel":4082,"Ġjogadores":4083,"gress":4084,"ject":4085,"ĠDisc":4086,"Ġcolon":4087,"Ġgols":4088,"ĠcrÃŃtica":4089,"Ġrespeito":4090,"idores":4091,"ĠEsse":4092,"ĠhistÃ³rico":4093,"ĠAut":4094,"ĠGlobo":4095,"Ġinclus":4096,"Ġquantidade":4097,"01":4098,"iaÃ§Ãµes":4099,"ĠOn":4100,"ĠAmb":4101,"Ġambiente":4102,"cam":4103,"hou":4104,"ĠBal":4105,"Ġcontrato":4106,"veu":4107,"tada":4108,"Ġcoisas":4109,"unos":4110,"ĠSalv":4111,"Ġamea":4112,"pace":4113,"ortal":4114,"ĠEnquanto":4115,"Ġemisso":4116,"ĠVir":4117,"Ġ1985":4118,"olÃ³gico":4119,"ĠtÃŃtulos":4120,"Ġdestaque":4121,"ĠRed":4122,"Ġsobrev":4123,"ĠBand":4124,"Ġclubes":4125,"Ġcha":4126,"Ġshow":4127,"ĠQue":4128,"ĠSist":4129,"ĠMarÃ§o":4130,"Car":4131,"Ġpertencente":4132,"ĠFal":4133,"ĠHom":4134,"km":4135,"Ġentrou":4136,"Ġlegisl":4137,"Ġnenhuma":4138,"Ġestat":4139,"ĠMichael":4140,"ĠCD":4141,"ĠavanÃ§":4142,"teve":4143,"ĠNeg":4144,"Ġencontrar":4145,"iadas":4146,"OR":4147,"encion":4148,"ĠEqu":4149,"ue":4150,"pren":4151,"ĠUnited":4152,"ĠindÃº":4153,"Ġadicion":4154,"Ġgeneral":4155,"Ġsin":4156,"ĠJunho":4157,"ĠcanÃ§Ãµes":4158,"ĠMes":4159,"Ġeta":4160,"postas":4161,"ĠWh":4162,"xo":4163,"53":4164,"lar":4165,"onso":4166,"ĠDon":4167,"____":4168,"Ġleste":4169,"Ġpen":4170,"Ġbaseado":4171,"Ð¾":4172,"Ġjur":4173,"Ġestados":4174,"usa":4175,"Ġtorna":4176,"Ġzona":4177,"erdade":4178,"Ġvem":4179,"Ð¸":4180,"ficiente":4181,"we":4182,"ĠÃºltimos":4183,"ĠBarb":4184,"Ġarmas":4185,"Ġdepend":4186,"ĠBern":4187,"IA":4188,"Ġorient":4189,"ĠInc":4190,"pas":4191,"irst":4192,"Ġtemperatura":4193,"ĠWar":4194,"ĠFaz":4195,"Ġdisputa":4196,"Ġestadunidense":4197,"ugby":4198,"ĠHenrique":4199,"ÃŃrito":4200,"52":4201,"Ġplano":4202,"abil":4203,"ark":4204,"Ġhon":4205,"ÃŃcie":4206,"ĠAntÃ³nio":4207,"rÃ¡fico":4208,"Ġgovernador":4209,"uri":4210,"encia":4211,"ĠPont":4212,"Ġdiferente":4213,"Ġmilitares":4214,"ÃŃdas":4215,"ĠDivisÃ£o":4216,"IS":4217,"ĠlanÃ§ada":4218,"Ġterminou":4219,"Ġfeminino":4220,"ĠnÂº":4221,"PÃ¡ginas":4222,"Ġaliment":4223,"Ġinspira":4224,"Ġconsiderada":4225,"Ġaparece":4226,"Ġmelho":4227,"ĠOliveira":4228,"Ġnatureza":4229,"oriz":4230,"ĠfunÃ§Ãµes":4231,"ĠVit":4232,"culo":4233,"erar":4234,"Ġcomput":4235,"Ġmedida":4236,"ĠEducaÃ§Ã£o":4237,"Ġtransfer":4238,"Ġescritor":4239,"ĠPorÃ©m":4240,"peia":4241,"Ġvest":4242,"Ġdeveria":4243,"Ġatividade":4244,"ĠCalif":4245,"ioca":4246,"ĠSecret":4247,"Ġbatalha":4248,"ten":4249,"ĠPossui":4250,"olis":4251,"ova":4252,"ĠRÃºssia":4253,"04":4254,"Ġvocal":4255,"Ġdeixar":4256,"teca":4257,"ings":4258,"ĠNovo":4259,"Ġassunto":4260,"uk":4261,"ater":4262,"unha":4263,"Ġigual":4264,"Ġdado":4265,"Ġestreou":4266,"Ġitaliano":4267,"ĠWe":4268,"Ġconceito":4269,"ĠEdu":4270,"Ġrest":4271,"Ã¡x":4272,"mer":4273,"Ġfech":4274,"ÃŃtica":4275,"ĠRen":4276,"Ġmap":4277,"ĠJac":4278,"aiu":4279,"onte":4280,"ĠMy":4281,"Ġsens":4282,"Ġ000":4283,"ĠGerais":4284,"ĠEcon":4285,"ath":4286,"ĠvotaÃ§Ã£o":4287,"Ġatac":4288,"ĠEg":4289,"ernos":4290,"Ã´nimo":4291,"idado":4292,"Ġeconomia":4293,"ĠAer":4294,"Ġtransm":4295,"Ġabandon":4296,"ĠPaulista":4297,"Ġcum":4298,"ĠGa":4299,"my":4300,"TA":4301,"ĠNic":4302,"ĠaÃ§Ãµes":4303,"igas":4304,"ĠcÃ©l":4305,"osofia":4306,"Ġimedia":4307,"ĠmudanÃ§a":4308,"05":4309,"Ġsou":4310,"Ã³m":4311,"ij":4312,"ĠcÃ³p":4313,"Ġconserv":4314,"enham":4315,"ĠTor":4316,"ĠAz":4317,"ificaÃ§Ãµes":4318,"rÃ¡lia":4319,"Ġpossuem":4320,"Ġbusca":4321,"Ġintit":4322,"exto":4323,"Ġaud":4324,"Ġcrescimento":4325,"Ġestrang":4326,"Ãªnio":4327,"ts":4328,"ĠNovembro":4329,"elhos":4330,"iliar":4331,"Ġsen":4332,"Ġresid":4333,"Ġperceb":4334,"Ġturn":4335,"Ġbal":4336,"Ġpassado":4337,"Ġpropor":4338,"Ġnesse":4339,"ĠrelaÃ§Ãµes":4340,"ĠatenÃ§Ã£o":4341,"Ġterras":4342,"Ġafirmou":4343,"ĠFlor":4344,"43":4345,"xe":4346,"ĠOf":4347,"Ġtraduz":4348,"Nota":4349,"istem":4350,"Ġmic":4351,"Ġlink":4352,"ĠBras":4353,"Ġade":4354,"ecÃ§Ã£o":4355,"42":4356,"ek":4357,"Ġficar":4358,"ĠCP":4359,"Ġcaminho":4360,"ĠPortuguesa":4361,"gra":4362,"Ġhid":4363,"FF":4364,"Ġacad":4365,"Ġsexo":4366,"EN":4367,"ĠIV":4368,"ÃŃtulos":4369,"ĠProv":4370,"IC":4371,"osos":4372,"Ġcomport":4373,"Ġpret":4374,"Ġinclui":4375,"Ġiniciou":4376,"ianÃ§a":4377,"its":4378,"ĠDezembro":4379,"Ġtorneio":4380,"ĠSab":4381,"Ġhumanos":4382,"ĠAssemb":4383,"Ã³rm":4384,"Ġ1982":4385,"Ġlic":4386,"ĠOutros":4387,"orque":4388,"ĠcientÃŃfica":4389,"ĠcontrÃ¡rio":4390,"Ġfronteira":4391,"ĠÃ¢":4392,"iago":4393,"Ġtamanho":4394,"Ġpassar":4395,"Ã¢nico":4396,"Ġram":4397,"Ġasc":4398,"como":4399,"Ġ80":4400,"ĠParque":4401,"Ġfreguesia":4402,"La":4403,"ecida":4404,"ĠdistribuiÃ§Ã£o":4405,"Ġlinhas":4406,"df":4407,"51":4408,"Ġconquistou":4409,"Ġhomenagem":4410,"Ġmatem":4411,"Ġ1984":4412,"ĠGeorge":4413,"rador":4414,"Ġrevol":4415,"ĠAlf":4416,"Ġfacil":4417,"Ġtransmit":4418,"Ġintens":4419,"Ġdimin":4420,"Ġeletr":4421,"Ġincluem":4422,"Ġprojetos":4423,"cho":4424,"ĠMusic":4425,"ramento":4426,"Ġpermite":4427,"ĠÃ³rg":4428,"Ġrecup":4429,"ĠComm":4430,"Ġtempos":4431,"Ġunidades":4432,"omes":4433,"tu":4434,"ĠGoverno":4435,"onde":4436,"ĠDireito":4437,"Ġdefesa":4438,"Ġchin":4439,"41":4440,"ĠPod":4441,"bia":4442,"ĠpolÃŃticas":4443,"idor":4444,"ĠepisÃ³dios":4445,"Ġprovavelmente":4446,"Ġcantor":4447,"divers":4448,"edores":4449,"Ġprem":4450,"Ġtiveram":4451,"Ã´nico":4452,"ĠBot":4453,"tico":4454,"acto":4455,"Es":4456,"endÃªncia":4457,"prensa":4458,"ield":4459,"Ġesquer":4460,"ativos":4461,"Ġeditor":4462,"03":4463,"Ġespanhol":4464,"Ġintroduz":4465,"ĠWikipedia":4466,"rava":4467,"ĠAustrÃ¡lia":4468,"ute":4469,"ĠTec":4470,"ĠÎ":4471,"Ġfundada":4472,"asso":4473,"ersÃ£o":4474,"Ġdeputado":4475,"ĠHum":4476,"ĠDin":4477,"ĠLima":4478,"Ã¡ticos":4479,"leia":4480,"ĠÃįn":4481,"Ġsust":4482,"Ġajudar":4483,"ĠmunicÃŃpios":4484,"ĠCel":4485,"Ġconsequ":4486,"Ġvelocidade":4487,"itÃ¡rio":4488,"Ġmetade":4489,"ani":4490,"ĠclassificaÃ§Ã£o":4491,"ĠcomunicaÃ§Ã£o":4492,"Ġpropriedade":4493,"Ġcuja":4494,"rv":4495,"Ġfug":4496,"Ã´s":4497,"ulta":4498,"ĠatrÃ¡s":4499,"Ġ1983":4500,"ĠexistÃªncia":4501,"Ġpergu":4502,"olÃ³gica":4503,"ĠVoc":4504,"Ġsubst":4505,"ĠCanadÃ¡":4506,"eiÃ§Ã£o":4507,"rol":4508,"Ġnar":4509,"ĠMilitar":4510,"ĠveÃŃc":4511,"Ġestadual":4512,"Ġimperador":4513,"ull":4514,"Mar":4515,"80":4516,"Ġdout":4517,"Ġ\"\"":4518,"Ġgost":4519,"Ġcolocar":4520,"Ġcicl":4521,"Ġsint":4522,"icado":4523,"ĠHou":4524,"Ġdinheiro":4525,"Ġchefe":4526,"ĠusuÃ¡rios":4527,"ĠcontÃ©m":4528,"Ġamigo":4529,"ĠRegiÃ£o":4530,"Ġvila":4531,"oa":4532,"Ġverb":4533,"Ġtropas":4534,"ser":4535,"Ġcomposta":4536,"Ã©st":4537,"Ġchegar":4538,"Ġabertura":4539,"Ġlonga":4540,"ĠFilho":4541,"Ġrecom":4542,"Ã©gio":4543,"ÃŃlias":4544,"Ġremov":4545,"Ġresposta":4546,"dustrial":4547,"Ġcultural":4548,"ĠBill":4549,"Ġbilh":4550,"Ġdesenh":4551,"ires":4552,"Ġ1979":4553,"ÃŃmbol":4554,"Ġcount":4555,"ocup":4556,"ĠInv":4557,"Ġparcial":4558,"ragem":4559,"ĠrazÃ£o":4560,"ĠLuiz":4561,"ĠClub":4562,"Ġbloque":4563,"reu":4564,"Ġformato":4565,"ĠSha":4566,"ardim":4567,"Re":4568,"criÃ§Ã£o":4569,"ĠRua":4570,"ĠTour":4571,"orpo":4572,"enÃ¡rio":4573,"ĠBon":4574,"Ġtransporte":4575,"Ġcriou":4576,"Ġelenco":4577,"Ġfuturo":4578,"arn":4579,"Ġunidade":4580,"cionÃ¡rio":4581,"ĠcabeÃ§a":4582,"guai":4583,"ĠSy":4584,"Ġaux":4585,"ague":4586,"ĠedifÃŃcio":4587,"Ġfa":4588,"act":4589,"eiramente":4590,"ĠPes":4591,"Ġmagn":4592,"uld":4593,"Ġescolas":4594,"ĠdistÃ¢ncia":4595,"hes":4596,"ĠSÃ©rie":4597,"duto":4598,"Ġmassa":4599,"ĠRock":4600,"!!":4601,"Ġdocument":4602,"Ġpedido":4603,"Ġjovens":4604,"issÃµes":4605,"Ġregras":4606,"Ġmencion":4607,"ĠBahia":4608,"orial":4609,"AD":4610,"lor":4611,"Ġpresid":4612,"tÃ³rio":4613,"Ġvalores":4614,"emat":4615,"Ġbaixa":4616,"Ġoficiais":4617,"ublicado":4618,"wik":4619,"Ġinclusive":4620,"Ġreceber":4621,"Ġcarro":4622,"quela":4623,"ĠIorque":4624,"Ġteatro":4625,"feitura":4626,"cha":4627,"ĠPen":4628,"ÃŃtulo":4629,"ĠalguÃ©m":4630,"undos":4631,"Ġ1950":4632,"Ġexclus":4633,"uba":4634,"ĠParan":4635,"Ġ1974":4636,"ĠAÃ§":4637,"Ðµ":4638,"ĠEp":4639,"99":4640,"',":4641,"hÃ£o":4642,"ĠMos":4643,"Ġderiv":4644,"iental":4645,"Ġveio":4646,"ratÃ©g":4647,"rei":4648,"ĠOlÃŃmpicos":4649,"Ġanteriores":4650,"Ġcasou":4651,"Ġorden":4652,"ĠanÃ¡lise":4653,"ĠrÃ¡dio":4654,"iologia":4655,"Ġceleb":4656,"ĠSerra":4657,"Ġtrabalhou":4658,"Ġtratamento":4659,"umas":4660,"Ġbol":4661,"Ġaeron":4662,"erva":4663,"Ġalunos":4664,"ĠExt":4665,"Ġdecidiu":4666,"estra":4667,"Ġefeito":4668,"Ġmasculino":4669,"El":4670,"table":4671,"ÃŃmica":4672,"Ġmsg":4673,"ĠGil":4674,"ordeste":4675,"eia":4676,"ĠprÃªmio":4677,"ĠRugby":4678,"02":4679,"ĠSite":4680,"iba":4681,"ester":4682,"ci":4683,"ĠmissÃ£o":4684,"itz":4685,"ocra":4686,"urar":4687,"ĠVas":4688,"ĠreferÃªncias":4689,"Ġesport":4690,"Ġlemb":4691,"avo":4692,"ĠCorre":4693,"Ġobteve":4694,"ĠadministraÃ§Ã£o":4695,"ount":4696,"Ġesfor":4697,"orme":4698,"Ġoriginalmente":4699,"atas":4700,"Le":4701,"ĠUniversity":4702,"ipo":4703,"inense":4704,"anal":4705,"Ã¢nea":4706,"ĠÃįndia":4707,"ike":4708,"Ġtorno":4709,"Ġacresc":4710,"off":4711,"Con":4712,"edido":4713,"Ġmotor":4714,"sal":4715,"ĠMonte":4716,"De":4717,"ĠFI":4718,"Ġfederal":4719,"ĠJun":4720,"ĠAna":4721,"GC":4722,"Ġtele":4723,"ĠTeatro":4724,"ĠFaculdade":4725,"Ġartes":4726,"Ġrapidamente":4727,"esto":4728,"irma":4729,"ĠbritÃ¢nico":4730,"Ġcidad":4731,"ĠFrank":4732,"Ġescrav":4733,"ĠEduardo":4734,"ĠtÃ©cnica":4735,"ĠseleÃ§Ã£o":4736,"Ġ1975":4737,"Ġfaixas":4738,"Ġ1978":4739,"ĠAntes":4740,"eceram":4741,"duÃ§Ãµes":4742,"Ã³st":4743,"ĠCristo":4744,"itiva":4745,"Ġfrequentemente":4746,"ismos":4747,"var":4748,"BA":4749,"ĠFontes":4750,"ĠHot":4751,"Ġsemanas":4752,"ĠLeon":4753,"tagon":4754,"edes":4755,"Ġrealizar":4756,"ĠAtÃ©":4757,"olit":4758,"ĠWikcionÃ¡rio":4759,"ĠCiÃªncias":4760,"Ġcomposto":4761,"Ġtit":4762,"Ġestas":4763,"Ġult":4764,"Ġremo":4765,"ster":4766,"Ġnecessidade":4767,"ĠopiniÃ£o":4768,"Ġexpress":4769,"MD":4770,"Ġ70":4771,"ĠArte":4772,"ĠSalvador":4773,"ÃŃdia":4774,"Ġsejam":4775,"ĠvisÃ£o":4776,"att":4777,"ĠTro":4778,"Ġbot":4779,"ĠJean":4780,"lig":4781,"Ãµe":4782,"Ġlocalidades":4783,"MA":4784,"ĠMich":4785,"tando":4786,"Ġprefeito":4787,"ĠNor":4788,"Ġcomuna":4789,"Ġefet":4790,"ĠGer":4791,"ĠMi":4792,"Ġutiliz":4793,"ĠPereira":4794,"ascul":4795,"Ġcort":4796,"Cam":4797,"ĠAlegre":4798,"uco":4799,"áĥ":4800,"Ġamigos":4801,"ĠOlÃ¡":4802,"ĠdomÃŃnio":4803,"ville":4804,"Ġproduzido":4805,"Ġaust":4806,"Com":4807,"ĠLos":4808,"ĠFin":4809,"Ã§ado":4810,"orrer":4811,"valho":4812,"Ġpopulacional":4813,"Ġnovel":4814,"ĠCivil":4815,"ĠnÃºmeros":4816,"Ã³is":4817,"ĠVe":4818,"ĠTorn":4819,"Ġrock":4820,"ĠconstruÃŃdo":4821,"ella":4822,"Ġrelev":4823,"Ġfrancesa":4824,"wood":4825,"ĠAmaz":4826,"ÃŃbl":4827,"ĠDaniel":4828,"ĠcomeÃ§aram":4829,"Ġparticipar":4830,"Ġcaptura":4831,"ĠeleiÃ§Ã£o":4832,"Ġouv":4833,"Ġ1981":4834,"Ã³gica":4835,"Ġraio":4836,"Ġextrem":4837,"Ġsecret":4838,"perial":4839,"Ġprodutor":4840,"Ġplata":4841,"ĠLor":4842,"ĠCharles":4843,"Ġ1976":4844,"ĠdoenÃ§a":4845,"Ġestou":4846,"fl":4847,"rid":4848,"ĠmudanÃ§as":4849,"ĠmÃŃn":4850,"ĠRam":4851,"empor":4852,"ĠBiodivers":4853,"ĠMov":4854,"pi":4855,"Ġdigital":4856,"ĠsuperfÃŃcie":4857,"Ġastero":4858,"ĠLo":4859,"Ġenvol":4860,"rigu":4861,"Ã¢ncias":4862,"tware":4863,"ĠligaÃ§Ã£o":4864,"ĠpÃ³s":4865,"Ġsobreviv":4866,"ĠHarry":4867,"NotÃŃcias":4868,"Ġarquitet":4869,"urou":4870,"ĠpeÃ§as":4871,"Ġjulg":4872,"Ġbrasileiros":4873,"Ġromance":4874,"Ġefeitos":4875,"Ġextra":4876,"ĠFevereiro":4877,"Ġemissora":4878,"itam":4879,"Ġdela":4880,"ĠOp":4881,"acia":4882,"Ġescrever":4883,"Ġcontinuou":4884,"ĠexperiÃªncia":4885,"Ġsabe":4886,"ere":4887,"Ġinfer":4888,"rafo":4889,"Ġamar":4890,"dados":4891,"Ġliga":4892,"Ġ90":4893,"ĠCatarina":4894,"EC":4895,"ĠNeste":4896,"ĠLop":4897,"Ġcombate":4898,"tal":4899,"ous":4900,"Ġcosta":4901,"Ġindependente":4902,"ĠRoberto":4903,"Ġautoridade":4904,"Ġali":4905,"Jo":4906,"Ġoficialmente":4907,"ĠSport":4908,"ĠRon":4909,"ĠsequÃªncia":4910,"Ġtotalmente":4911,"ĠÃ³":4912,"Ġ36":4913,"mina":4914,"Ġmapas":4915,"ĠMerc":4916,"asta":4917,"Ġinim":4918,"pages":4919,"Ġilust":4920,"Ãºsica":4921,"Pro":4922,"Ġrod":4923,"RA":4924,"Ġpoucos":4925,"ulada":4926,"ocrÃ¡":4927,"ĠClass":4928,"ĠEstad":4929,"Ġfazem":4930,"Ġregular":4931,"ĠnÃ³s":4932,"70":4933,"Ġconforme":4934,"lim":4935,"ĠPapa":4936,"Ġbiblio":4937,"ĠPhil":4938,"ioso":4939,"ĠPress":4940,"ĠElenco":4941,"any":4942,"ĠIlha":4943,"Art":4944,"itais":4945,"Ã³rnia":4946,"ĠBatalha":4947,"ĠCastelo":4948,"envolv":4949,"ĠsÃŃmbol":4950,"Ġmedalha":4951,"urada":4952,"Ġvide":4953,"ĠEditora":4954,"ĠMartin":4955,"ĠmÃ©dio":4956,"Ġdispos":4957,"Ġeduc":4958,"seg":4959,"Ġobjeto":4960,"Ġnormalmente":4961,"plo":4962,"istÃ£o":4963,"ĠGol":4964,"Ġdetalh":4965,"eminino":4966,"ĠbÃ¡s":4967,"enses":4968,"ĠRic":4969,"oto":4970,"Ġpert":4971,"ĠWest":4972,"enida":4973,"Ġess":4974,"SS":4975,"Em":4976,"Ġpassando":4977,"Ġtecnologia":4978,"only":4979,"Ġbr":4980,"Ġdesses":4981,"ĠSociedade":4982,"che":4983,"Ġstable":4984,"idÃ£o":4985,"ĠOt":4986,"Main":4987,"ĠRoc":4988,"ĠindÃºstria":4989,"Ġesteve":4990,"Ġfigura":4991,"Ġevitar":4992,"Ġnames":4993,"Ġvoz":4994,"nos":4995,"ĠArtes":4996,"Publicado":4997,"iamento":4998,"Ġformado":4999,"mann":5000,"Ġmandato":5001,"Ã³polis":5002,"ĠpolÃŃticos":5003,"Ġsing":5004,"Ġcompositor":5005,"amba":5006,"king":5007,"Ġcarta":5008,"lado":5009,"Ġred":5010,"Ġ1977":5011,"Ġsemelhante":5012,"Ġdiretamente":5013,"ĠmÃ£o":5014,"ĠOpera":5015,"Ġmensagem":5016,"Ã©rea":5017,"Ġfinalmente":5018,"ĠEstatÃŃsticas":5019,"ĠSÃ©r":5020,"Ġ500":5021,"Ġporta":5022,"ificada":5023,"Ġstablepages":5024,"ĠRichard":5025,"ĠEstre":5026,"Ġexce":5027,"ĠAbra":5028,"Ġleva":5029,"Ġprotagon":5030,"nÃ£o":5031,"Ġpot":5032,"Ġ1968":5033,"igh":5034,"iros":5035,"ĠParanÃ¡":5036,"ĠPac":5037,"jeto":5038,"Ã³i":5039,"Ġconsider":5040,"à¤":5041,"Ġpreocup":5042,"Ġsinal":5043,"Ġnaturais":5044,"Ġjornalista":5045,"atus":5046,"ĠLife":5047,"ĠFa":5048,"pp":5049,"Ġ1973":5050,"Ġpreserv":5051,"Ġentrar":5052,"Ġrealmente":5053,"Ġ1972":5054,"ĠCe":5055,"ĠKar":5056,"ĠComissÃ£o":5057,"Ġapresentou":5058,"erican":5059,"Ġgradu":5060,"Ġba":5061,"ĠdÃ³l":5062,"Ġpesquis":5063,"ĠFerro":5064,"Ã©ia":5065,"ĠConv":5066,"Ġtentativa":5067,"ĠMach":5068,"Ġglob":5069,"iev":5070,"Ġparal":5071,"Ġcondado":5072,"Ġlinguagem":5073,"Ġantigos":5074,"Ġreform":5075,"Ġfilm":5076,"ĠPass":5077,"Ġvon":5078,"ĠSaÃºde":5079,"Ġnamespace":5080,"Ġpotenc":5081,"ĠfamÃŃlias":5082,"ĠOrgan":5083,"error":5084,"orth":5085,"ĠEntretanto":5086,"Ġcomprimento":5087,"Ġcerto":5088,"Ġplanej":5089,"90":5090,"Ġ1930":5091,"Ġ1969":5092,"ĠXVIII":5093,"Ġusa":5094,"ĠTodas":5095,"rina":5096,"Ġdesconhec":5097,"Ġadequ":5098,"rÃŃc":5099,"ĠseÃ§Ã£o":5100,"iante":5101,"Ġ1964":5102,"ĠOuro":5103,"Ã³logo":5104,"ocl":5105,"graf":5106,"PA":5107,"Ð½":5108,"Ã³rmula":5109,"arou":5110,"88":5111,"antil":5112,"ĠGuil":5113,"ĠTribunal":5114,"rato":5115,"ĠirmÃ£os":5116,"sen":5117,"Ġcontexto":5118,"ĠEspec":5119,"ĠmÃ©dico":5120,"burg":5121,"ji":5122,"Ġpartidas":5123,"board":5124,"ĠGro":5125,"Ã³nia":5126,"ariam":5127,"Ġhaver":5128,"ĠvÃŃt":5129,"ĠTim":5130,"VD":5131,"ĠCalifÃ³rnia":5132,"ĠÃ¡rv":5133,"Un":5134,"ats":5135,"ĠestratÃ©g":5136,"panhia":5137,"ĠStates":5138,"ĠIsrael":5139,"ĠBur":5140,"Ġdupla":5141,"Ġviagem":5142,"Ġtenho":5143,"gen":5144,"ĠTodos":5145,"Ġinternacionais":5146,"ĠturnÃª":5147,"uso":5148,"ĠpeÃ§a":5149,"Ġobjetos":5150,"Ġperd":5151,"ĠAdminist":5152,"Ġtenham":5153,"Ġimped":5154,"Ġpublicada":5155,"ĠFundaÃ§Ã£o":5156,"asculino":5157,"ĠChamp":5158,"Ġlar":5159,"Ġcores":5160,"orou":5161,"ĠprÃ³xim":5162,"ÃŃcil":5163,"ĠRodrigu":5164,"ĠdÃº":5165,"ĠexpressÃ£o":5166,"Ã¢mica":5167,"Ġsimplesmente":5168,"assem":5169,"Ġfeitas":5170,"Ġprovoc":5171,"FC":5172,"Ġfen":5173,"ĠAssembleia":5174,"date":5175,"ycl":5176,"ĠFederaÃ§Ã£o":5177,"esp":5178,"ĠThomas":5179,"Ġproduto":5180,"ĠprisÃ£o":5181,"intura":5182,"ĠversÃµes":5183,"Ġtaxa":5184,"ĠMark":5185,"ĠNasc":5186,"ĠtÃ©cnico":5187,"oll":5188,"portun":5189,"Ġdando":5190,"chi":5191,"ropolit":5192,"Ġdiscut":5193,"ĠAir":5194,"Ġespect":5195,"ĠTre":5196,"ym":5197,"ĠCongresso":5198,"stein":5199,"Ġtrata":5200,"ĠirmÃ£":5201,"Ġcompanhia":5202,"quis":5203,"Ġrepet":5204,"ĠgÃ©n":5205,"sor":5206,"ĠAntonio":5207,"idar":5208,"Ġviaj":5209,"Ġnota":5210,"Ġcir":5211,"ogle":5212,"Ġerro":5213,"Ġhumano":5214,"Ġtabela":5215,"ĠgeraÃ§Ã£o":5216,"ÃŃss":5217,"2010":5218,"ĠcÃ³digo":5219,"Ġperdeu":5220,"Ġfala":5221,"ĠcrÃŃticas":5222,"ary":5223,"ĠRecords":5224,"ions":5225,"Ġnegoc":5226,"ĠJustiÃ§a":5227,"Ġprom":5228,"ĠvÃ¡l":5229,"ĠObrig":5230,"ĠmÃ©todo":5231,"oph":5232,"ĠSel":5233,"Ġbene":5234,"Ġinser":5235,"Ġacess":5236,"Ġ)":5237,"ÑĢ":5238,"Ġcomem":5239,"Ġvar":5240,"ĠinstituiÃ§Ã£o":5241,"Ġ#":5242,"ĠOrig":5243,"osas":5244,"Ġguer":5245,"ernamb":5246,"Ġatra":5247,"ĠFilm":5248,"itivos":5249,"ĠAndrÃ©":5250,"Ġgrego":5251,",\"":5252,"Ġincorpo":5253,"ĠFerreira":5254,"Ġtemas":5255,"Ġutilizada":5256,"Ġlugares":5257,"ĠSom":5258,"iclop":5259,"ariamente":5260,"Ġliteratura":5261,"CO":5262,"Ġhaviam":5263,"ucle":5264,"ĠIsabel":5265,"ĠEstud":5266,"89":5267,"Ġencontram":5268,"Ġpud":5269,"Ġselecion":5270,"Ġredes":5271,"ogrÃ¡fica":5272,"Ã¢ntico":5273,"ĠWeb":5274,"ĠProc":5275,"ovo":5276,"ĠEt":5277,"ĠParticip":5278,"ĠInternet":5279,"ebra":5280,"ĠLeague":5281,"ĠcomÃ©rcio":5282,"Ġ00":5283,"ĠVI":5284,"Ġexter":5285,"ÃŃram":5286,"ĠlÃŃnguas":5287,"ake":5288,"Ġhistori":5289,"olina":5290,"Ġconhecidos":5291,"Ġrepro":5292,"Ãī":5293,"ĠCaval":5294,"Ġ1971":5295,"Ġdipl":5296,"ĠHistÃ³rico":5297,"Ġmarido":5298,"ĠVale":5299,"eco":5300,"isp":5301,"Ġbeb":5302,"Ġadapt":5303,"ĠfÃŃsica":5304,"ĠCarvalho":5305,"Ġcompart":5306,"Ġpassagem":5307,"Ġpequenas":5308,"ĠFe":5309,"ĠdifÃŃcil":5310,"Ġferram":5311,"Ġusados":5312,"Ġcasas":5313,"mith":5314,"ĠNet":5315,"iocese":5316,"Ġth":5317,"ĠDistrito":5318,"Ġmeados":5319,"76":5320,"ĠpressÃ£o":5321,"Ġentra":5322,"Ġ01":5323,"uvent":5324,"arca":5325,"ucion":5326,"Ġentend":5327,"ii":5328,"ĠSistema":5329,"adura":5330,"entou":5331,"ĠIta":5332,"ĠindivÃŃduos":5333,"ream":5334,"ĠGeneral":5335,"Ġrefere":5336,"ĠCastro":5337,"ea":5338,"Ġnove":5339,"Ġverdad":5340,"Ġdirec":5341,"ĠpublicaÃ§Ã£o":5342,"iverso":5343,"Î¿":5344,"Ġrespectivamente":5345,"Ġnessa":5346,"ĠMora":5347,"Ġdiminu":5348,"itava":5349,"ĠprogramaÃ§Ã£o":5350,"Ġcorte":5351,"Ġsed":5352,"Ġdizendo":5353,"irl":5354,"ĠPode":5355,"Ġobter":5356,"ĠDepartamento":5357,"Ġfix":5358,"ĠCatÃ³lica":5359,"ury":5360,"ĠCer":5361,"Ġaconteceu":5362,"ĠPredefiniÃ§Ã£o":5363,"ĠChe":5364,"Ġinvas":5365,"med":5366,"ÃŃdio":5367,"Ġcontato":5368,"ĠoperaÃ§Ãµes":5369,"Ġoportun":5370,"Ġ1967":5371,"ĠhistÃ³rias":5372,"ĠRet":5373,"Ġmunicipal":5374,"Ġassumiu":5375,"Ġbranco":5376,"Ġcarreg":5377,"Ġfalar":5378,"Ġrua":5379,"ĠmÃ¡qu":5380,"ĠDef":5381,"ecto":5382,"acial":5383,"oviÃ©tica":5384,"own":5385,"ĠcÃ©lulas":5386,"rich":5387,"uls":5388,"Ġconden":5389,"EL":5390,"ĠprÃ³xima":5391,"low":5392,"Ġcoorden":5393,"2011":5394,"ĠAfonso":5395,"Ġmotivo":5396,"Ġcompletamente":5397,"umes":5398,"ĠBrasÃŃlia":5399,"Ã¡cia":5400,"Ġdesaf":5401,"Ġrealidade":5402,"Ġbel":5403,"reau":5404,"ĠoperaÃ§Ã£o":5405,"iloto":5406,"Ġquis":5407,"ensa":5408,"Ġclara":5409,"isf":5410,"ĠDesenvolv":5411,"Ġaltitude":5412,"ĠtradiÃ§Ã£o":5413,"ĠBlack":5414,"eck":5415,"Ġazul":5416,"ĠJa":5417,"Ġcic":5418,"arte":5419,"Ġrit":5420,"Ġconflito":5421,"ĠPaÃŃses":5422,"ecia":5423,"ĠAÃ§ores":5424,"ĠindÃŃg":5425,"Ġnacionais":5426,"ĠAngeles":5427,"ĠgalÃ¡x":5428,"ĠCompanhia":5429,"ĠdÃ³lares":5430,"Ġabsol":5431,"Ġregime":5432,"ĠHam":5433,"Ġfundamental":5434,"Ġsoldados":5435,"Ġmarcou":5436,"Ġsuppress":5437,"ĠextensÃ£o":5438,"icou":5439,"pet":5440,"Ġprocessos":5441,"ĠLopes":5442,"errors":5443,"Ġquart":5444,"Ġsuppresserrors":5445,"Ġbispo":5446,"Ġaddf":5447,"categorydate":5448,"irstcategorydate":5449,"Ġaddfirstcategorydate":5450,"ĠBus":5451,"ertas":5452,"ĠPÃºbl":5453,"Ġvirt":5454,"ĠCity":5455,"ashington":5456,"men":5457,"Ġdep":5458,"ĠNesse":5459,"Ġmusicais":5460,"ĠÃ¡ra":5461,"ĠFamÃŃlia":5462,"mento":5463,"ĠVan":5464,"ĠIsto":5465,"peÃµes":5466,"Ġparceria":5467,"Ġempreg":5468,"ĠSur":5469,"Ġmetal":5470,"Ġletras":5471,"Ġ1940":5472,"issa":5473,"Ġliberdade":5474,"ĠGonÃ§":5475,"ronze":5476,"ĠgestÃ£o":5477,"Ġetapa":5478,"gica":5479,"lov":5480,"Ġpequenos":5481,"Ġimprensa":5482,"Ġdesempenho":5483,"ĠHon":5484,"Ġdesp":5485,"Ġamericana":5486,"Ġcomuns":5487,"Ġprefer":5488,"Ġanteriormente":5489,"Ġadvog":5490,"eph":5491,"Ġdesapar":5492,"Ġpintura":5493,"Ġproib":5494,"Ġsubs":5495,"Ġpublicou":5496,"ĠBiodiversity":5497,"Ġcategorias":5498,"Ġauto":5499,"ĠRu":5500,"Ġ1966":5501,"ny":5502,"oss":5503,"66":5504,"orro":5505,"rade":5506,"ĠSeus":5507,"Ġinfluenc":5508,"ĠmemÃ³ria":5509,"bro":5510,"Ġautores":5511,"endas":5512,"Ġexec":5513,"Ġby":5514,"Ġplantas":5515,"97":5516,"ĠConde":5517,"ĠsaÃŃda":5518,"rup":5519,"Ġ1945":5520,"deia":5521,"Ġdesf":5522,"ĠvÃ£o":5523,"Ġcart":5524,"Ġhumana":5525,"Ã³cios":5526,"Ġpsic":5527,"Ġpresentes":5528,"ĠInternational":5529,"ĠSousa":5530,"ĠMot":5531,"Ġclaro":5532,"Ġveg":5533,"och":5534,"ĠtÃ©cnicas":5535,"ĠcÃ³pias":5536,"ship":5537,"ĠPalÃ¡cio":5538,"ĠRad":5539,"Ġvisual":5540,"Ġapareceu":5541,"itÃ¡ria":5542,"ĠtraduÃ§Ã£o":5543,"Ġreais":5544,"FI":5545,"Ãºn":5546,"ĠAlexandre":5547,"Ġequival":5548,"ĠCens":5549,"Ġrealizou":5550,"Cl":5551,"ĠRodrigues":5552,"ĠLove":5553,"Ġnavio":5554,"udou":5555,"ĠMai":5556,"Ġarmaz":5557,"ĠestÃ¡dio":5558,"entas":5559,"pes":5560,"ĠPeter":5561,"ĠBureau":5562,"data":5563,"Ġprofissionais":5564,"Ġtira":5565,"itados":5566,"ĠGlobal":5567,"Ġministro":5568,"Ġmanifesta":5569,"Ġfundado":5570,"Ġlog":5571,"ĠmÃ£os":5572,"ĠAugusto":5573,"aticamente":5574,"Ġdim":5575,"riel":5576,"Ġfizeram":5577,"elli":5578,"ĠquestÃµes":5579,"Ġapont":5580,"unes":5581,"Ġhora":5582,"entais":5583,"ĠSaint":5584,"erado":5585,"Ġperda":5586,"Ġteor":5587,"Ã§ada":5588,"Ġsho":5589,"ĠserÃ£o":5590,"itch":5591,"sex":5592,"feira":5593,"Ġadic":5594,"ĠMer":5595,"Ġdiagrama":5596,"win":5597,"ĠNaÃ§Ãµes":5598,"ĠJoaqu":5599,"ĠPrÃŃncipe":5600,"TP":5601,"Ġ1965":5602,"imp":5603,"rÃ£o":5604,"Ġsexual":5605,"Ġapresentar":5606,"vÃ£o":5607,"Ġdescoberta":5608,"Ġtrabalha":5609,"Ġå":5610,"Ġmadeira":5611,"75":5612,"ĠEstadual":5613,"Ġimpos":5614,"Ġles":5615,"naval":5616,"Ġmer":5617,"itoral":5618,"85":5619,"ĠcomposiÃ§Ã£o":5620,"Ġentrevista":5621,"Ġ35":5622,"Ã©rias":5623,"ĠconstruÃŃda":5624,"ĠreligiÃ£o":5625,"ĠMass":5626,"Ex":5627,"Ġquarta":5628,"irit":5629,"Ġwikip":5630,"Ġcandidato":5631,"Ġproced":5632,"Ġprecisa":5633,"essem":5634,"ĠExistem":5635,"Ġconduz":5636,"Ġespecific":5637,"eliz":5638,"Ġcompon":5639,"Ne":5640,"Ġmim":5641,"Ġtentar":5642,"ĠNatal":5643,"ĠCro":5644,"Ġpossa":5645,"Ġfinais":5646,"Ġfogo":5647,"86":5648,"Ġaberto":5649,"Ġafet":5650,"Ġatuou":5651,"ĠTrata":5652,"Ġpermaneceu":5653,"Ġpaz":5654,"ĠdÃ©cadas":5655,"Ġitaliana":5656,"single":5657,"Ġjorn":5658,"Ġ1962":5659,"ĠquilÃ´m":5660,"ĠUru":5661,"iosa":5662,"ĠapresentaÃ§Ã£o":5663,"andro":5664,"tivo":5665,"ĠCampo":5666,"Ġguitarra":5667,"Ġbomb":5668,"Ġfutebolista":5669,"pest":5670,"ĠRus":5671,"ruÃ§Ã£o":5672,"anhÃ£":5673,"Ġmudar":5674,"Ġdessas":5675,"rigo":5676,"ĠAwards":5677,"Ġbl":5678,"Ġelabora":5679,":!":5680,"ĠWashington":5681,"Ġparticipantes":5682,"Ġsei":5683,"AL":5684,"RO":5685,"ĠMay":5686,"ross":5687,"ĠBranco":5688,"Ġdelas":5689,"utaÃ§Ã£o":5690,"inados":5691,"Ġpossibilidade":5692,"ĠFab":5693,"ĠDar":5694,"bio":5695,"Ã©lio":5696,"ĠpolÃŃcia":5697,"Ġlevant":5698,"ÃŃfico":5699,"orf":5700,"ĠinstituiÃ§Ãµes":5701,"Ġpassaram":5702,"ĠGuilher":5703,"aba":5704,"ĠDesenvolvimento":5705,"ĠCampos":5706,"ingo":5707,"Ġdesenvolvido":5708,"Ġpromo":5709,"ruturas":5710,"ansÃ£o":5711,"Ġilhas":5712,"ibus":5713,"ĠEstes":5714,"Ġapresentado":5715,"meida":5716,"taÃ§Ãµes":5717,"otos":5718,"inguÃ©m":5719,"Ġtextos":5720,"Ġproteg":5721,"ĠAlgumas":5722,"ĠKe":5723,"icidade":5724,"96":5725,"ĠOutras":5726,"Ġlarg":5727,"ĠMur":5728,"2007":5729,"Ġcorrespond":5730,"ct":5731,"Ġros":5732,"Ġbra":5733,"ĠPet":5734,"Ġmateriais":5735,"2006":5736,"vers":5737,"ĠPrimeiro":5738,"mira":5739,"Ġformada":5740,"ĠMadeira":5741,"ĠjaponÃªs":5742,"Ġrisco":5743,"Ġderrota":5744,"presidente":5745,"Ġmodelos":5746,"ĠVo":5747,"ĠVerde":5748,"Ġinternet":5749,"ĠNat":5750,"lesc":5751,"iÃ¡rio":5752,"Ġ02":5753,"Ġfat":5754,"ĠVitÃ³ria":5755,"Ġformar":5756,"Ġacho":5757,"cou":5758,"riÃ§Ã£o":5759,"Ġcomportamento":5760,"pia":5761,"Ġsusp":5762,"Ġcerim":5763,"Ġaus":5764,"cÃ£o":5765,"ĠAqu":5766,"Ġrusso":5767,"lamento":5768,"vis":5769,"Ġposto":5770,"Ġrecus":5771,"77":5772,"Ġ32":5773,"Ġrecorde":5774,"Ġencontrada":5775,"bon":5776,"Ġcontinua":5777,"ĠGomes":5778,"Ġbaseada":5779,"Ġdescoberto":5780,"ĠciÃªncia":5781,"aixada":5782,"ĠÃģsia":5783,"pat":5784,"Ġlevar":5785,"Ġmovimentos":5786,"din":5787,"ĠSara":5788,"ricultura":5789,"Ġsucess":5790,"Ġestrelas":5791,"ĠMem":5792,"ĠAlc":5793,"Ġafirma":5794,"Ġpassag":5795,"dora":5796,"idados":5797,"ĠprincÃŃpio":5798,"Ġcorrida":5799,"ĠdiferenÃ§a":5800,"ĠDevido":5801,"ifer":5802,"Ġsecund":5803,"Ã©rito":5804,"ĠBom":5805,"obo":5806,"Ġnavios":5807,"Ġcena":5808,"ĠBru":5809,"Ã¢neo":5810,"ĠRevoluÃ§Ã£o":5811,"gues":5812,"Ġconsiste":5813,"Ġesquerda":5814,"ases":5815,"Ġpersegu":5816,"Ġacidente":5817,"ĠEstÃ¡":5818,"ĠSw":5819,"rif":5820,"ĠCorpo":5821,"ĠexposiÃ§Ã£o":5822,"ĠCinema":5823,"Ġpotencial":5824,"Ġ\"(":5825,"ĠAngola":5826,"Ġpaul":5827,"ĠLev":5828,"ĠHan":5829,"ison":5830,"ĠPark":5831,"ĠScho":5832,"iti":5833,"ĠMÃºsica":5834,"Ġqueria":5835,"imar":5836,"ĠJan":5837,"EM":5838,"americana":5839,"Ġtalvez":5840,"uldades":5841,"afa":5842,"ĠCensus":5843,"ĠSeb":5844,"ĠTerc":5845,"over":5846,"Ġimig":5847,"ĠnÃºc":5848,"?)":5849,"li":5850,"cher":5851,"98":5852,"ĠCu":5853,"Ã³qu":5854,"inga":5855,"Ġtreinador":5856,"usc":5857,"estas":5858,"ĠIndepend":5859,"Ġfamoso":5860,"Ġgrau":5861,"CB":5862,"Ġcult":5863,"Ġcontempor":5864,"ĠConstituiÃ§Ã£o":5865,"Ġjude":5866,"pse":5867,"inn":5868,"iria":5869,"ĠVictor":5870,"ĠprÃŃncipe":5871,"aixos":5872,"ĠCre":5873,"ivelmente":5874,"ĠGran":5875,"Ġ$":5876,"Ġvelho":5877,"riqu":5878,"ors":5879,"Rel":5880,"SÃ£o":5881,"gia":5882,"Ġcolocado":5883,"ensÃµes":5884,"ĠLetras":5885,"ĠMaur":5886,"ĠsÃ©culos":5887,"adrid":5888,"ĠLinha":5889,"Ġ1963":5890,"Ġmorto":5891,"ĠdisponÃŃvel":5892,"Ġataques":5893,"ĠEntÃ£o":5894,"PS":5895,"uela":5896,"ĠPS":5897,"Ġdireto":5898,"ĠCoreia":5899,"ĠRog":5900,"ustria":5901,"els":5902,"Ġaqueles":5903,"ĠNev":5904,"Ġconvers":5905,"Ġseriam":5906,"ĠÃ¡lbuns":5907,"Ġlatim":5908,"eng":5909,"Ã¢nd":5910,"astia":5911,"ĠAeroporto":5912,"pal":5913,"Ġlocaliza":5914,"Ġanunciado":5915,"Ġisol":5916,"vas":5917,"ĠDVD":5918,"ĠtransmissÃ£o":5919,"ĠSco":5920,"Ġcrise":5921,"Ġtemos":5922,"Ġcity":5923,"ÃŃna":5924,"ĠsatÃ©l":5925,"rante":5926,"ĠnÃŃveis":5927,"ĠprÃ³prios":5928,"ecimentos":5929,"ĠAlmeida":5930,"Ġ1958":5931,"Ġportugueses":5932,"yr":5933,"ĠVocÃª":5934,"Ġmortos":5935,"Ġprata":5936,"Ġidio":5937,"95":5938,"Ġescala":5939,"ĠÃĵ":5940,"Ġdescend":5941,"bit":5942,"Ġpad":5943,"ĠTempo":5944,"Ġestrela":5945,"Ã¡stica":5946,"Ġtropical":5947,"Ġvoltar":5948,"Ġmenores":5949,"Ġpeix":5950,"ĠSÃŃtio":5951,"portes":5952,"Ġmag":5953,"yclop":5954,"Ġvolume":5955,"ĠObrigado":5956,"Ġespeciais":5957,"Ġreconhecimento":5958,"ĠSac":5959,"2008":5960,"ĠRem":5961,"ball":5962,"gh":5963,"Ġsuficiente":5964,"Ġtelef":5965,"ĠindependÃªncia":5966,"ultado":5967,"reiro":5968,"Gu":5969,"Ġpil":5970,"2009":5971,"ĠAlberto":5972,"div":5973,"ĠLogo":5974,"atÃ³ria":5975,"Ġpeso":5976,"ĠKing":5977,"ĠproteÃ§Ã£o":5978,"Ġtopo":5979,"ĠTax":5980,"ism":5981,"MS":5982,"2012":5983,"ĠFreder":5984,"ĠPic":5985,"Ġintelig":5986,"Ġencontrado":5987,"Ġalf":5988,"ĠHenry":5989,"Ġsangue":5990,"aves":5991,"Ġsonora":5992,"Ġ1961":5993,"utenÃ§Ã£o":5994,"ĠDias":5995,"ĠPlay":5996,"Th":5997,"ĠquilÃ´metros":5998,"Ġposse":5999,"ĠConst":6000,"ĠLee":6001,"ild":6002,"ĠSing":6003,"ĠpÃºblicos":6004,"Ġdestes":6005,"ĠCada":6006,"ĠGuilherme":6007,"Ġprofund":6008,"ĠcrianÃ§a":6009,"Ġescolha":6010,"imb":6011,"ÃŃrus":6012,"Ġpropriet":6013,"Ġbandeira":6014,"ĠalemÃ£":6015,"Ã§ar":6016,"Ġdeixando":6017,"ĠPraia":6018,"ĠVis":6019,"anismo":6020,"ĠCamb":6021,"Ġsetor":6022,"ĠPernamb":6023,"ĠTaÃ§a":6024,"Ġletra":6025,"Ġrodo":6026,"ĠXVI":6027,"ĠServi":6028,"ĠVerÃ£o":6029,"Ġcampos":6030,"ĠSP":6031,"ĠEstÃ¡dio":6032,"ĠinÃºm":6033,"uaÃ§Ã£o":6034,"ĠSon":6035,"sul":6036,"ĠHall":6037,"ĠdefiniÃ§Ã£o":6038,"ĠAmor":6039,"TO":6040,"Ġresto":6041,"rosso":6042,"ĠfundaÃ§Ã£o":6043,"ĠPubl":6044,"Ã§ou":6045,"amen":6046,"Ġcomprom":6047,"ĠEngenh":6048,"Ãł":6049,"Ġcodice":6050,"Ġrem":6051,"enciais":6052,"Ġcompleta":6053,"Ġliter":6054,"ĠsoluÃ§Ã£o":6055,"ĠacadÃªm":6056,"ĠPlant":6057,"clam":6058,"RE":6059,"ĠIb":6060,"ĠPolÃŃcia":6061,"Ġemit":6062,"rian":6063,"%).":6064,"orÃ¡rio":6065,"ĠPesso":6066,"Ġserviu":6067,"Ġvoto":6068,"ĠTÃŃtulos":6069,"ĠGoi":6070,"izant":6071,"ĠAre":6072,"Ġindustrial":6073,"ĠSuÃ©cia":6074,"ĠCant":6075,"%.":6076,"Ġnossa":6077,"ĠSmith":6078,"ians":6079,"ĠLago":6080,"ĠNorm":6081,"pectos":6082,"Ġproduzir":6083,"Pa":6084,"ĠalcanÃ§ou":6085,"ĠoposiÃ§Ã£o":6086,"Ġrainha":6087,"Ġdaquele":6088,"ĠEstaÃ§Ã£o":6089,"Ġvencedor":6090,"lÃ¢ndia":6091,"Ġvinte":6092,"Ġ1920":6093,"Ġatend":6094,"ĠRibeiro":6095,"At":6096,"Ġcursos":6097,"Ġestrada":6098,"Ġiria":6099,"Ġaprend":6100,"ĠFIFA":6101,"Ġadqu":6102,"inou":6103,"orno":6104,"ĠÃ¡guas":6105,"ĠTw":6106,"ĠtÃŃp":6107,"Ġperform":6108,"Ġbloc":6109,"Ġconquista":6110,"67":6111,"qÃ¼":6112,"emplo":6113,"edral":6114,"obil":6115,"Ġarran":6116,"agos":6117,"Ġnobre":6118,"Ġconcelho":6119,"Ġretorno":6120,"Ġmel":6121,"Ġplanta":6122,"ĠTex":6123,"ĠcomeÃ§o":6124,"icano":6125,"tra":6126,"Ġsolic":6127,"Ġnaveg":6128,"Ġevid":6129,"Ġdesenvolver":6130,"Ġpiloto":6131,"azz":6132,"2013":6133,"ĠEgito":6134,"urs":6135,"ĠEuropeia":6136,"ĠRoy":6137,"Ant":6138,"ĠPi":6139,"ĠSino":6140,"ĠPeru":6141,"Ġhospital":6142,"Ġafast":6143,"Ġqueda":6144,"Ġqueb":6145,"ÃŃÃ§a":6146,"Ġreino":6147,"Ġcasal":6148,"Ġadap":6149,"Ġlist":6150,"ĠConstant":6151,"uÃ¡rio":6152,"ĠMax":6153,"Ġdeclarou":6154,"Ġbanc":6155,"Ġambas":6156,"Ġpatro":6157,"ecidos":6158,"ĠPraÃ§a":6159,"Ġterre":6160,"Ã¡logo":6161,"ianas":6162,"ĠexpansÃ£o":6163,"OL":6164,"Ġdescrita":6165,"AC":6166,"ĠNational":6167,"Ġtempest":6168,"Ġmeta":6169,"Ġestudantes":6170,"Ġdeco":6171,"jor":6172,"Ã©mio":6173,"letas":6174,"Ġdeus":6175,"Ġconsum":6176,"ĠOcidental":6177,"Ad":6178,"rÃŃ":6179,"col":6180,"Ġapos":6181,"Ġsurgiu":6182,"Ãºlt":6183,"ĠÃģustria":6184,"Ġchegada":6185,"Ġabrig":6186,"ĠcondiÃ§Ã£o":6187,"uventude":6188,"tel":6189,"ette":6190,"Ġmuita":6191,"ĠLuis":6192,"Ġdireita":6193,"ĠmÃŃdia":6194,"Ġadolesc":6195,"oura":6196,"Ġ1943":6197,"ĠLÃŃn":6198,"Ãªnia":6199,"Ġnormal":6200,"ĠSi":6201,"Ġparque":6202,"orizonte":6203,"Ġfundador":6204,"Ġrebel":6205,"Ġdefend":6206,"MI":6207,"aldo":6208,"ĠNav":6209,"ets":6210,"Ġnovela":6211,"Ġbe":6212,"Ãºnc":6213,"Ġinferior":6214,"ĠLegisl":6215,"Ġmeios":6216,"ĠOscar":6217,"ĠverÃ£o":6218,"Ġ03":6219,"ĠmÃ¡ximo":6220,"Ġplaneta":6221,"Ã©ticos":6222,"87":6223,"ĠCla":6224,"rick":6225,"ĠatuaÃ§Ã£o":6226,"nome":6227,"Ġcomplexo":6228,"ĠAvenida":6229,"ĠMarinha":6230,"entado":6231,"Ġpesquisas":6232,"anteve":6233,"Ġtroca":6234,"Ac":6235,"Ġcima":6236,"Ġgram":6237,"ĠnotÃŃcias":6238,"Ġpodemos":6239,"ĠBanco":6240,"ily":6241,"Ġfeitos":6242,"ĠSuperior":6243,"Ġnosso":6244,"ĠgravaÃ§Ã£o":6245,"Ġregistro":6246,"Ġafric":6247,"Ġtub":6248,"Ġtaref":6249,"ĠJim":6250,"ĠUs":6251,"Ġelog":6252,"ĠJuan":6253,"ĠutilizaÃ§Ã£o":6254,"Ġantigas":6255,"Ãģ":6256,"ĠContudo":6257,"Ġapel":6258,"ĠÃĢ":6259,"ĠcatÃ³l":6260,"oland":6261,".:":6262,"ĠDisney":6263,"Ġjogar":6264,"Ġautoridades":6265,"Ġintitulado":6266,"ĠRicardo":6267,"ĠMadrid":6268,"ĠLin":6269,"Ġdepartamento":6270,"Ġautomaticamente":6271,"ĠRosa":6272,"enz":6273,"ĠMill":6274,"??":6275,"ÃŃnas":6276,"andal":6277,"ĠTri":6278,"Ġpassageiros":6279,"Ġpergunt":6280,"ĠRÃ¡dio":6281,"irem":6282,"Ġsala":6283,"ĠJardim":6284,"Ġconcl":6285,"Ġleis":6286,"yo":6287,"Or":6288,"ĠmatÃ©ria":6289,"ilos":6290,"Ġatuais":6291,"ĠLar":6292,"92":6293,"ĠChile":6294,"âĢ¦":6295,"Ġ1944":6296,"ĠSenhor":6297,"ye":6298,"Ġpun":6299,"ĠIP":6300,"Ġescal":6301,"Ġmedidas":6302,"ĠQual":6303,"aros":6304,"Ġencontro":6305,"2005":6306,"Ġregul":6307,"ĠBrown":6308,"ĠJoaquim":6309,"Ġcurta":6310,"odos":6311,"ugo":6312,"Ġformou":6313,"Ġbateria":6314,"Ġexplora":6315,"ĠChampion":6316,"ĠOce":6317,"rimÃ´nio":6318,"vidas":6319,"Ġmm":6320,"rum":6321,"Ġpedra":6322,"ĠPopular":6323,"Ġdiante":6324,"ĠPalm":6325,"ĠaplicaÃ§Ã£o":6326,"onom":6327,"Ġfilosofia":6328,"itiba":6329,"ĠviolÃªncia":6330,"ĠMesmo":6331,"Ġincom":6332,"Ġmistura":6333,"ĠEspÃŃrito":6334,"ĠalteraÃ§Ãµes":6335,"ratado":6336,"ĠLy":6337,"ediÃ§Ã£o":6338,"zer":6339,"iew":6340,"Ġnaquele":6341,"ĠrealizaÃ§Ã£o":6342,"Ã©sia":6343,"Ġaprove":6344,"Ġutilizar":6345,"bert":6346,"estrutura":6347,"Ġvoo":6348,"ĠBandeira":6349,"ĠHospital":6350,"Ġsegue":6351,"Ġmesmos":6352,"Ġencer":6353,"ĠcrÃŃticos":6354,"Î½":6355,"Ġideal":6356,"ĠSebast":6357,"ĠPap":6358,"BS":6359,"Ġorg":6360,"inÃ¡rio":6361,"Ġconvoc":6362,"ĠTraduÃ§Ã£o":6363,"Ã¡ter":6364,"Ġargument":6365,"ĠForÃ§a":6366,"inÃ¡ria":6367,"ĠFar":6368,"ontade":6369,"Ġreinado":6370,"ricas":6371,"Ġbronze":6372,"Ġhuman":6373,"Ġfotos":6374,"Ġ37":6375,"rota":6376,"dens":6377,"Ã©sar":6378,"ĠvÃª":6379,"Ġplan":6380,"Ġchamados":6381,"Ġindividual":6382,"Ġdada":6383,"isse":6384,"ĠpÃºblicas":6385,"ĠDE":6386,"Ġextre":6387,"Ġ1959":6388,"Ġato":6389,"ÃŃns":6390,"ĠVerm":6391,"cons":6392,"Ġarque":6393,"Ġecl":6394,"Ġconstruir":6395,"Ġverde":6396,"ĠevoluÃ§Ã£o":6397,"ĠTop":6398,"68":6399,"field":6400,"inÃ§Ã£o":6401,"icada":6402,"alidades":6403,"Ġbon":6404,"2004":6405,"Ġconcurso":6406,"Sub":6407,"Ġpoeta":6408,"ook":6409,"ĠBrit":6410,"ĠterÃ¡":6411,"Ġsoftware":6412,"uck":6413,"bres":6414,"Äģ":6415,"Ġcara":6416,"Ġexterior":6417,"eder":6418,"ĠMarco":6419,"Ġmanteve":6420,"ĠMend":6421,"ĠBarcel":6422,"Ġdocumentos":6423,"ensis":6424,"Ġplac":6425,"ĠPrincip":6426,"ĠAlves":6427,"Ġiniciat":6428,"ÃŃsticos":6429,"Ġnucle":6430,"Ġideias":6431,"ĠBor":6432,"ĠCultural":6433,"IB":6434,"Ġherd":6435,"Ġficando":6436,"amentais":6437,"Artigos":6438,"oqu":6439,"Ġdentre":6440,"Ġconvenc":6441,"essores":6442,"Se":6443,"Ġjud":6444,"ĠAgu":6445,"ĠSat":6446,"Ġcomputador":6447,"ĠSoviÃ©tica":6448,"Ġverbete":6449,"Ġnascimento":6450,"rary":6451,"Ġvendas":6452,"Ġplataforma":6453,"Ġconsist":6454,"nes":6455,"ĠTecn":6456,"Ġmuseu":6457,"ĠTrÃªs":6458,"landa":6459,"ĠDent":6460,"ON":6461,"Ġcenas":6462,"Ġtrilha":6463,"Ġcres":6464,"ĠAmerican":6465,"tom":6466,"Ñģ":6467,"ĠOficial":6468,"Ġhabil":6469,"udes":6470,"Ġproduzida":6471,"Ãºr":6472,"tiva":6473,"ĠresistÃªncia":6474,"Ġpropriedades":6475,"iaram":6476,"Ġang":6477,"Ġinterv":6478,"olÃ³gicos":6479,"itantes":6480,"Ġvenda":6481,"Ġconseguir":6482,"Ġ38":6483,"ĠcoleÃ§Ã£o":6484,"tudo":6485,"ĠLon":6486,"Ġdiplom":6487,"ĠGreg":6488,"Ġmex":6489,"ĠLouis":6490,"ĠVeja":6491,"ĠjurÃŃd":6492,"ĠSenado":6493,"Ġcintura":6494,"Ġespecificamente":6495,"Ġvil":6496,"Ġrelacionados":6497,"SA":6498,"Ġtestes":6499,"Ġsag":6500,"ĠLi":6501,"No":6502,"ĠMartins":6503,"acho":6504,"Ġ45":6505,"Ġrenov":6506,"Ã³veis":6507,"Ġclima":6508,"ĠAno":6509,"Ġconsenso":6510,"Ġarmazen":6511,"Ġarquitetura":6512,"ificados":6513,"Ġrecebe":6514,"ĠfÃ¡b":6515,"Ġaquele":6516,"Ġrefor":6517,"Ġsituada":6518,"ĠDuque":6519,"Ġtomar":6520,"Ġevent":6521,"Ġpropag":6522,"Ġsofreu":6523,"arqu":6524,"Ġteste":6525,"Ã´nicos":6526,"Ġpec":6527,"deal":6528,"imbra":6529,"Ġten":6530,"Ġweb":6531,"Ġare":6532,"ĠestaÃ§Ãµes":6533,"Ġmoderna":6534,"Ġfortes":6535,"ĠPrem":6536,"Ãĥ":6537,"Ġdistint":6538,"Ġvale":6539,"Ġconsegue":6540,"tados":6541,"Ġorqu":6542,"ÑĤ":6543,"Ã¢ntica":6544,"Int":6545,"Ġrios":6546,"Ġutilizados":6547,"Ġrealizadas":6548,"ĠmanutenÃ§Ã£o":6549,"Ġvocais":6550,"ÃŃsmo":6551,"iosos":6552,"Ġcompleto":6553,"Ġdiss":6554,"ĠOutro":6555,"bes":6556,"ĠJud":6557,"Ġperi":6558,"ĠbritÃ¢nica":6559,"fede":6560,"ĠRot":6561,"ĠHill":6562,"Ġwith":6563,"ĠDig":6564,"Ġviu":6565,"Ġvul":6566,"radores":6567,"Ġ1954":6568,"Ġpopulares":6569,"Ġfesta":6570,"Ġvan":6571,"CI":6572,"ĠSchool":6573,"Ġlevando":6574,"Ġadvers":6575,"ËĪ":6576,"Ġ1942":6577,"Ġaspectos":6578,"erb":6579,"Ġatingiu":6580,"Ġassassin":6581,"ĠDois":6582,"icago":6583,"Î¹":6584,"Ġpodendo":6585,"di":6586,"Ġ300":6587,"93":6588,"Ġganhar":6589,"Ġvariedade":6590,"Ġagu":6591,"Ã©ries":6592,"ĠSobre":6593,"aut":6594,"Ġromano":6595,"eus":6596,"Brasil":6597,"ĠBÃŃbl":6598,"Ġmelhorar":6599,"edida":6600,"Ġapresentam":6601,"olÃ³gicas":6602,"une":6603,"ĠNGC":6604,"ĠveÃŃculos":6605,"hal":6606,"ĠfÃ£s":6607,"ĠfrequÃªncia":6608,"Ġencontrados":6609,"rÃ¡fica":6610,"dj":6611,"Ġreforma":6612,"Eu":6613,"94":6614,"Ġcomerciais":6615,"Ġvere":6616,"Ġsofr":6617,"Ġpreso":6618,"ÅĤ":6619,"Ġur":6620,"Ġtentou":6621,"cr":6622,"ĠMary":6623,"Ġdesenho":6624,"ÃŃba":6625,"ĠSÃ³":6626,"Ġsenhor":6627,"Ã¡cil":6628,"ĠNob":6629,"ĠUN":6630,"ĠPrÃªmios":6631,"Ġquadr":6632,"Ġvermelho":6633,"ĠDoc":6634,"Ġimag":6635,"si":6636,"Ġregra":6637,"Ġcontrol":6638,"Ġasteroide":6639,"ĠPel":6640,"entino":6641,"Ġadministrativa":6642,"ĠFri":6643,"ingos":6644,"ĠeconÃ´mica":6645,"ocracia":6646,"ĠTelev":6647,"ĠexecuÃ§Ã£o":6648,"Ġcontinuar":6649,"Ġretornou":6650,"ĠKim":6651,"ĠYo":6652,"ĠCÃ©sar":6653,"Ġterem":6654,"Ġtorc":6655,"ĠGold":6656,"Ġaborda":6657,"domin":6658,"Ġconsc":6659,"ĠÃ¡c":6660,"ĠJoseph":6661,"Ġquinta":6662,"ami":6663,"ĠDat":6664,"Ãªnt":6665,"Ġorto":6666,"ĠpÃ©":6667,"Ġevol":6668,"ĠWill":6669,"TE":6670,"ĠDesc":6671,"hen":6672,"ĠCara":6673,"Ġquadro":6674,"72":6675,"Ġdefens":6676,"ĠObras":6677,"endÃ¡rio":6678,"Ġconstante":6679,"ĠGrÃ©cia":6680,"Ġconde":6681,"tro":6682,"ĠLeÃ£o":6683,"ĠMuitos":6684,"ĠSuÃŃÃ§a":6685,"Ġrival":6686,"ĠAtlÃ©tico":6687,"ĠBay":6688,"ĠpalÃ¡cio":6689,"ĠSand":6690,"Ġturno":6691,"Um":6692,"ĠCirc":6693,"ultados":6694,"Ġgravadora":6695,"Ġquestion":6696,"fÃ©":6697,"Ġadqui":6698,"Ġemerg":6699,"unÃ§Ã£o":6700,"ĠSuas":6701,"peus":6702,"Ġplanos":6703,"ĠDay":6704,"Ġestudou":6705,"ĠEncyclop":6706,"Ġnam":6707,"ĠDesta":6708,"uo":6709,"ĠJornal":6710,"ologias":6711,"peÃ£":6712,"ĠIv":6713,"Ġelemento":6714,"ĠPou":6715,"mat":6716,"the":6717,"ĠStud":6718,"Ġconfig":6719,"Ġbandas":6720,"eda":6721,"Ġnatal":6722,"Ġ1955":6723,"ft":6724,"Ġprol":6725,"Ġroup":6726,"Ġ1956":6727,"\",\"-":6728,"nibus":6729,"ĠFlores":6730,"ĠocasiÃ£o":6731,"Ġpossibil":6732,"Ġanalis":6733,"onha":6734,"ĠolÃŃmp":6735,"Ġsug":6736,"Ġcru":6737,"ĠninguÃ©m":6738,"ĠForam":6739,"UC":6740,"Ġjogou":6741,"Ġ1948":6742,"Ġfran":6743,"quÃªs":6744,"ĠdisponÃŃveis":6745,"Ġruas":6746,"Ġrodada":6747,"65":6748,"Ġcontou":6749,"Ġreserv":6750,"Ġanimal":6751,"ortaleza":6752,"Ge":6753,"xa":6754,"Ġculturais":6755,"ĠcapitÃ£o":6756,"uÃ§Ãµes":6757,"vu":6758,"Ġcusto":6759,"Ġvontade":6760,"Ġvet":6761,"Ġprej":6762,"ĠNesta":6763,"izam":6764,"Ġ1941":6765,"Ġprovas":6766,"Ġluc":6767,"ĠâĨ":6768,"ĠContin":6769,"64":6770,"2001":6771,"ricidade":6772,"Ġimplement":6773,"Ġolhos":6774,"Ġsegundos":6775,"aceae":6776,"Ġsair":6777,"Ã³vel":6778,"Ġgar":6779,"Ġchega":6780,"Ġinglesa":6781,"itaÃ§Ãµes":6782,"Ġglobal":6783,"rey":6784,"ition":6785,"ĠSinopse":6786,"tam":6787,"Ġfortal":6788,"rilh":6789,"ĠalemÃ£es":6790,"kin":6791,"arch":6792,"ĠRodo":6793,"Ġdit":6794,"Ġcred":6795,"ĠCatal":6796,"ĠChampionship":6797,"ĠEspecial":6798,"ĠRece":6799,"teis":6800,"ĠLit":6801,"ĠColÃ©gio":6802,"ring":6803,"Ġlago":6804,"Ġtrono":6805,"indows":6806,"Ġpromover":6807,"yd":6808,"BT":6809,"oroeste":6810,"ĠVenez":6811,"Ġdram":6812,"ĠOutra":6813,"Ġfazia":6814,"ĠStar":6815,"91":6816,"ÏĦ":6817,"site":6818,"ika":6819,"ervo":6820,"prim":6821,"Ġtradicionais":6822,"ĠterritÃ³rios":6823,"Ġale":6824,"ĠRafa":6825,"teriormente":6826,"2003":6827,"Ġpovos":6828,"ĠSud":6829,"ĠFC":6830,"ĠCommons":6831,"Ġ1939":6832,"Ġdesej":6833,"ĠrepresentaÃ§Ã£o":6834,"Ġvou":6835,"Ġjuntos":6836,"ĠTest":6837,"ĠsÃŃmbolo":6838,"ianismo":6839,"RelatÃ³rio":6840,"ĠDer":6841,"ĠHoje":6842,"fera":6843,"ĠfÃ¡cil":6844,"teza":6845,"Ã©reo":6846,"cer":6847,"unas":6848,"Ġacaba":6849,"ĠcritÃ©rios":6850,"ĠcarÃ¡ter":6851,"Ġciclo":6852,"ĠprÃªmios":6853,"Ġequipa":6854,"ĠtÃ©r":6855,"ĠinvestigaÃ§Ã£o":6856,"ĠvitÃ³rias":6857,"Ïĥ":6858,"Ġsupera":6859,"bel":6860,"Ġcaixa":6861,"orreu":6862,"eirÃ£o":6863,"Ġdeixa":6864,"ĠErn":6865,"ĠÂ·":6866,"vin":6867,"ĠcontribuiÃ§Ãµes":6868,"Ġbanco":6869,"sch":6870,"Ġviver":6871,"ĠFilip":6872,"Ġtrip":6873,"Ïģ":6874,"ĠVicente":6875,"Ġlegal":6876,"Ġestruturas":6877,"Ġmontanh":6878,"ĠÃ´":6879,"Ġfossem":6880,"Ġtornaram":6881,"raria":6882,"ĠRegional":6883,"ĠPier":6884,"Ġenv":6885,"erica":6886,"Ġnascido":6887,"fa":6888,"Ġsuje":6889,"ĠIdade":6890,"ĠintenÃ§Ã£o":6891,"Ġ1946":6892,"dom":6893,"ĠSilv":6894,"ĠBob":6895,"GE":6896,"Ġsobretudo":6897,"ĠorganizaÃ§Ãµes":6898,"Ġ1957":6899,"Ġcastelo":6900,"ĠPredefini":6901,"Ð¾Ð":6902,"ĠcenÃ¡rio":6903,"Ġquinto":6904,"ificou":6905,"ĠShow":6906,"ĠIrlanda":6907,"Ġimediatamente":6908,"emit":6909,"ronomia":6910,"ĠpÃ©s":6911,"Ġidentidade":6912,"Ġfins":6913,"Ġporto":6914,"Ġtop":6915,"chos":6916,"ĠBerlim":6917,"Ġshows":6918,"Ã¢metro":6919,"Ġtrabalhadores":6920,"Ġtran":6921,"Ġtend":6922,"ĠÃļ":6923,"itÃª":6924,"ĠhistÃ³rica":6925,"ĠOu":6926,"Ġaumentar":6927,"AP":6928,"ultos":6929,"ston":6930,"ĠAdo":6931,"Ġfar":6932,"ĠCarl":6933,"Ġrelativamente":6934,"ĠBlu":6935,"otes":6936,"Ġexemplos":6937,"Ġroteiro":6938,"ĠnegÃ³cios":6939,"ski":6940,"ĠCabo":6941,"ĠFlora":6942,"!\"":6943,"zi":6944,"jetivo":6945,"work":6946,"chas":6947,"oco":6948,"Ġapag":6949,"ĠSouza":6950,"azer":6951,"ĠVirg":6952,"ĠAdv":6953,"ĠfusÃ£o":6954,"Ġexpand":6955,"ĠBelo":6956,"ocol":6957,"ĠSho":6958,"inter":6959,"adoras":6960,"Ġvira":6961,"rupÃ§Ã£o":6962,"ĠMara":6963,"ĠassociaÃ§Ã£o":6964,"essora":6965,"Ã§ul":6966,"Ġsaiu":6967,"Ġcre":6968,"tero":6969,"Ġdeterminado":6970,"ĠHorizonte":6971,"ĠFilipe":6972,"Ġce":6973,"ĠImpera":6974,"ĠBritÃ¢n":6975,"Ġ1952":6976,"sk":6977,"ĠAFI":6978,"Ġchegando":6979,"tec":6980,"posiÃ§Ãµes":6981,"masculino":6982,"Ġeditora":6983,"ĠfÃŃsico":6984,"Ġdetalhes":6985,"djvu":6986,"ĠEP":6987,"Ġficaram":6988,"andes":6989,"Ġpros":6990,"Ġanual":6991,"real":6992,"Ġcorrente":6993,"ĠsubstituÃŃdo":6994,"ĠcolaboraÃ§Ã£o":6995,"ĠLatina":6996,"uper":6997,"ĠPonte":6998,"Ġib":6999,"Ġanex":7000,"ĠÃ³p":7001,"ĠprÃ©dio":7002,"Ġequipamentos":7003,"ĠCearÃ¡":7004,"Ġmeia":7005,"ĠAlto":7006,"Ġvac":7007,"ivis":7008,"Ġfrom":7009,"Ġcarga":7010,"ĠlÃŃderes":7011,"ĠJackson":7012,"ĠMichel":7013,"Ġsustent":7014,"ĠLibert":7015,"ĠPia":7016,"ĠFund":7017,"ÃĥO":7018,"Ġpraticamente":7019,"ione":7020,"Ġcomandante":7021,"nce":7022,"ministro":7023,"ĠRy":7024,"Ġregional":7025,"ĠAnn":7026,"Ġga":7027,"Ġimplant":7028,"ĠÃ³rgÃ£o":7029,"Ġvert":7030,"ĠirÃ¡":7031,"quete":7032,"Ġestiv":7033,"100":7034,"ĠPortuguÃªs":7035,"ĠGust":7036,"Ġassinou":7037,"Ġdesenvolveu":7038,"Ġ1953":7039,"Ġsil":7040,"ÃŃria":7041,"Ġtestem":7042,"Ġamost":7043,"ĠduraÃ§Ã£o":7044,"Ġtitular":7045,"Ġler":7046,"ĠempresÃ¡rio":7047,"antemente":7048,"Ġkg":7049,"ĠreuniÃ£o":7050,"Ġ1947":7051,"Ġach":7052,"Ġmig":7053,"84":7054,"Ġvant":7055,"2014":7056,"Ġpoderiam":7057,"ĠposiÃ§Ãµes":7058,"Ġengenheiro":7059,"Ġ33":7060,"Ġconsiderados":7061,"ĠmÃ©todos":7062,"onomia":7063,"Ã³cio":7064,"Ġgolpe":7065,"Ġanti":7066,"urt":7067,"Ġusadas":7068,"Ġcm":7069,"Ġocidental":7070,"ĠConstantino":7071,"Ġdrama":7072,"Ġenciclop":7073,"ĠCoimbra":7074,"Ġentretanto":7075,"Ġchegaram":7076,"Ġacontece":7077,"ĠOrganizaÃ§Ã£o":7078,"Ġenorme":7079,"ĠCampeÃ£o":7080,"ĠcaracterÃŃstica":7081,"ĠpoderÃ¡":7082,"Ġrelacionamento":7083,"ĠmatemÃ¡tica":7084,"ĠrecÃ©m":7085,"Ġdiscipl":7086,"Ġrecentemente":7087,"Ġescolhido":7088,"ĠPernambuco":7089,"Ġ?":7090,"ĠJog":7091,"Ġatua":7092,"Ġfrag":7093,"Ġconver":7094,"ĠlideranÃ§a":7095,"Ġvag":7096,"ĠPaz":7097,"Ġ04":7098,"uiz":7099,"icana":7100,"identes":7101,"ĠProduÃ§Ã£o":7102,"ĠaÃŃ":7103,"ĠMarcos":7104,"Ġcrime":7105,"ĠcoraÃ§Ã£o":7106,"uven":7107,"ertain":7108,"ĠCaracter":7109,"ĠPot":7110,"pot":7111,"urgia":7112,"Ġ1938":7113,"mon":7114,"Ġpintor":7115,"Fl":7116,"ĠConf":7117,"Ġadquir":7118,"ĠUnidas":7119,"ĠProjeto":7120,"list":7121,"ĠcompetiÃ§Ãµes":7122,"ĠVolume":7123,"reet":7124,"Ġadvogado":7125,"Ġobrigado":7126,"ipÃ©l":7127,"Ġcerta":7128,"ĠRay":7129,"Ġterror":7130,"ration":7131,"Ġavent":7132,"ĠEncyclopedia":7133,"Ġassuntos":7134,"ĠcomÃ©dia":7135,"ĠRap":7136,"ĠDen":7137,"Ġgente":7138,"ket":7139,"Ġintera":7140,"ĠWindows":7141,"Ġchamou":7142,"ÃŃnsula":7143,"ĠLÃŃngua":7144,"ĠMulher":7145,"atar":7146,"dex":7147,"Ġti":7148,"ple":7149,"ĠScott":7150,"Ġmit":7151,"itadas":7152,"ĠÃ¢mb":7153,"ĠGrÃ£":7154,"ĠrÃ¡pido":7155,"ĠSantiago":7156,"Ġarquivos":7157,"79":7158,"Ã³sito":7159,"Ġsep":7160,"ĠNight":7161,"Ġinov":7162,"ĠRev":7163,"geral":7164,"Ġperder":7165,"Ġrecebido":7166,"asto":7167,"uru":7168,"ĠnÃºcleo":7169,"Ġextremamente":7170,"ump":7171,"ĠItal":7172,"Ġsimilar":7173,"Ġonline":7174,"ĠGram":7175,"Ġparticularmente":7176,"Ġperde":7177,"ĠBiblioteca":7178,"aso":7179,"Ġcompost":7180,"ĠascensÃ£o":7181,"ĠbilhÃµes":7182,"Ġuniversidade":7183,"azar":7184,"empo":7185,".--":7186,"Ġfrase":7187,"Ġestudar":7188,"Ġprazo":7189,"iversÃ¡rio":7190,"ĠfuncionÃ¡rios":7191,"Ã¡via":7192,"Ġjudeus":7193,"ĠCome":7194,"2002":7195,"Ã¡stico":7196,"Ġtratado":7197,"Ġ1951":7198,"Ġtenta":7199,"ĠPosteriormente":7200,"Ġparcialmente":7201,"ĠTorneio":7202,"Ġreje":7203,"ipes":7204,"landÃªs":7205,"ĠquÃŃm":7206,"ĠFortaleza":7207,"Ġsuporte":7208,"enov":7209,"nasc":7210,"ĠPom":7211,"ĠBig":7212,"ĠBoa":7213,"Ġpalco":7214,"Ġadministrat":7215,"Ġtrou":7216,"Ġconsult":7217,"Ġvencer":7218,"Ġfacto":7219,"ogrÃ¡fico":7220,"liga":7221,"Ġrequer":7222,"Ġatingir":7223,"alhas":7224,"Pr":7225,"ĠPesqu":7226,"ĠBarcelona":7227,"raram":7228,"olha":7229,"Ġdisputou":7230,"inth":7231,"oni":7232,"ĠfenÃ´m":7233,"Ed":7234,"ĠBÃŃblia":7235,"Ġ978":7236,"ilton":7237,"Ġessencial":7238,"Ã´nimos":7239,"ty":7240,"Ġaldeia":7241,"Ġdeleg":7242,"ĠMÃ¡rio":7243,"Ġ48":7244,"Ġjaponesa":7245,"Ġmicro":7246,"ali":7247,"ĠprincÃŃpios":7248,"aw":7249,"Ġobject":7250,"Ġconsol":7251,"Ġreligiosa":7252,"ĠInteg":7253,"pla":7254,"Ġcapela":7255,"ĠReis":7256,"ĠEconomia":7257,"ÃŃsica":7258,"Ġverbo":7259,"mond":7260,"Ġcore":7261,"ĠcolocaÃ§Ã£o":7262,"Ġtemplo":7263,"ray":7264,"dere":7265,"ĠPrograma":7266,"ĠcÃ¡l":7267,"presa":7268,"ĠhipÃ³t":7269,"ĠKo":7270,"Ġmad":7271,"Ġcomunidades":7272,"ĠgÃ©nero":7273,"Ġpron":7274,"ĠTÃ©cn":7275,"Ġcoro":7276,"ST":7277,"Ã©culo":7278,"Ġexistentes":7279,"ĠsÃ©t":7280,"Ġtemporadas":7281,"Ġindica":7282,"Ã´mbia":7283,"ĠIlhas":7284,"rate":7285,"Ġeditores":7286,"Ġlocalidade":7287,"ĠHav":7288,"ĠperiÃ³d":7289,"62":7290,"Ġpreciso":7291,"Ġdestino":7292,"Ġpoderes":7293,"ĠEstas":7294,"ĠDiscografia":7295,"ĠAdam":7296,"ĠDeput":7297,"Ġhttps":7298,"erdo":7299,"ĠMato":7300,"ĠRub":7301,"ĠLim":7302,"ĠEstudos":7303,"ĠmilhÃ£o":7304,"sur":7305,"Ġinstrumentos":7306,"Rio":7307,"ĠLibrary":7308,"ĠSug":7309,"Ġleitura":7310,"Ġtrecho":7311,"ĠRomano":7312,"ĠpadrÃµes":7313,"Ġjan":7314,"Ġrecente":7315,"ĠcomeÃ§ar":7316,"Ġencerra":7317,"ĠMachado":7318,"ĠMaior":7319,"Ġmotivos":7320,"Ġgostaria":7321,"uminense":7322,"Ã§u":7323,"Ġpediu":7324,"ĠMarcelo":7325,"Ã©trica":7326,"core":7327,"uar":7328,"ĠresidÃªncia":7329,"Ġ400":7330,"ambigu":7331,"Ġdor":7332,"Ġrealizados":7333,"iliares":7334,"abase":7335,"ĠclÃ¡ssico":7336,"ipÃ©lago":7337,"range":7338,"ratos":7339,"ĠEns":7340,"ĠDados":7341,"vido":7342,"atural":7343,"Ġlimite":7344,"Ġentender":7345,"Ġtor":7346,"antaria":7347,"Ġsp":7348,"Ġcop":7349,"Ġcontendo":7350,"ĠÃ¡rabe":7351,"ĠVia":7352,"lad":7353,"ĠNap":7354,"icialmente":7355,"Ġcancel":7356,"ionalmente":7357,"Ġgast":7358,"Ġpermitir":7359,"NÃ£o":7360,"ĠDinamar":7361,"Ġdito":7362,"elson":7363,"ĠBeat":7364,"Ã´nicas":7365,"Ġtempestade":7366,"ĠTab":7367,"Ġterrest":7368,"oque":7369,"Ġoce":7370,"Ġ1936":7371,"ĠGabriel":7372,"Ġconhecidas":7373,"Ġequil":7374,"grÃ¡fico":7375,"ĠSpec":7376,"ertainment":7377,"ĠinvÃ©s":7378,"ĠJÃºn":7379,"ĠÃ´nibus":7380,"Ġboas":7381,"ĠXVII":7382,"ĠedifÃŃcios":7383,"Ġconsecut":7384,"thur":7385,"ĠBre":7386,"ĠCaso":7387,"ĠprÃ³prias":7388,"ati":7389,"ĠEsses":7390,"pus":7391,"tic":7392,"Ġferrovi":7393,"CC":7394,"Ġgo":7395,"Ġprincesa":7396,"ission":7397,"ĠRecife":7398,"ĠHal":7399,"Ġmestre":7400,"Ġutilizando":7401,"Ġdificuldades":7402,"Ġmostrar":7403,"ĠZel":7404,"ĠPequ":7405,"ĠinfÃ¢ncia":7406,"Ġ1934":7407,"Ġ34":7408,"Ġfatores":7409,"ĠJr":7410,"RI":7411,"alves":7412,"Ġexibido":7413,"DA":7414,"ĠUE":7415,"ĠLes":7416,"ĠBento":7417,"ĠChicago":7418,"Category":7419,"serv":7420,"ardas":7421,"ĠLuz":7422,"dez":7423,"Ġfi":7424,"Ġdesloc":7425,"Ġfrac":7426,"ĠVenezuela":7427,"Ġsuspe":7428,"ĠGirl":7429,"Ġfranceses":7430,"bilidade":7431,"abe":7432,"Ġsemelhantes":7433,"ao":7434,"Ġoriginais":7435,"ody":7436,"Ġimpacto":7437,"ĠBarros":7438,"ĠMinistro":7439,"Ġgrat":7440,"Ġeditar":7441,"Ġso":7442,"Ġreconst":7443,"ĠRodrigo":7444,"tambÃ©m":7445,"74":7446,"ju":7447,"Ġprob":7448,"ĠmÃŃnimo":7449,"Ġprofessores":7450,"ĠMedicina":7451,"ĠtrÃ¡s":7452,"Ġembarc":7453,"mor":7454,"ĠavaliaÃ§Ã£o":7455,"ĠHomem":7456,"oga":7457,"bar":7458,"dy":7459,"ĠdanÃ§a":7460,"Ġbens":7461,"Ġerros":7462,"Ġchamar":7463,"Ġchama":7464,"inÃ©":7465,"del":7466,"atu":7467,"pop":7468,"Ġcad":7469,"Wik":7470,"Ġ;":7471,"Ġcasado":7472,"Ġdocumento":7473,"83":7474,"Ġplant":7475,"Ãºl":7476,"inger":7477,"ĠLucas":7478,"ĠDatabase":7479,"ĠSecretaria":7480,"Ġfrut":7481,"egal":7482,"Ġlibert":7483,"Ġpp":7484,"adrÃ£o":7485,"roc":7486,"burgo":7487,"amengo":7488,"ĠLan":7489,"ĠSeguranÃ§a":7490,"ĠSr":7491,"Ġromana":7492,"amas":7493,"ĠpossuÃŃa":7494,"ĠPÃºblico":7495,"63":7496,"ape":7497,"ĠintroduÃ§Ã£o":7498,"ĠdoenÃ§as":7499,"Ġcandidatos":7500,"ĠFM":7501,"ĠMorte":7502,"jecto":7503,"itamente":7504,"aras":7505,"Ġexcel":7506,"ĠÂ°":7507,"ĠVice":7508,"Ġarquivo":7509,"onc":7510,"73":7511,"ĠAndre":7512,"tac":7513,"Ðº":7514,"reta":7515,"Ġ1937":7516,"Ġroub":7517,"ĠgraÃ§as":7518,"Ġsexta":7519,"ĠOriental":7520,"Ã©rico":7521,"ĠLivro":7522,"Hist":7523,"ĠlocalizaÃ§Ã£o":7524,"Ġaeroporto":7525,"71":7526,"iÃ³n":7527,"ĠWat":7528,"ĠMendes":7529,"icam":7530,"ĠOriente":7531,"Substantivo":7532,"ĠcontÃŃn":7533,"2015":7534,"Ġrepresentando":7535,"Ġsituado":7536,"Ġ1933":7537,"Ġbater":7538,"Ġign":7539,"Ġpul":7540,"idez":7541,"1999":7542,"anÃ§o":7543,"Ġfr":7544,"doeste":7545,"Ġoferece":7546,"Ġsignificado":7547,"ĠSk":7548,"Ġeuropeu":7549,"ĠCompany":7550,"Ġ1932":7551,"rÃ©s":7552,"ĠsecretÃ¡rio":7553,"Ãºltip":7554,"ĠBraga":7555,"Ġ1949":7556,"EI":7557,"ations":7558,"NU":7559,"ĠJones":7560,"Ġvaz":7561,"lie":7562,"orit":7563,"ĠinvasÃ£o":7564,"Ġbizant":7565,"Ġtivesse":7566,"ĠPs":7567,"ouro":7568,"elhas":7569,"mentos":7570,"ĠSupre":7571,"Ġmilhares":7572,"81":7573,"inf":7574,"rista":7575,"wan":7576,"Ġpoucas":7577,"Ġincent":7578,"Ġtomou":7579,"icionÃ¡rio":7580,"Ġindicado":7581,"futebol":7582,"ush":7583,"Ã©lgica":7584,"Ġtorre":7585,"mont":7586,"ĠmanhÃ£":7587,"ĠocupaÃ§Ã£o":7588,"ĠAires":7589,"ĠApar":7590,"ĠÅ":7591,"ET":7592,"ĠVista":7593,"iform":7594,"ĠaviÃ£o":7595,"ĠÃ³rgÃ£os":7596,"Ġoportunidade":7597,"Ġrever":7598,"Ġtela":7599,"ĠKat":7600,"%,":7601,"Ġox":7602,"Ġpensamento":7603,"82":7604,"ilhas":7605,"Ġpessoais":7606,"ĠLanÃ§":7607,"Ġverdadeiro":7608,"Ġsemif":7609,"61":7610,"ĠOx":7611,"Ġbreve":7612,"ĠÃ¢mbito":7613,"Sh":7614,"Ã³cia":7615,"ĠÃģl":7616,"Ġponte":7617,"ĠinterpretaÃ§Ã£o":7618,"ĠTar":7619,"Ġestabeleceu":7620,"Ag":7621,"Ġpeg":7622,"ĠGreen":7623,"ĠpossÃŃveis":7624,"Ġpredefin":7625,"ower":7626,"Ġacum":7627,"ĠAtlÃ¢ntico":7628,"Ġseguido":7629,"Ġorganizado":7630,"Ġeleg":7631,"organ":7632,"cebispo":7633,"Ġdestas":7634,"ropolitana":7635,"ĠAli":7636,"Ġintelect":7637,"ĠindÃŃgenas":7638,"arÃ£o":7639,"Ġguarda":7640,"Ġregistros":7641,"ĠMcC":7642,"ĠSerg":7643,"ieta":7644,"Ġfundou":7645,"triz":7646,"Ġatmos":7647,"ĠMaran":7648,"Ġtransport":7649,"ĠligaÃ§Ãµes":7650,"Ġocorrer":7651,"idro":7652,"ĠBR":7653,"Ġsubt":7654,"Ġviveu":7655,"ĠlÃŃqu":7656,"oft":7657,"Ã¡culo":7658,"Ġaustral":7659,"antos":7660,"ĠPelo":7661,"net":7662,"ĠVide":7663,"ĠProt":7664,"ĠUrb":7665,"ĠcidadÃ£os":7666,"ĠGonÃ§alves":7667,":\"":7668,"ĠCria":7669,"ĠRevista":7670,"Ġdura":7671,"Ġcren":7672,"Ġartilh":7673,"Ġautoria":7674,"ĠJÃºnior":7675,"ĠprÃ³ximos":7676,"Ġeuropeus":7677,"ĠCiÃªncia":7678,"ĠResultados":7679,"ĠIns":7680,"ĠmÃºsico":7681,"Ġseres":7682,"ĠEdward":7683,"Campeonato":7684,"Ġcard":7685,"Ġsovi":7686,"ĠinstalaÃ§Ã£o":7687,"Ver":7688,"Ġbis":7689,"ĠWol":7690,"Ġcarros":7691,"Ġmargem":7692,"ĠsatÃ©lite":7693,"Ġaberta":7694,"Ġbor":7695,"Ġterreno":7696,"Ġdisputada":7697,"Ġcompartilh":7698,"ĠOeste":7699,"ĠBow":7700,"Ġvisita":7701,"ĠGeorg":7702,"emÃ¡tica":7703,"amo":7704,"Ġpista":7705,"ourn":7706,"69":7707,"Ġpast":7708,"Ġestran":7709,"ĠFonte":7710,"taram":7711,"ĠBook":7712,"ĠindivÃŃduo":7713,"ĠBorg":7714,"usto":7715,"Ġpele":7716,"ĠIB":7717,"ku":7718,"Ã³gico":7719,"ĠagrÃŃc":7720,"ĠcÃ¢m":7721,"ĠJon":7722,"Ġtrabalhando":7723,"ances":7724,"ĠAdministraÃ§Ã£o":7725,"Ġpion":7726,"oli":7727,"ĠreduÃ§Ã£o":7728,"wiki":7729,"grafias":7730,"Ã©lia":7731,"ĠFun":7732,"ocar":7733,"ĠDemocrÃ¡":7734,"ragÃ£o":7735,"Ġdefender":7736,"Ġposterior":7737,"Ġamericanos":7738,"ĠBell":7739,"Ãºst":7740,"Ġprefeitura":7741,"Ġhe":7742,"ĠcrÃ©d":7743,"ĠGio":7744,"ĠadaptaÃ§Ã£o":7745,"ĠFÃ³rmula":7746,"ĠmuÃ§ul":7747,"Ġinterna":7748,"ĠCarolina":7749,"ĠMargar":7750,"Ġfiguras":7751,".).":7752,"Ã¡ce":7753,"Ġestabelecer":7754,"oclipe":7755,"itter":7756,"Ġanc":7757,"Ġdoze":7758,"Ġinfantil":7759,"ĠCuritiba":7760,"ĠMedalha":7761,"EP":7762,"ĠColle":7763,"ĠVasco":7764,"lan":7765,"Ġcoop":7766,"Ġromanos":7767,"lei":7768,"ĠTy":7769,"Ġhistoriador":7770,"Man":7771,"%)":7772,"uch":7773,"ĠdomÃ©st":7774,"cin":7775,"bat":7776,"pecto":7777,"ĠEssas":7778,"zy":7779,"ĠColÃ´mbia":7780,"ulou":7781,"ĠGrosso":7782,"Ġvolunt":7783,"Ġ1935":7784,"ises":7785,"Ġcorrig":7786,"Ġjornais":7787,"culos":7788,"ĠMovimento":7789,"ĠprÃ¡ticas":7790,"Ġeng":7791,"Ġaves":7792,"peonatos":7793,"Ġespalh":7794,"Ġespacial":7795,"IV":7796,"?\"":7797,"uva":7798,"Äĩ":7799,"Ã³prio":7800,"ĠsÃ©ries":7801,"Ãºcar":7802,"Ġresg":7803,"Ãºncia":7804,"ĠmantÃ©m":7805,"ĠeconÃ´mico":7806,"Ġlonge":7807,"Ġund":7808,"emburgo":7809,"Ġservir":7810,"Ġeliminar":7811,"Ġsingular":7812,"Ġquiser":7813,"Ġpretend":7814,"ĠMost":7815,"ĠVolta":7816,"ĠJeff":7817,"ĠartÃŃstica":7818,"can":7819,"Ġentidade":7820,"retanha":7821,"ĠPolÃŃtica":7822,"Ġapaix":7823,"ĠFeminino":7824,"Ġcanad":7825,"ietn":7826,"ÃŃtico":7827,"ĠEngenharia":7828,"quesa":7829,"olh":7830,"ĠFut":7831,"Ġconsumo":7832,"ĠaÃ§":7833,"Ġramo":7834,"ĠfÃ©":7835,"inthians":7836,"Ġpasso":7837,"ÃŃncias":7838,"Ã©ticas":7839,"ĠBÃ©lgica":7840,"Ġagricultura":7841,"sta":7842,"ĠShe":7843,"Ġcaminh":7844,"Ġdescrito":7845,"ĠHung":7846,"ĠdiferenÃ§as":7847,"well":7848,"ĠSoares":7849,"Ġserve":7850,"ĠTexas":7851,"Ġconvidado":7852,"box":7853,"Ġpertence":7854,"kes":7855,"ĠLink":7856,"ĠEstrada":7857,"icia":7858,"izaram":7859,"Ġoit":7860,"Ġholand":7861,"Ġgarantir":7862,"Ġbloqueio":7863,"ĠTerceira":7864,"Ġrecentes":7865,"Ġencontrou":7866,"ĠPortal":7867,"ĠcrÃŃtico":7868,"ĠInformation":7869,"ĠHip":7870,"ĠBart":7871,"Ġalvo":7872,"Ġespanhola":7873,"Ġdial":7874,"Ġcoleg":7875,"Ġiniciativa":7876,"Ġefic":7877,"Ġresponsabilidade":7878,"ategoria":7879,"Ġpan":7880,"atÃ³rias":7881,"Ġcabo":7882,"ibe":7883,"ĠEsporte":7884,"uth":7885,"Ġquadrinhos":7886,"cal":7887,"stem":7888,"Ġmediev":7889,"________":7890,"iritual":7891,"ĠSÃ©rgio":7892,"Ġuniverso":7893,"ricos":7894,"ĠAos":7895,"ĠChris":7896,"ĠDinamarca":7897,"ĠFort":7898,"ĠTen":7899,"ĠcÃ¢mara":7900,"Ġproxim":7901,"ĠClassificaÃ§Ã£o":7902,"Ãªme":7903,"ĠMunicÃŃp":7904,"Ġinteresses":7905,"ĠaudiÃªncia":7906,"Ġatletas":7907,"bita":7908,"ĠWalter":7909,"Ġvin":7910,"Ã³grafo":7911,"Ġperspect":7912,"Ġfamosa":7913,"ĠgÃªneros":7914,"ĠopÃ§Ã£o":7915,"ĠresponsÃ¡veis":7916,"ĠServ":7917,"Ġingress":7918,"Ã³so":7919,"Ġcapa":7920,"Ġeg":7921,"ĠUr":7922,"Ġescravos":7923,"ĠTan":7924,"ĠSegu":7925,"Ġpena":7926,"Ġarma":7927,"Ġautora":7928,"Ġcombust":7929,"Ġpermitindo":7930,"Ġtraduzido":7931,"Ġabra":7932,"ĠBaixos":7933,"adeia":7934,"ady":7935,"Ġpapa":7936,"Ġfestival":7937,"Ġlimites":7938,"ĠjustiÃ§a":7939,"Ġvive":7940,"Ð»":7941,"ĠAlm":7942,"Ġdanos":7943,"ĠreaÃ§Ã£o":7944,"ario":7945,"ĠWiki":7946,"Ġbairros":7947,"ello":7948,"Ġdenominado":7949,"Ġvaga":7950,"Ġcoluna":7951,"Ġconselho":7952,"Ġsenador":7953,"ĠRocha":7954,"idi":7955,"Ġconect":7956,"Ġentrev":7957,"ĠâĢł":7958,"Ġta":7959,"Bill":7960,"ĠGoogle":7961,"alt":7962,"ulto":7963,"ĠProfessor":7964,"ĠFox":7965,"Ġalfab":7966,"Ġcav":7967,"Ġintegrantes":7968,"ropri":7969,"Ġmoral":7970,"ĠpraÃ§a":7971,"ĠPoder":7972,"rin":7973,"Ġmodern":7974,"ĠSteph":7975,"Ġimpress":7976,"Ġrepresentante":7977,"arquia":7978,"ĠBruno":7979,"emitÃ©rio":7980,"Ã³quia":7981,"Ġdisponibil":7982,"ĠmÃ¡xima":7983,"Ãªx":7984,"rimÃ³nio":7985,"Ġcomemora":7986,"ĠDefesa":7987,"Ġigrejas":7988,",#":7989,"eibol":7990,"Ø§":7991,"ĠAÃ©rea":7992,"ĠPinto":7993,"Ġpeda":7994,"ĠgalÃ¡xia":7995,"Ġantec":7996,"randa":7997,"ĠPortanto":7998,"ĠNick":7999,"ĠcÃ´n":8000,"Ġpredomin":8001,"Ġchef":8002,"ĠcomentÃ¡rio":8003,"Ġincluir":8004,"Ġhumor":8005,"ĠgÃ¡s":8006,"ĠartÃŃstico":8007,"revendo":8008,"Ġbrig":8009,"ĠIMD":8010,"oros":8011,"Ġcompil":8012,"Ã¢ng":8013,"berto":8014,"ĠTorre":8015,"ĠFrederico":8016,"Ġuns":8017,"ĠTimes":8018,"Ġpermitiu":8019,"heim":8020,"Ã§amb":8021,"ĠSta":8022,"ĠFlamengo":8023,"Ġnotas":8024,"Ġlocalizados":8025,"ĠÃįnd":8026,"not":8027,"Ġassumir":8028,"Ġsemi":8029,"now":8030,"Ġultrap":8031,"ĠGoiÃ¡s":8032,"aixÃ£o":8033,"urus":8034,"Ġamplamente":8035,"ĠAssocia":8036,"Ġdebate":8037,"ĠChec":8038,"Ã³rica":8039,"Ġfluxo":8040,"Ġneut":8041,"Ġmarcado":8042,"ĠVill":8043,"hr":8044,"Ġec":8045,"ĠDiretor":8046,"uca":8047,"Ġassinatura":8048,"ĠDra":8049,"ĠParaguai":8050,"ĠFernandes":8051,"ĠdÃºvida":8052,"Ġfuncionamento":8053,"Ġinvad":8054,"ĠexploraÃ§Ã£o":8055,"Ġfolhas":8056,"Ġcoz":8057,"Ġsai":8058,"mino":8059,"Ġmedalhas":8060,"Ġconcord":8061,"ĠcristÃ£os":8062,"ĠCorinthians":8063,"ĠsÃŃtio":8064,"iri":8065,"vedo":8066,"ionado":8067,"mail":8068,"ĠGaleria":8069,"Ġescritos":8070,"Ġfloresta":8071,"erante":8072,"ĠCollege":8073,"Ġformando":8074,"ĠUruguai":8075,"Ġgaro":8076,"gada":8077,"ĠCho":8078,"Ġmoradores":8079,"Ġrenda":8080,"Ġpiano":8081,"Ġmest":8082,"ridge":8083,"estos":8084,"Ġconfund":8085,"ĠvÃŃtimas":8086,"Ġrelacionadas":8087,"\"\"":8088,"ĠmÃ¡quina":8089,"ĠIrm":8090,"Ġimperial":8091,"ĠTrin":8092,"Ġindividuais":8093,"MG":8094,"Ġajudou":8095,"vora":8096,"ni":8097,"utas":8098,"Ġformal":8099,"Ġfantas":8100,"uÃ¡ria":8101,"rud":8102,"Ġonda":8103,"Ġlong":8104,"ĠSociet":8105,"Ġexperiment":8106,"IL":8107,"Ġreper":8108,"Ġcontudo":8109,"ĠWay":8110,"ĠhistÃ³ricos":8111,"fim":8112,"Ġrural":8113,"ĠelÃ©trica":8114,"Ġfacilmente":8115,"greg":8116,"ĠPolÃ´nia":8117,"Ġalimentos":8118,"Ġagrad":8119,"ED":8120,"Ġconex":8121,"oy":8122,"futebolista":8123,"Ġfatos":8124,"inete":8125,"izador":8126,"gueira":8127,"Ã¼r":8128,"postos":8129,"ĠIra":8130,"Ġhosp":8131,"Ġaeronave":8132,"ĠMelo":8133,"Ġutiliza":8134,"ĠStan":8135,"ĠEuropeu":8136,"ĠQuanto":8137,"use":8138,"ĠVers":8139,"ĠRevol":8140,"Ġparada":8141,"ĠmÃºltip":8142,"Ġdireta":8143,"restling":8144,"Ġcump":8145,"Ġaulas":8146,"Ġdescreveu":8147,"ĠaprovaÃ§Ã£o":8148,"erm":8149,"ĠNordeste":8150,"äº":8151,"Ã³leo":8152,"Ġconflitos":8153,"ĠEntertainment":8154,"Ġnordeste":8155,"ĠTay":8156,"iscal":8157,"Ġlados":8158,"Ġpraia":8159,"kins":8160,"ĠÃŃ":8161,"Ġengenharia":8162,"sey":8163,"ĠCorn":8164,"Ã³tico":8165,"Ġhonra":8166,"Ġigualmente":8167,"ĠPri":8168,"esi":8169,"ĠApresent":8170,"ĠWW":8171,"Ġpossam":8172,"Ġdiscos":8173,"ĠOpen":8174,"Ġtimes":8175,"ĠIN":8176,"ĠdanÃ§":8177,"ĠSum":8178,"ĠdenominaÃ§Ã£o":8179,"Ġsud":8180,"abeth":8181,"ativamente":8182,"ĠficÃ§Ã£o":8183,"Ġeconom":8184,"ĠSÃ¡":8185,"ÃŃam":8186,"ĠAgora":8187,"Ġrepresentantes":8188,"ĠNews":8189,"Ġultrapass":8190,"'t":8191,"Ġpri":8192,"Ġsatisf":8193,"Ġlinks":8194,"ĠVII":8195,"Ġ05":8196,"Ġdiferenc":8197,"Ġseguindo":8198,"ĠtÃ³p":8199,"ĠaniversÃ¡rio":8200,"Ġrevelou":8201,"Ġurbana":8202,"ery":8203,"ĠMÃ©d":8204,"1998":8205,"Ġferramentas":8206,"ĠinÃ©d":8207,"edentes":8208,"Ġdecreto":8209,"Ġclasses":8210,"Ġfaleceu":8211,"Ġje":8212,"ology":8213,"inadas":8214,"Ġcivis":8215,"Ġgravado":8216,"Ġresist":8217,"Ġrevistas":8218,"Ġadministrador":8219,"ĠHouse":8220,"ips":8221,"Ġilum":8222,"ĠUlt":8223,"ĠLic":8224,"ĠArthur":8225,"Ã§amento":8226,"elaÃ§Ã£o":8227,"Ġcomponentes":8228,"2016":8229,"ĠJoe":8230,"ĠHow":8231,"elly":8232,"Ġgig":8233,"ĠDomin":8234,"bil":8235,"Ġdesemb":8236,"Ġobst":8237,"ĠPrefeitura":8238,"Ġequivalente":8239,"Col":8240,"ĠpÃ´":8241,"Ġvindo":8242,"ĠAndrade":8243,"Ã³tica":8244,"Ġexat":8245,"ĠHab":8246,"Ġend":8247,"Ġfamiliar":8248,"Ġcontinente":8249,"Ġmarcada":8250,"Ġbranca":8251,"ĠPerfil":8252,"Ġcobertura":8253,"ĠCorte":8254,"Ġimposs":8255,"itage":8256,"Ġcartas":8257,"ĠpromoÃ§Ã£o":8258,"htm":8259,"ĠTaxonom":8260,"Ġatores":8261,"Ġinfra":8262,"Ġvc":8263,"Ġenviado":8264,"ĠEstende":8265,"Ġexplos":8266,"ĠRainha":8267,"Ġperf":8268,"ĠÃ¡rvores":8269,"Ġtrem":8270,"Te":8271,"Ġusou":8272,"ĠalcanÃ§ar":8273,"Ġmoderno":8274,"Ġcolocou":8275,"ĠcomentÃ¡rios":8276,"Ġcatal":8277,"ĠNelson":8278,"ĠKn":8279,"Ġtropicais":8280,"Ġexclusivamente":8281,"esco":8282,"ĠBad":8283,"Ġlav":8284,"Ġ39":8285,"letismo":8286,"ĠUp":8287,"ĠGrav":8288,"quet":8289,"Ġbola":8290,"Ġgreg":8291,"face":8292,"Ġusam":8293,"Ġpaulista":8294,"ason":8295,"Ġinterval":8296,"Ġfeminina":8297,"ĠGot":8298,"Ġseguiu":8299,"Ġpartidos":8300,"Ġ*":8301,"ĠCampeÃµes":8302,"etria":8303,"Port":8304,"Ġcaiu":8305,"ĠDal":8306,"mais":8307,"fund":8308,"Ġobjetivos":8309,"Ġchave":8310,"ĠVel":8311,"Ġmortes":8312,"Ġdiscurso":8313,"Ġreflet":8314,"ĠFoot":8315,"ĠpapÃ©is":8316,"ĠLÃº":8317,"Ġsinais":8318,"ĠList":8319,"ll":8320,"Ġartic":8321,"Ġreconhecido":8322,"Ġproteger":8323,"ĠOne":8324,"Ġdividido":8325,"ĠWilson":8326,"pto":8327,"Å«":8328,"ivais":8329,"Ġconsag":8330,"ĠrazÃµes":8331,"Ġdefinido":8332,"ĠTurquia":8333,"Ġtreinamento":8334,"Ġpodia":8335,"Ġelevado":8336,"ĠPT":8337,"Ġdinastia":8338,"ĠRecepÃ§Ã£o":8339,"RS":8340,"ĠTime":8341,"ĠOk":8342,"ĠEncont":8343,"Ab":8344,"ĠZona":8345,"Ġdesejo":8346,"Cont":8347,"Ġcerc":8348,"eo":8349,"atina":8350,"Ġrac":8351,"Ġfoco":8352,"ĠEvang":8353,"ÏĤ":8354,"Ġestiver":8355,"ĠquÃŃmica":8356,"ĠFluminense":8357,"Ġpromovido":8358,"ines":8359,"ĠpartÃŃc":8360,"rilha":8361,"Ġ1929":8362,"ĠCapitÃ£o":8363,"ĠTam":8364,"Ġ1910":8365,"ĠGame":8366,"ĠEscÃ³cia":8367,"aire":8368,"Ġagreg":8369,"ĠnecessÃ¡ria":8370,"ĠsituaÃ§Ãµes":8371,"Ġaeronaves":8372,"Este":8373,"jar":8374,"Ġpod":8375,"ĠGonz":8376,"hann":8377,"Ġ1918":8378,"Ġlabora":8379,"ander":8380,"ĠVieira":8381,"Ġtonel":8382,"Ġexceto":8383,"Ġacredita":8384,"ĠconclusÃ£o":8385,"Ġvence":8386,"ĠOrto":8387,"ĠLÃ¡":8388,"Ġnumeros":8389,"Ġproduziu":8390,"ussÃµes":8391,"Ġinaugurado":8392,"Ġjuda":8393,"ĠAnos":8394,"unta":8395,"ĠindicaÃ§Ãµes":8396,"Ġjuntou":8397,"Ġformam":8398,"ĠpresidÃªncia":8399,"Ġtelenov":8400,"Ġresolver":8401,"ose":8402,"Ġtentando":8403,"Ġexterna":8404,"500":8405,"ĠKong":8406,"Ġcorpos":8407,"ĠlegislaÃ§Ã£o":8408,"Ġaquela":8409,"ĠConfede":8410,"tores":8411,"ĠPens":8412,"ĠRoyal":8413,"ped":8414,"Ġinsetos":8415,"icismo":8416,"Ġcriando":8417,"ĠPaula":8418,"Ġ120":8419,"ĠMedia":8420,"ĠGrand":8421,"ĠespÃŃrito":8422,"Ġduque":8423,"ĠTratado":8424,"Ġestrangeiros":8425,"uega":8426,"ĠBab":8427,"ĠPÃºblica":8428,"omen":8429,"âĢľ":8430,"Ġparlam":8431,"ĠBarbosa":8432,"Para":8433,"Ã¡ut":8434,"ĠWhite":8435,"ĠfilÃ³so":8436,"Ġdenominada":8437,"lywood":8438,"bi":8439,"Ġordens":8440,"Ġcurto":8441,"ĠtransferÃªncia":8442,"ĠesforÃ§os":8443,"urais":8444,"ĠWilliams":8445,"ĠNorth":8446,"Ġacha":8447,"ÃŃfer":8448,"Ġpersonalidade":8449,"Ġflorestas":8450,"ilia":8451,"Ġmomentos":8452,"Ġmedicina":8453,"Ã³nica":8454,"FL":8455,"ĠCra":8456,"ĠHeritage":8457,"Ġmostrando":8458,"fÃ©u":8459,"onna":8460,"Ġvs":8461,"ken":8462,"plan":8463,"Ġvendeu":8464,"ĠCÃ³digo":8465,"ĠLong":8466,"add":8467,"ĠesforÃ§o":8468,"US":8469,"ĠSendo":8470,"ĠmÃºsicos":8471,"rano":8472,"ĠcomparaÃ§Ã£o":8473,"Ġcarnaval":8474,"Ġpobre":8475,"ementar":8476,"phy":8477,"Ġbiol":8478,"ĠImperial":8479,"Bot":8480,"Ġexibida":8481,"americanos":8482,"ĠUniversal":8483,"Ġorganizada":8484,"Ġmostrou":8485,"ĠIMDb":8486,"Ġparadas":8487,"ĠHigh":8488,"AT":8489,"Ġdistritos":8490,"ĠconcentraÃ§Ã£o":8491,"ambiguaÃ§Ã£o":8492,"Ġassociado":8493,"etrÃ³leo":8494,"key":8495,"acos":8496,"Ġinterrom":8497,"ĠReceb":8498,"doso":8499,"ted":8500,"Ġendere":8501,"ecidas":8502,"Ġindo":8503,"ĠArquit":8504,"Ġimigrantes":8505,"entor":8506,"ĠanimaÃ§Ã£o":8507,"ĠausÃªncia":8508,"Å¡":8509,"portivo":8510,"ister":8511,"Ġcron":8512,"uga":8513,"Ġatuar":8514,"Ġverdadeira":8515,"ĠCos":8516,"Ġcrimes":8517,"mi":8518,"ĠCaracterÃŃsticas":8519,"Ġmoviment":8520,"Ġvendido":8521,"DB":8522,"ĠÃ©t":8523,"ĠlÃ³gica":8524,"ĠNessa":8525,"undiais":8526,"Ġ42":8527,"Ġmatriz":8528,"ĠAk":8529,"Ġcanais":8530,"ĠespaÃ§os":8531,"ĠTeix":8532,"ĠFranco":8533,"ĠRafael":8534,"Ġline":8535,"Ġconceitos":8536,"idal":8537,"utor":8538,"ĠCPI":8539,"Ġagente":8540,"ĠhorÃ¡rio":8541,"ĠuniÃ£o":8542,"ĠChristian":8543,"ĠSong":8544,"Ġdiagn":8545,"ĠGuarda":8546,"soc":8547,"apor":8548,"argas":8549,"imedia":8550,"Ġcentros":8551,"Ġpedir":8552,"Ġescultura":8553,"ĠQuem":8554,"Ġrob":8555,"Co":8556,"Im":8557,"etano":8558,"ĠdescriÃ§Ã£o":8559,"Ġu":8560,"Ġdescreve":8561,"ces":8562,"ĠEug":8563,"ĠOff":8564,"ĠJov":8565,"Ġretirada":8566,"quad":8567,"Ġnaquela":8568,"ĠincÃªn":8569,"ĠTeresa":8570,"Ġassassinato":8571,"Ġpred":8572,"Ġdubl":8573,"Ġclassificado":8574,"arreg":8575,"ĠcafÃ©":8576,"Ġproporcion":8577,"ĠParÃ¡":8578,"ĠCanal":8579,"Ã¢nio":8580,"Ġ1917":8581,"Ġpossivelmente":8582,"back":8583,"ĠSouth":8584,"nch":8585,"fogo":8586,"idata":8587,"Ã¡vio":8588,"Ã´mica":8589,"Ġcontratado":8590,"Îµ":8591,"ĠveÃŃculo":8592,"ds":8593,"ici":8594,"ĠÃºltimas":8595,"Ġindependentes":8596,"Ġcompra":8597,"ĠPrÃ©mio":8598,"\",\"\",\"-":8599,"Ġvocalista":8600,"En":8601,"ĠinstalaÃ§Ãµes":8602,"itÃ¡rios":8603,"ĠCri":8604,"ĠClÃ¡":8605,"ĠMÃ©dio":8606,"ĠLew":8607,"yer":8608,"Ġrenome":8609,"Ġcalor":8610,"ĠespecÃŃfico":8611,"ĠSociety":8612,"ĠSantana":8613,"ĠToda":8614,"Ġmesmas":8615,"ĠAlbert":8616,"âĢĶ":8617,"Ġcontar":8618,"Ġposso":8619,"Ġampla":8620,"aios":8621,"ĠParlamento":8622,"Ġ1928":8623,"ĠFacil":8624,"hl":8625,"ipedia":8626,"Ġelet":8627,"ĠSus":8628,"Ġ49":8629,"ĠAmerica":8630,"Ġcrimin":8631,"Ġsimult":8632,"ĠTrabalh":8633,"ĠPacÃŃfico":8634,"ÃŃnd":8635,"ĠJÃºlio":8636,"Ġasseg":8637,"ule":8638,"Ġestend":8639,"Ġhel":8640,"ĠFazenda":8641,"Ġ1919":8642,"Ġtrav":8643,"ĠSl":8644,"ĠSev":8645,"1997":8646,"ÃŃrculo":8647,"Ġvandal":8648,"Don":8649,"cast":8650,"Ġsoz":8651,"Ġ1931":8652,"Ġdissol":8653,"ĠÃ¡cido":8654,"ĠpreÃ§o":8655,"Ġestando":8656,"ĠDescriÃ§Ã£o":8657,"yle":8658,"Ġretom":8659,"Ġcresceu":8660,"ĠPC":8661,"tim":8662,"Ġrecord":8663,"zevedo":8664,"contin":8665,"Ġexpres":8666,"Ġabre":8667,"ĠMike":8668,"ĠHit":8669,"Ġsubmet":8670,"Ġ75":8671,"Ġredire":8672,"Ġcriados":8673,"Ġavi":8674,"Ġbaix":8675,"avi":8676,"ĠStreet":8677,"ĠDio":8678,"ÃŃbrio":8679,"hu":8680,"Ġreligioso":8681,"ĠchinÃªs":8682,"Ġcumpr":8683,"ĠNoruega":8684,"adia":8685,"ĠLus":8686,"ĠKa":8687,"ĠTrabalho":8688,"ĠexceÃ§Ã£o":8689,"Ġquin":8690,"Ġ1914":8691,"Ġsobera":8692,"etti":8693,"Ġaltas":8694,"Ġteat":8695,"ĠFu":8696,"Ġprotagonista":8697,"ĠconsequÃªncia":8698,"ĠCatedral":8699,"Ġreflex":8700,"ĠdivulgaÃ§Ã£o":8701,"ĠAnim":8702,"itivas":8703,"Ġprodutores":8704,"Ġtiro":8705,"Ġapresentando":8706,"Ġfrota":8707,"ĠCapela":8708,"Ġ150":8709,"ĠManch":8710,"Ġtrouxe":8711,"Ġtan":8712,"down":8713,"prÃ³prio":8714,"Bl":8715,"Ġlojas":8716,"ĠHungria":8717,"Ġbenef":8718,"ĠPira":8719,"tex":8720,"Ġenviou":8721,"ĠHy":8722,"Ġtratar":8723,"Ġ(-":8724,"Ġpinturas":8725,"PE":8726,"estro":8727,"Ġpress":8728,"ĠcapÃŃtulo":8729,"ĠexpediÃ§Ã£o":8730,"ĠGiov":8731,"Ġcanto":8732,"ĠKu":8733,"Ġderru":8734,"ĠfÃ¡brica":8735,"Ġsacerdo":8736,"ugh":8737,"ĠTeam":8738,"Ma":8739,"elle":8740,"Ġapresentada":8741,"Ġinicia":8742,"rata":8743,"alÃ©m":8744,"ĠcerimÃ´nia":8745,"ĠApenas":8746,"Ġimpres":8747,"achada":8748,"Ġ06":8749,"Ġmam":8750,"Ġconhecer":8751,"Ġcens":8752,"Ġabsor":8753,"avera":8754,"Ġ1922":8755,"ĠRibeira":8756,"Ġsudeste":8757,"Ġcarne":8758,"Ġsignificados":8759,"edas":8760,"ĠexperiÃªncias":8761,"IM":8762,"Ġnomeadamente":8763,"ĠCuba":8764,"Ġemprego":8765,"ĠHu":8766,"ĠGuinÃ©":8767,"ĠSebastiÃ£o":8768,"Bar":8769,"rogas":8770,"AF":8771,"ĠCarioca":8772,"ĠsÃ¡b":8773,"ĠrevisÃ£o":8774,"ĠinclinaÃ§Ã£o":8775,"ĠperÃŃodos":8776,"icipais":8777,"Ġhem":8778,"Ġutilizadas":8779,"Ġexatamente":8780,"Ġjuiz":8781,"pont":8782,"ĠHong":8783,"ĠRan":8784,"ĠÃ¡rvore":8785,"./":8786,"Ã§ados":8787,"ĠCunha":8788,"ĠColl":8789,"Ġsalv":8790,"Ġexecutivo":8791,"iner":8792,"Ġresultou":8793,"Ġran":8794,"Ġhabilidades":8795,"Ġ41":8796,"ĠTecnologia":8797,"ĠcomissÃ£o":8798,"seis":8799,"Ġarco":8800,"ĠexibiÃ§Ã£o":8801,"Ġinstrumento":8802,"ĠrelatÃ³rio":8803,"Ġclientes":8804,"Ġrepublic":8805,"Ġflor":8806,"Ġdeveriam":8807,"ĠTaxonomy":8808,"teros":8809,"ĠFrancesa":8810,"Ġaspecto":8811,"ĠLaw":8812,"Ġmotiv":8813,"arl":8814,"Ġpublicados":8815,"ĠPerson":8816,"rÃ¡ficos":8817,"Ġbenefic":8818,"Ġativo":8819,"ĠCarta":8820,"ividades":8821,"VID":8822,"Ġpoesia":8823,"odia":8824,"Ġexpul":8825,"ÃŃdeos":8826,"enÃ§Ãµes":8827,"Ġchamadas":8828,"Ġhistor":8829,"ĠZelÃ¢ndia":8830,"Ġ47":8831,"Ġwiki":8832,"ĠBatista":8833,"Ġpadre":8834,"Ġabriu":8835,"ĠProvÃŃncia":8836,"SO":8837,"led":8838,"2017":8839,"ĠBuenos":8840,"Ġ1926":8841,"feminino":8842,"2022":8843,"ĠbritÃ¢nicos":8844,"andemia":8845,"Ġsamba":8846,"ĠWood":8847,"Ġq":8848,"ĠdÃ©cimo":8849,"ĠTeixeira":8850,"atual":8851,"Ġ46":8852,"ĠFormaÃ§Ã£o":8853,"Ġcomet":8854,"ĠMaranhÃ£o":8855,"izade":8856,"Ġdesempenh":8857,"Ġsobr":8858,"ĠÃŃndios":8859,"Ġprest":8860,"Ġnoroeste":8861,"Ġtoneladas":8862,"Ġ55":8863,"ĠCle":8864,"Ġlevado":8865,"Ġgerais":8866,"ĠvÃŃrus":8867,"Ġmedic":8868,"aneamente":8869,"Ġ1912":8870,"Ġesteja":8871,"visÃ£o":8872,"ĠSÃ©culo":8873,"Ġpacientes":8874,"Ġrevolucion":8875,"ĠFrancis":8876,"ĠYe":8877,"ĠComunidade":8878,"Ġenterra":8879,"Ġoriental":8880,"ĠArn":8881,"Ġenvolvendo":8882,"Ġhomenage":8883,"Ġinimigos":8884,"Billboard":8885,"Ġpolicial":8886,"ĠprovÃŃncias":8887,"opa":8888,"Ġgelo":8889,"ĠDigital":8890,"âĢĭ":8891,"ĠLive":8892,"ĠGÃªn":8893,"Ġbiblioteca":8894,"ĠorientaÃ§Ã£o":8895,"ĠrÃ©":8896,"Ġbrasileiras":8897,"arta":8898,"Ġmargens":8899,"ĠmÃ©dicos":8900,"ĠMol":8901,"estes":8902,"Ġorb":8903,"Ġfortemente":8904,"ĠdaÃŃ":8905,"unn":8906,"Ġgravou":8907,"acau":8908,"ĠBall":8909,"ĠEdiÃ§Ã£o":8910,"ericanas":8911,"ÃŃvia":8912,"ĠLeop":8913,"Ġmode":8914,"Ġrepresentar":8915,"1996":8916,"Ġplay":8917,"ĠGarcia":8918,"ĠDesign":8919,"CBI":8920,"enia":8921,"ĠTak":8922,"ĠLondon":8923,"Ãĩ":8924,"Ġopt":8925,"ĠSm":8926,"Ġlivres":8927,"Ġesporte":8928,"ffff":8929,"Ġdificuldade":8930,"UN":8931,"ĠcaÃ§a":8932,"ĠBlo":8933,"Ġfabrica":8934,"ĠWall":8935,"istos":8936,"Ãºng":8937,"clu":8938,"Ġdescendentes":8939,"ĠtransiÃ§Ã£o":8940,"Ġatos":8941,"Ġviria":8942,"Ġocorrido":8943,"ĠKenn":8944,"ĠÃģlb":8945,"Ġsudoeste":8946,"ĠAM":8947,"ĠlanÃ§a":8948,"Ġprejud":8949,"ĠSag":8950,"pero":8951,"Ġconheceu":8952,"Ġtocar":8953,"Ġassistente":8954,"ĠMuitas":8955,"Ġfura":8956,"viado":8957,"Ġpse":8958,"ĠapariÃ§Ã£o":8959,"ĠMicros":8960,"Ãªut":8961,"Ġbatal":8962,"ĠÃºtil":8963,"Ġgeom":8964,"Ġatravess":8965,"ĠintervenÃ§Ã£o":8966,"ĠnotÃ¡vel":8967,"ÃŃdeo":8968,"ĠNCBI":8969,"Ġresulta":8970,"Ġvolumes":8971,"Ġaparecer":8972,"ĠSteve":8973,"ĠsÃ³l":8974,"Ġjulgamento":8975,"ution":8976,"onÃªs":8977,"ĠMTV":8978,"ĠLÃŃb":8979,"Ġaparentemente":8980,"dire":8981,"ificadas":8982,"Ġ44":8983,"Ġperformance":8984,"ĠAssociation":8985,"Ġadmit":8986,"Ġinterpretou":8987,"ĠServiÃ§o":8988,"avier":8989,"iff":8990,"Ġenredo":8991,"ĠdiÃ¢metro":8992,"ĠKan":8993,"Ġposicion":8994,"Ġavis":8995,"junto":8996,"Ġdista":8997,"Ġsofre":8998,"Ġriqu":8999,"Ġalternativa":9000,"Esc":9001,"Ġexistente":9002,"ĠPreto":9003,"Ġdeterminada":9004,"yll":9005,"Ġinteressante":9006,"Ġactual":9007,"ĠXIII":9008,"Ġincon":9009,"ĠcristÃ£":9010,"ĠInstit":9011,"Ġsucessor":9012,"Ġzonas":9013,"ĠalteraÃ§Ã£o":9014,"ĠÃŃndice":9015,"load":9016,"Ġportas":9017,"Ġreserva":9018,"Ġbusc":9019,".;":9020,"ext":9021,"ĠIsland":9022,"Ġ1924":9023,"ĠConceiÃ§Ã£o":9024,"ĠFacility":9025,"etal":9026,"ebook":9027,"Î·":9028,"PR":9029,"Ġplural":9030,"ĠJohnson":9031,"Ġcadeia":9032,"ĠJord":9033,"Ġrestantes":9034,"Ġ09":9035,"Ġcrescente":9036,"ĠInicialmente":9037,"ĠBernardo":9038,"Ġnormas":9039,"Ġgrega":9040,"unst":9041,"Ã©ricas":9042,"ĠUEFA":9043,"AB":9044,"sel":9045,"ĠCass":9046,"unh":9047,"ĠgravaÃ§Ãµes":9048,"ĠeconÃ³m":9049,"Ġeleitos":9050,"ĠGuer":9051,"Ġaltamente":9052,"Ġbloco":9053,"Ġderrotou":9054,"Ġencontradas":9055,"anni":9056,"ĠnaÃ§Ã£o":9057,"upi":9058,"Ġprofessora":9059,"Ġple":9060,"Ġpreto":9061,"ĠlanÃ§ar":9062,"ĠLivre":9063,"ĠcientÃŃfico":9064,"ĠObserv":9065,"ĠNome":9066,"arque":9067,"ĠFelipe":9068,"ĠCup":9069,"ĠmissÃµes":9070,"Ã¡pol":9071,"Ġ52":9072,"Ġcarb":9073,"Ġsorte":9074,"Ġrequis":9075,"Ġ43":9076,"Ġarquiteto":9077,"ĠNapole":9078,"ĠFerra":9079,"Ġacel":9080,"Ġcapac":9081,"Ġaviso":9082,"itivamente":9083,"jÃ£o":9084,"Ġconfront":9085,"Ġcho":9086,"ĠGod":9087,"Ġestrel":9088,"ĠDecreto":9089,"Sa":9090,"tua":9091,"ÃŃv":9092,"Ġevang":9093,"Ġfabric":9094,"ĠMoscou":9095,"ĠTaylor":9096,"dent":9097,"Ġguitarrista":9098,"reiras":9099,"aral":9100,"Ġtomada":9101,"ĠHay":9102,"Ġlevaram":9103,"Ġambiental":9104,"Ġdefinir":9105,"egas":9106,"ĠUFC":9107,"ãĢ":9108,"Geral":9109,"ĠEric":9110,"ĠQuad":9111,"Ġespiritual":9112,"ĠSun":9113,"Ġroupas":9114,"Ġ1927":9115,"ĠPierre":9116,"Ġface":9117,"Ġconfer":9118,"Ġfunciona":9119,"Ġreceberam":9120,"ĠaplicaÃ§Ãµes":9121,"Ãµem":9122,"Ġrestante":9123,"ĠParaÃŃba":9124,"Ġdecide":9125,"Ġdescobriu":9126,"ĠSor":9127,"ĠMate":9128,"Ġderrotado":9129,"Ġadultos":9130,"Ġconseguiram":9131,"olar":9132,"Ġofens":9133,"Ġbases":9134,"ĠCy":9135,"apt":9136,"Ġespet":9137,"Ġreferir":9138,"inaÃ§Ãµes":9139,"Ã³rgia":9140,"Ġdividida":9141,"ĠraÃ§a":9142,"Ġocorrem":9143,"ĠEnsino":9144,"Ph":9145,"Ã«":9146,"Ġjo":9147,"Ġrig":9148,"Ġexistir":9149,"raft":9150,"mod":9151,"onder":9152,"Ġexplic":9153,"Ġsuic":9154,"Esta":9155,"ĠameaÃ§a":9156,"ertaÃ§Ã£o":9157,"ĠAlexander":9158,"Ġerrado":9159,"Ġacord":9160,"imental":9161,"Ġvideoclipe":9162,"Ġsuf":9163,"ĠUsu":9164,"essÃµes":9165,"ĠEng":9166,"ĠClubes":9167,"Ġdefinida":9168,"Ġlou":9169,"1995":9170,"Ġligado":9171,"ĠKarl":9172,"Ġtido":9173,"Ġexer":9174,"ĠresoluÃ§Ã£o":9175,"riÃ§Ãµes":9176,"Ġpopularidade":9177,"Ġcura":9178,"otas":9179,"Ġestaduais":9180,"ĠÃ³leo":9181,"Ġagentes":9182,"Ġparticiparam":9183,"ĠdocumentÃ¡rio":9184,"Ġleite":9185,"ĠâĢĺ":9186,"ĠvÃŃdeos":9187,"adi":9188,"ĠMir":9189,"Ġsaud":9190,"orrente":9191,"Ġfis":9192,"Ġmatar":9193,"ree":9194,"Ġsuperiores":9195,"Ġintegral":9196,"Ġcalc":9197,"Ġcolonial":9198,"ĠBut":9199,"Ġfotografia":9200,"ĠOriginal":9201,"ĠFilosofia":9202,"Ġmente":9203,"IT":9204,"rust":9205,"ĠclÃ¡ssica":9206,"Ġaltos":9207,"ittle":9208,"Ġæ":9209,"Ġcomputadores":9210,"Uma":9211,"ĠGost":9212,"endente":9213,"ĠDiego":9214,"Ġitens":9215,"Î¼":9216,"ĠDC":9217,"Ġmedo":9218,"Ġcostum":9219,"ĠlicenÃ§a":9220,"Ãªmica":9221,"Ġaparecem":9222,"Ġnecessidades":9223,"Ã³logos":9224,"Ġergu":9225,"fica":9226,"ĠÃģlv":9227,"rus":9228,"Ġ65":9229,"ĠTit":9230,"Ã§am":9231,"Ã´nias":9232,"Ġcerteza":9233,"Ġrecebendo":9234,"Ġesclar":9235,"Ġgrave":9236,"ĠImperador":9237,"Ġaluno":9238,"rÃ©ia":9239,"Ġbordo":9240,"ĠBarÃ£o":9241,"ĠOh":9242,"SC":9243,"itante":9244,"Ã¢nicos":9245,"Ġadicionais":9246,"ĠGet":9247,"ĠCB":9248,"Ġinstru":9249,"Ġnaz":9250,"ĠXII":9251,"Ġfirm":9252,"Ã¡culos":9253,"ĠMiranda":9254,"ĠpotÃªncia":9255,"umental":9256,"enberg":9257,"unk":9258,"diÃ§Ãµes":9259,"ĠNik":9260,"Ġarrec":9261,"ĠDam":9262,"ceae":9263,"idel":9264,"ĠJohann":9265,"ĠYoung":9266,"ĠNig":9267,"Ġposteriores":9268,"ilares":9269,"Ġcapazes":9270,"ĠPela":9271,"aza":9272,"Jos":9273,"ĠRepresent":9274,"Ġapaixon":9275,"Bretanha":9276,"Ã³lico":9277,"ĠInglÃªs":9278,"hist":9279,"Ġeventualmente":9280,"Ġinsc":9281,"Ã¢ncer":9282,"ĠFred":9283,"ĠMestre":9284,"iforme":9285,"ĠComitÃª":9286,"ĠAct":9287,"ÏĢ":9288,"ĠVat":9289,"Ġcentenas":9290,"rÃ©sc":9291,"Ġretrat":9292,"Ġdistingu":9293,"Ġdesm":9294,"ĠForÃ§as":9295,"Ġdescobre":9296,"hat":9297,"ĠJam":9298,"ĠRamos":9299,"Ġpropostas":9300,"ĠConhec":9301,"Ġexcent":9302,"RJ":9303,"ÃŃmetros":9304,"ĠÃ³rbita":9305,"Ġprobabilidade":9306,"ĠGard":9307,"rome":9308,"ĠTav":9309,"ĠVargas":9310,"Ġcamada":9311,"Ġrelacionado":9312,"Ġatras":9313,"Ġinverno":9314,"ĠCarn":9315,"Ġlateral":9316,"Ġvivem":9317,"Ġvantagem":9318,"hol":9319,"Ġnerv":9320,"Ġharm":9321,"Ġcorreto":9322,"cript":9323,"ĠEspanh":9324,"ĠpopulaÃ§Ãµes":9325,"ĠNi":9326,"metragem":9327,"ĠVin":9328,"Cor":9329,"ĠJuventude":9330,"roz":9331,"Ġabrang":9332,"Ã±a":9333,"tadas":9334,"ĠCov":9335,"ĠUF":9336,"Ġmotores":9337,"Ġdurou":9338,"asa":9339,"ulados":9340,"post":9341,"Ġfornecer":9342,"imarÃ£es":9343,"ĠMÃ©dia":9344,"ĠdecisÃµes":9345,"ĠimpÃ©rio":9346,"Ġfuncional":9347,"ĠHollywood":9348,"PT":9349,"ĠAmazonas":9350,"lot":9351,"ĠaÃ©rea":9352,"ipos":9353,"ĠBos":9354,"ĠEliz":9355,"Ġvelha":9356,"Ġreligiosas":9357,"viaÃ§Ã£o":9358,"Ġmata":9359,"ĠSci":9360,"ugar":9361,"Î»":9362,"jac":9363,"Ġdispositivos":9364,"Ã³x":9365,"feita":9366,"Ġdesenhos":9367,"Ġlargura":9368,"Ġperigos":9369,"Ġtiver":9370,"enes":9371,"Ġrecurso":9372,"ĠPouco":9373,"ĠhipÃ³tese":9374,"ĠanÃºnc":9375,"ĠvariÃ¡vel":9376,"ĠvÃŃtima":9377,"far":9378,"ĠLeste":9379,"velmente":9380,"ĠAcred":9381,"orrÃªncia":9382,"Ġdeterminar":9383,"Sal":9384,"ĠaparÃªncia":9385,"Ġsolar":9386,"ĠVar":9387,"ĠapresentaÃ§Ãµes":9388,"Ġanf":9389,"Ġ1925":9390,"Ġbeleza":9391,"Ġaprendiz":9392,"eri":9393,"ÃŃticas":9394,"Ġfases":9395,"ĠDor":9396,"here":9397,"ĠNegro":9398,"ĠinÃºmeras":9399,"ĠLiteratura":9400,"ĠVietn":9401,"Ġreligiosos":9402,"Ãªncio":9403,"Ġ64":9404,"pin":9405,"Ġmensagens":9406,"fam":9407,"ĠLula":9408,"idou":9409,"ĠconservaÃ§Ã£o":9410,"Ġloja":9411,"ĠPalmeiras":9412,"more":9413,"formas":9414,"Ġcausou":9415,"mica":9416,"ĠNam":9417,"Ġfest":9418,"Ġcorresponde":9419,"Ġbrilh":9420,"Ġpagar":9421,"Ġinaugurada":9422,"Cap":9423,"heu":9424,"ĠdeclaraÃ§Ã£o":9425,"Ġpudesse":9426,"ĠcÃ´nsul":9427,"ĠFÃ¡b":9428,"ĠcontribuiÃ§Ã£o":9429,"Ġcargos":9430,"Ġdestaca":9431,"ĠlanÃ§ados":9432,"panhas":9433,"Ġdedicado":9434,"Ġenfrentar":9435,"Ġexcentricidade":9436,"ĠEc":9437,"ĠOlimp":9438,"izadores":9439,"Ġportal":9440,"ĠConserv":9441,"Ġaceita":9442,"Ġabordagem":9443,"ĠCanÃ§Ã£o":9444,"ĠBrad":9445,"Ġpermanente":9446,"ĠTomÃ©":9447,"Ã§ambique":9448,"oston":9449,"Ġargumento":9450,"ĠOxford":9451,"Ġreiv":9452,"ĠconstelaÃ§Ã£o":9453,"ĠFis":9454,"Ġ59":9455,"ĠâĨĴ":9456,")\",":9457,"mel":9458,"Ġbaixas":9459,"Ġ08":9460,"turas":9461,"My":9462,"ifa":9463,"Ġsalas":9464,"Ġcolegas":9465,"uas":9466,"ĠLas":9467,"Ġviagens":9468,"Ġcustos":9469,"ĠDuarte":9470,"Ġtrinta":9471,"ournal":9472,"gado":9473,"Ġgosta":9474,"ĠclÃŃn":9475,"raqu":9476,"Ġcertos":9477,"ivar":9478,"Ġficam":9479,"ĠpublicaÃ§Ãµes":9480,"Ġ1911":9481,"ĠLut":9482,"ĠdiscussÃµes":9483,"essas":9484,"ĠRoss":9485,"ĠCON":9486,"rÃ³p":9487,"ĠSir":9488,"ĠMario":9489,"Ġafirmando":9490,"ganÃ§a":9491,"ĠPadre":9492,"ĠGall":9493,"Ã§ando":9494,"Ġprivil":9495,"ĠpropÃ³sito":9496,"ĠpontuaÃ§Ã£o":9497,"Ġelevada":9498,"ĠLua":9499,"ĠBase":9500,"ĠCardoso":9501,"ĠevidÃªncias":9502,"Ġ1921":9503,"ĠRelaÃ§Ãµes":9504,"2018":9505,"Ġeleitoral":9506,"Ã¢mico":9507,"irou":9508,"Ġrenunc":9509,"ravam":9510,"Ġempate":9511,"uvenil":9512,"ÃŃzes":9513,"ĠRepublic":9514,"ecom":9515,"Ġassociados":9516,"Ġ51":9517,"Ġcastelh":9518,"Ġperdendo":9519,"ocrata":9520,"pan":9521,"ĠMess":9522,"Ġpav":9523,"ĠAfric":9524,"ĠpetrÃ³leo":9525,"ĠegÃŃp":9526,"Ġencom":9527,"Ã³pteros":9528,"Ġfec":9529,"ĠPu":9530,"ÃŃnios":9531,"ourt":9532,"ĠFried":9533,"Ġneu":9534,"Ġproduzidos":9535,"Pl":9536,"illo":9537,"ĠconfianÃ§a":9538,"Ġsites":9539,"Ġnegros":9540,"ĠJerus":9541,"sexual":9542,"Ġcanadense":9543,"cept":9544,"Ġalternativas":9545,"Is":9546,"Ġaliados":9547,"Ġajust":9548,"Ġregionais":9549,"ĠLibertadores":9550,"emy":9551,"Ġdrogas":9552,"Ã´mico":9553,"ĠBBC":9554,"Ġconhece":9555,"Ġcolocada":9556,"ĠvariÃ¡veis":9557,"Ġdan":9558,"ĠtendÃªncia":9559,"ĠMano":9560,"Ġchuv":9561,"Ġabrir":9562,"Ġpain":9563,"Ġmontanhas":9564,"ĠBrig":9565,"ĠFÃŃsica":9566,"sche":9567,"ĠSÃ©":9568,"orada":9569,"ĠHolanda":9570,"ĠrevoluÃ§Ã£o":9571,"Ġ1900":9572,"Ġinteiro":9573,"Ġinfin":9574,"Ġmantendo":9575,"Ġcong":9576,"redores":9577,"Ġferramenta":9578,"ĠAud":9579,"ĠVelho":9580,"Ġdescul":9581,"ĠHistory":9582,"Ġhidrog":9583,"Ġdescobrir":9584,"Ġdisputado":9585,"ĠIll":9586,"Ġhaja":9587,"Ġandar":9588,"Ġjaponeses":9589,"Ġteriam":9590,"Per":9591,"oo":9592,"ĠNatural":9593,"Ġtermina":9594,"Ġproven":9595,"Ġoperacional":9596,"Ġrevolta":9597,"Ġidioma":9598,"Ġmapa":9599,"rob":9600,"Ġpouca":9601,"Ġradio":9602,"ĠDireitos":9603,"ĠTony":9604,"estar":9605,"Â»,":9606,"ĠBelÃ©m":9607,"Ġrecusou":9608,"chen":9609,"ban":9610,"ä¸":9611,"Ġcomprov":9612,"Ġcro":9613,"ĠTorres":9614,"ĠAbraÃ§os":9615,"Ġnotor":9616,"Tube":9617,"ĠIsa":9618,"ĠHugo":9619,"Ġdefic":9620,"ĠPio":9621,"ĠNeto":9622,"urno":9623,"Ġ07":9624,"Ġtio":9625,"elar":9626,"Ġexplicar":9627,"Ġprivada":9628,"Ġenvolve":9629,"Ġpior":9630,"ĠdÃŃ":9631,"Ġtarefa":9632,"ĠconsciÃªncia":9633,"ĠâĢĭ":9634,"ĠFrancÃªs":9635,"Ġlitoral":9636,"Ġnave":9637,"ĠGuimarÃ£es":9638,"Ġdisputar":9639,"ĠPhilip":9640,"ĠStone":9641,"ĠWikidata":9642,"ĠsessÃ£o":9643,"eman":9644,"Ġexternos":9645,"ĠInic":9646,"ĠCruzeiro":9647,"ĠdestruiÃ§Ã£o":9648,"ĠopiniÃµes":9649,"Ġnossos":9650,"Cal":9651,"Ġgosto":9652,"ĠArch":9653,"Ġconsiderar":9654,"prÃ©st":9655,"reat":9656,"ĠBem":9657,"Ġfamiliares":9658,"ĠExecut":9659,"aki":9660,"ĠConsidera":9661,"Ġfator":9662,"ĠBraz":9663,"Ġcorrespondente":9664,"Ġ1923":9665,"ĠFootball":9666,"rot":9667,"Ã¡sia":9668,"Ġcitado":9669,"Na":9670,"dica":9671,"ĠBernard":9672,"Ġmontanha":9673,"ronto":9674,"ĠFound":9675,"Ġretirar":9676,"Ġatleta":9677,"Ġembaix":9678,"ĠestratÃ©gia":9679,"Ġfasc":9680,"ĠVIII":9681,"enciamento":9682,"ĠAcho":9683,"estino":9684,"ĠBis":9685,"Ġhabilidade":9686,"ĠindicaÃ§Ã£o":9687,"ĠfÃ³rmula":9688,"Ġcertas":9689,"Ġabst":9690,"ĠBarra":9691,"ĠCapital":9692,"Ġcausar":9693,"ÃŃqu":9694,"onto":9695,"enciado":9696,"ĠHotel":9697,"Star":9698,"rana":9699,"Ġdesper":9700,"Ġuniversidades":9701,"Ġnao":9702,"ĠHarris":9703,"ĠYour":9704,"Ġescolher":9705,"ĠRadio":9706,"ĠOperaÃ§Ã£o":9707,"Ã³quio":9708,"ble":9709,"ĠMarques":9710,"Ã©us":9711,"ox":9712,"Ġprotesta":9713,"Ġmuda":9714,"ĠSamuel":9715,"Ã³gio":9716,"Ġprision":9717,"ĠconstituiÃ§Ã£o":9718,"ĠTudo":9719,"orrentes":9720,"Ġadicional":9721,"1992":9722,"ĠViena":9723,"Ġestabelecimento":9724,"ligaÃ§Ã£o":9725,"wer":9726,"idaÃ§Ã£o":9727,"sub":9728,"fos":9729,"erca":9730,"ĠPR":9731,"ĠÃ¡l":9732,"Ġemoc":9733,"ize":9734,"Ġcontam":9735,"Ġabast":9736,"Ġartific":9737,"Ġcasada":9738,"Ã´nios":9739,"Ġsexto":9740,"Pol":9741,"Ġcapit":9742,"Ġnegro":9743,"Ġlutar":9744,"Ġsupl":9745,"Ġestudante":9746,"ĠHelena":9747,"ĠdesignaÃ§Ã£o":9748,"ĠHans":9749,"rons":9750,"ĠnegÃ³cio":9751,"ĠprÃ³ximas":9752,"Ġretornar":9753,"Ġtrazer":9754,"piraÃ§Ã£o":9755,"ĠLewis":9756,"ĠVinc":9757,"Ġregress":9758,"ĠCamar":9759,"gueiro":9760,"ĠGeÃ³rgia":9761,"ĠVermelho":9762,"ĠGama":9763,"Ġmodernos":9764,"Ã³dulo":9765,"Ġfib":9766,"Ġcujos":9767,"ĠSBT":9768,"ĠPost":9769,"ivado":9770,"Ġinterno":9771,"ĠciÃªncias":9772,"And":9773,"ĠXIV":9774,"ĠestrÃ©ia":9775,"ĠagÃªncia":9776,"Ġcientistas":9777,"Ġperspectiva":9778,"Ġdetect":9779,"Ġsintomas":9780,"arias":9781,"Ġlus":9782,"Ġben":9783,"ĠSex":9784,"Ġbrinc":9785,"ĠAP":9786,"ĠFase":9787,"Ġparedes":9788,"Ġmagnitude":9789,"ĠJunior":9790,"ĠMicrosoft":9791,"Ġmarcas":9792,"ĠMoÃ§ambique":9793,"Ġsurpre":9794,"pha":9795,"ĠpredefiniÃ§Ã£o":9796,"egro":9797,"ĠDeputados":9798,"ĠdirecÃ§Ã£o":9799,"ĠdimensÃµes":9800,"Ġmedieval":9801,"ĠRelig":9802,"osh":9803,"Ġestabelecido":9804,"Ġpagamento":9805,"ĠAgÃªncia":9806,"wart":9807,"Ġcompreend":9808,"Ġnuclear":9809,"pson":9810,"itudes":9811,"ME":9812,"lfo":9813,"Ġparede":9814,"ĠBraganÃ§a":9815,"Ġcavalo":9816,"Ġpermanece":9817,"ĠGovernador":9818,"Îº":9819,"Ġpassam":9820,"Ġcircuito":9821,"atÃ©":9822,"Ġconceb":9823,"ĠYouTube":9824,"LA":9825,"Ġconter":9826,"ĠColumb":9827,"Ġmoda":9828,"Ãºjo":9829,"ĠFic":9830,"Ġfazenda":9831,"Ġconsideradas":9832,"Ġinimigo":9833,"Ãºrb":9834,"Emb":9835,"Ġcinemat":9836,"Ġoper":9837,"Ġpensar":9838,"Ã©e":9839,"ĠMÃ¡r":9840,"Ġestilos":9841,"Ġzero":9842,"ĠNetwork":9843,"Ġpeixe":9844,"Ġsubstituir":9845,"ied":9846,"Ġiniciais":9847,"rÃ©scimo":9848,"Ġprogress":9849,"Ġtera":9850,"ĠcampeÃ£":9851,"Ġderam":9852,"ĠproprietÃ¡rio":9853,"ritas":9854,"Ġguard":9855,"ĠidentificaÃ§Ã£o":9856,"ĠBranca":9857,"Ġfaculdade":9858,"Ġreferido":9859,"ĠSÃ©rvia":9860,"Ġfeliz":9861,"Ġbur":9862,"Ġetapas":9863,"ĠSÃŃria":9864,"Ġmental":9865,"ĠCord":9866,"ĠPublic":9867,"Ġfilos":9868,"Ã©rsia":9869,"rativos":9870,"ĠcirculaÃ§Ã£o":9871,"equ":9872,"espÃ©c":9873,"ilho":9874,"omos":9875,"ĠÃļlt":9876,"ĠFaixas":9877,"Ġmando":9878,"Ġirreg":9879,"Ġcelular":9880,"Ġvento":9881,"Ġcontas":9882,"Ġocorreram":9883,"ĠForte":9884,"Ġconfirmou":9885,"ĠmarÃŃt":9886,"1994":9887,"ĠfenÃ´meno":9888,"iscos":9889,"ĠLegislativa":9890,"Ġprojecto":9891,"zas":9892,"Ġfundadores":9893,"ĠvocÃªs":9894,"ĠseparaÃ§Ã£o":9895,"Ġintitulada":9896,"Ġgovernos":9897,"ĠLog":9898,"ĠFord":9899,"Ġperfil":9900,"ĠAraÃºjo":9901,"ĠKid":9902,"Ġvinc":9903,"ĠDeb":9904,"ĠrecuperaÃ§Ã£o":9905,"Ġsum":9906,"ocrat":9907,"ĠAsh":9908,"Ġculto":9909,"kh":9910,"iantes":9911,"atem":9912,"Ã³stico":9913,"ĠequilÃŃbrio":9914,"ĠMid":9915,"Ġpasse":9916,"ĠexercÃŃcio":9917,"arth":9918,"Ġcomumente":9919,"arde":9920,"ĠAj":9921,"Ġmanip":9922,"Ã³b":9923,"etaÃ§Ã£o":9924,"Nova":9925,"ĠEspera":9926,"Ã¢metros":9927,"Ġgravada":9928,"ĠSimon":9929,"New":9930,"ĠsÃŃ":9931,"iveram":9932,"Ġincap":9933,"Ġcompostos":9934,"ĠPD":9935,"Ġrebaix":9936,"ĠSecretÃ¡rio":9937,"ĠPesquisa":9938,"Ġtrama":9939,"ĠintegraÃ§Ã£o":9940,"Ġgraus":9941,"ilv":9942,"ĠCE":9943,"ĠBert":9944,"ĠmÃ¡quinas":9945,"guesias":9946,"ĠinteligÃªncia":9947,"ĠMagn":9948,"ouri":9949,"ĠJerusalÃ©m":9950,"cor":9951,"veja":9952,"Ġambient":9953,"IO":9954,"ĠNum":9955,"edy":9956,"ĠPublish":9957,"Ġtum":9958,"ĠCart":9959,"ĠClara":9960,"ĠfÃ³s":9961,"Ġrepresentou":9962,"Ġreduzir":9963,"Ġsuport":9964,"Ġargumentos":9965,"Ġdeputados":9966,"ĠcÃ©u":9967,"ebre":9968,"ĠAlt":9969,"Ġsegura":9970,"ĠBoy":9971,"Ġ=>":9972,"campeÃ£o":9973,"ĠStudios":9974,"Ġ\")":9975,"ĠNar":9976,"Ġabord":9977,"ĠLight":9978,"ĠCOVID":9979,"hip":9980,"ĠdepressÃ£o":9981,"Ġbic":9982,"cios":9983,"ĠGas":9984,"rosa":9985,"ĠIX":9986,"Ġcausas":9987,"ĠHaw":9988,"Ġreis":9989,"Ġlhes":9990,"Ġculturas":9991,"row":9992,"ÃŃlica":9993,"Ġpesquisadores":9994,"Ġaflu":9995,"ĠtransformaÃ§Ã£o":9996,"ĠCampinas":9997,"ropical":9998,"Ġmundiais":9999,"ĠTib":10000,"iformes":10001,"ĠâĢĭâĢĭ":10002,"Rev":10003,"Ġenvolvidos":10004,"Ã¡gua":10005,"Ġdesv":10006,"ĠRenato":10007,"kov":10008,"ĠTon":10009,"Ġnotoriedade":10010,"Ġproemin":10011,"Ġurbano":10012,"Ġcolocados":10013,"Ġbras":10014,"Ġconvert":10015,"fia":10016,"Ġintermed":10017,"Ġfachada":10018,"renÃ§o":10019,"Ġestaria":10020,"Ġcardeal":10021,"Ġrealiza":10022,"Ġabund":10023,"ĠGroup":10024,"ulÃ¡rio":10025,"Ġconstituem":10026,"emplos":10027,"ĠÃ©tn":10028,"ĠRuss":10029,"Ġstatus":10030,"Ġaprec":10031,"Ġdign":10032,"ĠCN":10033,"Ġpropaganda":10034,"Ġtese":10035,"ĠComunicaÃ§Ã£o":10036,"exo":10037,"DE":10038,"Ġante":10039,"ĠTai":10040,"ĠinfluÃªncias":10041,"Ġaprender":10042,"Ġestrelado":10043,"ĠCastela":10044,"Ġtelenovela":10045,"eld":10046,"Ent":10047,"ulaÃ§Ãµes":10048,"ĠEspa":10049,"ĠWikimedia":10050,"Ġdigitais":10051,"rÃ´n":10052,"ĠPav":10053,"Ġalgorit":10054,"ĠYan":10055,"Ġpeixes":10056,"ortes":10057,"ugos":10058,"ĠMuito":10059,"Ġconquistar":10060,"Ġbrancos":10061,"Ġpatroc":10062,"manda":10063,"viamente":10064,"ĠOceano":10065,"idada":10066,"Ġdesenvolvida":10067,"ĠRecebeu":10068,"ĠFez":10069,"Ġiniciar":10070,"ĠPlano":10071,"Ġdispositivo":10072,"oridade":10073,"Ġcoroa":10074,"ĠHard":10075,"ĠnotÃŃcia":10076,"ĠBelas":10077,"Ġassociada":10078,"igaÃ§Ã£o":10079,"ĠNuno":10080,"Ġextinta":10081,"ĠmolÃ©c":10082,"ĠSpe":10083,"ĠFilipinas":10084,"Ġsurge":10085,"Ġrevela":10086,"Ġenfrentou":10087,"Ġjoga":10088,"achar":10089,"log":10090,"Ġ1915":10091,"ĠInvest":10092,"Ġganha":10093,"Ġaquis":10094,"Ġhotel":10095,"ĠcombinaÃ§Ã£o":10096,"Ġritmo":10097,"identais":10098,"ĠMam":10099,"ĠcatÃ³lica":10100,"ĠvariaÃ§Ã£o":10101,"ĠCoelho":10102,"Super":10103,"cep":10104,"IP":10105,"aris":10106,"rafos":10107,"ĠBulg":10108,"Ġbi":10109,"ĠcalendÃ¡rio":10110,"Ġdirigiu":10111,"Ġrussa":10112,"ĠSystem":10113,"Ġ53":10114,"ĠKir":10115,"Ã³pio":10116,"alhÃ£es":10117,"for":10118,"play":10119,"ĠEstou":10120,"Ġrele":10121,"ĠMadonna":10122,"ĠPonta":10123,"Ġteorias":10124,"ĠAlice":10125,"ĠHero":10126,"Ġperdido":10127,"Ġimpedir":10128,"gÃ¡":10129,"Ġclaramente":10130,"ĠMapa":10131,"ĠReb":10132,"Ã³rida":10133,"ĠZÃ©":10134,"ĠCambridge":10135,"ĠnotÃ¡veis":10136,"ragon":10137,"ilhos":10138,"ĠComics":10139,"ĠPrata":10140,"Ġadquiriu":10141,"Ġcasar":10142,"ĠGostaria":10143,"ĠMeu":10144,"ĠCoop":10145,"Ġeixo":10146,"Ġentidades":10147,"ĠNicola":10148,"NO":10149,"ilde":10150,"Ġapart":10151,"Ġ54":10152,"Ġrepresentam":10153,"cent":10154,"erd":10155,"omÃ©":10156,"Ġmanusc":10157,"icon":10158,"lah":10159,"ĠProp":10160,"Ġflex":10161,"romo":10162,"ĠassistÃªncia":10163,"Ġmorta":10164,"Ġinativa":10165,"Ġ56":10166,"ĠEditor":10167,"Ġterminar":10168,"ĠcÃ¢ncer":10169,"jÃ¡":10170,"Ãºp":10171,"ĠBoston":10172,"anger":10173,"esses":10174,"ĠTraduÃ§Ãµes":10175,"Ġpovoado":10176,"Ġatmosfera":10177,"mal":10178,"ĠAzevedo":10179,"ĠBota":10180,"ĠHitler":10181,"Ãªnis":10182,"Ã¢ngulo":10183,"itÃ³rio":10184,"Ġmostram":10185,"ĠLen":10186,"Ġfornece":10187,"Ġdono":10188,"rÃ¢neo":10189,"ĠdivisÃµes":10190,"igan":10191,"ĠTob":10192,"ĠBir":10193,"ĠextinÃ§Ã£o":10194,"ĠÃģrea":10195,"Ġleve":10196,"ÃŃadas":10197,"Ġrestaura":10198,"Ġclassificou":10199,"ĠEast":10200,"cool":10201,"plas":10202,"He":10203,"iras":10204,"zar":10205,"ĠnaÃ§Ãµes":10206,"Ġmural":10207,"round":10208,"ÃŃnia":10209,"2019":10210,"itaram":10211,"ĠSof":10212,"ĠMP":10213,"ialmente":10214,"ĠDavis":10215,"Ġaceitar":10216,"Ġfranquia":10217,"Ġacervo":10218,"ĠprovÃ¡vel":10219,"Ġrecomenda":10220,"brasil":10221,"Ġreporta":10222,"ĠAtenas":10223,"Ġsucedido":10224,"ĠtÃ©cnicos":10225,"Ġeurop":10226,"Ġsubord":10227,"desambiguaÃ§Ã£o":10228,"Ġporte":10229,"Ġtecnologias":10230,"Ġconcluiu":10231,"anna":10232,"ĠemprÃ©st":10233,"ĠST":10234,"ĠBest":10235,"intendo":10236,"Ġidentificar":10237,"Ġpoliciais":10238,"ĠSupremo":10239,"ĠraÃŃzes":10240,"Ġturismo":10241,"ĠComunista":10242,"Ġestatuto":10243,"ĠRac":10244,"Ġdestacam":10245,"Ġras":10246,"ĠDO":10247,"Ġhistoriadores":10248,"ĠBrand":10249,"Ġtentativas":10250,"ĠLourenÃ§o":10251,"Ġorn":10252,"manos":10253,"Ġexplica":10254,"Ä±":10255,"ĠsubstituiÃ§Ã£o":10256,"ĠAnth":10257,"Ġonze":10258,"Ġhomos":10259,"ĠVilla":10260,"Ġ85":10261,"igi":10262,"ÃĹ":10263,"ĠComÃ©rcio":10264,"Ġorigens":10265,"ĠMand":10266,"ĠFons":10267,"Ġsimbol":10268,"Ġnele":10269,"Ġsalvar":10270,"1993":10271,"ĠIraque":10272,"Ġpandemia":10273,"ĠcompreensÃ£o":10274,"ĠCax":10275,"ĠBomb":10276,"ĠTu":10277,"Ġrecomend":10278,"idge":10279,"ĠEquador":10280,"ĠElizabeth":10281,"Ġvias":10282,"ĠBispo":10283,"ĠFantas":10284,"ĠMaia":10285,"ĠRita":10286,"ĠequaÃ§Ã£o":10287,"ĠgalÃ¡xias":10288,"Ġfoc":10289,"ĠÃ³t":10290,"Ġdoce":10291,"ĠAmericana":10292,"ĠOrch":10293,"Ã¢nicas":10294,"Can":10295,"Ġapost":10296,"Ġcolega":10297,"ĠDiocese":10298,"Ġfamosos":10299,"Ġcandidatura":10300,"Ġhumanidade":10301,"Ġconcordo":10302,"ĠespecÃŃficos":10303,"ĠNapoleÃ£o":10304,"Ġia":10305,"Ġpergunta":10306,"Ġmorrer":10307,"Ġfama":10308,"ĠeletrÃ´nico":10309,"lav":10310,"Ġcub":10311,"ĠtensÃ£o":10312,"ĠFront":10313,"Ġ1908":10314,"Ġgin":10315,"rÃ¡ficas":10316,"Ġfestas":10317,"utu":10318,"ifÃŃcio":10319,"Des":10320,"Ġfiscal":10321,"Ġbast":10322,"Ġfundos":10323,"Ġanualmente":10324,"Ġressal":10325,"ĠExiste":10326,"Ġconjuntos":10327,"ĠBak":10328,"rie":10329,"Reg":10330,"Ã³rter":10331,"ĠSeries":10332,"eli":10333,"ferm":10334,"Ġ600":10335,"FFFF":10336,"Ġ250":10337,"ĠSpecies":10338,"ĠÃªx":10339,"ĠNunes":10340,"ĠWrestling":10341,"Ġcontrolar":10342,"Ġpresos":10343,"Ġapoiar":10344,"ĠimpressÃ£o":10345,"ĠTemporada":10346,"Ġventos":10347,"ĠFacebook":10348,"Ġauxiliar":10349,"Ġdemo":10350,"Ġsig":10351,"cepÃ§Ã£o":10352,"Ġasteroides":10353,"Ġditadura":10354,"Ġacontecimentos":10355,"ĠGood":10356,"ĠGiovanni":10357,"Ġsugere":10358,"Ġpilotos":10359,"ĠaviÃµes":10360,"Ġargentino":10361,"Ġsoci":10362,"ĠBolÃŃvia":10363,"ĠCob":10364,"Ġcompar":10365,"Ġdorm":10366,"ĠBrian":10367,"ĠDil":10368,"Ġquente":10369,"eiÃ§Ãµes":10370,"ĠMoreira":10371,"ĠRoger":10372,"ĠConfederaÃ§Ã£o":10373,"inst":10374,"ĠCou":10375,"Ġanime":10376,"ĠMonteiro":10377,"elheiro":10378,"ĠescritÃ³rio":10379,"ÃŃlico":10380,"agar":10381,"ĠnomeaÃ§Ã£o":10382,"Ġmunicipais":10383,"ilÃ¢ndia":10384,"Ġapropri":10385,"Ġdepende":10386,"ĠconstituÃŃdo":10387,"Ġensin":10388,"Ġeliminado":10389,"oldo":10390,"ĠnecessÃ¡rios":10391,"agon":10392,"Ġrestos":10393,"Ġdedicada":10394,"day":10395,"inia":10396,"Ġassinado":10397,"isconde":10398,"ĠBrook":10399,"Melhor":10400,"à¸":10401,"ĠNoite":10402,"ĠBotafogo":10403,"olos":10404,"Ġarcebispo":10405,"ĠRou":10406,"ĠEsqu":10407,"oney":10408,"Ñĥ":10409,"Ġ()":10410,"Ġrelevante":10411,"ĠUsuÃ¡rio":10412,"iola":10413,"erat":10414,"Ġcompat":10415,"Ġcliente":10416,"ĠLoc":10417,"Ġencarreg":10418,"wikipedia":10419,"vid":10420,"iko":10421,"ĠhÃ¡b":10422,"ĠenciclopÃ©dia":10423,"Ġmesa":10424,"Ġdefendeu":10425,"Ġrend":10426,"Ġdesignado":10427,"Ġtirar":10428,"ĠPetro":10429,"ĠDuas":10430,"Ġaula":10431,"missÃ£o":10432,"Ãºria":10433,"ĠTelevisÃ£o":10434,"Ġmecanismo":10435,"ĠalimentaÃ§Ã£o":10436,"ĠÃ¢ng":10437,"ĠsÃŃmbolos":10438,"ĠCapit":10439,"Ġsant":10440,"Ġvamos":10441,"Pal":10442,"ĠTurismo":10443,"ĠConstantinopla":10444,"Ã³nimo":10445,"ĠFlÃ³rida":10446,"Ġpratica":10447,"ĠRobin":10448,"ĠDomingos":10449,"ĠConferÃªncia":10450,"ĠQuatro":10451,"rindo":10452,"Ġalma":10453,"ÃŃssimo":10454,"Ġinterpretar":10455,"ĠGrÃªmio":10456,"Ã©dios":10457,"ĠRick":10458,"Ġesportes":10459,"On":10460,"roco":10461,"Ġja":10462,"ificador":10463,"ĠJacob":10464,"Ġcedo":10465,"ote":10466,"Ġovos":10467,"able":10468,"Ġquadrados":10469,"Ġrevelado":10470,"Ġfogu":10471,"eig":10472,"ĠRol":10473,"rativo":10474,"umi":10475,"Ġqueim":10476,"ĠLav":10477,"Ãºlio":10478,"Ġestamos":10479,"ĠAlta":10480,"ĠMateus":10481,"Ġdoutrina":10482,"Ġextremo":10483,"Ã©mica":10484,"ches":10485,"Ġdiscutir":10486,"Ġpico":10487,"ribuiÃ§Ã£o":10488,"ĠAnderson":10489,"Ġitalianos":10490,"Ġconvite":10491,"ĠCole":10492,"ĠMuse":10493,"ĠMunicÃŃpio":10494,"Ġmoeda":10495,"Ð²":10496,"ĠAnna":10497,"gred":10498,"ĠpartÃŃculas":10499,"egan":10500,"Ġescreve":10501,"ocas":10502,"py":10503,"Ġterminal":10504,"ĠcapÃŃtulos":10505,"ĠTeve":10506,"Ġdemanda":10507,"ĠBair":10508,"ĠCarlo":10509,"Ġpede":10510,"Ã¨re":10511,"Ġprofundidade":10512,"crÃ¢nia":10513,"Ã³ide":10514,"ĠchÃ£o":10515,"ĠWP":10516,"Ġpren":10517,"glas":10518,"Ġolho":10519,"Ġsignificativa":10520,"ĠLac":10521,"Ġrecuperar":10522,"Ġ1916":10523,"Ġsitua":10524,"Mus":10525,"erada":10526,"ĠPessoa":10527,"ĠArtigo":10528,"ĠSar":10529,"copa":10530,"uge":10531,"Ġcampanhas":10532,"Ġdirecion":10533,"ĠRui":10534,"ĠChart":10535,"ĠDentre":10536,"Bo":10537,"duaÃ§Ã£o":10538,"Ġganhando":10539,"Ã©nia":10540,"ĠPad":10541,"Ġabol":10542,"ntese":10543,"ĠMagalhÃ£es":10544,"ĠAzul":10545,"Ïī":10546,"Ġgr":10547,"ĠFrance":10548,"Ã¡rqu":10549,"Ġfilhas":10550,"Ġconvidados":10551,"Ġvigor":10552,"Po":10553,"Ped":10554,"Ġsucessos":10555,"ĠAlan":10556,"ĠMeio":10557,"daÃ§Ã£o":10558,"Ġpoema":10559,"ĠNota":10560,"Ġ1890":10561,".),":10562,"ĠpatrimÃ´nio":10563,"Ġpresidencial":10564,"ĠconexÃ£o":10565,"postamente":10566,"Ġclim":10567,"elado":10568,"adoria":10569,"ĠUA":10570,"ĠPlan":10571,"MDB":10572,"Ġescritores":10573,"kan":10574,"Ġpref":10575,"Ġlatino":10576,"ĠBet":10577,"Ġamizade":10578,"ĠdescendÃªncia":10579,"1990":10580,"Ġcos":10581,"top":10582,"aya":10583,"ĠgrÃ¡fico":10584,"liv":10585,"Ġving":10586,"ĠVÃ¡rios":10587,"Ġpossuir":10588,"Ġcontribuir":10589,"tures":10590,"Ġcriadas":10591,"iant":10592,"Ġtras":10593,"Ġcriador":10594,"ĠFonseca":10595,"itÃ©":10596,"Ġondas":10597,"Ġsubsequ":10598,"ĠincluÃŃdo":10599,"ĠFilmografia":10600,"Ġagress":10601,"Ġintegrante":10602,"Ġdaqu":10603,"ĠOd":10604,"ĠCarol":10605,"Ġisl":10606,"ĠcampeÃµes":10607,"ASA":10608,"Ġfinanceira":10609,"ĠmÃ¡g":10610,"ĠCount":10611,"Ġrelatos":10612,"ĠinscriÃ§Ã£o":10613,"ĠFight":10614,"Ġquaisquer":10615,"Ġrota":10616,"Ġligada":10617,"ĠViv":10618,"govern":10619,"dox":10620,"Ã¡sio":10621,"Ġuniversal":10622,"ĠTermin":10623,"Ġintervalo":10624,"rs":10625,"ĠCasc":10626,"ĠBanda":10627,"ĠVil":10628,"ĠAlfredo":10629,"usÃµes":10630,"Ġpolit":10631,"ĠPho":10632,"ÃŃsa":10633,"ĠMix":10634,"Ġcoloca":10635,"Ġincluiu":10636,"Ġcod":10637,"Ġdaquela":10638,"Ġterritorial":10639,"ricaÃ§Ã£o":10640,"ĠFora":10641,"Ġgravar":10642,"UR":10643,"Ġquero":10644,"Ġatacar":10645,"Ġconcep":10646,"Ã¢neos":10647,"dist":10648,"ĠAC":10649,"dig":10650,"sky":10651,"Ġconfronto":10652,"Ġadministradores":10653,"Ġprocurar":10654,"izava":10655,"Ġvisitantes":10656,"ĠNascimento":10657,"mirante":10658,"Ãºne":10659,"Ġencontrava":10660,"Ġmorreram":10661,"Ġjustific":10662,"Ġtort":10663,"Ġplaca":10664,"ĠmecÃ¢nica":10665,"Ġacerca":10666,"ĠNeves":10667,"Ġbiografia":10668,"ĠShar":10669,"Ġdefende":10670,"ĠespanhÃ³is":10671,"ĠLand":10672,"Ġpronunc":10673,"Ġorganizar":10674,"Ġlutas":10675,"ĠinÃºmeros":10676,"Ġsinc":10677,"ĠCategoria":10678,"Ġcontava":10679,"erados":10680,"rocos":10681,"istente":10682,"ĠfilÃ³sofo":10683,"SE":10684,"ĠNintendo":10685,"Ġocupou":10686,"ĠAqui":10687,"Ġcarbono":10688,"ĠparticipaÃ§Ãµes":10689,"ĠUcrÃ¢nia":10690,"Ġinterpretada":10691,"ĠPert":10692,"onesa":10693,"Ġconstruiu":10694,"Ġpermitem":10695,"Ġvent":10696,"ĠOrqu":10697,"Ġelite":10698,"ĠBerg":10699,"Ġatuando":10700,"Ġprecisam":10701,"ĠGin":10702,"ĠParana":10703,"Ġresponder":10704,"raph":10705,"ĠaustrÃŃ":10706,"ĠsucessÃ£o":10707,"DO":10708,"idiano":10709,"ĠalianÃ§a":10710,"Ġ800":10711,"Ġprecip":10712,"ĠSaud":10713,"Ġcontrov":10714,"Ġdob":10715,"Ġesco":10716,"ĠFoto":10717,"ĠopÃ§Ãµes":10718,"ĠinauguraÃ§Ã£o":10719,"ĠClÃ¡udio":10720,"uki":10721,"ection":10722,"Ġdecis":10723,"ĠLeonardo":10724,"Ġreformas":10725,"ĠIndependÃªncia":10726,"ĠincÃªndio":10727,"ĠQuint":10728,"Ġsurgimento":10729,"ĠBag":10730,"Ġatender":10731,"...)":10732,"Ġtroc":10733,"Ġinspirado":10734,"Ġfilmagens":10735,"ĠPovo":10736,"Ġcampeonatos":10737,"Ġcamisa":10738,"Ġafro":10739,"Ġimpression":10740,"ĠSic":10741,"ĠBillboard":10742,"html":10743,"Ġverificar":10744,"ĠdÃ©cima":10745,"ĠLux":10746,"Ã¢neas":10747,"Flora":10748,"ĠJogo":10749,"ĠAntec":10750,"Ġsingles":10751,"ĠparÃ¢metros":10752,"abo":10753,"ĠGP":10754,"ĠDream":10755,"ĠKen":10756,"jetÃ³ria":10757,"Ġdizem":10758,"Ġterminando":10759,"ĠHerm":10760,"ĠStephen":10761,"Ġnut":10762,"ĠExpress":10763,"ĠmÃ©dica":10764,"ĠIndon":10765,"ogrÃ¡ficas":10766,"Ġguerras":10767,"Ġlider":10768,"Ġpromet":10769,"ĠEduc":10770,"Ġmete":10771,"Ġordenou":10772,"ĠwikipÃ©dia":10773,"Ġrica":10774,"Ġreconhecida":10775,"ĠJaime":10776,"Ġterrestre":10777,"Ġreconstru":10778,"ĠinteraÃ§Ã£o":10779,"Ġoferecer":10780,"ĠAgost":10781,"ĠcÃ¡":10782,"Ġquebra":10783,"ĠForma":10784,"Ġpoemas":10785,"Ġescav":10786,"ĠinspiraÃ§Ã£o":10787,"just":10788,"Ġnomeou":10789,"Ġdependendo":10790,"Il":10791,"ĠjuÃŃ":10792,"Ġprimo":10793,"Ġoferta":10794,"Ã¡rb":10795,"ĠconfusÃ£o":10796,"ĠThom":10797,"ĠLorib":10798,"Ġespectadores":10799,"atÃ³rios":10800,"Ġbacia":10801,"ĠnecessÃ¡rias":10802,"len":10803,"Ġpodiam":10804,"Ġativa":10805,"ĠFr":10806,"Ġinterface":10807,"ulb":10808,"tions":10809,"ĠcritÃ©rio":10810,"reiros":10811,"Ã§adas":10812,"Ġbons":10813,"Ġpercurso":10814,"ĠvegetaÃ§Ã£o":10815,"Ġprolong":10816,"ĠGustavo":10817,"Ġquinze":10818,"Be":10819,"espera":10820,"ĠViol":10821,"estina":10822,"iami":10823,"ĠIrÃ£":10824,"ĠElimin":10825,"Ġcostas":10826,"ĠestÃ¡tua":10827,"ĠcatÃ³licos":10828,"iense":10829,"Ġligados":10830,"Ġacontecer":10831,"Ãªmeas":10832,"Ġigu":10833,"ĠlesÃ£o":10834,"ift":10835,"oth":10836,"ĠobservaÃ§Ã£o":10837,"ĠmatemÃ¡tico":10838,"ĠSav":10839,"ĠFire":10840,"rens":10841,"olia":10842,"Ġacert":10843,"ĠInÃŃcio":10844,"Ġeuropeia":10845,"----":10846,"ranÃ§a":10847,"arcial":10848,"Ġacusado":10849,"ÃŃferos":10850,"ressÃ£o":10851,"ĠWWE":10852,"ices":10853,"Ġpermanecer":10854,"ĠlÃŃquido":10855,"imundo":10856,"urados":10857,"Ġcuidado":10858,"ĠbraÃ§o":10859,"ĠcorrupÃ§Ã£o":10860,"Ġdoutorado":10861,"uis":10862,"ĠBroad":10863,"Ġcobre":10864,"Ġlimitada":10865,"Ġminhas":10866,"eirista":10867,"ĠManoel":10868,"Ġmission":10869,"ĠpreÃ§os":10870,"Ġgratu":10871,"ĠrecepÃ§Ã£o":10872,"ĠcolÃ´nia":10873,"Ġ57":10874,"Ġponta":10875,"ĠCoraÃ§Ã£o":10876,"Ġmeus":10877,"Ġtemperaturas":10878,"Ap":10879,"Ïħ":10880,"Ã©rebro":10881,"Ġreproduz":10882,"adrez":10883,"Ġrodovia":10884,"It":10885,"Ġresultando":10886,"Ġtribo":10887,"Ġabsoluta":10888,"Ġnativa":10889,"nascido":10890,"ĠPeix":10891,"omot":10892,"evin":10893,"Ġambientes":10894,"Ġ1906":10895,"ĠTwitter":10896,"UL":10897,"ĠMarvel":10898,"Ġplataformas":10899,"ĠDol":10900,"ĠGib":10901,"ĠtradiÃ§Ãµes":10902,"Ġiniciada":10903,"Ġdomingo":10904,"ĠRTP":10905,"Ġmajor":10906,"Ġpaciente":10907,"onf":10908,"Ġfinalidade":10909,"entu":10910,"ĠAL":10911,"ĠavanÃ§o":10912,"Ġescolar":10913,"ĠInformaÃ§Ã£o":10914,"Ġouvir":10915,"oba":10916,"Ġintensidade":10917,"ĠinclusÃ£o":10918,"ĠUl":10919,"ancip":10920,"ĠdeverÃ¡":10921,"ĠExemplos":10922,"osc":10923,"Ġboca":10924,"ĠSpr":10925,"ĠAssis":10926,"Ġfronteiras":10927,"ĠcardÃŃ":10928,"oj":10929,"Ġensa":10930,"Ġdestacou":10931,"Ġcavalos":10932,"ingue":10933,"ĠCongo":10934,"Ġbru":10935,"Ġtempor":10936,"uguÃªs":10937,"Ġcausando":10938,"Ġvapor":10939,"ĠTes":10940,"Ġchuva":10941,"ĠaÃ§Ãºcar":10942,"Ġmecan":10943,"ĠmanifestaÃ§Ãµes":10944,"Ġlux":10945,"ĠTÃ³quio":10946,"ĠbÃŃbl":10947,"ĠProgram":10948,"ĠMant":10949,"Ġestradas":10950,"Ġconhecimentos":10951,"Ġmodalidade":10952,"Ġenx":10953,"Ġescritas":10954,"roduÃ§Ã£o":10955,"ĠMik":10956,"ĠEnviado":10957,"Ġblog":10958,"UCN":10959,"ĠSete":10960,"imir":10961,"ĠMÃ¡":10962,"ĠMata":10963,"riano":10964,"Ġress":10965,"Ġtransferido":10966,"Ġdisciplina":10967,"quistÃ£o":10968,"Ġrepresentado":10969,"ĠMatt":10970,"Ġaumentou":10971,"alho":10972,"ĠToc":10973,"Ã³gicos":10974,"ĠsoluÃ§Ãµes":10975,"Ġexpect":10976,"ĠWolf":10977,"Ġparecer":10978,"portiva":10979,"die":10980,"ĠBour":10981,"Ġpobres":10982,"Ġdesist":10983,"Ġagrup":10984,"ĠcombustÃŃvel":10985,"ĠDos":10986,"Ġpost":10987,"Ġacrescentar":10988,"ĠCav":10989,"ĠBac":10990,"Ġcadeira":10991,"Ġpares":10992,"ĠClar":10993,"Ġrevis":10994,"1991":10995,"Ġchinesa":10996,"ÃŃamos":10997,"ĠPrincipais":10998,"nco":10999,"ĠTeod":11000,"Ġsubstituindo":11001,"Ãºcho":11002,"Station":11003,"mus":11004,"Äį":11005,"eres":11006,"ĠPedra":11007,"Ġvermelha":11008,"Ġexcelente":11009,"ĠespecÃŃfica":11010,"analto":11011,"vendo":11012,"ĠKal":11013,"ĠArena":11014,"ĠIvan":11015,"ĠsÃ©timo":11016,"rip":11017,"ĠDesemp":11018,"Ġconsiderou":11019,"iminal":11020,"Ġproclam":11021,"ingen":11022,"ĠAh":11023,"Ġatitude":11024,"Ġindicada":11025,"ĠindÃŃgena":11026,"Franc":11027,"actos":11028,"Ġentrega":11029,"Ġassent":11030,"Ã©rs":11031,"ĠPas":11032,"ĠCaetano":11033,"planada":11034,"Ġreta":11035,"ĠeletrÃ´nicos":11036,"ĠWell":11037,"Ġsabia":11038,"ĠCheg":11039,"Ġdefine":11040,"istro":11041,"Ġexistia":11042,"ĠAstronomia":11043,"Ġmonumento":11044,"Med":11045,"Ġparticulares":11046,"ĠEnredo":11047,"Ġlas":11048,"Ġatacante":11049,"Ġcine":11050,"adeiro":11051,"Ġgab":11052,"ĠMud":11053,"ĠMineiro":11054,"adj":11055,"Ġespecialistas":11056,"Ġefica":11057,"ĠMis":11058,"ĠMacau":11059,"ĠHunt":11060,"Ġfalando":11061,"rimin":11062,"Ġcorridas":11063,"ĠnegociaÃ§Ãµes":11064,"CD":11065,"deias":11066,"Ġhi":11067,"ĠChico":11068,"Ġwikipedia":11069,"damente":11070,"Ġpedras":11071,"ĠCenter":11072,"Ġcastelhano":11073,"Ġdemit":11074,"Ġcontando":11075,"Ġamist":11076,"ĠFilme":11077,"ĠIsl":11078,"Ġespecialista":11079,"Ġsoma":11080,"Ġmara":11081,"ĠABC":11082,"abelas":11083,"Ġsev":11084,"ĠFra":11085,"ĠClasse":11086,"Ġcoinc":11087,"Ã³gicas":11088,"ĠâĪ":11089,"ĠDoutor":11090,"ĠJane":11091,"ĠUR":11092,"ĠCoronel":11093,"dutor":11094,"Ġderivados":11095,"icados":11096,"Ġcomida":11097,"Ġcolor":11098,"ĠpreparaÃ§Ã£o":11099,"Ãºmulo":11100,"tis":11101,"Ġvirtual":11102,"Ġjam":11103,"Ġeditado":11104,"edeu":11105,"rona":11106,"ĠCec":11107,"ĠRE":11108,"cur":11109,"ĠCategory":11110,"Ġdiversidade":11111,"Ġvieram":11112,"ĠTok":11113,"Ġassume":11114,"Ġtecido":11115,"Ġrico":11116,"Ã©ns":11117,"ĠeletrÃ´nica":11118,"ĠExternas":11119,"Ġdemocracia":11120,"Ġseriado":11121,"ĠCristina":11122,"ĠdÃ£o":11123,"ĠAy":11124,"Ġdatas":11125,"ĠKent":11126,"ĠMetropolitana":11127,"ĠNascido":11128,".âĢĿ":11129,"teu":11130,"ĠUniverso":11131,"Ġmarcando":11132,"Ġcondenado":11133,"ĠVou":11134,"Ã³ricos":11135,"Ġestabelecida":11136,"Ġpreen":11137,"Ġ1905":11138,"Ġtarefas":11139,"Ġintelectual":11140,"ĠDouglas":11141,"ĠHuman":11142,"quita":11143,"ĠJenn":11144,"Ġlistas":11145,"ĠatribuÃŃdo":11146,"Ġbancos":11147,"atou":11148,"ĠexposiÃ§Ãµes":11149,"ĠreproduÃ§Ã£o":11150,"Ġpublicadas":11151,"Ġequipas":11152,"ĠesperanÃ§a":11153,"Ġgerar":11154,"IG":11155,"ĠFreitas":11156,"âĻ":11157,"Ġdescrever":11158,"Ġaprovado":11159,"ĠfabricaÃ§Ã£o":11160,"Ġamostra":11161,"gregaÃ§Ã£o":11162,"Embaixada":11163,"Ġfinanceiro":11164,"Ġlenda":11165,"Ġtribos":11166,"ĠconfiguraÃ§Ã£o":11167,"ernidade":11168,"ĠAnexo":11169,"ĠAstero":11170,"Ġsofrer":11171,"Ġenviar":11172,"ĠMoura":11173,"ĠTendo":11174,"Ġcontos":11175,"Ã³rum":11176,"landesa":11177,"ĠInfantaria":11178,"ĠInterior":11179,"ĠPires":11180,"Ġnegra":11181,"ĠParte":11182,"ĠLocalizaÃ§Ã£o":11183,"Ġcujas":11184,"uti":11185,"Ġmi":11186,"ouch":11187,"Ġprodutora":11188,"Ġinde":11189,"ĠExpl":11190,"Ġdesfil":11191,"iguidade":11192,"Ġintegrar":11193,"ĠpreocupaÃ§Ã£o":11194,"quist":11195,"Ġmemb":11196,"Ġdevia":11197,"ĠMarie":11198,"Ã³tipo":11199,"Ġprotestos":11200,"ules":11201,"Ġcuidados":11202,"Ġcristianismo":11203,"ĠdÃºvidas":11204,"ĠSilveira":11205,"ĠMendo":11206,"Ġintim":11207,"eller":11208,"Ġacreditava":11209,"Ġcompromet":11210,"ĠIndustrial":11211,"ĠPenÃŃnsula":11212,"Ġaquilo":11213,"ĠEpis":11214,"ĠPant":11215,"riram":11216,"ĠIUCN":11217,"ravÃ©s":11218,"tais":11219,"Ġherdeiro":11220,"Ġcil":11221,"Ġsupostamente":11222,"ĠChin":11223,"Ġ1909":11224,"cara":11225,"ĠTrad":11226,"Ã¸":11227,"zinho":11228,"ossa":11229,"itro":11230,"ĠAR":11231,"atra":11232,"Ġvendidos":11233,"Ġriqueza":11234,"1989":11235,"ĠParticipou":11236,"Ãį":11237,"Ġjuntar":11238,"iÃ§o":11239,"ĠAda":11240,"avy":11241,"%),":11242,"Ġcomprar":11243,"Ġconsigo":11244,"Ġrum":11245,"Ġolh":11246,"Ġquerer":11247,"Ġparar":11248,"ĠCircuito":11249,"ĠSn":11250,"ĠDJ":11251,"Ġdesast":11252,"elt":11253,"Ġbac":11254,"ĠdemocrÃ¡":11255,"rul":11256,"Ġalcance":11257,"Ġvereadores":11258,"ĠVitor":11259,"Ġsujeito":11260,"vias":11261,"ĠLab":11262,"Ġpositivo":11263,"Ġmultipl":11264,"Portal":11265,"Ġaparente":11266,"Ġatuava":11267,"shire":11268,"orar":11269,"ĠdecrÃ©scimo":11270,"ĠproduÃ§Ãµes":11271,"xx":11272,"Ġsufic":11273,"ogen":11274,"iral":11275,"Ġselo":11276,"ĠMasculino":11277,"eranÃ§a":11278,"Ġenvolvido":11279,"onial":11280,"Ġconstitucional":11281,"ĠAN":11282,"ĠLP":11283,"Ã©lica":11284,"Ġexporta":11285,"ĠApl":11286,"Ġliberal":11287,"Ġsindic":11288,"Ã³lio":11289,"Ġmorf":11290,"Ġfel":11291,"ianÃ³polis":11292,"Ġestudiosos":11293,"elm":11294,"jetos":11295,"uou":11296,"lf":11297,"Ġarb":11298,"Ġsetores":11299,"ĠPatrimÃ³nio":11300,"Ġorbital":11301,"outh":11302,"Ġrefug":11303,"Ġquadros":11304,"iers":11305,"oÃ§Ã£o":11306,"Ġconcerto":11307,"ther":11308,"Ã³via":11309,"Ġtransmitido":11310,"Ġsueco":11311,"ĠExemplo":11312,"ĠcÃ³pia":11313,"Ġdeuses":11314,"Ġautonomia":11315,"ĠEngl":11316,"Ġsh":11317,"hack":11318,"Ġextens":11319,"Ġcorreta":11320,"Ġobservar":11321,"Ġalterar":11322,"ecos":11323,"ĠAntecedentes":11324,"ĠcomeÃ§ando":11325,"Ġsonho":11326,"Ġplacas":11327,"ĠmÃ¡s":11328,"ÙĦ":11329,"ĠPai":11330,"Ġranking":11331,"ultor":11332,"Ġbaseados":11333,"ĠConte":11334,"iane":11335,"Ġ110":11336,"Americano":11337,"Ġexcess":11338,"inus":11339,"Ġconfirmado":11340,"Ġfugir":11341,"Ġoxig":11342,"ĠPinheiro":11343,"ĠGh":11344,"Ġjogando":11345,"ĠNBA":11346,"ĠfazÃª":11347,"ĠXavier":11348,"ĠconstituÃŃda":11349,"ĠContinental":11350,"ÃŃticos":11351,"ĠPlane":11352,"Ġrelacionada":11353,"ogue":11354,"ĠCaro":11355,"Ġ1907":11356,"Ġinvestimento":11357,"ĠMaz":11358,"ĠBry":11359,"Ġdenunc":11360,"Ġaceitou":11361,"Ġacompanhado":11362,"Ġpretende":11363,"Ġancest":11364,"ĠNÃºm":11365,"Ġtempl":11366,"ĠAmbos":11367,"astos":11368,"eme":11369,"Ġgene":11370,"Ġtelevis":11371,"cap":11372,"ĠKelly":11373,"ĠmÃ¡r":11374,"ĠherÃ³i":11375,"ĠTestamento":11376,"Ġingressou":11377,"Ġmor":11378,"Cons":11379,"Ġevolu":11380,"ĠRica":11381,"Ġestacion":11382,"Ġadmira":11383,"Ġconstitui":11384,"Ġderrotar":11385,"ardia":11386,"ĠClark":11387,"Ġmantido":11388,"ĠAB":11389,"Ġchance":11390,"Ġ58":11391,"olor":11392,"ĠFundo":11393,"etura":11394,"ĠCarnaval":11395,"ĠBoas":11396,"Ġrespondeu":11397,"ĠGonÃ§alo":11398,"ĠMira":11399,"urch":11400,"ĠSingles":11401,"ĠimplementaÃ§Ã£o":11402,"gi":11403,"Ġagl":11404,"Ġdirigida":11405,"aborou":11406,"ĠidÃ©ia":11407,"ĠPictures":11408,"ĠLord":11409,"ĠToronto":11410,"ĠMult":11411,"ĠLittle":11412,"ĠAmar":11413,"ĠDifer":11414,"eleÃ§Ãµes":11415,"Ġexclu":11416,"bras":11417,"ĠDNA":11418,"Ġeleita":11419,"Ġgoogle":11420,"ĠMetr":11421,"ercial":11422,"Ġgoleiro":11423,"uegu":11424,"feta":11425,"Ġtaxas":11426,"ĠcÃ©lula":11427,"ouros":11428,"Ġdesn":11429,"Ġesquerdo":11430,"ĠfilosÃ³f":11431,"rix":11432,"Ġcantar":11433,"ĠFinlÃ¢ndia":11434,"Ġisrael":11435,"Ġamarelo":11436,"ĠCir":11437,"agner":11438,"Ġamiga":11439,"ĠFrente":11440,"Ġroda":11441,"Ġindire":11442,"Ġmaneiras":11443,"JoÃ£o":11444,"ugosl":11445,"ales":11446,"Ġpositiva":11447,"suc":11448,"Ã©nio":11449,"Ġasas":11450,"ĠconstruÃŃdos":11451,"Ġcolocando":11452,"Ġdefinitivamente":11453,"ĠTrofÃ©u":11454,"ĠAmazÃ´nia":11455,"CE":11456,"ĠMarcel":11457,"ĠestÃ¡gio":11458,"Ġsimilares":11459,"amina":11460,"ĠKon":11461,"Ġdesenvolve":11462,"ĠJason":11463,"Ġaclam":11464,"Ġimpostos":11465,"ĠdisposiÃ§Ã£o":11466,"rast":11467,"ĠBuc":11468,"Ġpesca":11469,"Ġsurgiram":11470,"ĠvariaÃ§Ãµes":11471,"Ġtestemun":11472,"uan":11473,"ĠSky":11474,"Ġcomentou":11475,"Ġdistintas":11476,"ĠanÃ¡l":11477,"inz":11478,"ĠTs":11479,"Ġfot":11480,"Ġinstalado":11481,"ĠOm":11482,"Ġverbal":11483,"Ġplanejamento":11484,"ĠComeÃ§ou":11485,"cht":11486,"ĠConn":11487,"ĠEscrit":11488,"ĠTransporte":11489,"HistÃ³ria":11490,"ĠaquisiÃ§Ã£o":11491,"Ġcolunas":11492,"Ġ95":11493,"Ġlongas":11494,"famÃŃlia":11495,"Ġentregue":11496,"ĠdimensÃ£o":11497,"ĠMiller":11498,"Ġredirecion":11499,"conhec":11500,"Ġprotegida":11501,"ÃŃgio":11502,"ĠcrÃ©dito":11503,"ĠInstitute":11504,"Ġcombat":11505,"ĠDirec":11506,"ĠproteÃŃnas":11507,"Ãļ":11508,"Ġ_":11509,"andra":11510,"Ġacabar":11511,"ĠRose":11512,"ĠHamilton":11513,"Ġanel":11514,"Ġorganismos":11515,"Ġcircunst":11516,"Ġparticipa":11517,"ĠChap":11518,"Ġcitar":11519,"ĠDÃ©c":11520,"ĠorÃ§amento":11521,"ĠAntigo":11522,"iller":11523,"ĠMunique":11524,"ĠgraduaÃ§Ã£o":11525,"ĠemergÃªncia":11526,"Ġbanh":11527,"Ġnomeada":11528,"pida":11529,"ĠaÃ§o":11530,"Ġliderou":11531,"ĠcÃŃrculo":11532,"ads":11533,"ĠSanc":11534,"Ġasi":11535,"ĠAsteroide":11536,"ĠGestÃ£o":11537,"ĠAngel":11538,"Ġhidro":11539,"ilvÃ¢nia":11540,"ÃŃssima":11541,"Ġbuscar":11542,"ĠFesta":11543,"inae":11544,"Ġaumenta":11545,"Ġcompletar":11546,"cedeu":11547,"ĠimplantaÃ§Ã£o":11548,"Gen":11549,"indic":11550,"ĠDown":11551,"Ġrevert":11552,"Ġmarcar":11553,"Ġservidor":11554,"Ãºva":11555,"ĠadiÃ§Ã£o":11556,"Ġutilizam":11557,"Ġhard":11558,"fri":11559,"Ã¡quia":11560,"ivada":11561,"etta":11562,"Ġitem":11563,"Ġorquestra":11564,"ader":11565,"arra":11566,"ĠElas":11567,"Ã¡bia":11568,"ĠcomposiÃ§Ãµes":11569,"viÃ¡ria":11570,"ĠcomeÃ§am":11571,"Ġescritora":11572,"Ġcanh":11573,"ĠcÃ©rebro":11574,"Ġ1000":11575,"ĠZo":11576,"Ġindicar":11577,"Americana":11578,"ĠimpossÃŃvel":11579,"Ġaprendizagem":11580,"ĠØ":11581,"estado":11582,"Ġjamais":11583,"sist":11584,"Ġbud":11585,"ĠPopulaÃ§Ã£o":11586,"ĠadversÃ¡rio":11587,"Ġderrub":11588,"Ġrecon":11589,"ĠEleitoral":11590,"Ġblocos":11591,"Ġcumprir":11592,"Ġment":11593,"itan":11594,"ĠCorr":11595,"ĠTig":11596,"jeÃ§Ã£o":11597,"web":11598,"ĠNem":11599,"ĠElect":11600,"Ġlimitado":11601,"ĠacusaÃ§Ãµes":11602,"Ġculmin":11603,"Do":11604,"Ġvender":11605,"ranha":11606,"ĠafirmaÃ§Ã£o":11607,"Ġaposent":11608,"Ġfon":11609,"ĠMiami":11610,"ĠHart":11611,"Ġori":11612,"orizont":11613,"Geografia":11614,"San":11615,"hard":11616,"ĠServiÃ§os":11617,"Ġvidas":11618,"ĠPolit":11619,"ĠCasou":11620,"Ġrefl":11621,"ĠincluÃŃa":11622,"ĠclÃ¡ssicos":11623,"ĠCorreia":11624,"ĠIBGE":11625,"All":11626,"ĠPlayStation":11627,"Ġentreg":11628,"Ġprossegu":11629,"dis":11630,"fre":11631,"aster":11632,"ĠDet":11633,"Ġintuito":11634,"Ġconsiderando":11635,"ĠLivros":11636,"pping":11637,"trans":11638,"Ġproposto":11639,"\"?":11640,"ĠAndrew":11641,"ĠDiscussÃ£o":11642,"ĠÃ³b":11643,"'.":11644,"Ġsegmento":11645,"Ġequipamento":11646,"Ġirregular":11647,"ĠBlue":11648,"Ġfutura":11649,"mm":11650,"ĠMana":11651,"Ġexecutado":11652,"MP":11653,"ĠDeix":11654,"Ġleitor":11655,"Ġregistrado":11656,"Ġdinamar":11657,"tr":11658,"inando":11659,"Ġcontinuidade":11660,"Ġmonte":11661,"Ġave":11662,"ilat":11663,"ĠFol":11664,"ĠMello":11665,"ĠBack":11666,"Ġgira":11667,"Ġjardim":11668,"ĠVenc":11669,"Ġgregos":11670,"estÃµes":11671,"ĠTeoria":11672,"Ġduplo":11673,"Ġreman":11674,"Ġtribunal":11675,"gÃªn":11676,"Ġmencionado":11677,"Ġcen":11678,"Ġâľ":11679,"ĠagrÃŃcola":11680,"Ġprocedimento":11681,"ache":11682,"ĠMarsh":11683,"Ġ1904":11684,"ĠAbraÃ§o":11685,"Ã¦":11686,"ĠEurope":11687,"ĠcristÃ£o":11688,"ĠSocialista":11689,"Ġadicionar":11690,"Ġfarm":11691,"ĠpreservaÃ§Ã£o":11692,"atch":11693,"oman":11694,"ĠTemplo":11695,"ĠJay":11696,"Ġativos":11697,"umin":11698,"Ġconstantemente":11699,"ĠrÃ¡dios":11700,"ĠocasiÃµes":11701,"fan":11702,"ĠPIB":11703,"Ġmediante":11704,"ĠconsiderÃ¡vel":11705,"ĠidÃªnt":11706,"Ġespecializada":11707,"house":11708,"ĠDark":11709,"Ġ1903":11710,"Ġaprovada":11711,"Ġsimultaneamente":11712,"ĠaÃ©reo":11713,"ĠVera":11714,"cluindo":11715,"ĠsubespÃ©c":11716,"ĠAntiga":11717,"Ġinvestimentos":11718,"elizmente":11719,"Ġvirtude":11720,"ĠirmÃ£s":11721,"echal":11722,"Ġvagas":11723,"Por":11724,"1985":11725,"ĠHeart":11726,"ĠFree":11727,"ĠPower":11728,"ĠavÃ´":11729,"rense":11730,"dal":11731,"Ġsubdiv":11732,"Ġtransformar":11733,"Ġapelido":11734,"tre":11735,"ĠSO":11736,"ĠDessa":11737,"Ġatira":11738,"Ġcarioca":11739,"Ġcamadas":11740,"rendo":11741,"ĠvisÃŃvel":11742,"ĠconteÃºdos":11743,"ives":11744,"Ġolhar":11745,"ĠBenjam":11746,"sito":11747,"Ġantrop":11748,"Ġcompetiu":11749,"ĠcatÃ³lico":11750,"bas":11751,"Ġextinto":11752,"Ġ66":11753,"icando":11754,"ÃŃodo":11755,"ĠVlad":11756,"Ġ1889":11757,"ĠespecÃŃficas":11758,"ĠOi":11759,"ĠJacques":11760,"Ġ%":11761,"ĠÃĤ":11762,"Ġescre":11763,"ĠÃ¡udio":11764,"Ġcordas":11765,"ĠÃģgua":11766,"Ġocupa":11767,"ĠONU":11768,"ĠDireÃ§Ã£o":11769,"ĠPrincesa":11770,"ĠHor":11771,"ÃŃlios":11772,"ĠGales":11773,"Ġretorna":11774,"ĠDecl":11775,"jado":11776,"ĠpÃ¡t":11777,"ĠBaixo":11778,"eva":11779,"Ġmolec":11780,"wig":11781,"Ġiniciado":11782,"ĠLiberdade":11783,"ĠÃŃnt":11784,"ĠMec":11785,"ĠMath":11786,"gs":11787,"ĠGi":11788,"ruc":11789,"ĠrelevÃ¢ncia":11790,"Ġopon":11791,"strias":11792,"Ġnaval":11793,"zan":11794,"Ġrelevantes":11795,"Ã©reas":11796,"ortos":11797,"Ġmilho":11798,"ĠAngra":11799,"ĠSony":11800,"iles":11801,"riam":11802,"abulÃ¡rio":11803,"Ġcontribuiu":11804,"ĠtripulaÃ§Ã£o":11805,")\".":11806,"fase":11807,"Ġperante":11808,"Ã§ois":11809,"Ã³rdia":11810,"Ġdezenas":11811,"ĠcrenÃ§a":11812,"Ġduplas":11813,"Ġjes":11814,"Ġjuventude":11815,"Ġjardas":11816,"rupo":11817,"icus":11818,"Ġvivos":11819,"ĠMajor":11820,"Ġorganismo":11821,"etts":11822,"1987":11823,"ĠperseguiÃ§Ã£o":11824,"bour":11825,"ĠRi":11826,"ÃŃfica":11827,"ĠautorizaÃ§Ã£o":11828,"iquei":11829,"ĠMargarida":11830,"Ġleitores":11831,"Ġdesfile":11832,"assa":11833,"Ġesquema":11834,"Ġfundamentais":11835,"Ġfechado":11836,"klist":11837,"ĠLÃ©":11838,"Ġrecrut":11839,"Ġfalha":11840,"ĠEmp":11841,"Ġlinear":11842,"Ġcontrad":11843,"Ġlidar":11844,"ĠSitu":11845,"ifique":11846,"ĠparÃ¡g":11847,"Ġvisando":11848,"Ġregistrou":11849,"iden":11850,"ĠMilÃ£o":11851,"Ġentraram":11852,"Ġenfat":11853,"ivid":11854,"Ġsert":11855,"Ġescond":11856,"ĠMusical":11857,"ÃŃndrome":11858,"sing":11859,"ĠKevin":11860,"2020":11861,"Ġinfl":11862,"Ġapre":11863,"udia":11864,"ĠJovem":11865,"Ã©le":11866,"ĠProte":11867,"Ġdemol":11868,"Ġreuniu":11869,"ĠLanÃ§amento":11870,"ĠUser":11871,"Ġrosto":11872,"ĠIndonÃ©sia":11873,"ĠCatar":11874,"ĠocorrÃªncia":11875,"ĠTown":11876,"Ġpartiu":11877,"ĠfÃŃsicas":11878,"ĠOrquestra":11879,"ĠSE":11880,"ravo":11881,"Ã¡ctica":11882,"CP":11883,"Ġparentes":11884,"Ġparlamento":11885,"Ġcontinuaram":11886,"ĠsubstituÃŃda":11887,"aranja":11888,"äºº":11889,"Ġinterpretado":11890,"ĠColumbia":11891,"uroc":11892,"Ã©rpre":11893,"ĠAtletismo":11894,"Ġderiva":11895,"Ġescapar":11896,"annel":11897,"ĠVascon":11898,"sea":11899,"Ġnela":11900,"ĠBla":11901,"Ġnativos":11902,"ĠPiauÃŃ":11903,"ĠtÃ³pico":11904,"ĠSig":11905,"ĠSher":11906,"hop":11907,"ĠLagoa":11908,"Ġjeito":11909,"ened":11910,"Ġcoron":11911,"Ġradical":11912,"1988":11913,"Ġvencedores":11914,"Ġtabelas":11915,"ÃŃrio":11916,"ĠLud":11917,"Ġinex":11918,"anti":11919,"ĠfreqÃ¼":11920,"Ġprojetado":11921,"ĠQuinta":11922,"ĠgeogrÃ¡fica":11923,"Ġseca":11924,"ĠcomputaÃ§Ã£o":11925,"acre":11926,"ĠHome":11927,"Ġimprov":11928,"Ġcirurgia":11929,"ĠBulgÃ¡ria":11930,"\"(":11931,"utt":11932,"Ġhost":11933,"Ġtornam":11934,"Ġafil":11935,"Ġgraves":11936,"Ġumas":11937,"ĠOrl":11938,"ÃŃso":11939,"iler":11940,"evo":11941,"retos":11942,"Ġcalcul":11943,"Ġidiomas":11944,"lag":11945,"Ġficava":11946,"Ġadequado":11947,"jan":11948,"Ġconcertos":11949,"ĠmangÃ¡":11950,"Ġvoos":11951,"ĠFinalmente":11952,"fei":11953,"Ġamplo":11954,"ĠVig":11955,"design":11956,"ĠAcesso":11957,"Ġliteral":11958,"ĠLÃºcio":11959,"Ġanarqu":11960,"Ġrurais":11961,"ĠEnd":11962,"Ġdesafio":11963,"ĠÃ¡rabes":11964,"Ġ72":11965,"ĠNobel":11966,"rÃŃvel":11967,"Ġtes":11968,"antis":11969,"Ġinternas":11970,"ank":11971,"ĠVideo":11972,"Ġexerceu":11973,"chefe":11974,"ĠVaticano":11975,"Ġpira":11976,"ĠExp":11977,"Ġvizinhos":11978,"Ġmix":11979,"ĠDemocrÃ¡tica":11980,"ĠTol":11981,"ĠprofissÃ£o":11982,"Ġoceano":11983,"Ġcord":11984,"ĠBusca":11985,"orreg":11986,"Ġfederais":11987,"Ġselecionado":11988,"ocolo":11989,"Ġescrevendo":11990,"ĠVivo":11991,"Ġenerg":11992,"ĠPatrimÃ´nio":11993,"Ġsons":11994,"alto":11995,"ĠRey":11996,"ĠÃģlvaro":11997,"ĠRiver":11998,"rÃ¡fego":11999,"arani":12000,"ĠAÃ©reo":12001,"ĠLam":12002,"pede":12003,"ĠdeclinaÃ§Ã£o":12004,"offs":12005,"Ġoportunidades":12006,"inheiros":12007,"Ġcompanhias":12008,"Ġentrevistas":12009,"ograf":12010,"ĠmuÃ§ulmanos":12011,"ĠLuÃŃsa":12012,"ĠcaÃ§":12013,"ĠforÃ§ado":12014,"Ġconven":12015,"omem":12016,"Ġinteiramente":12017,"ĠincluÃŃda":12018,"Ã¶r":12019,"Ġdestruir":12020,"Ġmong":12021,"leos":12022,"ĠGuad":12023,"ĠSuc":12024,"ĠMariana":12025,"Ġvotar":12026,"Ġclassificados":12027,"ĠÃ³pera":12028,"Ã§on":12029,"ĠID":12030,"obili":12031,"ĠKy":12032,"itarra":12033,"ĠJustin":12034,"ĠArquipÃ©lago":12035,"Ġlarga":12036,"Ġpura":12037,"Ġreport":12038,"Ġimper":12039,"ĠState":12040,"Ġnarrativa":12041,"itÃ¡":12042,"ĠSap":12043,"Ã¢nsito":12044,"ĠGuard":12045,"Ġvereador":12046,"iosas":12047,"Ġconstrut":12048,"ĠWarner":12049,"ĠSid":12050,"ĠMarte":12051,"eleito":12052,"ĠVeneza":12053,"opher":12054,"ardins":12055,"ĠPolÃ³nia":12056,"Ð¹":12057,"ĠLeite":12058,"querque":12059,"Ġhect":12060,"Ġlegislatura":12061,"Ġtenente":12062,"nas":12063,"Ġdecidir":12064,"ropicais":12065,"ĠGrandes":12066,"ĠSemin":12067,"Ġvende":12068,"ĠcolÃ©gio":12069,"Ġcontraste":12070,"ĠViana":12071,"Ġmenina":12072,"Ġacamp":12073,"Ġmover":12074,"Ġreclam":12075,"Ġcurtas":12076,"ĠBey":12077,"ificando":12078,"ĠCond":12079,"Ang":12080,"lit":12081,"Ð¸Ñ":12082,"ĠBruce":12083,"Ġencerrou":12084,"Ġnor":12085,"ĠInverno":12086,"Ġfruto":12087,"ĠRico":12088,"Ġdivert":12089,"Ġiguais":12090,"Ġcento":12091,"deram":12092,"Ġeleitores":12093,"ÃŃcies":12094,"ĠLaura":12095,"Ġestrangeiro":12096,"ĠCad":12097,"Ġvog":12098,"Ġgerou":12099,"ĠgÃ©neros":12100,"ĠWin":12101,"kt":12102,"mag":12103,"ombo":12104,"Ġcoronel":12105,"right":12106,"ĠliterÃ¡ria":12107,"Ġsemifinal":12108,"ĠabraÃ§o":12109,"Ġvandalismo":12110,"ĠExposiÃ§Ã£o":12111,"sonaro":12112,"Ġessencialmente":12113,"roup":12114,"Ġachar":12115,"ugaÃ§Ã£o":12116,"ĠCabral":12117,"Ð´":12118,"obra":12119,"ĠPerc":12120,"ĠResta":12121,"Ġescoc":12122,"Ġrochas":12123,"cy":12124,"Ġfui":12125,"Ġtransformou":12126,"Ġnobres":12127,"Ġestende":12128,"ĠcontemporÃ¢nea":12129,"CH":12130,"Ð¼":12131,"ezas":12132,"ĠGuy":12133,"ĠexplicaÃ§Ã£o":12134,"ĠLinux":12135,"Ġalfabeto":12136,"ĠMuseum":12137,"ĠCoroa":12138,"ĠAustral":12139,"Ġdiverg":12140,"Ġcurios":12141,"Ġdedicou":12142,"ĠTavares":12143,"entares":12144,"Ġparecem":12145,"ĠconcessÃ£o":12146,"Ġprevisto":12147,"ĠEventos":12148,"ĠDiÃ¡rio":12149,"Ġdeg":12150,"ĠOS":12151,"achus":12152,"Ġocupar":12153,"ĠSound":12154,"Ġhosped":12155,"Ã³rcio":12156,"astero":12157,"ÃŃdios":12158,"ĠLt":12159,"azine":12160,"ĠIntel":12161,"ĠanÃºncio":12162,"For":12163,"PP":12164,"wo":12165,"Ġnecessariamente":12166,"ĠEstrela":12167,"rÃ³":12168,"Ġpalest":12169,"ĠGrammy":12170,"VA":12171,"ĠBei":12172,"nik":12173,"Ġtrechos":12174,"Ġ1901":12175,"imologia":12176,"ĠruÃŃnas":12177,"ĠresidÃªncias":12178,"Ġrebeldes":12179,"ML":12180,"ESP":12181,"iografia":12182,"ĠMap":12183,"Ġhabitat":12184,"Ġmarcados":12185,"ĠRomana":12186,"Ġgan":12187,"Ġperigo":12188,"Ġ78":12189,"ĠauxÃŃlio":12190,"ĠDarwin":12191,"rez":12192,"Ġcristal":12193,"Ġindiano":12194,"ĠfaÃ§a":12195,"Ġacrescent":12196,"imens":12197,"ĠJur":12198,"quim":12199,"ĠAnne":12200,"Ġpoderoso":12201,"Ġartilharia":12202,"Portugal":12203,"ĠDesempenho":12204,"ĠpropÃ´s":12205,"Ġvertical":12206,"Ġvitor":12207,"Ġcair":12208,"ych":12209,"ĠAmaral":12210,"ĠarquipÃ©lago":12211,"Ġdesconhecido":12212,"ĠmÃ³veis":12213,"Rob":12214,"Ġsubmar":12215,"Pres":12216,"Ġgraf":12217,"Ġibne":12218,"ĠlaboratÃ³rio":12219,"Ġader":12220,"Ġprimeiramente":12221,"Ġexecutar":12222,"ĠBatt":12223,"ĠMoraes":12224,"paro":12225,"ĠChefe":12226,"ĠMaurÃŃcio":12227,"ĠKam":12228,"ns":12229,"Ġcientista":12230,"ashi":12231,"NGC":12232,"ĠDuc":12233,"ĠGordo":12234,"ĠApple":12235,"ĠindÃºstrias":12236,"ĠMarrocos":12237,"ĠMatriz":12238,"ĠCaxias":12239,"ĠVelha":12240,"ĠendereÃ§o":12241,"ĠMÃ©rito":12242,"Ġrespostas":12243,"ĠVoleibol":12244,"ĠCPMI":12245,"ĠErnesto":12246,"ĠAnc":12247,"iny":12248,"Ġingleses":12249,"ĠDona":12250,"ĠJournal":12251,"ionar":12252,"ĠStad":12253,"Ġdesenvolvidos":12254,"ĠbÃ¡sico":12255,"Ġrelevo":12256,"Ġexemplares":12257,"Ġcem":12258,"Ġdescont":12259,"ather":12260,"ĠatraÃ§Ã£o":12261,"\",\"#":12262,"Ġprovis":12263,"bÃ¡":12264,"ils":12265,"ĠhÃºng":12266,"htt":12267,"Ġ1870":12268,"enzo":12269,"apso":12270,"ĠMetal":12271,"ĠremoÃ§Ã£o":12272,"ĠCorporation":12273,"Ġplacar":12274,"Av":12275,"BR":12276,"Ã©ias":12277,"Ġvinha":12278,"ĠSalÃ£o":12279,"empre":12280,"ĠRoman":12281,"asteroide":12282,"Ġhabitats":12283,"Ġgarota":12284,"Ġgas":12285,"Ġlaterais":12286,"ĠTi":12287,"Ġescudo":12288,"ĠMars":12289,"Ġconfi":12290,"Ġinformou":12291,"Ã³dromo":12292,"1983":12293,"Ġbrancas":12294,"quetebol":12295,"ilaÃ§Ã£o":12296,"imenta":12297,"Ã©tricas":12298,"umble":12299,"Ġcomprou":12300,"ĠprevisÃ£o":12301,"ĠDiogo":12302,"ticas":12303,"tora":12304,"ĠeconÃ´micas":12305,"ĠprecisÃ£o":12306,"ĠPatrick":12307,"Santa":12308,"ĠconstruÃ§Ãµes":12309,"Ġax":12310,"Ġcogn":12311,"Ġfrio":12312,"enhas":12313,"Ġmenino":12314,"Ġsentir":12315,"lhes":12316,"ipse":12317,"ĠInÃ¡cio":12318,"Ġpassos":12319,"Ġabriga":12320,"ĠporÃ§Ã£o":12321,"Ġhebra":12322,"ĠPais":12323,"ĠconferÃªncia":12324,"ĠTerrit":12325,"ĠSofia":12326,"ĠRJ":12327,"ĠdistinÃ§Ã£o":12328,"ĠrepÃºblica":12329,"ĠdeclÃŃnio":12330,"Ġregularmente":12331,"Ol":12332,"Ġlitera":12333,"ÅŁ":12334,"Ġvidro":12335,"ĠAnat":12336,"ĠContra":12337,"Ġperceber":12338,"Ã³sitos":12339,"ĠtrajetÃ³ria":12340,"Ġconsta":12341,"Ġacreditam":12342,"Ġparlamentar":12343,"itÃ¡rias":12344,"ĠArist":12345,"Ġmosteiro":12346,"ĠPico":12347,"Ġvencendo":12348,"ridade":12349,"tual":12350,"ĠAD":12351,"ĠTele":12352,"Ġmarinha":12353,"metros":12354,"erias":12355,"Ġfaziam":12356,"Ã©trico":12357,"Ġliderada":12358,"ande":12359,"Ġvistos":12360,"ĠEslov":12361,"Ġ1891":12362,"iterrÃ¢neo":12363,"sim":12364,"ÎŃ":12365,"Ġobtido":12366,"ĠHouve":12367,"Ġaventura":12368,"wen":12369,"ipa":12370,"illy":12371,"dices":12372,"ĠDonald":12373,"Ġjudicial":12374,"Ġmitologia":12375,"amÃ¡":12376,"ĠTrav":12377,"ĠrestriÃ§Ãµes":12378,"Ġexame":12379,"Ġfict":12380,"ĠsecÃ§Ã£o":12381,"ĠBolsonaro":12382,"ĠNicolau":12383,"fi":12384,"Ġsop":12385,"jou":12386,"Ġida":12387,"Ġoi":12388,"ÃŃder":12389,"Ġconsideram":12390,"Ġbasicamente":12391,"inÃ¡rios":12392,"Ã¡sticas":12393,"ember":12394,"Ġfacilitar":12395,"queira":12396,"Ġselv":12397,"Ġsobrinho":12398,"ĠLabora":12399,"ĠDiz":12400,"ĠMulheres":12401,"ĠBank":12402,"ĠcemitÃ©rio":12403,"ĠCient":12404,"ĠrepÃ³rter":12405,"ĠCaio":12406,"ĠpermissÃ£o":12407,"ĠfuracÃ£o":12408,"ĠconcepÃ§Ã£o":12409,"hem":12410,"biter":12411,"terap":12412,"ersa":12413,"ĠMarÃŃa":12414,"Ġbaterista":12415,"ranco":12416,"Ġfalecido":12417,"Ġesg":12418,"Ġaper":12419,"Ġtorneios":12420,"ĠreligiÃµes":12421,"ĠRusso":12422,"ĠBatal":12423,"ĠFall":12424,"Ġsignificativo":12425,"ĠAllen":12426,"TI":12427,"ges":12428,"Ġgado":12429,"ĠHamb":12430,"Mo":12431,"rÃ´":12432,"Ġidos":12433,"ange":12434,"lis":12435,"logia":12436,"Â´":12437,"Ġlos":12438,"igual":12439,"hum":12440,"ondo":12441,"ĠMarquÃªs":12442,"Ġraramente":12443,"ĠtÃ©rmino":12444,"pen":12445,"ĠFlÃ¡vio":12446,"Ġocupado":12447,"ĠpenÃŃnsula":12448,"Ġnobreza":12449,"Ġsintet":12450,"ËĲ":12451,"ĠArc":12452,"Ġprofunda":12453,"Ġconquistando":12454,"ĠelÃ©trico":12455,"gy":12456,"Ġbarra":12457,"ijo":12458,"ĠNeu":12459,"Ste":12460,"ĠMog":12461,"Ġarbit":12462,"Ġintegrou":12463,"Ġemancip":12464,"Ġ76":12465,"Ġileg":12466,"Ġperguntas":12467,"ĠRyan":12468,"ĠMosteiro":12469,"ĠManchester":12470,"Ġbasta":12471,"tecas":12472,"ĠcÃ¡lculo":12473,"Ġbatalhas":12474,"ĠLady":12475,"ĠlanÃ§aram":12476,"Î¿ÏĤ":12477,"tz":12478,"Ġenz":12479,"ĠSinÃ´nimos":12480,"ĠUtil":12481,"Ġchuvas":12482,"Ġestil":12483,"Ġdirigir":12484,"Min":12485,"ceito":12486,"Ġapresentador":12487,"ĠPeters":12488,"Ġdescendente":12489,"Bra":12490,"ÃŃsio":12491,"Ġ63":12492,"Ġsap":12493,"egr":12494,"Ġincidente":12495,"Ġaplicada":12496,"ĠGreat":12497,"ĠGuan":12498,"Ã©mios":12499,"ĠCeltic":12500,"Ġperturb":12501,"ilhar":12502,"termin":12503,"Ġcombater":12504,"Ġprivado":12505,"ĠComando":12506,"incial":12507,"ĠAnthony":12508,"Ġenvia":12509,"Ġcoloqu":12510,"Ġfalou":12511,"Ġtreze":12512,"ĠestÃºdios":12513,"Ġviajou":12514,"anim":12515,"Ġ1902":12516,"itavam":12517,"Ġcondic":12518,"Ãºb":12519,"Ġ68":12520,"Ġesperado":12521,"ĠbenefÃŃcios":12522,"ĠHid":12523,"reak":12524,"Ġpaisagem":12525,"Ġremover":12526,"Ġinterpreta":12527,"1981":12528,"Ġcompanheiros":12529,"ĠFlorianÃ³polis":12530,"ĠbrasÃ£o":12531,"bach":12532,"ĠconsequÃªncias":12533,"ĠMS":12534,"ĠastrÃ´n":12535,"We":12536,"itana":12537,"udos":12538,"Ġconcedido":12539,"Ġtriun":12540,"ĠArquitetura":12541,"ĠVietnÃ£":12542,"ĠtrÃ¡fego":12543,"ĠNaval":12544,"ĠAbreu":12545,"Ġsentimentos":12546,"ĠprimÃ¡ria":12547,"Ġdispara":12548,"ĠJoana":12549,"ĠGÃªnero":12550,"hang":12551,"ĠCorreios":12552,"Ġeclesi":12553,"JosÃ©":12554,"Ġlac":12555,"lau":12556,"Ġseguidores":12557,"ĠHoward":12558,"tÃ³rios":12559,"ĠCÃ³r":12560,"Ġadolescente":12561,"ĠLinks":12562,"Cent":12563,"Paulo":12564,"Ġmeteor":12565,"ĠRav":12566,"ramas":12567,"ranga":12568,"ĠNegra":12569,"oral":12570,"ĠBorges":12571,"mai":12572,"ĠMoore":12573,"ĠAugust":12574,"ĠConstitucional":12575,"ĠBy":12576,"ĠCompl":12577,"ĠZe":12578,"Ġacabaram":12579,"Ġprost":12580,"Ġneer":12581,"Ġtransc":12582,"Ġliderado":12583,"Ġmerg":12584,"ĠPok":12585,"ĠhistÃ³ricas":12586,"Ġdiocese":12587,"Ġneto":12588,"Ġbei":12589,"ĠevidÃªncia":12590,"ĠArmadas":12591,"Ġentendimento":12592,"ĠDispon":12593,"mÃ£o":12594,"ĠApo":12595,"ĠsuÃŃ":12596,"Ġtol":12597,"rof":12598,"Ġcerco":12599,"Ġenvolvimento":12600,"Ġatendimento":12601,"tera":12602,"ĠEspÃ©c":12603,"Ġ1880":12604,"Americanos":12605,"ĠKos":12606,"Ġ67":12607,"ĠÃģlbuns":12608,"ĠKle":12609,"Ġreferida":12610,"primentos":12611,"ĠavaliaÃ§Ãµes":12612,"Lisboa":12613,"sw":12614,"Ġpatri":12615,"Ġcomponente":12616,"itÃ¡vel":12617,"ĠImprensa":12618,"ĠAlbu":12619,"ĠcÃ¢mera":12620,"ĠSS":12621,"Ġrelato":12622,"portuguÃªs":12623,"Ġcaracteres":12624,"eron":12625,"Ġarist":12626,"Ġpublicar":12627,"filme":12628,"ĠFriedrich":12629,"Ġindustria":12630,"integ":12631,"ĠConcordo":12632,"arÃ©":12633,"ĠMG":12634,"Ġvistas":12635,"Ġrecep":12636,"ĠES":12637,"Ġpartid":12638,"ĠAnal":12639,"doc":12640,"ĠPE":12641,"Ġfuga":12642,"ĠexplosÃ£o":12643,"ĠdiÃ¡logo":12644,"rativas":12645,"Ã©rcitos":12646,"Ġpatente":12647,"Ġobservou":12648,"Carioca":12649,"ĠConvenÃ§Ã£o":12650,"idiocese":12651,"Ġhumanas":12652,"Ġber":12653,"ĠVerbo":12654,"Ġimpuls":12655,"viÃ¡rio":12656,"Ġpertencentes":12657,"nov":12658,"Ã¥":12659,"Ġpostos":12660,"Ġassassinado":12661,"obre":12662,"ĠLeandro":12663,"ĠcontÃŃnua":12664,"Ġremanesc":12665,"usca":12666,"Ġprogresso":12667,"role":12668,"ĠPil":12669,"enciar":12670,"Ġemissoras":12671,"ĠCicl":12672,"Ġabus":12673,"Ġcurva":12674,"Ġenfraqu":12675,"Ġfinanciamento":12676,"Ġreperc":12677,"achusetts":12678,"tempo":12679,"Ġraiz":12680,"Ġdeixaram":12681,"Ġquartas":12682,"Ġarmazenamento":12683,"Part":12684,"prov":12685,"ĠCrit":12686,"ĠDick":12687,"ĠAntÃ¡r":12688,"book":12689,"Ġregistrada":12690,"celos":12691,"Ġtecidos":12692,"Ġrecomp":12693,"Mic":12694,"PG":12695,"mad":12696,"ĠExper":12697,"Ġservindo":12698,"Ġmister":12699,"ĠinstruÃ§Ãµes":12700,"ĠScience":12701,"ĠFÃ¡bio":12702,"ĠQuart":12703,"eton":12704,"ĠCarmo":12705,"ĠAlemÃ£o":12706,"Ġrigor":12707,"vard":12708,"omi":12709,"ĠAuto":12710,"Ġcontinental":12711,"Ġbrilhante":12712,"Ã©mon":12713,"Ã´lei":12714,"ituras":12715,"ĠOg":12716,"Ġmatou":12717,"ĠreuniÃµes":12718,"ĠCrÃ©d":12719,"Liv":12720,"ĠCacho":12721,"Ġcondec":12722,"ragal":12723,"ĠProfiss":12724,"ĠAgostinho":12725,"Ä«":12726,"entura":12727,"ĠLot":12728,"Ġ700":12729,"ĠbÃ¡sica":12730,"ĠNaz":12731,"Ġcoloque":12732,"Ġindicando":12733,"araÃ§Ã£o":12734,"Ġretirado":12735,"ĠOhio":12736,"Ġpedidos":12737,"Ġcass":12738,"Ġhorizont":12739,"Ġprel":12740,"Ġcircular":12741,"ĠolÃŃmpico":12742,"Ġé":12743,"Ġcorrentes":12744,"gest":12745,"hon":12746,"Ġtut":12747,"ĠJava":12748,"!!!":12749,"ĠFont":12750,"Ġbact":12751,"Ãºsculo":12752,"Ġparalelo":12753,"ĠMace":12754,"ilhÃ£o":12755,"Ġresidentes":12756,"ĠBud":12757,"get":12758,"Ġ62":12759,"Ġintroduzido":12760,"ĠproprietÃ¡rios":12761,"Ġcita":12762,"ĠLob":12763,"ĠÃģra":12764,"ĠBeach":12765,"ĠdiminuiÃ§Ã£o":12766,"ĠexÃŃlio":12767,"rass":12768,"Ġpublicidade":12769,"anes":12770,"ÃŃculo":12771,"ĠCÃ¡":12772,"Ġimparcial":12773,"ĠjurÃŃdica":12774,"iang":12775,"ĠMarx":12776,"Ġmostrado":12777,"acote":12778,"ĠBandeirantes":12779,"HO":12780,"ince":12781,"ĠMr":12782,"Ġnomin":12783,"vey":12784,"Ġimun":12785,"1986":12786,"ĠSarah":12787,"Ra":12788,"ĠconstruÃŃdas":12789,"eiga":12790,"ĠNenh":12791,"Ãºstria":12792,"Ġuniforme":12793,"Ġá":12794,"Ġrespond":12795,"Ca":12796,"ĠSolar":12797,"Ġareia":12798,"ĠsuicÃŃdio":12799,"ĠLind":12800,"ĠDur":12801,"ource":12802,"ĠsecundÃ¡rio":12803,"Ġmobil":12804,"Ġocidentais":12805,"Ġcereb":12806,"Ġcostumes":12807,"Ġalinh":12808,"guaÃ§u":12809,"Ġdecorrer":12810,"Ġetn":12811,"criÃ§Ãµes":12812,"Ġpreparar":12813,"ĠcolonizaÃ§Ã£o":12814,"Ġciclista":12815,"ĠsoviÃ©tico":12816,"ieri":12817,"Ġcompanheiro":12818,"ĠCum":12819,"Ġmoedas":12820,"wick":12821,"ĠXXI":12822,"Inst":12823,"ecÃ§Ãµes":12824,"Ġexterno":12825,"ĠDead":12826,"Ġmeninas":12827,"Ġpersonalidades":12828,"ĠArquivo":12829,"Ġsono":12830,"Ġtrabalhava":12831,"verso":12832,"Ġconquistas":12833,"ĠOlimpÃŃadas":12834,"Ġhectares":12835,"ĠDilma":12836,"war":12837,"ĠUCI":12838,"irei":12839,"ĠHop":12840,"Ġapresentados":12841,"lyn":12842,"gin":12843,"ĠNuma":12844,"Ã³ticos":12845,"ĠExecutivo":12846,"Ġprisioneiros":12847,"zen":12848,"ĠCron":12849,"Ġcorrigir":12850,"ĠNÃ³s":12851,"ĠKi":12852,"Ġescap":12853,"Ġvisitar":12854,"ĠSpace":12855,"Ġdominante":12856,"Ġescolhida":12857,"Ġabandonou":12858,"1979":12859,"Ġseparados":12860,"Ġroteirista":12861,"ionÃ¡rio":12862,"Ġtornado":12863,"ĠAlbuquerque":12864,"mun":12865,"ĠGri":12866,"Ġservido":12867,"Ġsediada":12868,"Ġproximidades":12869,"ĠMit":12870,"ĠDall":12871,"pool":12872,"ĠStory":12873,"pel":12874,"ĠAragÃ£o":12875,"Ġdecidiram":12876,"Ġexercer":12877,"radeÃ§o":12878,"Ġjanelas":12879,"ÃŃce":12880,"azes":12881,"Ġrelativa":12882,"Ġconstantes":12883,"Hz":12884,"Ġdivididos":12885,"Ã³metros":12886,"Ġalegando":12887,"Univers":12888,"ĠnavegaÃ§Ã£o":12889,"pu":12890,"ĠChannel":12891,"ĠsubstÃ¢ncia":12892,"Ġadm":12893,"Ġadotou":12894,"ĠDescob":12895,"ĠTrindade":12896,"ÉĲ":12897,"Ġrein":12898,"ĠTemp":12899,"Ġsimb":12900,"Ġdeixado":12901,"Ġ->":12902,"lexo":12903,"ĠMacho":12904,"Ġsemifinais":12905,"iÃ¡ria":12906,"quel":12907,"Ġadolescentes":12908,"ĠMeg":12909,"grÃ¡fica":12910,"Õ¡":12911,"ĠKl":12912,"Ġconjunt":12913,"Ġparceiro":12914,"Ġnascida":12915,"vision":12916,"Ġelect":12917,"Ġpoleg":12918,"ĠDentro":12919,"ĠTanto":12920,"ĠheranÃ§a":12921,"ĠParÃ³quia":12922,"Ġreorgan":12923,"Ġsexuais":12924,"ĠcooperaÃ§Ã£o":12925,"ĠComb":12926,"Ġdestinado":12927,"ãĥ¼":12928,"Ġinfraestrutura":12929,"fra":12930,"ramentos":12931,"Ġquarenta":12932,"iterÃ³i":12933,"gios":12934,"Ġfolcl":12935,"ĠautÃ´n":12936,"Ġnorma":12937,"ĠCristÃ³":12938,"Ġcavalaria":12939,"agre":12940,"Ġobed":12941,"Ġbasquete":12942,"Ġbarco":12943,"Ġdomic":12944,"Ġjornada":12945,"ĠDivers":12946,"Ġdescobertas":12947,"ĠMinha":12948,"Ġesbo":12949,"Ġsementes":12950,"Ġretirou":12951,"Ãºrg":12952,"Sp":12953,"enhores":12954,"ĠAtravÃ©s":12955,"Ġartificial":12956,"Ġregulares":12957,"Ġdistintos":12958,"Soc":12959,"hor":12960,"Ġcai":12961,"rik":12962,"ĠdinÃ¢mica":12963,"ĠPsic":12964,"Ġtu":12965,"ĠreÃºne":12966,"very":12967,"ĠBia":12968,"ĠMembro":12969,"issem":12970,"Ġempreend":12971,"ennis":12972,"ĠhÃºm":12973,"ĠApol":12974,"Ġcontinuam":12975,"Ġcomplexos":12976,"Ġmandou":12977,"UE":12978,"Ep":12979,"final":12980,"sburg":12981,"ident":12982,"boy":12983,"Ġtorcedores":12984,"iador":12985,"ivismo":12986,"Ã³pia":12987,"Ġmonst":12988,"wi":12989,"Ãªmea":12990,"eciam":12991,"Ġmarco":12992,"prefeito":12993,"Ġintegrado":12994,"Ġnit":12995,"ĠHumanos":12996,"alin":12997,"Ġfras":12998,"ĠCS":12999,"Ġinqu":13000,"Ġpassagens":13001,"GO":13002,"ĠMÃ£e":13003,"ĠâĢ¦":13004,"Ġprimavera":13005,"Ġindicam":13006,"incluindo":13007,"Ġseguro":13008,"Ġsubsp":13009,"ĠGetÃºlio":13010,"Ġ×":13011,"ĠCoorden":13012,"pado":13013,"ĠConforme":13014,"Ġclassificada":13015,"ĠbraÃ§os":13016,"ĠCurso":13017,"ĠTiago":13018,"Ġ77":13019,"Ġadotado":13020,"Ġ1898":13021,"ĠSudeste":13022,"mil":13023,"Ġeuros":13024,"Ġprocessamento":13025,"Ġsozinho":13026,"Gra":13027,"IR":13028,"ĠfÃªmeas":13029,"Ġminim":13030,"inam":13031,"ĠAta":13032,"ĠSala":13033,"Ã¡ssico":13034,"Ġenferm":13035,"lbum":13036,"Ġtransferiu":13037,"Ġdown":13038,"Ġpertencia":13039,"Ġrepresentada":13040,"ĠcientÃŃficos":13041,"Ġalimentar":13042,"ĠcoloraÃ§Ã£o":13043,"Ġfich":13044,"ĠgenÃ©tica":13045,"aux":13046,"Ġemig":13047,"raniano":13048,"ĠdiÃ¡rio":13049,"ĠCavaleiro":13050,"Me":13051,"ascular":13052,"Ġdestacado":13053,"Ġprocedimentos":13054,"antar":13055,"poss":13056,"ĠHistor":13057,"Ġjornalistas":13058,"loyd":13059,"Cr":13060,"cimento":13061,"ĠRow":13062,"ĠestatÃŃsticas":13063,"ĠCerca":13064,"tus":13065,"eixo":13066,"Ġvendidas":13067,"Ġnoruegu":13068,"1984":13069,"ĠCaf":13070,"ĠMorr":13071,"inois":13072,"Ġcaminhos":13073,"Ġincorre":13074,"ĠGerm":13075,"uiÃ§Ã£o":13076,"iscopal":13077,"ĠTomÃ¡s":13078,"Ġescolheu":13079,"ĠModerna":13080,"ĠVictoria":13081,"entre":13082,"entamente":13083,"ĠMei":13084,"ĠreputaÃ§Ã£o":13085,"ĠPlat":13086,"Ġmachos":13087,"ĠsubstÃ¢ncias":13088,"ĠRenas":13089,"intes":13090,"ĠComand":13091,"Ġvulc":13092,"tivos":13093,"ĠÃºnicos":13094,"ĠmÃŃnima":13095,"Ġexperimental":13096,"Ġmecanismos":13097,"ĠLag":13098,"Ġvinho":13099,"ĠcidadÃ£o":13100,"ĠelaboraÃ§Ã£o":13101,"Res":13102,"Ġpernas":13103,"Ġaquelas":13104,"ciÃ³n":13105,"Ġcauda":13106,"Ġcertamente":13107,"Ġconvocado":13108,"ĠsÃ¡bado":13109,"ĠMorreu":13110,"ectura":13111,"ĠRibeirÃ£o":13112,"keting":13113,"aviera":13114,"ĠLov":13115,"Ġperif":13116,"PM":13117,"eteria":13118,"Ġabandonar":13119,"Ġcomentar":13120,"ĠTun":13121,"ĠAlago":13122,"ĠAlguÃ©m":13123,"Ġcertificado":13124,"Ġjanela":13125,"Ġhierar":13126,"ĠManaus":13127,"Pre":13128,"sp":13129,"uer":13130,"Ġvejo":13131,"Ġaglom":13132,"ĠBened":13133,"Ġvencedora":13134,"Ġdistante":13135,"Enc":13136,"eriormente":13137,"ĠseÃ§Ãµes":13138,"Ġsegmentos":13139,"ĠsemelhanÃ§a":13140,"Ġurban":13141,"eramente":13142,"Ġafirmar":13143,"Ġavaliar":13144,"Ġigualdade":13145,"ĠsugestÃ£o":13146,"atia":13147,"oln":13148,"ĠFeira":13149,"Ġ88":13150,"pass":13151,"Ġramos":13152,"Ġpastor":13153,"Ser":13154,"Ġcompens":13155,"ĠÃªn":13156,"agÃ£o":13157,"Ġ1895":13158,"Ġintensa":13159,"Ġanalisar":13160,"Ġactividade":13161,"ĠBritÃ¢nica":13162,"Ġprecon":13163,"ĠIg":13164,"ĠMÃ¼":13165,"ĠTodo":13166,"Ġcondados":13167,"ecomun":13168,"Ġambientais":13169,"Ġextragal":13170,"ĠPrÃ©":13171,"ĠTÃ©cnico":13172,"Ġrecordes":13173,"Ġç":13174,"Ġyou":13175,"Ġaplicativo":13176,"ĠVirgem":13177,"ĠsÃ©tima":13178,"ĠquilÃ³metros":13179,"ĠÃªxito":13180,"athan":13181,"Ġinduz":13182,"Ġconseguindo":13183,"Ġmercados":13184,"Ġobtendo":13185,"Ġdeclarado":13186,"Ġsubtropicais":13187,"ĠsessÃµes":13188,"ixos":13189,"Ã©simo":13190,"ĠconversÃ£o":13191,"ĠviolÃ£o":13192,"ĠTechn":13193,"ĠGames":13194,"ĠKer":13195,"Ġ69":13196,"rong":13197,"Ġestivesse":13198,"oud":13199,"Ġinvent":13200,"ĠSyd":13201,"sil":13202,"Ġsurpresa":13203,"ĠTransportes":13204,"qued":13205,"Ġ84":13206,"ĠSax":13207,"Ġencerramento":13208,"adjuv":13209,"pido":13210,"Ġrendeu":13211,"ĠSampa":13212,"ĠTrabalhadores":13213,"ĠpÃªn":13214,"ulando":13215,"Ġrast":13216,"Ġlongos":13217,"Ġensaios":13218,"bus":13219,"ĠBull":13220,"Ġexam":13221,"ĠrestauraÃ§Ã£o":13222,"ĠOnde":13223,"ĠEmpres":13224,"head":13225,"Ġconversa":13226,"ĠBurn":13227,"ingham":13228,"ĠMaster":13229,"quenta":13230,"imate":13231,"etim":13232,"ĠInstitu":13233,"Ġfinanceiros":13234,"ĠAmericano":13235,"Ġsequer":13236,"Ġtorcida":13237,"ĠiluminaÃ§Ã£o":13238,"Ġsangu":13239,"ĠmodificaÃ§Ãµes":13240,"Ġavenida":13241,"ĠMaomÃ©":13242,"Ġesperar":13243,"Ġraios":13244,"ĠhomÃ´nimo":13245,"Ġcinemas":13246,"ĠAlfred":13247,"ĠPequim":13248,"Ġarroz":13249,"iki":13250,"Ġapresentava":13251,"ĠRoad":13252,"ĠassociaÃ§Ãµes":13253,"ĠBi":13254,"Ġengan":13255,"ĠAgricultura":13256,"Ġsentimento":13257,"Ġresolveu":13258,"Ġvariam":13259,"Ġobjectos":13260,"ĠDomingo":13261,"Ġjuris":13262,"Ġconsequentemente":13263,"ĠextragalÃ¡ctica":13264,"ÅĦ":13265,"ĠLamb":13266,"ichi":13267,"ĠradiaÃ§Ã£o":13268,"John":13269,"ĠBooks":13270,"Ġfotografias":13271,"Â».":13272,"Love":13273,"É¾":13274,"presente":13275,"Ġdizia":13276,"icadas":13277,"Ġconform":13278,"ĠRaimundo":13279,"PD":13280,"imi":13281,"ĠVoz":13282,"ĠvÃ¡lida":13283,"eler":13284,"ĠChristopher":13285,"Ġfrutos":13286,"ĠBaviera":13287,"Ġformalmente":13288,"Ġproduzidas":13289,"Ġpet":13290,"ĠsÃ©r":13291,"anca":13292,"ĠBeira":13293,"ĠDog":13294,"ĠintÃ©rpre":13295,"ĠParal":13296,"ĠtÃŃpico":13297,"Ġbizantino":13298,"Ġarre":13299,"Ġsalto":13300,"Har":13301,"Ġcombo":13302,"Ġformaram":13303,"Ġembaixador":13304,"ĠAur":13305,"ĠData":13306,"ĠUK":13307,"ĠOriginalmente":13308,"oi":13309,"ĠÄ":13310,"Ġbro":13311,"voz":13312,"ĠThreat":13313,"Ġtalentos":13314,"Ã²":13315,"ĠUnder":13316,"ĠMassachusetts":13317,"fato":13318,"astas":13319,"Ġchegam":13320,"jamento":13321,"Ġvas":13322,"ĠnoÃ§Ã£o":13323,"ĠMorgan":13324,"ĠbotÃ¢nico":13325,"atemala":13326,"Ġont":13327,"Ġgent":13328,"Ġtratados":13329,"Ġordenado":13330,"Ġpositivas":13331,"1982":13332,"Ġencontraram":13333,"ĠmanifestaÃ§Ã£o":13334,"ĠFA":13335,"duta":13336,"Ġ61":13337,"Ġanunciada":13338,"ĠGilberto":13339,"Ð¾Ð²":13340,"Ġaldeias":13341,"Ġparecia":13342,"Ġvariante":13343,"Tra":13344,"Ġcot":13345,"Ġarrem":13346,"Ġaumentando":13347,"Ġexpressa":13348,"Ġ1896":13349,"atado":13350,"uzil":13351,"Ġmach":13352,"Ġorganizou":13353,"Ġatinge":13354,"Ġbrin":13355,"Ã¢ndalo":13356,"ĠGam":13357,"ĠcolÃ´nias":13358,"ĠacadÃªmico":13359,"ĠÃ¡lcool":13360,"Lista":13361,"ĠRiv":13362,"Ġbura":13363,"ĠFilmes":13364,"Ġtorres":13365,"ĠdiagnÃ³stico":13366,"Ġnegativo":13367,"ĠfavorÃ¡vel":13368,"ĠBenjamin":13369,"sar":13370,"idaceae":13371,"Ġenquad":13372,"ĠMetrÃ´":13373,"usias":13374,"ĠgrÃ¡ficos":13375,"ples":13376,"Ġeuropeias":13377,"rates":13378,"tory":13379,"Ġcausada":13380,"ĠfÃŃsicos":13381,"ĠCatalogue":13382,"\"\".":13383,"arial":13384,"quina":13385,"chel":13386,"Ġmonarquia":13387,"Ġfortaleza":13388,"ĠMatos":13389,"Ġacons":13390,"ĠLaure":13391,"Ġcolonos":13392,"ĠÃªnfase":13393,"Ã©b":13394,"Ġprecisamente":13395,"ĠArÃ¡bia":13396,"Ġcompletou":13397,"pÃ©":13398,"ĠfÃ©r":13399,"ĠTais":13400,"Ġentreten":13401,"Ã³nico":13402,"def":13403,"Ġcentrais":13404,"Ġferidos":13405,"Ġimplica":13406,"Ġdiminuir":13407,"ĠBairro":13408,"Dom":13409,"hin":13410,"arro":13411,"Ġocor":13412,"ĠMorro":13413,"Ġgooglehack":13414,"HF":13415,"Ġhavendo":13416,"Ġcompreende":13417,"ĠOrigem":13418,"Ġ1897":13419,"Ġuc":13420,"Ġbaixos":13421,"ĠNASA":13422,"ĠQuer":13423,"orrido":13424,"ĠRegimento":13425,"ĠTailÃ¢ndia":13426,"Ġjustamente":13427,"feiÃ§o":13428,"rint":13429,"Ġreconhecer":13430,"ĠMediterrÃ¢neo":13431,"Ġbolsa":13432,"ĠAlianÃ§a":13433,"Ġdella":13434,"Ġreunir":13435,"Ġdestacar":13436,"ĠCidad":13437,"Ġmodernas":13438,"sou":13439,"ĠUnidade":13440,"Ġrib":13441,"Ġsanto":13442,"Ġbara":13443,"ÃŃgios":13444,"ĠEquipe":13445,"Ġinteligente":13446,"consultado":13447,"Ġlegais":13448,"Ġ1893":13449,"Ġextraord":13450,"Ġantecip":13451,"ĠMonten":13452,"Ġefect":13453,"rades":13454,"andu":13455,"ĠSporting":13456,"Ġcunh":13457,"iosamente":13458,"laus":13459,"ĠNotÃŃcias":13460,"bury":13461,"mida":13462,"ĠNu":13463,"Ġportuguesas":13464,"ĠFarm":13465,"ĠDefin":13466,"Ġsignificativamente":13467,"Ġcomplexidade":13468,"ĠseleÃ§Ãµes":13469,"erano":13470,"ĠMarina":13471,"ĠMemorial":13472,"Ġsociedades":13473,"ĠCham":13474,"ĠrÃŃg":13475,"Ġguia":13476,"Ġmanifest":13477,"Ġdesconhecida":13478,"Ġeficiente":13479,"idem":13480,"ĠPrado":13481,"Ġalien":13482,"ĠOlÃŃmpico":13483,"Maria":13484,"Val":13485,"Ġdescart":13486,"ancha":13487,"ousse":13488,"Ã©f":13489,"ĠuniversitÃ¡rio":13490,"rod":13491,"ilio":13492,"erton":13493,"ĠQuÃŃmica":13494,"Ġmonito":13495,"Ġ1894":13496,"ÃĩÃĥO":13497,"Je":13498,"Î¬":13499,"Î¯":13500,"etra":13501,"ĠGeralmente":13502,"bot":13503,"Ġburoc":13504,"ops":13505,"ĠPaquistÃ£o":13506,"Ġ99":13507,"ĠExter":13508,"1980":13509,"Ġinstalada":13510,"Ġost":13511,"ĠSerÃ¡":13512,"Ġcrescer":13513,"Ġministros":13514,"Ġpagina":13515,"ĠWhit":13516,"Ġchineses":13517,"eccion":13518,"Ġdifund":13519,"Ġ1885":13520,"Ġsugeriu":13521,"PC":13522,"ĠsÃ³cio":13523,"Les":13524,"ĠdomÃŃnios":13525,"UF":13526,"Ġconto":13527,"ĠEstrutura":13528,"ĠNigÃ©ria":13529,"ĠMachoCarioca":13530,"Rec":13531,"jes":13532,"itÃ¢nia":13533,"Ġfuncionar":13534,"Ġnuv":13535,"ĠDiam":13536,"Ġturb":13537,"ĠJohnny":13538,"ĠespetÃ¡culo":13539,"cro":13540,"vidos":13541,"Ġfome":13542,"achel":13543,"Ġpedag":13544,"ĠSC":13545,"Ġ1892":13546,"Ġatingido":13547,"ĠPy":13548,"Ġlegit":13549,"anny":13550,"ĠCharlie":13551,"ĠVasconcelos":13552,"ĠCost":13553,"riamente":13554,"ĠPast":13555,"Ġbomba":13556,"ĠgeraÃ§Ãµes":13557,"bc":13558,"class":13559,"ĠBaÃŃa":13560,"ĠVermelha":13561,"Ġentretenimento":13562,"doxa":13563,"Ġpasta":13564,"ĠSint":13565,"ivel":13566,"Ãĵ":13567,"ĠSak":13568,"ĠPÃ³s":13569,"ĠRab":13570,"ĠRaul":13571,"Ġlembrar":13572,"sexuais":13573,"cu":13574,"ĠMex":13575,"Ġtelefone":13576,"Cast":13577,"eÃ§a":13578,"apura":13579,"Ġfalantes":13580,"Ġturistas":13581,"ĠeficiÃªncia":13582,"ĠTag":13583,"ĠAlv":13584,"Ġrequisitos":13585,"ĠBrazil":13586,"guez":13587,"guarda":13588,"ĠKara":13589,"Ġrussos":13590,"Ġensaio":13591,"ĠGeraldo":13592,"entista":13593,"Ġvisitou":13594,"Ġciclone":13595,"Ġperderam":13596,"ĠemprÃ©stimo":13597,"uitos":13598,"Ġnossas":13599,"Prim":13600,"Ġpir":13601,"ĠpaixÃ£o":13602,"ĠBarreto":13603,"ĠMagazine":13604,"ĠJimmy":13605,"ĠagrÃŃcolas":13606,"Ġquantidades":13607,"Ġsobreviventes":13608,"wski":13609,"Ġactualmente":13610,"isi":13611,"Ġreservas":13612,"Ġeficaz":13613,"Hol":13614,"Ġmedalh":13615,"American":13616,"ĠAnÃ¡lise":13617,"Ġteclado":13618,"Ġlutou":13619,"alth":13620,"ĠLugar":13621,"Ġligadas":13622,"Ġalterado":13623,"Ġreceita":13624,"Ġnu":13625,"ĠparÃ³quia":13626,"incoln":13627,"Ġalgoritmo":13628,"Ġpne":13629,"Ġdon":13630,"ĠReforma":13631,"Ġracional":13632,"NT":13633,"Sch":13634,"uxa":13635,"Ġquerem":13636,"ĠconcluÃŃda":13637,"ĠquÃŃmico":13638,"ĠrelanÃ§":13639,"ĠmetÃ¡l":13640,"Ġ1888":13641,"Ġdramat":13642,"ĠDA":13643,"ĠTrev":13644,"Ġforem":13645,"ĠconsideraÃ§Ã£o":13646,"Ġromances":13647,"Ġaplicado":13648,"Ġgama":13649,"Ġreduzido":13650,"ĠmolÃ©culas":13651,"ĠRoll":13652,"ĠChip":13653,"Ġcabelo":13654,"ĠBeatriz":13655,"Ġrevest":13656,"Ã¶n":13657,"Ġadequada":13658,"Ġcompromisso":13659,"ĠChecklist":13660,"iche":13661,"ĠobservaÃ§Ãµes":13662,"Ġnad":13663,"ĠFolha":13664,"ĠcitaÃ§Ãµes":13665,"ĠHem":13666,"Ġmonarca":13667,"ĠSuperliga":13668,"ĠperiÃ³dica":13669,"orias":13670,"Ġhor":13671,"oledo":13672,"Ġespada":13673,"Ġrenasc":13674,"ĠCai":13675,"Ġparas":13676,"undes":13677,"Ġ98":13678,"Ġtradicionalmente":13679,"gressos":13680,"ĠAlgar":13681,"oriais":13682,"ĠHora":13683,"ascar":13684,"ĠBrux":13685,"Ġliteracia":13686,"Ġdisto":13687,"ĠdanÃ§ar":13688,"EA":13689,"uladas":13690,"ences":13691,"Ġcontempl":13692,"Ġrestaurante":13693,"Ġfestivais":13694,"ĠFur":13695,"Ġ1860":13696,"Ġcruc":13697,"Da":13698,"nie":13699,"Ġmis":13700,"Ġesfera":13701,"Char":13702,"Ġtrom":13703,"Ãºsc":13704,"Ġcantando":13705,"Ġcompreender":13706,"ĠmamÃŃferos":13707,"ping":13708,"Äĥ":13709,"ĠDicionÃ¡rio":13710,"ĠTch":13711,"ĠWa":13712,"Ġvivia":13713,"Ġmagist":13714,"intur":13715,"Ġdesl":13716,"ĠWagner":13717,"ĠProbl":13718,"TS":13719,"iani":13720,"ĠDemocrÃ¡tico":13721,"Ġcineasta":13722,"Ġdentes":13723,"ĠferroviÃ¡ria":13724,"ecas":13725,"XX":13726,"ĠMetro":13727,"ĠBrito":13728,"Ġans":13729,"Ġlimp":13730,"ĠaproximaÃ§Ã£o":13731,"Ġtransmitida":13732,"Ġgigantes":13733,"ĠpÃ´de":13734,"ĠMarshall":13735,"ĠAmÃ©ricas":13736,"Ġindustriais":13737,"ĠBang":13738,"ĠSempre":13739,"mund":13740,"ĠPab":13741,"ĠPanamÃ¡":13742,"Ã¡tima":13743,"Ġ73":13744,"Ġprovar":13745,"ĠKaz":13746,"php":13747,"ĠFoundation":13748,"Ġgabinete":13749,"ĠcÃ£es":13750,"Ġestabelece":13751,"bu":13752,"alg":13753,"ĠPam":13754,"ĠBenfica":13755,"Ġbombarde":13756,"Ġelogiou":13757,"Ġanjo":13758,"Ġsubstituiu":13759,"ĠPerÃŃodo":13760,"ĠlegÃŃt":13761,"SAM":13762,"ĠElis":13763,"ĠChaves":13764,"graph":13765,"GA":13766,"ÃŃsta":13767,"Ġinfantaria":13768,"Ġmau":13769,"Ġindependentemente":13770,"Cha":13771,"ĠNogueira":13772,"fac":13773,"ĠDave":13774,"ESCO":13775,"Ã©gios":13776,"Ġtransmitir":13777,"MB":13778,"Ġpisc":13779,"entin":13780,"ĠexÃ©rcitos":13781,"Ġagric":13782,"Ġtalento":13783,"ĠalcanÃ§ando":13784,"ĠIndivid":13785,"Ġnegativa":13786,"Ġautomobil":13787,"ĠconcluÃŃdo":13788,"ĠÃ¢ngulo":13789,"ĠSampaio":13790,"bor":13791,"opl":13792,"oluÃ§Ã£o":13793,"ezes":13794,"ĠestÃ¡vel":13795,"ĠPresidÃªncia":13796,"ĠMatemÃ¡tica":13797,"Ġcoletiva":13798,"Ã³quei":13799,"Ġpacote":13800,"Ġclipe":13801,"feld":13802,"ĠemissÃ£o":13803,"Ġreag":13804,"Ġalter":13805,"clatura":13806,"Ġrecebem":13807,"Ġinoc":13808,"Ġtocou":13809,"anco":13810,"Ġparticipando":13811,"ĠBilly":13812,"Lei":13813,"ĠSign":13814,"abara":13815,"ĠAlexandria":13816,"ĠsuspensÃ£o":13817,"Ġtranst":13818,"ĠTocant":13819,"rence":13820,"alos":13821,"ĠSqu":13822,"ĠGuara":13823,"ĠtrÃ¢nsito":13824,"Ġmetodo":13825,"rÃ¡ria":13826,"iminar":13827,"Ġesportivo":13828,"Ġinfluenciado":13829,"Ġnumerosos":13830,"emento":13831,"ĠComercial":13832,"Ġira":13833,"Ġ1899":13834,"ĠSydney":13835,"Ġvenez":13836,"ĠLuciano":13837,"Ġvirou":13838,"Out":13839,"Sil":13840,"Ġmasculina":13841,"ĠBit":13842,"ĠDj":13843,"Ġsentiu":13844,"abilidades":13845,"haus":13846,"Ġcolapso":13847,"ĠbÃ¡sicos":13848,"ĠBritÃ¢nico":13849,"Ã¡utica":13850,"aste":13851,"Ġamante":13852,"ĠvÃ¡lido":13853,"Ġov":13854,"ĠCidades":13855,"Ġassemb":13856,"Ġpercebe":13857,"Ġmedicamentos":13858,"elhado":13859,"Ġcantou":13860,"ĠFranÃ§ois":13861,"ĠFreire":13862,"Ġneve":13863,"Ġ1864":13864,"Ġobjectivo":13865,"Ġresul":13866,"Ġtranspar":13867,"ĠNewton":13868,"Ġ\".":13869,"Ġjazz":13870,"Ġreeleito":13871,"ĠtraÃ§os":13872,"Ġpostura":13873,"ĠPrec":13874,"rell":13875,"Ġmestrado":13876,"Mon":13877,"nam":13878,"Ġviviam":13879,"Ġcortes":13880,"quista":13881,"ĠConvento":13882,"ĠPers":13883,"ĠDut":13884,"Ġdesenc":13885,"ĠMalta":13886,"ĠcrenÃ§as":13887,"Ġgerm":13888,"Ġenvolveu":13889,"ĠlusÃ³f":13890,"ĠBatalhÃ£o":13891,"Ġtria":13892,"ĠLast":13893,"ĠCamargo":13894,"ugoslÃ¡via":13895,"Af":13896,"yan":13897,"Ġlegado":13898,"ĠThreatened":13899,"Ġrespira":13900,"ĠAbu":13901,"Ġdefensor":13902,"eganistÃ£o":13903,"ulosa":13904,"Via":13905,"ĠcÃ©le":13906,"ÃŃada":13907,"ilhelm":13908,"ĠdistribuÃŃdos":13909,"Ġacompanhar":13910,"iliano":13911,"ĠRat":13912,"Ġdespre":13913,"Ġplatina":13914,"eni":13915,"ĠNich":13916,"ĠMoz":13917,"ĠfaÃ§o":13918,"ĠGoiÃ¢nia":13919,"ĠCarey":13920,"Ġcomplement":13921,"Ġreduzida":13922,"ĠDance":13923,"Ġfrust":13924,"ĠGren":13925,"ĠpoderÃ£o":13926,"Ġlevam":13927,"distrito":13928,"ecomunicaÃ§Ãµes":13929,"Ġup":13930,"ĠpÃ¡":13931,"ĠColÃ´nia":13932,"Ġfolha":13933,"elia":13934,"rique":13935,"Ã³lia":13936,"Ġserra":13937,"Ġaplica":13938,"bell":13939,"betes":13940,"ĠpÃ³":13941,"Ġeletro":13942,"ĠmÃ©dias":13943,"Ġderivado":13944,"retamente":13945,"ĠIgu":13946,"ĠKh":13947,"Ġcostuma":13948,"ĠUSP":13949,"ĠproporÃ§Ã£o":13950,"ĠexpressÃµes":13951,"ĠdistribuÃŃdo":13952,"Ġabertos":13953,"Ġrecolh":13954,"Ġdedicar":13955,"Ġcolaboradores":13956,"ĠGirls":13957,"LC":13958,"ĠraÃ§as":13959,"Ġjornalismo":13960,"Ġenviados":13961,"ĠdocumentaÃ§Ã£o":13962,"ĠreaÃ§Ãµes":13963,"Ġconso":13964,"ĠJung":13965,"Ġdiretora":13966,"ĠPetr":13967,"Ġestuda":13968,"Ġsuced":13969,"ĠLegenda":13970,"Ġextrema":13971,"ĠAch":13972,"ĠJunta":13973,"ĠVisconde":13974,"Ġregrav":13975,"Ġades":13976,"ĠTat":13977,"ĠHog":13978,"rett":13979,"Ġoitavo":13980,"Ġrecusa":13981,"ĠsatÃ©lites":13982,"Ġwww":13983,"Ġtoma":13984,"Ã±o":13985,"ĠcircunstÃ¢ncias":13986,"van":13987,"iciÃ¡rio":13988,"omeu":13989,"ocÃª":13990,"Ġocupada":13991,"Ġatingindo":13992,"Ġpublica":13993,"Ã³w":13994,"ĠTeles":13995,"ĠWith":13996,"Ġteologia":13997,"Ġsubstant":13998,"ĠJapan":13999,"ĠinvestigaÃ§Ãµes":14000,"Ġterrestres":14001,"eight":14002,"ĠApost":14003,"Ġ1886":14004,"rariamente":14005,"Ġobservado":14006,"ĠpremiaÃ§Ã£o":14007,"ĠanÃ¡lises":14008,"sin":14009,"ĠVÃ¡rias":14010,"ĠCard":14011,"ĠcientÃŃficas":14012,"Ġbord":14013,"enny":14014,"ĠIndÃºstria":14015,"ĠTalvez":14016,"Ġrat":14017,"ĠCout":14018,"Ġsupre":14019,"Ġofereceu":14020,"Ġaprovou":14021,"ĠatribuÃŃda":14022,"ĠAmbiente":14023,"ĠRussell":14024,"Ġsenso":14025,"Ġlab":14026,"ĠbÃºl":14027,"ĠGuatemala":14028,"Ġdebates":14029,"ĠDas":14030,"ĠPerform":14031,"Ġgradualmente":14032,"Ġestabilidade":14033,"oku":14034,"HA":14035,"ĠcÃ£o":14036,"esis":14037,"alia":14038,"Ġperfeito":14039,"Ã´nus":14040,"ĠÃĤng":14041,"ĠAfeganistÃ£o":14042,"ĠFloresta":14043,"ĠSociais":14044,"Ġaceito":14045,"Ġsacerdote":14046,"Ġdil":14047,"inot":14048,"ĠholandÃªs":14049,"Ġtrag":14050,"renos":14051,"Ġcolocadas":14052,"ĠGaliza":14053,"Ġcompositores":14054,"Ġtrazendo":14055,"Ġut":14056,"itri":14057,"elagem":14058,"igura":14059,"Ġrodas":14060,"ĠSocorro":14061,"ĠcompilaÃ§Ã£o":14062,"ible":14063,"qual":14064,"ornos":14065,"Ġadulto":14066,"Ġcompetir":14067,"Ġpobreza":14068,"pio":14069,"Ãºrio":14070,"ief":14071,"ĠRacing":14072,"ĠcÃ³d":14073,"ĠNO":14074,"ĠJess":14075,"rame":14076,"Ġseguem":14077,"Ġapresentadas":14078,"Ġbits":14079,"irme":14080,"Ġpreta":14081,"udaÃ§Ãµes":14082,"Ġdeusa":14083,"ĠCampanha":14084,"ĠJerry":14085,"ĠcrÃ©ditos":14086,"ĠCesar":14087,"ÃŃo":14088,"cla":14089,"Ġacompanha":14090,"ĠOrtogrÃ¡fico":14091,"arense":14092,"ĠCot":14093,"Ã©ricos":14094,"Ġrespectivos":14095,"ĠsobrevivÃªncia":14096,"Ġalimento":14097,"Ġabrange":14098,"Ġpraias":14099,"ĠrepertÃ³rio":14100,"anz":14101,"Ġbrev":14102,"ĠGaz":14103,"Ġentusias":14104,"ally":14105,"Ã¡sticos":14106,"ĠLake":14107,"riana":14108,"Ġaparelho":14109,"inton":14110,"ĠWind":14111,"Ġpadron":14112,"Ġcomunista":14113,"Ġbispos":14114,"allen":14115,"ĠPensilvÃ¢nia":14116,"Ġmelhoria":14117,"Ġtemplos":14118,"ĠCemitÃ©rio":14119,"ĠdecoraÃ§Ã£o":14120,"Ġza":14121,"ĠProduc":14122,"Ġconvento":14123,
[...]
