{"!":0,"\"":1,"#":2,"$":3,"%":4,"&":5,"'":6,"(":7,")":8,"*":9,"+":10,",":11,"-":12,".":13,"/":14,"0":15,"1":16,"2":17,"3":18,"4":19,"5":20,"6":21,"7":22,"8":23,"9":24,":":25,";":26,"<":27,"=":28,">":29,"?":30,"@":31,"A":32,"B":33,"C":34,"D":35,"E":36,"F":37,"G":38,"H":39,"I":40,"J":41,"K":42,"L":43,"M":44,"N":45,"O":46,"P":47,"Q":48,"R":49,"S":50,"T":51,"U":52,"V":53,"W":54,"X":55,"Y":56,"Z":57,"[":58,"\\":59,"]":60,"^":61,"_":62,"`":63,"a":64,"b":65,"c":66,"d":67,"e":68,"f":69,"g":70,"h":71,"i":72,"j":73,"k":74,"l":75,"m":76,"n":77,"o":78,"p":79,"q":80,"r":81,"s":82,"t":83,"u":84,"v":85,"w":86,"x":87,"y":88,"z":89,"{":90,"|":91,"}":92,"~":93,"¡":94,"¢":95,"£":96,"¤":97,"¥":98,"¦":99,"§":100,"¨":101,"©":102,"ª":103,"«":104,"¬":105,"®":106,"¯":107,"°":108,"±":109,"²":110,"³":111,"´":112,"µ":113,"¶":114,"·":115,"¸":116,"¹":117,"º":118,"»":119,"¼":120,"½":121,"¾":122,"¿":123,"À":124,"Á":125,"Â":126,"Ã":127,"Ä":128,"Å":129,"Æ":130,"Ç":131,"È":132,"É":133,"Ê":134,"Ë":135,"Ì":136,"Í":137,"Î":138,"Ï":139,"Ð":140,"Ñ":141,"Ò":142,"Ó":143,"Ô":144,"Õ":145,"Ö":146,"×":147,"Ø":148,"Ù":149,"Ú":150,"Û":151,"Ü":152,"Ý":153,"Þ":154,"ß":155,"à":156,"á":157,"â":158,"ã":159,"ä":160,"å":161,"æ":162,"ç":163,"è":164,"é":165,"ê":166,"ë":167,"ì":168,"í":169,"î":170,"ï":171,"ð":172,"ñ":173,"ò":174,"ó":175,"ô":176,"õ":177,"ö":178,"÷":179,"ø":180,"ù":181,"ú":182,"û":183,"ü":184,"ý":185,"þ":186,"ÿ":187,"Ā":188,"ā":189,"Ă":190,"ă":191,"Ą":192,"ą":193,"Ć":194,"ć":195,"Ĉ":196,"ĉ":197,"Ċ":198,"ċ":199,"Č":200,"č":201,"Ď":202,"ď":203,"Đ":204,"đ":205,"Ē":206,"ē":207,"Ĕ":208,"ĕ":209,"Ė":210,"ė":211,"Ę":212,"ę":213,"Ě":214,"ě":215,"Ĝ":216,"ĝ":217,"Ğ":218,"ğ":219,"Ġ":220,"ġ":221,"Ģ":222,"ģ":223,"Ĥ":224,"ĥ":225,"Ħ":226,"ħ":227,"Ĩ":228,"ĩ":229,"Ī":230,"ī":231,"Ĭ":232,"ĭ":233,"Į":234,"į":235,"İ":236,"ı":237,"Ĳ":238,"ĳ":239,"Ĵ":240,"ĵ":241,"Ķ":242,"ķ":243,"ĸ":244,"Ĺ":245,"ĺ":246,"Ļ":247,"ļ":248,"Ľ":249,"ľ":250,"Ŀ":251,"ŀ":252,"Ł":253,"ł":254,"Ń":255,"Ġd":256,"Ġe":257,"Ġde":258,"Ġa":259,"ra":260,"Ġp":261,"os":262,"Ġc":263,"nt":264,"es":265,"er":266,"as":267,"or":268,"Ġs":269,"ad":270,"in":271,"is":272,"ar":273,"Ã£":274,"Ġco":275,"Ã£o":276,"re":277,"ia":278,"Ġn":279,"Ġo":280,"Ġm":281,"Ã§":282,"ic":283,"qu":284,"al":285,"Ġf":286,"Ġt":287,"an":288,"ro":289,"ent":290,"Ã©":291,"id":292,"um":293,"en":294,"it":295,"em":296,"Ġqu":297,"io":298,"ĠA":299,"Ġcom":300,"el":301,"Ġdo":302,"am":303,"st":304,"ĠC":305,"Ã¡":306,"do":307,"Ġem":308,"Ġum":309,"Ã§Ã£o":310,"Ġda":311,"im":312,"ÃŃ":313,"ĠS":314,"Ġque":315,"Ġ1":316,"il":317,"ĠP":318,"Ġ\"":319,"ĠE":320,"at":321,"Ġ(":322,"ara":323,"on":324,"ĠM":325,"Ġv":326,"ul":327,"Ġse":328,"ol":329,"Ġre":330,"Ġno":331,"Ġl":332,"ta":333,"Ġ2":334,"un":335,"ei":336,"ado":337,"iv":338,"Ã³":339,"ou":340,"ĠB":341,"ĠR":342,"nc":343,"ig":344,"ente":345,"ĠO":346,"Ãª":347,"ut":348,"ec":349,"ĠL":350,"Ġpara":351,"us":352,"ĠD":353,"de":354,"ĠF":355,"ĠT":356,"Ġuma":357,"ĠN":358,"Ġb":359,"om":360,"res":361,"ist":362,"et":363,"Ġg":364,"Ġin":365,"Ġna":366,"Ġfo":367,"ica":368,"ĠÃ©":369,"Ġest":370,"Ġpor":371,"Ġ20":372,"ri":373,"ant":374,"Ãµ":375,"Ġsu":376,"Ãµes":377,"ais":378,"ĠG":379,"idad":380,"ha":381,"oc":382,"se":383,"Ġ19":384,"ada":385,"ĠI":386,"da":387,"Ġcon":388,"Ġpro":389,"le":390,"aÃ§Ã£o":391,"ac":392,"Ġes":393,"ĠJ":394,"ir":395,"Ġas":396,"ura":397,"iz":398,"Ġfoi":399,"te":400,"ho":401,"Ġos":402,"ion":403,"ĠÃ":404,"Ġex":405,"Ġcomo":406,"Ġj":407,"idade":408,"Ã§Ãµes":409,"ras":410,"to":411,"ip":412,"gu":413,"Ġpr":414,"ĠV":415,"era":416,"ĠH":417,"âĢ":418,"Ġpel":419,"ando":420,"ento":421,"ido":422,"so":423,"ed":424,"po":425,"Ġpo":426,"int":427,"Ãªnc":428,"Ġdos":429,"Ã©m":430,"eg":431,"ram":432,"og":433,"Ãº":434,"ias":435,"Ġal":436,"ito":437,"orm":438,"Ġat":439,"ico":440,"Ġan":441,"ran":442,"Ġdes":443,"ados":444,"eiro":445,"ag":446,"Ġh":447,"Ġap":448,"Ġ-":449,"ern":450,"av":451,"ob":452,"ur":453,"if":454,"rio":455,"ĠU":456,"ria":457,"Ġpar":458,"ĠnÃ£o":459,"ros":460,"Ġser":461,"ov":462,"Ġent":463,"ab":464,"ai":465,"Ġao":466,"ĠâĢ":467,"Ġcont":468,"Ġ201":469,"Ġmais":470,"ida":471,"ial":472,"00":473,"ers":474,"amb":475,"ores":476,"ru":477,"ap":478,"Ġar":479,"ĠRe":480,"ĠEm":481,"Ġsua":482,"ve":483,"Ġac":484,"eira":485,"fer":486,"ub":487,"ĠW":488,"\",":489,"he":490,"Ġ200":491,"mo":492,"mente":493,"ista":494,"ĠÃł":495,"ens":496,"Ġou":497,"Ġtem":498,"ambÃ©m":499,"Ã§a":500,"co":501,"est":502,"od":503,"nte":504,"Ġter":505,"Ġdas":506,"ot":507,"Ġint":508,"Ġseu":509,"Ã¢":510,"pl":511,"ce":512,"Ġper":513,"du":514,"endo":515,"ĠtambÃ©m":516,"Ġesp":517,"ort":518,"aÃ§Ãµes":519,"Ġel":520,"ĠEst":521,"Ġout":522,"ing":523,"),":524,"amente":525,"emb":526,").":527,"ass":528,"ina":529,"ib":530,"me":531,"iÃ§Ã£o":532,"ĠAl":533,"ez":534,"Ãªncias":535,"Ãªs":536,"ora":537,"ĠK":538,"Ãªncia":539,"orn":540,"Ġprim":541,"Ġcomp":542,"Ġres":543,"az":544,"ont":545,"Ġim":546,"and":547,"ess":548,"ulo":549,"Ġen":550,"ional":551,"adas":552,"Ġtra":553,"Ġsob":554,"rasil":555,"ian":556,"Ġpela":557,"ÃŃt":558,"Ġ3":559,"Ã©c":560,"ud":561,"min":562,"Ġesc":563,"\".":564,"Ġdis":565,"ev":566,"Ã´":567,"Ġform":568,"eu":569,"ĠÃ¡":570,"Ġpelo":571,"Ġpos":572,"end":573,"ĠMar":574,"que":575,"Ġentre":576,"Ã¡rio":577,"vel":578,"icas":579,"ug":580,"Ġpart":581,"Ġor":582,"Ġele":583,"ios":584,"pe":585,"amento":586,"ÃŃc":587,"pres":588,"esso":589,"ferÃªncias":590,"ual":591,"ter":592,"Ġch":593,"Ġfil":594,"ĠsÃ£o":595,"imento":596,"ĠCom":597,"ult":598,"Ġpre":599,"Ġab":600,"icos":601,"ino":602,"ca":603,"cl":604,"pos":605,"ocal":606,"ire":607,"rit":608,"und":609,"Ġsobre":610,"ch":611,"embro":612,"Ġmas":613,"ĠUn":614,"19":615,"Ġ18":616,"Ġass":617,"ĠReferÃªncias":618,"Ġob":619,"ivo":620,"Ġam":621,"undo":622,"Ã§o":623,"Ã¡ri":624,"inc":625,"orte":626,"Ġmu":627,"ador":628,"iu":629,"idos":630,"Ġha":631,"Ġext":632,"Ġmes":633,"anto":634,"ato":635,"ĠIn":636,"Ġnov":637,"ano":638,"ĠNo":639,"eb":640,"Ġof":641,"la":642,"Ġreg":643,"aram":644,"entes":645,"per":646,"Ġant":647,"Ġart":648,"ĠCon":649,"sa":650,"ja":651,"Ġmar":652,"Ġsem":653,"inha":654,"Ġcons":655,"ade":656,"ira":657,"Ġus":658,"op":659,"Ġcar":660,"go":661,"idades":662,"ĠAs":663,"Ġcas":664,"entos":665,"20":666,"ĠEs":667,"Ã³s":668,"Ġ199":669,"inal":670,"Ġanos":671,"enc":672,"Ġcl":673,"sÃ£o":674,"hec":675,"ÃŃs":676,"anÃ§":677,"ert":678,"itu":679,"vol":680,"ma":681,"Ġ4":682,"ĠBrasil":683,"Ġnos":684,"form":685,"ĠâĢ¢":686,"igo":687,"bl":688,"ik":689,"Ġon":690,"ĠCh":691,"rav":692,"..":693,"Ġnas":694,"ivers":695,"ĠAn":696,"Ġera":697,"antes":698,"Ġrec":699,"ĠDe":700,"ĠAr":701,"Ã³ria":702,"raf":703,"iÃ£o":704,"Ã¢n":705,"ĠOs":706,"ie":707,"der":708,"lia":709,"bal":710,"Ġcor":711,"Ġpres":712,"art":713,"ÃŃn":714,"ĠPa":715,"iva":716,"ana":717,"rÃ¡":718,"unt":719,"ific":720,"Ã©r":721,"Ġforam":722,"Ġcol":723,"ĠCar":724,"ava":725,"Ġ5":726,"ero":727,"Ġte":728,"ust":729,"Ġad":730,"Ġrel":731,"Ġenc":732,"Ġag":733,"aria":734,"Ġprinc":735,"Ã©d":736,"ase":737,"ĠatÃ©":738,"elh":739,"indo":740,"Ġro":741,"ranc":742,"ard":743,"Ã´n":744,"Ġdest":745,"anh":746,"ĠLig":747,"itos":748,"aix":749,"Ġjog":750,"pre":751,"erra":752,"ular":753,"Ġmai":754,"ita":755,"ost":756,"Ġseus":757,"Ġseg":758,"enas":759,"uro":760,"Ġqual":761,"ima":762,"Ġalg":763,"rans":764,"ĠestÃ¡":765,"ĠSÃ£o":766,"ral":767,"Ġvez":768,"odo":769,"Ã¡rios":770,"ĠQ":771,"ernas":772,"Ġsegu":773,"ĠVer":774,"Ġpass":775,"va":776,"agem":777,"inh":778,"rat":779,"Ġcam":780,"Ġinter":781,"ĠAm":782,"Ġnome":783,"Ġmil":784,"Ġtempo":785,"ast":786,"Ġonde":787,"Ġpol":788,"Ġconc":789,"Ġdire":790,"urante":791,"ante":792,"Ġprincip":793,"Ġfaz":794,"rande":795,"Ġimp":796,"Ġtorn":797,"Ġed":798,"ite":799,"ema":800,"rad":801,"Ġ198":802,"jet":803,"lo":804,"man":805,"Ġcidade":806,"ord":807,"idas":808,"pois":809,"ismo":810,"Ġver":811,"ver":812,"eral":813,"Ġconst":814,"Ġlocal":815,"ĠJo":816,"Ã³r":817,"Ã³p":818,"Ġposs":819,"Ġhab":820,"Ġdia":821,"rada":822,"Ġtrabal":823,"Ġreal":824,"ix":825,"rafia":826,"ĠLigaÃ§Ãµes":827,"Ġconhec":828,"200":829,"Ġexternas":830,"Ġpl":831,"ula":832,"ĠÃº":833,"Ġdesc":834,"Ġsub":835,"esa":836,"Ġmesmo":837,"ĠGu":838,"ela":839,"ĠX":840,"Ġmaior":841,"icip":842,"ĠCam":843,"rib":844,"inda":845,"este":846,"ntes":847,"Ġquando":848,"Ġoc":849,"Ġcap":850,"orre":851,"Ġano":852,"izaÃ§Ã£o":853,"ect":854,"Ġ6":855,"ĠQu":856,"Ãºs":857,"itar":858,"TC":859,"Ġparte":860,"Ġpesso":861,"Ã©s":862,"acional":863,"istas":864,"isÃ£o":865,"ubl":866,"Ġdu":867,"Ġaut":868,"ĠSu":869,"ĠFo":870,"Ġpa":871,"gl":872,"Ġtod":873,"eiros":874,"Ġpop":875,"via":876,"Ġprimeiro":877,"Ã¡t":878,"Ġhist":879,"Ġtrans":880,"elo":881,"ĠPro":882,"ugu":883,"fe":884,"Ġme":885,"imo":886,"UTC":887,"Ġind":888,"adores":889,"dem":890,"Ġcontra":891,"Ġtr":892,"ior":893,"Ġ0":894,"ĠlanÃ§":895,"her":896,"Ġsendo":897,"icial":898,"aneiro":899,"Ã©ri":900,"Ġoutros":901,"erc":902,"Ġ197":903,"Ġpode":904,"eric":905,"overn":906,"enh":907,"ĠâĢĵ":908,"Ġk":909,"up":910,"Ġincl":911,"ĠPor":912,"Ġ7":913,"Ġdois":914,"ĠSt":915,"isc":916,"duz":917,"Ãºbl":918,"pon":919,"uc":920,"ĠY":921,"Ġsuas":922,"ital":923,"Ġaos":924,"uns":925,"iss":926,"ĠjÃ¡":927,"Ġra":928,"Ġprimeira":929,"ĠPr":930,"ign":931,"Ġhabit":932,"Ãªm":933,"ay":934,"Ġfam":935,"ide":936,"ÃŃp":937,"Ã¡g":938,"Ġequ":939,"Ġ8":940,"Ã©t":941,"iais":942,"icaÃ§Ã£o":943,"ÃŃvel":944,"vi":945,"rea":946,"dio":947,"ga":948,"irm":949,"Ġmuito":950,"Ġdurante":951,"volv":952,"ge":953,"ceb":954,"ne":955,"ateg":956,"Ġvol":957,"Âº":958,"Ġcr":959,"Ġdepois":960,"ĠCl":961,"Ġencont":962,"ategor":963,"Ġprincipal":964,"iÃ§Ãµes":965,"Ã§as":966,"ĠAp":967,"Ġcham":968,"Ġis":969,"iam":970,"ola":971,"bo":972,"udo":973,"Ġgru":974,"inas":975,"ÃŃst":976,"Ġainda":977,"Ġ15":978,"ĠPort":979,"Ġ17":980,"ĠÃī":981,"ĠPara":982,"Ġ9":983,"ĠpaÃŃs":984,"Ġdist":985,"ĠNa":986,"ĠAt":987,"pera":988,"of":989,"rig":990,"Ġfinal":991,"idera":992,"Ġaf":993,"Ġapenas":994,"Ġ196":995,"Ġcan":996,"con":997,"Ġfal":998,"ine":999,"resent":1000,"gua":1001,"ĠSe":1002,"ĠEl":1003,"anda":1004,"Ġdesen":1005,"Ġespec":1006,"ril":1007,"gram":1008,"ele":1009,"lt":1010,"ĠEle":1011,"ĠZ":1012,"raÃ§Ã£o":1013,"ncia":1014,"unda":1015,"ares":1016,"lu":1017,"Ġartigo":1018,"Ġapresent":1019,"uma":1020,"erv":1021,"gan":1022,"ĠPaulo":1023,"Ġ10":1024,"izado":1025,"anha":1026,"ÃŃlia":1027,"ĠEx":1028,"Ġ(\"":1029,"Ġforma":1030,"Ġgrande":1031,"ÃŃcio":1032,"Ġdef":1033,"ĠLe":1034,"Ġcome":1035,"com":1036,"Ġproc":1037,"unc":1038,"pa":1039,"Ġdif":1040,"rito":1041,"ena":1042,"ĠRio":1043,"Ġhabitantes":1044,"Ġca":1045,"olog":1046,"Ġr":1047,"atro":1048,"Ġgovern":1049,"lio":1050,"ĠapÃ³s":1051,"Ġcer":1052,"Ġport":1053,"lb":1054,"ĠInt":1055,"Ġ16":1056,"Ġbrasil":1057,"Ġun":1058,"Ġinclu":1059,"Ġfe":1060,"Ãªn":1061,"Ġela":1062,"rar":1063,"duÃ§Ã£o":1064,"ĠAnt":1065,"ivos":1066,"Ġpe":1067,"ipe":1068,"Ġret":1069,"Ġinf":1070,"Ġmen":1071,"Ãºm":1072,"ill":1073,"des":1074,"elho":1075,"ric":1076,"ulaÃ§Ã£o":1077,"iano":1078,"idente":1079,"ĠSant":1080,"osto":1081,"dos":1082,"Ġinst":1083,"ĠmÃºs":1084,"Ġconf":1085,"Ġfor":1086,"Ġmat":1087,"Ġprov":1088,"ultura":1089,"Ġorig":1090,"izada":1091,"ell":1092,"Ġprof":1093,"anc":1094,"Ã©rie":1095,"ĠFoi":1096,"nto":1097,"Ġthe":1098,"tor":1099,"Ġdec":1100,"Ġpoder":1101,"ĠPar":1102,"veis":1103,"Ġliv":1104,"ĠNov":1105,"\")":1106,"Ġgu":1107,"ice":1108,"util":1109,"Ã¡s":1110,"na":1111,"ussÃ£o":1112,"...":1113,"ate":1114,"Ġparticip":1115,"II":1116,"itas":1117,"ĠDes":1118,"inho":1119,"ĠâĢĶ":1120,"ĠpolÃŃt":1121,"ublic":1122,"quer":1123,"Ġdiv":1124,"Ġfic":1125,"ĠtrÃªs":1126,"Ġreceb":1127,"Ġdez":1128,"ordo":1129,"Ġmod":1130,"Ã¡vel":1131,"peon":1132,"present":1133,"ebol":1134,"igos":1135,"ĠWik":1136,"Ġev":1137,"Ã¡ria":1138,"Ã³g":1139,"Ġma":1140,"Ġeste":1141,"ĠMa":1142,"Ġkm":1143,"18":1144,"rado":1145,"Ã©dia":1146,"Ġlev":1147,"Ġhom":1148,"Ã³rio":1149,"orta":1150,"no":1151,"erg":1152,"Ġutil":1153,"Ġtodos":1154,"Ġmed":1155,"Ġav":1156,"elhor":1157,"Ġsol":1158,"Ġoutras":1159,"ĠÃ¡lb":1160,"Ġduas":1161,"ulos":1162,"je":1163,"ata":1164,"ĠentÃ£o":1165,"ribu":1166,"Ġ12":1167,"son":1168,"Ġinv":1169,"empl":1170,"Ġman":1171,"rou":1172,"ÃŃm":1173,"âĢĿ":1174,"Ġbem":1175,"Ġcri":1176,"ĠAss":1177,"ĠLocal":1178,"Ġmet":1179,"ental":1180,"ĠsÃ©c":1181,"ĠThe":1182,"peonato":1183,"Ġsido":1184,"Ã³l":1185,"utebol":1186,"Ġfre":1187,"oca":1188,"hos":1189,"Ġfilme":1190,"Ġinform":1191,"Ġexist":1192,"Ġsim":1193,"Ġmun":1194,"eram":1195,"Ġ195":1196,"Ġsoc":1197,"ex":1198,"uto":1199,"Ã¡rias":1200,"Ġ194":1201,"Ġgrupo":1202,"Ġ14":1203,"Ġdev":1204,"ĠLu":1205,"rop":1206,"isa":1207,"unto":1208,"ĠUnivers":1209,"tura":1210,"dade":1211,"Ġaqu":1212,"ĠAb":1213,"ece":1214,"Ġsist":1215,"Ã³n":1216,"Ġseguint":1217,"port":1218,"Ġconstru":1219,"tas":1220,"ĠÃģ":1221,"Ġdifer":1222,"erson":1223,"Ġto":1224,"esse":1225,"Ã¢m":1226,"reira":1227,"ulho":1228,"Ġcheg":1229,"Ġcria":1230,"Ġisso":1231,"cio":1232,"ĠCol":1233,"eiras":1234,"Ġestado":1235,"Ġconsidera":1236,"ĠâĢľ":1237,"Ġdisc":1238,"all":1239,"unho":1240,"Ġho":1241,"Ġpessoas":1242,"ron":1243,"imin":1244,"ĠOl":1245,"Ġpossu":1246,"Ġcomun":1247,"Ġbase":1248,"ionais":1249,"ense":1250,"ĠJos":1251,"Ġand":1252,"Ġrepresent":1253,"anos":1254,"Ġ13":1255,"ĠÃ¡lbum":1256,"mit":1257,"Ġconv":1258,"âĢĵ":1259,"tos":1260,"Ġprogram":1261,"Ġsegundo":1262,"Ġpelos":1263,"ry":1264,"ĠÃºlt":1265,"ĠHist":1266,"ubro":1267,"ĠÃłs":1268,"Ġdesenvolv":1269,"ĠcomeÃ§":1270,"grafia":1271,"ĠEn":1272,"quanto":1273,"Ġportugu":1274,"iar":1275,"ever":1276,"rut":1277,"Ġprop":1278,"ĠnÃºm":1279,"ĠBar":1280,"Ġcent":1281,"Ġempres":1282,"Ã©rio":1283,"les":1284,"za":1285,"ĠÃ¡rea":1286,"osa":1287,"ies":1288,"dor":1289,"The":1290,"ologia":1291,"ogo":1292,"ĠregiÃ£o":1293,"Ġ11":1294,"Ġingl":1295,"ren":1296,"atal":1297,"Ġmin":1298,"segu":1299,"has":1300,"ĠEsp":1301,"ĠsÃ©rie":1302,"ivas":1303,"ĠprÃ³p":1304,"emente":1305,"ĠAc":1306,"ĠtÃŃt":1307,"Ġdesde":1308,"Ġpal":1309,"Ġassim":1310,"dia":1311,"icÃŃp":1312,"erto":1313,"iana":1314,"ĠsÃ©culo":1315,"ĠOr":1316,"iado":1317,"ang":1318,"ĠSeg":1319,"Ġestre":1320,"atura":1321,"das":1322,"ilidade":1323,"ĠEstados":1324,"Ġapar":1325,"Ġcada":1326,"taÃ§Ã£o":1327,"agens":1328,"Ġpes":1329,"Ġins":1330,"dic":1331,"ĠespÃ©c":1332,"Ġcin":1333,"mos":1334,"jo":1335,"ugal":1336,"ualmente":1337,"ime":1338,"Ġtinha":1339,"Ġalgum":1340,"ĠFl":1341,"ube":1342,"Ġpodem":1343,"Ġlon":1344,"lex":1345,"Ġfund":1346,"ach":1347,"Ġpartir":1348,"ĠUnidos":1349,"Ġlug":1350,"Ġantes":1351,"ĠpÃºbl":1352,"eto":1353,"Ã§os":1354,"cional":1355,"Ġ193":1356,"Ġpou":1357,"ĠfamÃŃlia":1358,"Ġ2010":1359,"ĠUm":1360,"Ġvida":1361,"put":1362,"gre":1363,"ĠIs":1364,"Ġw":1365,"Ġset":1366,"ton":1367,"Ã´m":1368,"ient":1369,"Ã¢ncia":1370,"ĠpÃ¡g":1371,"ategory":1372,"10":1373,"gem":1374,".\"":1375,"ĠhistÃ³ria":1376,"Ġsuc":1377,"Ġ2008":1378,"Ġteve":1379,"edia":1380,"avam":1381,"ity":1382,"minist":1383,"Ã¡l":1384,"Ġnot":1385,"ĠEd":1386,"our":1387,"ĠpopulaÃ§Ã£o":1388,"edade":1389,"ua":1390,"Ġexempl":1391,"ich":1392,"ical":1393,"esta":1394,"Ġorgan":1395,"eria":1396,"Ġoficial":1397,"ĠFranc":1398,"ende":1399,"Ġatrav":1400,"ĠPortugal":1401,"Ġprojet":1402,"Ġdeix":1403,"ografia":1404,"Ġestava":1405,"Ġval":1406,"ete":1407,"Ġder":1408,"ĠIm":1409,"los":1410,"ĠhÃ¡":1411,"ak":1412,"ĠsÃ³":1413,"Ġgrav":1414,"abel":1415,"ĠEnt":1416,"evereiro":1417,"Â²":1418,"ĠmunicÃŃp":1419,"ĠSul":1420,"Ġalguns":1421,"Ġrep":1422,"ĠJaneiro":1423,"Ġil":1424,"ĠFil":1425,"Ġmundo":1426,"iou":1427,"Ġ2009":1428,"ecess":1429,"Ġ2006":1430,"Ġcontin":1431,"ĠEuro":1432,"iga":1433,"ÃŃf":1434,"ĠPer":1435,"Ġdivers":1436,"Ġ2007":1437,"ĠPre":1438,"Ġtrabalho":1439,"ins":1440,"Ġacordo":1441,"ilo":1442,"vo":1443,"Ġamb":1444,"ĠBo":1445,"ĠnÃºmero":1446,"Ġsa":1447,"isto":1448,"Ġeles":1449,"iscussÃ£o":1450,"Ġvers":1451,"imentos":1452,"iol":1453,"Ġapro":1454,"ĠCor":1455,"Ġjaneiro":1456,"ĠmÃºsica":1457,"ĠinglÃªs":1458,"Ġdezembro":1459,"ane":1460,"Ġhavia":1461,"Ġvezes":1462,"issÃ£o":1463,"Ġdem":1464,"anÃ§a":1465,"Ġintern":1466,"Ġimporta":1467,"Ġdiz":1468,"ĠOut":1469,"Ġpublic":1470,"emas":1471,"hn":1472,"Ġmelhor":1473,"ret":1474,"ĠmarÃ§o":1475,"Ġrefer":1476,"Ġrev":1477,"Ġvoc":1478,"Ġvo":1479,"Ġtendo":1480,"Ġsuper":1481,"uta":1482,"ĠGe":1483,"2000":1484,"ok":1485,"pend":1486,"pt":1487,"Ġcond":1488,"ona":1489,"Ġnum":1490,"ph":1491,"ĠMan":1492,"Ġgeral":1493,"Ġfazer":1494,"Ġnorte":1495,"rÃ¡f":1496,"Ġcu":1497,"para":1498,"Ã©l":1499,"Ġformula":1500,"Ġsistema":1501,"eceu":1502,"Ġinc":1503,"Ġid":1504,"Ġespecial":1505,"ativa":1506,"Ġgoverno":1507,"Ġtip":1508,"Ġmaio":1509,"Ġ2011":1510,"ĠatravÃ©s":1511,"Ġenquanto":1512,"Ġcant":1513,"Ã³ri":1514,"ĠestÃ£o":1515,"Ġcur":1516,"Ġeram":1517,"Ġautor":1518,"enÃ§a":1519,"ack":1520,"arac":1521,"iaÃ§Ã£o":1522,"Ġvis":1523,"Ġ2013":1524,"ĠÃ©p":1525,"red":1526,"Ġneg":1527,"ĠalÃ©m":1528,"Ġlugar":1529,"ede":1530,"Ġ2012":1531,"Ġapo":1532,"ĠdÃ©c":1533,"otal":1534,"Ġsal":1535,"asc":1536,"Ġ/":1537,"Ġsetembro":1538,"Ġbanda":1539,"Ġ.":1540,"Ġesta":1541,"12":1542,"ĠtÃŃtulo":1543,"Ġoutubro":1544,"Ã³d":1545,"ericano":1546,"Ġabril":1547,"ĠJosÃ©":1548,"ĠperÃŃ":1549,"itor":1550,"Ġagosto":1551,"15":1552,"Âª":1553,"ive":1554,"ĠAd":1555,"ace":1556,"discussÃ£o":1557,"Ġjunho":1558,"Ġjogo":1559,"ĠNe":1560,"Ġjulho":1561,"Ġperson":1562,"Ġseja":1563,"iente":1564,"ĠFran":1565,"ĠNacional":1566,"Ġconsegu":1567,"Ġemb":1568,"ila":1569,"ĠvÃ¡rios":1570,"undial":1571,"ĠCampeonato":1572,"Ġcoloc":1573,"ht":1574,"Ġfez":1575,"ceu":1576,"enÃ§Ã£o":1577,"Ġnovo":1578,"osta":1579,"ÃŃdo":1580,"ulher":1581,"orr":1582,"ĠSa":1583,"Ġaj":1584,"Ġhum":1585,"ĠJoÃ£o":1586,"Ġmarc":1587,"ĠÃºn":1588,"rica":1589,"Ã¡tica":1590,"Ġden":1591,"Ġinic":1592,"Ġtent":1593,"ĠUniversidade":1594,"Ġnecess":1595,"sos":1596,"izar":1597,"eno":1598,"ure":1599,"dut":1600,"reg":1601,"isco":1602,"ĠÃ©poca":1603,"nÃ§a":1604,"ze":1605,"aro":1606,"Ġnovembro":1607,"xim":1608,"ĠAg":1609,"duc":1610,"ĠinÃŃcio":1611,"Ġcaus":1612,"000":1613,"uÃ§Ã£o":1614,"Ġescol":1615,"17":1616,"Ġtar":1617,"Ġmus":1618,"ĠEsc":1619,"ĠIntern":1620,"Ġproduz":1621,"Ġtotal":1622,"Ġmilh":1623,"stitu":1624,"Ġpra":1625,"Ġmov":1626,"iÃªncia":1627,"emin":1628,"Ġpois":1629,"ument":1630,"mes":1631,"ificaÃ§Ã£o":1632,"Ġtrabalh":1633,"Ġprec":1634,"Ġ,":1635,"Ġtemporada":1636,"ĠRec":1637,"Ġestud":1638,"ong":1639,"ĠSal":1640,"ari":1641,"Ġpont":1642,"enho":1643,"Ġexemplo":1644,"ĠMaria":1645,"Ġescrit":1646,"ĠTra":1647,"Ġoutro":1648,"Ġle":1649,"Ġquatro":1650,"ĠTh":1651,"icamente":1652,"ĠEstado":1653,"Ġseguinte":1654,"gue":1655,"Ġmost":1656,"Ġresult":1657,"Ġpequ":1658,"rom":1659,"ĠCr":1660,"Ġdesta":1661,"Ġsign":1662,"16":1663,"adr":1664,"ons":1665,"ĠperÃŃodo":1666,"Ġobjet":1667,"ĠUma":1668,"Ġconhecido":1669,"Ġtornou":1670,"Ġfranc":1671,"ĠCop":1672,"Ġ2014":1673,"iblio":1674,"Ġfevereiro":1675,"Ġpap":1676,"Ġir":1677,"riz":1678,"ilh":1679,"ond":1680,"ĠPl":1681,"amentos":1682,"Ġ25":1683,"atos":1684,"ĠTe":1685,"Ġcaso":1686,"ĠPol":1687,"Ġped":1688,"ĠmunicÃŃpio":1689,"Ġexpl":1690,"uras":1691,"uda":1692,"ĠMo":1693,"ĠNÃ£o":1694,"Ġsom":1695,"ĠHistÃ³ria":1696,"Ġeu":1697,"ĠCo":1698,"Ġcerca":1699,"Ã£os":1700,"Ġmeio":1701,"th":1702,"Ġtodo":1703,"Ġ30":1704,"ĠRom":1705,"ornal":1706,"Ġqualquer":1707,"ĠMus":1708,"Ġbrasileiro":1709,"ĠediÃ§Ã£o":1710,"oss":1711,"Ġig":1712,"rem":1713,"14":1714,"Ġ2016":1715,"ival":1716,"ĠCas":1717,"Ġtel":1718,"Ġrespon":1719,"ore":1720,"ĠNova":1721,"reve":1722,"ivamente":1723,"ba":1724,"iram":1725,"Ġve":1726,"aracter":1727,"eses":1728,"13":1729,"Ġet":1730,"ĠWikip":1731,"Ġ22":1732,"Ġtur":1733,"ef":1734,"esar":1735,"ĠComo":1736,"Ġmenos":1737,"ly":1738,"ĠCat":1739,"ĠReg":1740,"tar":1741,"asse":1742,"ecer":1743,"Ġlig":1744,"ĠPal":1745,"199":1746,"uel":1747,"Ġep":1748,"ĠAnd":1749,"car":1750,"Ġquais":1751,"Ġclass":1752,"uais":1753,"Ã©cn":1754,"ĠCont":1755,"Ġ'":1756,"Ġexp":1757,"ĠMin":1758,"ise":1759,"Ġlado":1760,"Ġcompet":1761,"Ġ21":1762,"Ġmant":1763,"cia":1764,"Ġfun":1765,"Ġcontro":1766,"ifica":1767,"Ġ2015":1768,"Ġ23":1769,"cos":1770,"ruz":1771,"ĠApÃ³s":1772,"ier":1773,"Ġfilho":1774,"ĠGrande":1775,"Ġdias":1776,"ÃŃda":1777,"Ġdevido":1778,"Ġirm":1779,"Ġdesenvolvimento":1780,"ĠCan":1781,"ĠpÃ¡gina":1782,"Ġsegunda":1783,"iel":1784,"ĠvÃ¡rias":1785,"Ġsitu":1786,"enso":1787,"Ġmud":1788,"Ġentanto":1789,"onhec":1790,"Ġsab":1791,"one":1792,"af":1793,"enda":1794,"Ġfl":1795,"Ġprobl":1796,"Ġcob":1797,"Ã©rica":1798,"Ġterc":1799,"Ġsent":1800,"Ġarqu":1801,"aixa":1802,"Ġfim":1803,"iver":1804,"pr":1805,"Ġtodas":1806,"21":1807,"Ġfer":1808,"sas":1809,"Ġren":1810,"inos":1811,"Ġvia":1812,"Ġtal":1813,"ĠCent":1814,"ĠII":1815,"Ġcultura":1816,"Ġmulher":1817,"Ġgran":1818,"ĠSh":1819,"Ġ2000":1820,"ation":1821,"Ġtex":1822,"Ġ24":1823,"entemente":1824,"aixo":1825,"Ġseria":1826,"Ġdent":1827,"mas":1828,"ĠPres":1829,"Ġnova":1830,"Ġopera":1831,"ow":1832,"Ġalgumas":1833,"orreu":1834,"Ġgol":1835,"Ġmorte":1836,"ĠSub":1837,"ĠSanta":1838,"ĠCal":1839,"ĠlanÃ§ado":1840,"Ġadminist":1841,"ĠLa":1842,"ĠIt":1843,"ĠrÃ¡":1844,"land":1845,"amos":1846,"ĠproduÃ§Ã£o":1847,"Ġdel":1848,"ĠGuerra":1849,"eros":1850,"Ġpresidente":1851,"Ġservi":1852,"ingu":1853,"resc":1854,"ĠVal":1855,"ĠPart":1856,"tt":1857,"Ġz":1858,"ĠSoc":1859,"iza":1860,"Ġelimin":1861,"Ġanter":1862,"Ġata":1863,"aval":1864,"ax":1865,"ĠcomeÃ§ou":1866,"Ġprograma":1867,"ĠÃ¡gua":1868,"ĠRep":1869,"ĠCons":1870,"ndo":1871,"Ġsur":1872,"Ġequipe":1873,"11":1874,"Ġtom":1875,"Ġmot":1876,"acion":1877,"ĠprÃ³":1878,"Ġcompl":1879,"ĠPed":1880,"iro":1881,"Ġdefin":1882,"Ġdescob":1883,"Ġmuitos":1884,"Ġecon":1885,"ĠCopa":1886,"Ġtarde":1887,"Ġ2017":1888,"ĠArt":1889,"ke":1890,"Ġuso":1891,"Ġpassou":1892,"Ġsul":1893,"Ġ2005":1894,"ĠespÃ©cie":1895,"olÃ³g":1896,"ĠJohn":1897,"ĠGl":1898,"Ġganh":1899,"Ġequip":1900,"ĠEste":1901,"ĠSil":1902,"Ġtre":1903,"Ġcontinu":1904,"Ġpossui":1905,"Ġacab":1906,"Ġesse":1907,"oria":1908,"ĠversÃ£o":1909,"ĠOb":1910,"Ġmesma":1911,"Ġgra":1912,"iÃµes":1913,"Ġgen":1914,"ĠvocÃª":1915,"Ġlib":1916,"Ġcasa":1917,"Ġprodut":1918,"Ã¡veis":1919,"Ġativ":1920,"Ġfutebol":1921,"ÃŃsticas":1922,"Ġcomb":1923,"Ġjunt":1924,"oso":1925,"Ġlivro":1926,"ĠRob":1927,"Ġleg":1928,"Ġessa":1929,"ulg":1930,"ago":1931,"emp":1932,"Ġref":1933,"Ġmon":1934,"Ġinteg":1935,"air":1936,"Ġoriginal":1937,"ĠFede":1938,"Ġdeve":1939,"Ġconj":1940,"stant":1941,"ames":1942,"ĠBio":1943,"ĠEla":1944,"Ġcaracter":1945,"Ġconqu":1946,"val":1947,"Ġ192":1948,"ĠportuguÃªs":1949,"Ġprojeto":1950,"iedade":1951,"'s":1952,"Ġcal":1953,"Ġer":1954,"Ġbas":1955,"Ġsex":1956,"ques":1957,"ger":1958,"Ġnacional":1959,"ĠmilhÃµes":1960,"Ãºblica":1961,"ĠLocalidades":1962,"Ġmilitar":1963,"Ġpesqu":1964,"tanto":1965,"ĠIgre":1966,"Ġfac":1967,"Ġsempre":1968,"tenc":1969,"Ġatual":1970,"ala":1971,"umento":1972,"ick":1973,"Ġalem":1974,"ardo":1975,"org":1976,"ĠcrÃŃt":1977,"Ġ&":1978,"Ġporque":1979,"irc":1980,"Ġcarreira":1981,"Ġestabel":1982,"Ġ2018":1983,"ĠSegundo":1984,"ux":1985,"posta":1986,"Ġsof":1987,"ĠÂ":1988,"depend":1989,"Ã©rc":1990,"ÃŃveis":1991,"rando":1992,"Ġquem":1993,"ĠpaÃŃses":1994,"Ġincluindo":1995,"abora":1996,"izados":1997,"Ġregist":1998,"Ġfin":1999,"ama":2000,"Ġsec":2001,"avor":2002,"erta":2003,"ĠDem":2004,"Ġnuma":2005,"ĠMat":2006,"ĠlÃŃn":2007,"amp":2008,"pect":2009,"ĠEntre":2010,"sia":2011,"ĠMas":2012,"ĠCap":2013,"Ġterrit":2014,"Ġempresa":2015,"iada":2016,"are":2017,"Ġprocesso":2018,"Ġop":2019,"ĠdÃ©cada":2020,"inado":2021,"Ġprincipais":2022,"ĠcanÃ§Ã£o":2023,"ses":2024,"ĠGo":2025,"ĠBiblio":2026,"ĠCarlos":2027,"ĠrelaÃ§Ã£o":2028,"fin":2029,"Ã³t":2030,"omia":2031,"eraÃ§Ã£o":2032,"Ġlim":2033,"enha":2034,"gres":2035,"ĠinformaÃ§Ãµes":2036,"Ġanim":2037,"Ġru":2038,"iment":2039,"Ġtipo":2040,"Ġgrandes":2041,"Ġdisso":2042,"press":2043,"ormente":2044,"ensÃ£o":2045,"ah":2046,"mov":2047,"ĠFre":2048,"Ġpouco":2049,"ĠPo":2050,"irig":2051,"ĠAlÃ©m":2052,"ĠIgreja":2053,"ades":2054,"Ġtermin":2055,"imos":2056,"tou":2057,"ome":2058,"iormente":2059,"ĠLista":2060,"estÃ£o":2061,"ĠCast":2062,"Ġatu":2063,"Ã¼":2064,"cion":2065,"Ġmaioria":2066,"Ġpai":2067,"Ġ2004":2068,"Ġfunc":2069,"Ã¡c":2070,"Ġchamado":2071,"feito":2072,"rutura":2073,"ĠtÃ©cn":2074,"Ġperman":2075,"ĠBe":2076,"Ġbo":2077,"Ġmuitas":2078,"uv":2079,"alh":2080,"ĠInst":2081,"Ġrecebeu":2082,"Ġvolta":2083,"bol":2084,"Ġ2019":2085,"ĠWil":2086,"ĠNos":2087,"ulas":2088,"Ġoutra":2089,"ck":2090,"Ġ28":2091,"cel":2092,"ÃŃde":2093,"Ġjornal":2094,"ĠpolÃŃtica":2095,"ĠAmÃ©rica":2096,"fic":2097,"Ġ26":2098,"Ġcab":2099,"ock":2100,"Ġlongo":2101,"Ġtro":2102,"Ġtec":2103,"Ġcorre":2104,"ese":2105,"Ġobra":2106,"essor":2107,"Ġdecl":2108,"ude":2109,"Ġpopular":2110,"how":2111,"ĠmÃ©d":2112,"Ġpelas":2113,"Ġcategor":2114,"panh":2115,"ĠMundial":2116,"Ġhoje":2117,"Ġinflu":2118,"ĠDurante":2119,"rag":2120,"ÃŃcia":2121,"Ãªmio":2122,"Ġcinco":2123,"ĠAng":2124,"Ġbar":2125,"anas":2126,"Ġdiferentes":2127,"Ġ27":2128,"Ġsucesso":2129,"adora":2130,"age":2131,"Ġdeter":2132,"embros":2133,"Ġestad":2134,"essa":2135,"ecut":2136,"boa":2137,"Ġapl":2138,");":2139,"ley":2140,"ork":2141,"posiÃ§Ã£o":2142,"Ġdirig":2143,"Ġalt":2144,"ĠNew":2145,"Ġclube":2146,"ĠpÃºblico":2147,"ung":2148,"ĠFranÃ§a":2149,"radas":2150,"ĠEsta":2151,"Ġobs":2152,"quia":2153,"ativo":2154,"leg":2155,"Ġpontos":2156,"ertos":2157,"Ġrelig":2158,"Ã©n":2159,"ĠAo":2160,"ink":2161,"Ġconta":2162,"ĠNorte":2163,"ĠPaul":2164,"isboa":2165,"ĠSua":2166,"ĠQuando":2167,"Ġanunc":2168,"Ã¡b":2169,"Ġtoda":2170,"uz":2171,"Ġfavor":2172,"Ġacont":2173,"Ġdisse":2174,"ind":2175,"Ġdentro":2176,"Ġartigos":2177,"Ġsimpl":2178,"Ġepis":2179,"mar":2180,"gio":2181,"Ġguerra":2182,"Ġimportante":2183,"ĠposiÃ§Ã£o":2184,"ĠPrim":2185,"ĠDepois":2186,"Ġjogos":2187,"ka":2188,"Ã´nia":2189,"ogos":2190,"ront":2191,"adamente":2192,"Ġparc":2193,"Ġdet":2194,"adeira":2195,"ĠDire":2196,"Ġaqui":2197,"ritÃ¢n":2198,"Ġrelacion":2199,"ĠIl":2200,"ww":2201,"Ġserv":2202,"Ġcapital":2203,"ĠSuper":2204,"ĠEuropa":2205,"Ã³rias":2206,"Ã©rcito":2207,"ĠtÃªm":2208,"Ġdados":2209,"ivil":2210,"rados":2211,"eca":2212,"ann":2213,"Ġponto":2214,"ĠHar":2215,"omb":2216,"ĠMe":2217,"orto":2218,"eza":2219,"Ġpalav":2220,"ĠmÃ¡":2221,"Ġnatura":2222,"ĠTV":2223,"ÃŃstica":2224,"Ġdi":2225,"Ġado":2226,"Ġvit":2227,"Ġrespons":2228,"ĠPorto":2229,"ĠMil":2230,"peÃ£o":2231,"Ġcorpo":2232,"category":2233,"usÃ£o":2234,"arÃ¡":2235,"almente":2236,"50":2237,"urg":2238,"Ġprofiss":2239,"ĠMun":2240,"enta":2241,"Ġafirm":2242,"let":2243,"Ġcient":2244,"Ġinterpre":2245,"198":2246,"Ġocup":2247,"iores":2248,"ĠAlem":2249,"Ġens":2250,"ĠSp":2251,"ĠWikipÃ©dia":2252,"Ġ190":2253,"Ġdisput":2254,"reas":2255,".,":2256,"Ġpapel":2257,"Ġespa":2258,"Ġmom":2259,"Ġ29":2260,"Ġx":2261,"ui":2262,"rim":2263,"ame":2264,"orge":2265,"Ġreconhec":2266,"Ġol":2267,"Ġexper":2268,"Ġ:":2269,"Ġconstitu":2270,"ÃŃl":2271,"ĠSer":2272,"Ġalc":2273,"Ġlat":2274,"ĠSeu":2275,"Ġdoc":2276,"ĠconstruÃ§Ã£o":2277,"Ġficou":2278,"Ġbat":2279,"Ġrei":2280,"Ġdom":2281,"ff":2282,"arc":2283,"ance":2284,"eles":2285,"Ġlinha":2286,"Ġide":2287,"Ġfora":2288,"ĠhistÃ³r":2289,"Ġfrequ":2290,"inaÃ§Ã£o":2291,"ki":2292,"ile":2293,"icaÃ§Ãµes":2294,"Ġprote":2295,"erais":2296,"ris":2297,"Ġnorm":2298,"ique":2299,"Ġpermit":2300,"ĠPra":2301,"Ġ2020":2302,"ificado":2303,"Ġlit":2304,"enn":2305,"vio":2306,"ĠFer":2307,"ence":2308,"ĠTambÃ©m":2309,"Ġsocial":2310,"ĠLisboa":2311,"Ã´nio":2312,"Ġsubstitu":2313,"30":2314,"ĠPedro":2315,"inhos":2316,"inhas":2317,"Ġtexto":2318,"ĠHer":2319,"by":2320,"Ġjov":2321,"Ġderro":2322,"Ġindiv":2323,"Ġmembros":2324,"Ġquase":2325,"ĠRes":2326,"stria":2327,"ĠPat":2328,"ĠMart":2329,"Ġinvest":2330,"tado":2331,"icl":2332,"__":2333,"ash":2334,"urso":2335,"Ġprincipalmente":2336,"ĠTer":2337,"Ġobras":2338,"ducaÃ§Ã£o":2339,"Ġusu":2340,"ĠAlg":2341,"fre":2342,"ĠAlb":2343,"Ġ189":2344,"ĠprÃ³prio":2345,"ĠGal":2346,"Ġnenh":2347,"ĠlÃŃ":2348,"iados":2349,"ech":2350,"Ã©tica":2351,"Ã¡lia":2352,"ĠFutebol":2353,"rac":2354,"Ġcomerc":2355,"elas":2356,"etro":2357,"ĠpossÃŃvel":2358,"Ġmo":2359,"una":2360,"arg":2361,"ĠFern":2362,"ÃŃa":2363,"ĠRo":2364,"icion":2365,"izou":2366,"ĠVol":2367,"Ġtelev":2368,"ĠnÃŃvel":2369,"Ġpat":2370,"Ġpint":2371,"Ġvot":2372,"ĠRepÃºblica":2373,"ĠDu":2374,"Ġcat":2375,"Ġ2003":2376,"Ġestim":2377,"Ġconhecida":2378,"ender":2379,"Ġdetermin":2380,"ituto":2381,"ÃŃnc":2382,"ĠMont":2383,"ĠDav":2384,"Ġretorn":2385,"ĠFrancisco":2386,"Ġident":2387,"sh":2388,"old":2389,"Ġfuncion":2390,"Ġembora":2391,"Ġ...":2392,"ĠXV":2393,"ĠRa":2394,"ep":2395,"fo":2396,"icipal":2397,"22":2398,"Ġdeste":2399,"ĠHen":2400,"Ġ2002":2401,"Ġterra":2402,"eix":2403,"ĠDom":2404,"Ã£e":2405,"ĠporÃ©m":2406,"Ġrio":2407,"oro":2408,"Ġtanto":2409,"Ġpessoa":2410,"Ġprimeiros":2411,"Ġpropri":2412,"ipl":2413,"ingle":2414,"ĠLocalidade":2415,"Ġquar":2416,"ĠBl":2417,"Ġne":2418,"aca":2419,"onst":2420,"Ġorigem":2421,"Ġindic":2422,"emos":2423,"Ġcompos":2424,"Ġital":2425,"ĠSte":2426,"ĠMed":2427,"Ġsimples":2428,"Ã¡cio":2429,"ÃŃmp":2430,"zo":2431,"ÃŃg":2432,"ĠReino":2433,"Ġjunto":2434,"Ġassoc":2435,"Ãºde":2436,"Ġconquist":2437,"Ġfeito":2438,"eleÃ§Ã£o":2439,"ĠInternacional":2440,"isas":2441,"ĠBibliografia":2442,"ans":2443,"Ġ2001":2444,"ĠÃºltimo":2445,"Ġofer":2446,"ximo":2447,"ientes":2448,"erna":2449,"28":2450,"Ġviz":2451,"Ã¢ne":2452,"//":2453,"ĠSou":2454,"ĠSc":2455,"Ġ--":2456,"Ġlista":2457,"Ġ100":2458,"Ġvenc":2459,"be":2460,"erno":2461,"Ġposter":2462,"ES":2463,"Ġloc":2464,"ÃŃncia":2465,"itado":2466,"ĠLib":2467,"Ġarm":2468,"emia":2469,"etr":2470,"Ã¢nia":2471,"reveu":2472,"Ġcontribu":2473,"ÃŃnio":2474,"Ġaproxim":2475,"Ġbrasileira":2476,"tante":2477,"ĠgÃªn":2478,"part":2479,"Ġinicial":2480,"ĠAf":2481,"Ġrelat":2482,"esia":2483,"ĠAlex":2484,"ĠTom":2485,"ys":2486,"://":2487,"ĠlÃŃngua":2488,"Ġnem":2489,"Ã¡ss":2490,"Ġcentro":2491,"Ġindepend":2492,"ĠAv":2493,"apa":2494,"ĠrÃ¡p":2495,"Ġnasc":2496,"Ġcomum":2497,"Ġmerc":2498,"Ġrom":2499,"stantivo":2500,"urb":2501,"Ã¡r":2502,"Ġfato":2503,"wn":2504,"Ġconjunto":2505,"rios":2506,"Ġdistribu":2507,"Ġvalor":2508,"Ġquanto":2509,"29":2510,"Ġdisp":2511,"into":2512,"ÃŃcias":2513,"Ġagora":2514,"ĠBu":2515,"Ġidade":2516,"Ġmetros":2517,"izadas":2518,"ler":2519,"ĠSan":2520,"tion":2521,"unca":2522,"ĠMal":2523,"eta":2524,"don":2525,"Ġla":2526,"Ġating":2527,"ĠNot":2528,"Ġlocalizada":2529,"Ġ=":2530,"ĠpolÃŃtico":2531,"rist":2532,"Ġmater":2533,"Ġast":2534,"ĠFederal":2535,"Ġgrupos":2536,"Ġson":2537,"Ã³dio":2538,"pira":2539,"Ġtrop":2540,"Ġroman":2541,"osse":2542,"rue":2543,"enco":2544,"ĠHe":2545,"Ġfase":2546,"Ġvai":2547,"Ġobserv":2548,"entar":2549,"icular":2550,"ĠJap":2551,"ish":2552,"ĠSol":2553,"ett":2554,"antas":2555,"ume":2556,"Ġencontra":2557,"Ġdireito":2558,"ĠserÃ¡":2559,"Ġdever":2560,"Ġexib":2561,"ini":2562,"Ġpertenc":2563,"Ġquer":2564,"Ar":2565,"ĠTem":2566,"tamente":2567,"Ġarg":2568,"Ġdiversas":2569,"Ġfort":2570,"Ã¢mara":2571,"Ġeleito":2572,"defin":2573,"\"),":2574,"guas":2575,"Ġinstitu":2576,"ĠIngl":2577,"andid":2578,"Ġtermo":2579,"Ġcresc":2580,"Ġampl":2581,"Ġviol":2582,"ĠAlemanha":2583,"Ġlogo":2584,"SB":2585,"Ġquad":2586,"aco":2587,"Ġusado":2588,"ĠBen":2589,"enos":2590,"utos":2591,"Ġseguintes":2592,"ves":2593,"Ġcirc":2594,"ner":2595,"ĠbritÃ¢n":2596,"Ġelem":2597,"Ġmomento":2598,"ericana":2599,"ĠMic":2600,"Ġpovo":2601,"):":2602,"Ġchamada":2603,"Ġbus":2604,"su":2605,"Ġdesign":2606,"ĠFac":2607,"Ġfemin":2608,"atalha":2609,"rang":2610,"ĠCa":2611,"anta":2612,"Ġestar":2613,"Ġdeu":2614,"Ġelei":2615,"ĠPe":2616,"Ġ188":2617,"ĠcriaÃ§Ã£o":2618,"Ġdiversos":2619,"Ġmovimento":2620,"ecimento":2621,"ates":2622,"ĠlanÃ§amento":2623,"Ġlhe":2624,"ĠTur":2625,"Ġcidades":2626,"197":2627,"met":2628,"Ġestudo":2629,"itude":2630,"ĠGlob":2631,"ĠterritÃ³rio":2632,"ham":2633,"ĠÃºnico":2634,"Ġbair":2635,"ight":2636,"ĠDo":2637,"Ã£es":2638,"ng":2639,"Ġocorre":2640,"ĠtelevisÃ£o":2641,"Ġmont":2642,"osp":2643,"umb":2644,"Ġpersonagem":2645,"Ġ1999":2646,"ĠTa":2647,"Ġnovamente":2648,"Ġge":2649,"ĠImp":2650,"fil":2651,"Ġche":2652,"ĠSch":2653,"Ġsede":2654,"Ġmeses":2655,"Ġpens":2656,"Ġinstal":2657,"Ġmodo":2658,"ativas":2659,"elmente":2660,"Ġestrutura":2661,"cul":2662,"Ġace":2663,"Ġvend":2664,"las":2665,"Ġseis":2666,"AR":2667,"Ġigre":2668,"Ġdecid":2669,"Ġamericano":2670,"ĠespaÃ§o":2671,"Ġpresente":2672,"den":2673,"Ġviv":2674,"raÃ§Ãµes":2675,"true":2676,"Ġimpl":2677,"ttp":2678,"Ġfilha":2679,"iÃªncias":2680,"pressÃ£o":2681,"Ġtudo":2682,"Ġhttp":2683,"ĠMag":2684,"ĠMu":2685,"yl":2686,"40":2687,"Ġrevel":2688,"ĠBro":2689,"genh":2690,"Ã¢nt":2691,"ĠÃºltima":2692,"Ġempre":2693,"ĠespÃ©cies":2694,"Ġcampo":2695,"ĠMinist":2696,"ĠGru":2697,"ĠGr":2698,"Ġescola":2699,"ĠJogos":2700,"Ġvari":2701,"ld":2702,"esc":2703,"Ã£s":2704,"ĠSanto":2705,"isl":2706,"Ġdistrito":2707,"abilidade":2708,"deu":2709,"ĠParis":2710,"Ġtransform":2711,"iqu":2712,"ĠMon":2713,"Ġalte":2714,"ĠDiv":2715,"Ġfontes":2716,"Ġher":2717,"ĠRod":2718,"Ġmaiores":2719,"ĠBel":2720,"aran":2721,"ĠfrancÃªs":2722,"Ġgeralmente":2723,"Ġconsiderado":2724,"ĠmÃ£e":2725,"ĠCruz":2726,"ĠprÃ³pria":2727,"ĠInstituto":2728,"ĠÃ¡reas":2729,"idÃªncia":2730,"ĠfunÃ§Ã£o":2731,"ife":2732,"uraÃ§Ã£o":2733,"estival":2734,"Ġfilhos":2735,"Ġfica":2736,"Ġproblemas":2737,"icais":2738,"Ġmembro":2739,"ĠXI":2740,"Ġnunca":2741,"Ġestilo":2742,"Ġdenom":2743,"Ġcel":2744,"porte":2745,"ole":2746,"ĠSilva":2747,"ĠPortugu":2748,"ward":2749,"ĠFor":2750,"ste":2751,"ĠGen":2752,"Ġdispon":2753,"Ġ50":2754,"ĠMac":2755,"Ġpag":2756,"ĠPh":2757,"ĠcientÃŃf":2758,"ĠEspanha":2759,"Ġ1998":2760,"ĠGra":2761,"Ġgl":2762,"ya":2763,"voluÃ§Ã£o":2764,"ĠAssoc":2765,"25":2766,"br":2767,"Ġmand":2768,"cri":2769,"ĠSim":2770,"rÃ¡s":2771,"ĠDan":2772,"Ġchegou":2773,"ĠMundo":2774,"ĠMc":2775,"ĠmÃ©dia":2776,"Ġreun":2777,"ogrÃ¡f":2778,"igu":2779,"ĠBra":2780,"Ġjogador":2781,"Ġcandid":2782,"panha":2783,"ĠSubstantivo":2784,"Ġcausa":2785,"Ã¡tico":2786,"ogia":2787,"Ġbranc":2788,"Ġ1990":2789,"out":2790,"Ġestavam":2791,"Am":2792,"jam":2793,"Ġarte":2794,"Ġmal":2795,"Ġprecis":2796,"Ġprocura":2797,"Ġcategoria":2798,"ĠTr":2799,"umentos":2800,"arem":2801,"ĠTod":2802,"Ġresta":2803,"Ġgal":2804,"ibilidade":2805,"ĠalcanÃ§":2806,"Ġilha":2807,"Ġtenha":2808,"Ġespanh":2809,"itaÃ§Ã£o":2810,"ĠAust":2811,"Ġmulheres":2812,"aixas":2813,"ĠEmb":2814,"ĠIr":2815,"Ġpadr":2816,"Ġadv":2817,"Ã³rios":2818,"ĠÃºnica":2819,"Ġprot":2820,"23":2821,"Ġassum":2822,"Ġenvolv":2823,"isso":2824,"Ġmora":2825,"ney":2826,"60":2827,"uss":2828,"Ġdiretor":2829,"ĠlÃ¡":2830,"Ġsel":2831,"Ġexecut":2832,"imas":2833,"ĠMais":2834,"Ġcapac":2835,"ĠUniÃ£o":2836,"eias":2837,"Ġmusical":2838,"vam":2839,"Ġexc":2840,"ĠDeus":2841,"Ġapoio":2842,"ĠparticipaÃ§Ã£o":2843,"Ġforn":2844,"ursos":2845,"Ġcrist":2846,"ae":2847,"nia":2848,"ĠMor":2849,"Ġaument":2850,"Ġhomem":2851,"Ġajud":2852,"Ġresultado":2853,"Ġdivid":2854,"sto":2855,"Ġacima":2856,"Ġvir":2857,"Ġprofissional":2858,"AS":2859,"Ġsite":2860,"ecido":2861,"Ġordem":2862,"ĠAssim":2863,"Ġcategory":2864,"ĠSantos":2865,"Ã¶":2866,"ĠfÃŃs":2867,"âĢĿ,":2868,"ĠReal":2869,"Al":2870,"Ġpromov":2871,"ĠApesar":2872,"ĠEu":2873,"pÃ§Ã£o":2874,"Ã¡st":2875,"Ġ|":2876,"itura":2877,"Ġaer":2878,"ider":2879,"uranÃ§a":2880,"ĠprovÃŃncia":2881,"ĠSet":2882,"Ġsignific":2883,"Ġnotcategory":2884,"encial":2885,"Ġ31":2886,"Ġterceiro":2887,"ER":2888,"ĠArg":2889,"ĠCasa":2890,"ĠdireÃ§Ã£o":2891,"Ġhomens":2892,"III":2893,"ĠBr":2894,"Ġcargo":2895,"Ġacom":2896,"orld":2897,"ural":2898,"ites":2899,"ĠChar":2900,"ille":2901,"liam":2902,"ius":2903,"Ġ187":2904,"Ġsemelh":2905,"Ġconte":2906,"Ġcomplet":2907,"ĠForm":2908,"ĠdiscussÃ£o":2909,"itora":2910,"ĠÃį":2911,"ilha":2912,"rama":2913,"eter":2914,"ror":2915,"Ġrevista":2916,"Ġdestac":2917,"Ġnatural":2918,"Ġtest":2919,"ergia":2920,"Ġprev":2921,"ĠBiografia":2922,"ÃŃdeo":2923,"yn":2924,"ĠHol":2925,"Ġobrig":2926,"jas":2927,"Ġquant":2928,"Ġtiv":2929,"ĠserviÃ§o":2930,"Ġrede":2931,"pro":2932,"Ġsepara":2933,"Ġtradic":2934,"Ġfrente":2935,"ĠformaÃ§Ã£o":2936,"Ġunivers":2937,"ain":2938,"bre":2939,"Ġcomunidade":2940,"Ġtrat":2941,"Ġfut":2942,"eio":2943,"leta":2944,"apon":2945,"estre":2946,"Ġshow":2947,"Ġfilmes":2948,"ational":2949,"Ġ40":2950,"lam":2951,"Ġreligios":2952,"Ġtri":2953,"ĠItÃ¡lia":2954,"Ġluta":2955,"ĠconteÃº":2956,"ĠAcad":2957,"Â°":2958,"ĠSec":2959,"Ġ1996":2960,"ĠestÃº":2961,"rev":2962,"dios":2963,"par":2964,"Ġobjetivo":2965,"rog":2966,"24":2967,"Ġplane":2968,"Ġvel":2969,"Ġmodelo":2970,"Ġlei":2971,"Ġinternacional":2972,"ĠBrasileira":2973,"ĠOc":2974,"Ġlut":2975,"inham":2976,"ĠlÃŃder":2977,"ĠeliminaÃ§Ã£o":2978,"ĠCultura":2979,"itores":2980,"Ġespera":2981,"anho":2982,"ĠLou":2983,"ĠMad":2984,"Ġcost":2985,"Ġâ":2986,"ale":2987,"Ġdar":2988,"Ġprofessor":2989,"Ġescrito":2990,"Ġacred":2991,"Ġconce":2992,"ith":2993,"eir":2994,"Ġdig":2995,"uldade":2996,"Ġsomente":2997,"ĠBer":2998,"alha":2999,"Ġcrit":3000,"ĠcompetiÃ§Ã£o":3001,"ĠCha":3002,"Ġganhou":3003,"Ã³nio":3004,"Ã´nica":3005,"Ġven":3006,"qui":3007,"Ġlocais":3008,"Ġrespe":3009,"Ġeuro":3010,"ĠLeg":3011,"ĠLuc":3012,"Ġdata":3013,"au":3014,"Ġvi":3015,"arm":3016,"ky":3017,"ĠCab":3018,"Ġparticular":3019,"ĠPartido":3020,"ĠEnc":3021,"ĠEv":3022,"nÃ§as":3023,"ĠtÃ£o":3024,"Ġfront":3025,"sol":3026,"ĠUS":3027,"Ã¢ndia":3028,"Ġcriado":3029,"ĠBan":3030,"Ġarquit":3031,"Ġmens":3032,"Ġjust":3033,"undaÃ§Ã£o":3034,"Ġresol":3035,"urgo":3036,"aug":3037,"Ġqualidade":3038,"inais":3039,"elos":3040,"han":3041,"ĠJapÃ£o":3042,"iste":3043,"ĠJÃ¡":3044,"Ġlet":3045,"ĠinformaÃ§Ã£o":3046,"imes":3047,"Ġautom":3048,"Ġfinanc":3049,"Ġtrein":3050,"ĠWilliam":3051,"ãĥ":3052,"ovi":3053,"frica":3054,"SBN":3055,"Ġevento":3056,"Ġ1997":3057,"Ġsurg":3058,"ĠConc":3059,"Ġacesso":3060,"Ġexiste":3061,"ĠRecord":3062,"Ġcasos":3063,"Ġassin":3064,"ium":3065,"ĠSam":3066,"americano":3067,"Ġantigo":3068,"Ġdisco":3069,"ien":3070,"Ġreb":3071,"ĠImpÃ©rio":3072,"Ã©tico":3073,"ĠLei":3074,"Ġcompanh":3075,"Ġantiga":3076,"Ġflores":3077,"Ġpoderia":3078,"rÃ©":3079,"Ġbom":3080,"Ġanterior":3081,"Ġrap":3082,"grama":3083,"ws":3084,"inta":3085,"uno":3086,"Ġvaria":3087,"Ġintro":3088,"ĠTerra":3089,"ĠalemÃ£o":3090,"Ġnat":3091,"ĠvitÃ³ria":3092,"Ġfosse":3093,"Ġimportantes":3094,"ĠWal":3095,"itou":3096,"ĠgÃªnero":3097,"ĠEr":3098,"Ġetc":3099,"Ġcontrole":3100,"ĠorganizaÃ§Ã£o":3101,"Ġlidera":3102,"Ġsi":3103,"Ġhip":3104,"Ġnovos":3105,"reto":3106,"izando":3107,"Ġfig":3108,"27":3109,"ood":3110,"Ġatualmente":3111,"ĠLiv":3112,"ment":3113,"ĠforÃ§a":3114,"ĠSo":3115,"Ġjapon":3116,"ispo":3117,"ĠGrupo":3118,"Ġminha":3119,"ferÃªncia":3120,"ĠAtl":3121,"Ġcriar":3122,"ĠYork":3123,"ĠirmÃ£o":3124,"ulado":3125,"lay":3126,"dado":3127,"ificar":3128,"Ã©ria":3129,"forma":3130,"Ġmag":3131,"ĠGovern":3132,"ides":3133,"sequ":3134,"tica":3135,"Ġestudos":3136,"Ġdupl":3137,"Ġact":3138,"Ġband":3139,"Ġelev":3140,"leo":3141,"etros":3142,"ĠBrasileiro":3143,"Ġtecn":3144,"Ġprat":3145,"respon":3146,"ĠAlexand":3147,"acionais":3148,"Ġexcl":3149,"aterra":3150,"Ġnasceu":3151,"ĠIII":3152,"elhores":3153,"sc":3154,"nta":3155,"Ġpesquisa":3156,"Ġfeita":3157,")\"":3158,"ĠBat":3159,"ĠepisÃ³dio":3160,"Ġportuguesa":3161,"Ġnovas":3162,"ĠÃģfrica":3163,"Ġlivre":3164,"Ġhoras":3165,"Ġmaneira":3166,"ĠXX":3167,"Ġatividades":3168,"Ġef":3169,"ertura":3170,"ĠVi":3171,"Ġinteress":3172,"ĠÃ³r":3173,"ĠCarreira":3174,"Ġnada":3175,"Ġcenso":3176,"ĠCosta":3177,"Ġmass":3178,"quele":3179,"ator":3180,"anÃ§as":3181,"Ġescreveu":3182,"Ġ1980":3183,"har":3184,"bra":3185,"ĠInf":3186,"Ġcast":3187,"Ġconseguiu":3188,"por":3189,"ĠforÃ§as":3190,"Ġassist":3191,"Ġvice":3192,"entina":3193,"ĠDist":3194,"ĠUnido":3195,"Ġrad":3196,"ÃŃncipe":3197,"ĠCÃ¢mara":3198,"Ã³lica":3199,"Ġbairro":3200,"Ġfazendo":3201,"Ġforte":3202,"Ġhou":3203,"ĠÐ":3204,"ÃŃdu":3205,"ÃŃcios":3206,"ĠTrans":3207,"ĠserviÃ§os":3208,"Ġprocess":3209,"dores":3210,"Ġ186":3211,"ĠSem":3212,"ĠSegunda":3213,"Ġajuda":3214,"Ġalgo":3215,"idae":3216,"iÃ§a":3217,"ĠJes":3218,"Ã©u":3219,"ĠInglaterra":3220,"ĠClube":3221,"Ġcantora":3222,"ĠISBN":3223,"ĠBol":3224,"Ġapesar":3225,"ĠComun":3226,"ĠArm":3227,"Ġy":3228,"rir":3229,"UA":3230,"Ġcentral":3231,"Ġmenor":3232,"Ġsignifica":3233,"ĠLond":3234,"gar":3235,"ĠHenri":3236,"Ġdesse":3237,"45":3238,"Ġgera":3239,"ianos":3240,"ĠEscola":3241,"ĠChina":3242,"nd":3243,"Ġtime":3244,"Ġ1994":3245,"rais":3246,"Ã©to":3247,"Ġteria":3248,"Ġlocalizado":3249,"Ġaplic":3250,"ĠMuseu":3251,"Ġlivros":3252,"Ġsuperior":3253,"Ã©g":3254,"Ġesqu":3255,"Ġhomen":3256,"ĠMunicipal":3257,"ĠJe":3258,"ori":3259,"omas":3260,"ĠRos":3261,"rand":3262,"Ġocorr":3263,"Ġigreja":3264,"Ġpubl":3265,"26":3266,"Ġdireitos":3267,"ĠcampeÃ£o":3268,"Ġ1995":3269,"Ġpais":3270,"dou":3271,"inheiro":3272,"Ġimport":3273,"Ġnomeado":3274,"Ġdesenvol":3275,"Ãºc":3276,"ĠpÃ¡ginas":3277,"Ġmundial":3278,"Ġgara":3279,"iciais":3280,"Ġterceira":3281,"ĠDavid":3282,"Ġtrib":3283,"Ġsequ":3284,"Ġwik":3285,"ĠRoma":3286,"Ġnav":3287,"ÃŃstico":3288,"ĠRel":3289,"ĠDesde":3290,"ĠEles":3291,"gon":3292,"Ġtoc":3293,"enhora":3294,"unid":3295,"aga":3296,"Ġminist":3297,"Ġalta":3298,"âĢĻ":3299,"ubes":3300,"ory":3301,"Ġsus":3302,"for":3303,"Ġemp":3304,"Ġsociedade":3305,"Ġserem":3306,"Ġaprov":3307,"ĠconteÃºdo":3308,"ĠLuÃŃs":3309,"Ġvista":3310,"ĠDemografia":3311,"ĠeconÃ´m":3312,"Ġfonte":3313,"arda":3314,"ĠWorld":3315,"Ġsemana":3316,"partamento":3317,"alo":3318,"ĠMelhor":3319,"Ġdestru":3320,"35":3321,"ĠaÃ§Ã£o":3322,"Ġobt":3323,"Ġneste":3324,"ividade":3325,"Ġcomercial":3326,"Ġproblema":3327,"ĠJust":3328,"Ġdesemp":3329,"Ġrealizado":3330,"Ġcobertos":3331,"ĠComp":3332,"\":":3333,"ĠrÃ¡pida":3334,"Ġedif":3335,"Ġmorreu":3336,"Ġenergia":3337,"ĠTo":3338,"Ġada":3339,"Ġparticipou":3340,"Ġraz":3341,"xico":3342,"uÃŃ":3343,"Ġjovem":3344,"Ġdedic":3345,"Ã¡ticas":3346,"Ġapresenta":3347,"AN":3348,"tes":3349,"idental":3350,"ĠestÃºdio":3351,"oraÃ§Ã£o":3352,"ĠVic":3353,"Ġmort":3354,"Ġpartes":3355,"Ġambos":3356,"Ġdessa":3357,"ritos":3358,"Ġfede":3359,"ĠInd":3360,"Ġvotos":3361,"Ġbastante":3362,"Ġcapacidade":3363,"ey":3364,"Ġmult":3365,"ber":3366,"Ġ1970":3367,"idamente":3368,"Ã¡dio":3369,"oma":3370,"Ã¨":3371,"Ġempresas":3372,"ĠHa":3373,"ĠConselho":3374,"Ġatriz":3375,"gens":3376,"ĠdivisÃ£o":3377,"Ġtraz":3378,"ãģ":3379,"xima":3380,"Ġinterior":3381,"Ġperm":3382,"rias":3383,"Ġaval":3384,"Ġtais":3385,"ĠGre":3386,"Ġfiz":3387,"ĠHo":3388,"Ġdeclara":3389,"ĠYou":3390,"ĠresponsÃ¡vel":3391,"ament":3392,"37":3393,"Ġdeput":3394,"Ġ1992":3395,"Ġesposa":3396,"Ġminutos":3397,"ecem":3398,"tab":3399,"alidade":3400,"Ġaltura":3401,"Ġaproximadamente":3402,"ker":3403,"ĠVila":3404,"Ġmelhores":3405,"itada":3406,"Ã©is":3407,"Ã¢nc":3408,"196":3409,"Ġouro":3410,"Ġvizinh":3411,"ington":3412,"ĠDa":3413,"Ġusar":3414,"cas":3415,"ĠRib":3416,"ania":3417,"\").":3418,"ĠIsso":3419,"ks":3420,"ĠOrdem":3421,"ecion":3422,"55":3423,"ones":3424,"Ġcorrespon":3425,"ĠpresenÃ§a":3426,"Ġsentido":3427,"Ġi":3428,"ÃŃr":3429,"rov":3430,"amar":3431,"Ġimagem":3432,"ÃŃlio":3433,"ĠPrÃªmio":3434,"Ġtinham":3435,"Ġrepresenta":3436,"hael":3437,"Ġurb":3438,"itivo":3439,"ĠGeografia":3440,"Ãºssia":3441,"ĠregiÃµes":3442,"ofia":3443,"urado":3444,"Ġopin":3445,"Ġocorreu":3446,"38":3447,"Ġimpera":3448,"Ġensino":3449,"ĠGar":3450,"ĠprÃ©":3451,"ĠvizinhanÃ§a":3452,"ono":3453,"ĠDis":3454,"Ã³f":3455,"Ġnomes":3456,"ĠlanÃ§ou":3457,"Ġpessoal":3458,"48":3459,"FA":3460,"ĠEmbora":3461,"ars":3462,"Ġpopul":3463,"mea":3464,"Ġdese":3465,"jos":3466,"ĠManuel":3467,"Ġcomplex":3468,"Ġfoto":3469,"ulares":3470,"ĠLondres":3471,"In":3472,"ĠexÃ©rcito":3473,"Ġcujo":3474,"Ã³c":3475,"posto":3476,"Ã©cia":3477,"Ġator":3478,"Ġger":3479,"Ġsat":3480,"Ġacabou":3481,"Ġenfre":3482,"Ġmaterial":3483,"ĠDel":3484,"redo":3485,"ĠInter":3486,"etos":3487,"Ġpersonagens":3488,"ti":3489,"Ġcolabora":3490,"ĠprÃ³ximo":3491,"Ġcoment":3492,"Ġisto":3493,"Ġbaixo":3494,"rever":3495,"Ġgre":3496,"ove":3497,"rantes":3498,"Ġelementos":3499,"36":3500,"ĠÂ«":3501,"Ġlingu":3502,"Ġcanal":3503,"Ġcust":3504,"rita":3505,"ĠOliv":3506,"apar":3507,"Ġtrabalhos":3508,"ĠcrianÃ§as":3509,"ega":3510,"ĠPoss":3511,"ĠFestival":3512,"eios":3513,"ĠAtualmente":3514,"berg":3515,"Ch":3516,"Ġeventos":3517,"Ġps":3518,"ili":3519,"Ġelas":3520,"ĠGeral":3521,"Ġespecialmente":3522,"Ġcabe":3523,"isÃµes":3524,"Ð°":3525,"Ã©xico":3526,"Ġatribu":3527,"ĠLiga":3528,"Ġquest":3529,"Ġretira":3530,"Ġnesta":3531,"rest":3532,"cont":3533,"gresso":3534,"Ġtema":3535,"Ġfalta":3536,"ÃŃb":3537,"47":3538,"ĠMet":3539,"vista":3540,"Ġverdade":3541,"Ġrot":3542,"ue":3543,"esas":3544,"cionais":3545,"Ġperto":3546,"ĠFernando":3547,"ĠOlÃŃmp":3548,"Ġpalavra":3549,"ave":3550,"sg":3551,"Â»":3552,"ĠvÃŃdeo":3553,"ĠArqu":3554,"Ġsan":3555,"ĠDi":3556,"ĠJesus":3557,"itando":3558,"ĠAst":3559,"Ġconfirm":3560,"39":3561,"Ġtax":3562,"Ġ2021":3563,"edor":3564,"ĠCrist":3565,"Ġclassific":3566,"Ġseguida":3567,"Ġpac":3568,"Ġacus":3569,"Ġconclu":3570,"--":3571,"ĠCentro":3572,"Ġfaixa":3573,"Ġmercado":3574,"olo":3575,"Ġtempera":3576,"Ġacompanh":3577,"OS":3578,"57":3579,"Ġinvestig":3580,"rap":3581,"Ġpriv":3582,"Ġdeles":3583,"ement":3584,"Ġposteriormente":3585,"Ġmascul":3586,"Ġfundo":3587,"ĠJorge":3588,"riu":3589,"ĠPop":3590,"Ġ1993":3591,"ĠCin":3592,"ision":3593,"Ġconfl":3594,"Ġnoite":3595,"ãĤ":3596,"ald":3597,"ibil":3598,"Ġbl":3599,"ureza":3600,"\";":3601,"Ġmist":3602,"ĠsituaÃ§Ã£o":3603,"Ġmem":3604,"Ġbio":3605,"umo":3606,"Ġcampanha":3607,"Ġfol":3608,"St":3609,"endeu":3610,"Ġsup":3611,"ĠmÃ©to":3612,"Ġsete":3613,"ĠVen":3614,"Ġvig":3615,"CA":3616,"ĠHÃ¡":3617,"ĠsaÃºde":3618,"Ġalto":3619,"ony":3620,"hi":3621,"58":3622,"unidense":3623,"uros":3624,"Ġlevou":3625,"enhor":3626,"ĠCur":3627,"gn":3628,"Ġrealizada":3629,"Ġinaug":3630,"Ġtermos":3631,"Ġdele":3632,"ĠSob":3633,"Ġestreia":3634,"orda":3635,"Ġsingle":3636,"izaÃ§Ãµes":3637,"Ã¤":3638,"Ġalguma":3639,"Ġ1991":3640,"ĠMarc":3641,"iter":3642,"Ã±":3643,"Î±":3644,"ego":3645,"ĠDou":3646,"Ġpartida":3647,"Ġtam":3648,"Ġcriada":3649,"oz":3650,"ĠSenhora":3651,"ĠreferÃªncia":3652,"Ġdin":3653,"ĠestaÃ§Ã£o":3654,"Ġmeu":3655,"Ġassass":3656,"ĠBah":3657,"Ġconhecimento":3658,"Ġst":3659,"ĠDev":3660,"Ġenvi":3661,"Ġapren":3662,"uito":3663,"ited":3664,"dustria":3665,"ĠSen":3666,"ĠDr":3667,"ĠdecisÃ£o":3668,"onel":3669,"Ġfra":3670,"ĠBas":3671,"Ġguitar":3672,"Ġcomand":3673,"Ġprimeiras":3674,"78":3675,"ÃŃdos":3676,"Ġcomando":3677,"aqu":3678,"ĠdÃ¡":3679,"ĠJu":3680,"ĠJames":3681,"ĠCO":3682,"Ġprepara":3683,"ĠTel":3684,"Ã³digo":3685,"ĠquestÃ£o":3686,"ĠediÃ§Ãµes":3687,"Ġdens":3688,"Ġartista":3689,"Ġescrita":3690,"Ġcinema":3691,"Ġimagens":3692,"ĠespecÃŃf":3693,"ĠJÃº":3694,"34":3695,"NA":3696,"Ġdivulg":3697,"ĠusuÃ¡rio":3698,"ĠChrist":3699,"avelmente":3700,"ioc":3701,"ĠmÃºsicas":3702,"Ġrespect":3703,"eth":3704,"Ġrus":3705,"ĠPan":3706,"Ġmarca":3707,"guesia":3708,"pec":3709,"rec":3710,"ĠMel":3711,"Ġsolo":3712,"ĠMÃ©xico":3713,"ĠSeleÃ§Ã£o":3714,"ĠPredefin":3715,"lhe":3716,"ĠmÃªs":3717,"arina":3718,"ĠSin":3719,"Ġequipes":3720,"elha":3721,"Ġmac":3722,"Ã¢nica":3723,"iando":3724,"ĠAle":3725,"ramente":3726,"Ġteoria":3727,"Ġocas":3728,"Ġinteresse":3729,"Ġben":3730,"ĠPaÃŃs":3731,"Ġnenhum":3732,"Ġabando":3733,"essÃ£o":3734,"etas":3735,"feitos":3736,"Ġsaber":3737,"itt":3738,"Ġenfrent":3739,"ĠRobert":3740,"ĠEra":3741,"ĠNota":3742,"Ġclasse":3743,"ospital":3744,"Ġabaixo":3745,"ĠJer":3746,"Ġanal":3747,"ĠJul":3748,"ĠOri":3749,"ĠMen":3750,"Ġsociais":3751,"Ġcul":3752,"enÃ§as":3753,"Ã¡lise":3754,"vez":3755,"TV":3756,"ĠMinas":3757,"ĠDez":3758,"Ġanimais":3759,"Ġprodutos":3760,"Ġ1988":3761,"lev":3762,"ford":3763,"Ġlo":3764,"Ġpassa":3765,"ĠeducaÃ§Ã£o":3766,"Ġmanter":3767,"Ġpartido":3768,"ĠEssa":3769,"Ã©dio":3770,"uf":3771,"Ġcivil":3772,"gos":3773,"Ġreduz":3774,"dice":3775,"pol":3776,"udio":3777,"ĠOutubro":3778,"ĠBand":3779,"ĠHel":3780,"ioca":3781,"08":3782,"Ġverd":3783,"Ġtab":3784,"ĠPresidente":3785,"Ġredor":3786,"33":3787,"Ġcorr":3788,"Ã¡ginas":3789,"Ġgarant":3790,"ĠNas":3791,"Ġpublicado":3792,"ĠGon":3793,"Ġboa":3794,"Ġaltern":3795,"Ġpequena":3796,"ĠAntÃ´nio":3797,"guÃ©m":3798,"ĠXIX":3799,"Ġutilizado":3800,"Ġdeixou":3801,"lin":3802,"Ġferro":3803,"Ġcert":3804,"ĠLat":3805,"Ġcaval":3806,"59":3807,"Ġdemonst":3808,"diÃ§Ã£o":3809,"âĢĿ.":3810,"ress":3811,"ĠcondiÃ§Ãµes":3812,"ocidade":3813,"rb":3814,"ĠBa":3815,"ics":3816,"ĠAra":3817,"Ġblo":3818,"ĠPrinc":3819,"Ġinicia":3820,"ĠAssociaÃ§Ã£o":3821,"onas":3822,"ĠindivÃŃdu":3823,"Ġcruz":3824,"Ġtornar":3825,"Ġvisto":3826,"ĠJulho":3827,"Ġaumento":3828,"49":3829,"Ġ1989":3830,"ĠseguranÃ§a":3831,"ĠNossa":3832,"ling":3833,"ĠMig":3834,"ĠprincÃŃp":3835,"ĠDia":3836,"Ġ1986":3837,"Ġusada":3838,"Ġusando":3839,"ĠclÃ¡ss":3840,"ĠAbril":3841,"Ġsuperf":3842,"icar":3843,"Ġtornando":3844,"Ġcoisa":3845,"Ġmostra":3846,"vida":3847,"Ġmol":3848,"ĠpadrÃ£o":3849,"ĠMinistÃ©rio":3850,"ĠMiss":3851,"Ġ60":3852,"56":3853,"ĠAnton":3854,"iso":3855,"ĠMod":3856,"ĠVida":3857,"Ġoeste":3858,"Ġartistas":3859,"Ġpalavras":3860,"Ġengenh":3861,"adÃ¡":3862,"ĠpÃºblica":3863,"Ġamor":3864,"Ġideia":3865,"way":3866,"ÃŃd":3867,"ps":3868,"ĠEstat":3869,"ÃŃtio":3870,"ĠSetembro":3871,"wa":3872,"ĠFam":3873,"Ġcontrat":3874,"Ġdizer":3875,"ĠTal":3876,"Ġvivo":3877,"Ġexistem":3878,"Ġquil":3879,"ĠcaracterÃŃsticas":3880,"Ġsistemas":3881,"ware":3882,"Ġrecursos":3883,"ĠAcademia":3884,"ĠMaio":3885,"peu":3886,"Ġdevem":3887,"omo":3888,"Ġformas":3889,"Ġ1960":3890,"ĠPrimeira":3891,"Ġoito":3892,"orden":3893,"Ġdomin":3894,"ĠhistÃ³rico":3895,"etes":3896,"ĠJack":3897,"46":3898,"Ġportanto":3899,"Ġcampeonato":3900,"Ġveja":3901,"ĠAll":3902,"ven":3903,"ĠDec":3904,"Ġpers":3905,"Ã³dios":3906,"ject":3907,"Ġinicialmente":3908,"ĠLet":3909,"Ġintel":3910,"Ġflu":3911,"Ġcompre":3912,"Ġinstr":3913,"www":3914,"Ġesses":3915,"olas":3916,"Ġdensidade":3917,"orado":3918,"Ġcole":3919,"inte":3920,"Ġestes":3921,"Ġparece":3922,"Ġverm":3923,"Ġmudou":3924,"ID":3925,"istÃªncia":3926,"line":3927,"ĠGab":3928,"ĠcomeÃ§a":3929,"ĠCamp":3930,"ĠprÃ¡tica":3931,"ko":3932,"ĠEUA":3933,"ĠExÃ©rcito":3934,"rel":3935,"Ġentrada":3936,"Ã©rcio":3937,"Ġproposta":3938,"Ġindivid":3939,"ixo":3940,"Ġcompara":3941,"ontes":3942,"ecendo":3943,"ĠRich":3944,"ĠAlguns":3945,"Not":3946,"ĠMichael":3947,"Ġestimada":3948,"09":3949,"Ġit":3950,"ĠRede":3951,"adre":3952,"Ġluz":3953,"Ġquarto":3954,"gas":3955,"ĠWh":3956,"Ġdeb":3957,"Ġjuntamente":3958,"Ġmec":3959,"mb":3960,"ages":3961,"rael":3962,"ĠinfluÃªncia":3963,"ĠProf":3964,"rativa":3965,"Ġperd":3966,"ĠCondado":3967,"Ġrece":3968,"Ġcurso":3969,"Ã¡n":3970,"ĠAinda":3971,"ĠAugu":3972,"Ġtrabalhar":3973,".)":3974,"Ġcasamento":3975,"AM":3976,"Ġemisso":3977,"tiva":3978,"Ġfech":3979,"onia":3980,"Ã¡gina":3981,"Ãªmios":3982,"ĠNotas":3983,"eratura":3984,"Ġeta":3985,"inada":3986,"ĠCentral":3987,"ĠnecessÃ¡rio":3988,"Ġprova":3989,"Ġaz":3990,"rimento":3991,"ĠInform":3992,"Ġtradicional":3993,"Ġanunciou":3994,"Ġcolet":3995,"Ġ+":3996,"ĠTrib":3997,"Ġdirigido":3998,"ĠJunho":3999,"Ã³rico":4000,"orde":4001,"Ġdific":4002,"ericanos":4003,"til":4004,"edades":4005,"ĠAut":4006,"Ġprogramas":4007,"Ġsuger":4008,"Ġcoisas":4009,"itÃ£o":4010,"Ġexig":4011,"illa":4012,"Ġgols":4013,"Ġsac":4014,"ĠQue":4015,"ilar":4016,"ĠCD":4017,"Ġcapaz":4018,"vos":4019,"ark":4020,"BC":4021,"Ġdemais":4022,"Ġcha":4023,"untos":4024,"Ġtipos":4025,"amental":4026,"ĠFel":4027,"ĠeleiÃ§Ãµes":4028,"ĠGlobo":4029,"Ġescolh":4030,"gress":4031,"ĠHom":4032,"tada":4033,"06":4034,"Ġfab":4035,"Ġresultados":4036,"ĠBranc":4037,"ĠRed":4038,"Ġban":4039,"Ġperc":4040,"ĠCidade":4041,"ĠSocial":4042,"ĠHenrique":4043,"ĠTrabal":4044,"31":4045,"ĠSalv":4046,"ĠAward":4047,"ath":4048,"Ġpequeno":4049,"ĠimportÃ¢ncia":4050,"Ġexerc":4051,"Ġjogadores":4052,"ĠEducaÃ§Ã£o":4053,"ĠMiguel":4054,"ĠcrÃŃtica":4055,"Ġcontrato":4056,"pace":4057,"ĠEsse":4058,"ĠTor":4059,"Ġvoltou":4060,"Ġataque":4061,"07":4062,"Ġrespeito":4063,"ĠOn":4064,"Åį":4065,"forme":4066,"ĠSist":4067,"Ġquantidade":4068,"ĠDisc":4069,"Ġaleg":4070,"32":4071,"rico":4072,"inar":4073,"Ġentrou":4074,"Ġcontr":4075,"Ġencontrar":4076,"ĠAgosto":4077,"Ġpertencente":4078,"ĠMes":4079,"Ġnenhuma":4080,"ĠEdu":4081,"Ġvenceu":4082,"veu":4083,"ugby":4084,"ĠRei":4085,"Ġestat":4086,"Ġturn":4087,"Ġessas":4088,"atÃ³rio":4089,"ĠtÃŃtulos":4090,"ĠVir":4091,"IN":4092,"irst":4093,"cam":4094,"ĠWar":4095,"urn":4096,"Ġambiente":4097,"IS":4098,"Ġmanif":4099,"zes":4100,"iaÃ§Ãµes":4101,"ĠindÃº":4102,"ĠBern":4103,"44":4104,"ĠcanÃ§Ãµes":4105,"Ġ1985":4106,"Ġsobrev":4107,"As":4108,"olÃ³gico":4109,"ĠArgentina":4110,"ĠelÃ©t":4111,"Ġseguir":4112,"pren":4113,"ĠBal":4114,"culo":4115,"PÃ¡ginas":4116,"idores":4117,"encion":4118,"IA":4119,"unal":4120,"ĠMarÃ§o":4121,"Ġadicion":4122,"ÃŃcie":4123,"hou":4124,"osofia":4125,"ĠÃŃn":4126,"Ġdestaque":4127,"rÃ¡fico":4128,"ĠEnquanto":4129,"Ġconcent":4130,"Ġinclus":4131,"Ġtor":4132,"Ġamea":4133,"ĠNovembro":4134,"ten":4135,"Ġpen":4136,"Ġleste":4137,"ĠlanÃ§ada":4138,"ĠDon":4139,"Ġ1987":4140,"Ġplano":4141,"Ġtorna":4142,"Ġhouve":4143,"rol":4144,"my":4145,"ek":4146,"icina":4147,"Ġsens":4148,"Ġestreou":4149,"Ð¾":4150,"Ġarmas":4151,"Ġtransfer":4152,"ĠConstitu":4153,"ĠcÃ©l":4154,"abil":4155,"ater":4156,"ĠPont":4157,"Ġcrio":4158,"Ġcolon":4159,"54":4160,"ĠnÂº":4161,"ĠMy":4162,"Ġmelho":4163,"Ġgovernador":4164,"ĠÃºltimos":4165,"ĠDivisÃ£o":4166,"ĠOf":4167,"Ġestadunidense":4168,"Ġlegisl":4169,"ĠSecret":4170,"iadas":4171,"km":4172,"Ġatividade":4173,"ĠUnited":4174,"01":4175,"Ġhon":4176,"ĠÃįn":4177,"Ġtemperatura":4178,"ĠvotaÃ§Ã£o":4179,"ĠOliveira":4180,"Ġvocal":4181,"Ġconsiderada":4182,"Ġvest":4183,"ĠNeg":4184,"OR":4185,"postas":4186,"Ġnatureza":4187,"uri":4188,"teca":4189,"Ġaud":4190,"Ġzona":4191,"Ġdiferente":4192,"Ġmilitares":4193,"ĠMusic":4194,"ĠJac":4195,"Ãªnio":4196,"ĠAntÃ³nio":4197,"erdade":4198,"Ġconserv":4199,"ĠInc":4200,"enham":4201,"áĥ":4202,"Ġorient":4203,"ĠfunÃ§Ãµes":4204,"Ġitaliano":4205,"ĠRen":4206,"ĠBarb":4207,"iliar":4208,"ings":4209,"teve":4210,"ĠCalif":4211,"Ġescritor":4212,"oriz":4213,"ificaÃ§Ãµes":4214,"53":4215,"oa":4216,"usa":4217,"ĠBras":4218,"04":4219,"ÃŃtica":4220,"Ġmedida":4221,"Ġcomput":4222,"ĠavanÃ§":4223,"Ġbaseado":4224,"ĠFal":4225,"Ġgeneral":4226,"ÃŃrito":4227,"ortal":4228,"Ġterminou":4229,"Ġmap":4230,"Ġbatalha":4231,"ull":4232,"ij":4233,"Ġescrav":4234,"ĠPossui":4235,"Ã©rios":4236,"ĠRÃºssia":4237,"Ġaparece":4238,"Ġdepend":4239,"Ġdado":4240,"ĠAz":4241,"SP":4242,"pas":4243,"Ġlic":4244,"Ġfeminino":4245,"ĠWe":4246,"ĠParque":4247,"52":4248,"Ġigual":4249,"we":4250,"Ġabandon":4251,"wik":4252,"ÃŃdas":4253,"uk":4254,"exto":4255,"unos":4256,"Ġbusca":4257,"Ð¸":4258,"ĠEqu":4259,"encia":4260,"Ġjur":4261,"Ġinspira":4262,"Ġvem":4263,"erar":4264,"Ġintit":4265,"arn":4266,"Ġiniciou":4267,"Ġestados":4268,"ĠatenÃ§Ã£o":4269,"rÃ¡lia":4270,"____":4271,"ĠSab":4272,"ĠPorÃ©m":4273,"Ġtransmit":4274,"elhos":4275,"ĠmudanÃ§a":4276,"aiu":4277,"Ġaliment":4278,"ĠPortuguesa":4279,"ĠCel":4280,"ernos":4281,"ĠNic":4282,"ĠÃ¢":4283,"ĠNovo":4284,"ecÃ§Ã£o":4285,"Ġassunto":4286,"ĠComm":4287,"ĠDezembro":4288,"ĠGerais":4289,"Ġnesse":4290,"ĠVit":4291,"Ġpropor":4292,"Ġgost":4293,"Ġimedia":4294,"Ġclubes":4295,"Ġpassado":4296,"Ġdisputa":4297,"Ġterras":4298,"Ġpret":4299,"ĠrelaÃ§Ãµes":4300,"Ġ1984":4301,"ova":4302,"Ġdeixar":4303,"Ġtamanho":4304,"ĠGa":4305,"ĠBot":4306,"xo":4307,"Ġsen":4308,"Ġcrescimento":4309,"ĠEg":4310,"Ġestrang":4311,"Ġdeveria":4312,"Ġbal":4313,"ĠWikipedia":4314,"unha":4315,"Ġesquer":4316,"EN":4317,"Ã¢nico":4318,"ĠAmb":4319,"Ġcantor":4320,"Ġatac":4321,"Ġcomport":4322,"Ġtransm":4323,"ĠPÃ¡gina":4324,"ĠFaz":4325,"ĠcientÃŃfica":4326,"rador":4327,"criÃ§Ã£o":4328,"Ġade":4329,"Ġprojetos":4330,"ĠOutros":4331,"ĠPaulista":4332,"TA":4333,"Ġmatem":4334,"ts":4335,"ĠaÃ§Ãµes":4336,"Qu":4337,"Ġmic":4338,"idado":4339,"Ġhid":4340,"Ġcaminho":4341,"duto":4342,"Ġficar":4343,"Ġsin":4344,"Ġafirmou":4345,"Ġ80":4346,"Ġchin":4347,"Ġeconomia":4348,"Ġresid":4349,"mer":4350,"istem":4351,"Ġperceb":4352,"ĠIV":4353,"Ġhomenagem":4354,"peia":4355,"Ġpassar":4356,"ĠcÃ³p":4357,"osos":4358,"Ġtorneio":4359,"ÃŃtulos":4360,"Ġrecom":4361,"df":4362,"cho":4363,"Ġconceito":4364,"ersÃ£o":4365,"duzido":4366,"Ġinclui":4367,"ĠEcon":4368,"Ġasc":4369,"Ġreceber":4370,"Ġram":4371,"cionÃ¡rio":4372,"Ġpossuem":4373,"ĠÃ³rg":4374,"rv":4375,"Ġtempos":4376,"acto":4377,"prensa":4378,"bia":4379,"Ġvelocidade":4380,"42":4381,"ĠRugby":4382,"omes":4383,"à¤":4384,"',":4385,"51":4386,"ĠÎ":4387,"ardim":4388,"Ġrest":4389,"ĠSÃ©rie":4390,"Ġbloque":4391,"divers":4392,"ĠHou":4393,"ani":4394,"ĠBon":4395,"ecida":4396,"ĠFlor":4397,"ĠrazÃ£o":4398,"Ã³rm":4399,"ĠcontrÃ¡rio":4400,"ĠpolÃŃticas":4401,"ÃŃlias":4402,"Ġrevol":4403,"Ġconquistou":4404,"ĠCanadÃ¡":4405,"ĠTec":4406,"gra":4407,"ĠGoverno":4408,"ĠdistribuiÃ§Ã£o":4409,"Ġcum":4410,"igas":4411,"Ġpropriedade":4412,"ĠepisÃ³dios":4413,"onte":4414,"Ġ1982":4415,"iet":4416,"ragem":4417,"idor":4418,"ramento":4419,"ĠAustrÃ¡lia":4420,"Ġlink":4421,"ĠBill":4422,"eiÃ§Ã£o":4423,"asso":4424,"ĠPod":4425,"como":4426,"ĠSy":4427,"dustrial":4428,"olis":4429,"ulta":4430,"Ã´nimo":4431,"Ġeditor":4432,"Ġcontrol":4433,"Ġpermite":4434,"Ġeletr":4435,"ĠGeorge":4436,"Ġfronteira":4437,"Ġnar":4438,"Ġ\"\"":4439,"ene":4440,"Ġunidades":4441,"Ġdinheiro":4442,"Ġcount":4443,"ĠGil":4444,"Ġprem":4445,"ĠAssemb":4446,"xe":4447,"Ġdimin":4448,"ĠRock":4449,"Ġ000":4450,"ĠDin":4451,"Ġacad":4452,"Ġfacil":4453,"its":4454,"Ġchefe":4455,"05":4456,"Ġdescend":4457,"Ġincluem":4458,"ĠFinal":4459,"ativos":4460,"ĠProv":4461,"41":4462,"tÃ³rio":4463,"Ġimperador":4464,"ĠexistÃªncia":4465,"Ġfreguesia":4466,"Ġ1983":4467,"Ġlonga":4468,"Ġtiveram":4469,"03":4470,"Ġvila":4471,"uba":4472,"onso":4473,"act":4474,"43":4475,"ĠTour":4476,"ĠOlÃŃmpicos":4477,"Ġcuja":4478,"ĠHum":4479,"Ġsexo":4480,"Ġcomposta":4481,"Ã¡ticos":4482,"ĠmunicÃŃpios":4483,"Ã¡x":4484,"Ġlinhas":4485,"oporto":4486,"ĠusuÃ¡rios":4487,"Ġdocument":4488,"hy":4489,"Ġmassa":4490,"ĠclassificaÃ§Ã£o":4491,"Ġaux":4492,"Ġespanhol":4493,"iago":4494,"ike":4495,"Ġhumanos":4496,"Ġdefesa":4497,"IC":4498,"Ġtropas":4499,"ĠPes":4500,"ĠatrÃ¡s":4501,"ublicado":4502,"Ġsofre":4503,"Est":4504,"ĠParan":4505,"uld":4506,"Ġbilh":4507,"ĠcontÃ©m":4508,"Ġmetade":4509,"Ġformato":4510,"orial":4511,"ĠVoc":4512,"onde":4513,"Ġresposta":4514,"Ġcultural":4515,"Ġintens":4516,"Ġamigo":4517,"Ã´nico":4518,"La":4519,"ĠRua":4520,"Ġfug":4521,"erva":4522,"ĠLuiz":4523,"olÃ³gica":4524,"Ã´s":4525,"Ġunidade":4526,"ĠÃįndia":4527,"ĠBahia":4528,"Ġsint":4529,"Ġprovavelmente":4530,"Ġsubst":4531,"eiramente":4532,"ield":4533,"itÃ¡rio":4534,"Ġteatro":4535,"umin":4536,"Ġconsequ":4537,"Ġdout":4538,"ĠalguÃ©m":4539,"icado":4540,"ĠFilho":4541,"Ġdeputado":4542,"ute":4543,"hes":4544,"Ġpod":4545,"ster":4546,"guai":4547,"Ġparcial":4548,"orpo":4549,"tico":4550,"An":4551,"Ġelenco":4552,"ianÃ§a":4553,"ester":4554,"AD":4555,"Ġpergu":4556,"Ġcolocar":4557,"ĠVas":4558,"feitura":4559,"ĠWikcionÃ¡rio":4560,"ocup":4561,"orque":4562,"Ġremov":4563,"Ã©re":4564,"Ġverb":4565,"leia":4566,"Ġchegar":4567,"Ġfuturo":4568,"Ġrecup":4569,"Ġjovens":4570,"ĠMilitar":4571,"ĠcabeÃ§a":4572,"ficiente":4573,"ĠdistÃ¢ncia":4574,"Ġfundada":4575,"ĠFrank":4576,"ĠJean":4577,"Ġmencion":4578,"Ġescolas":4579,"Ġexclus":4580,"ague":4581,"ĠedifÃŃcio":4582,"Ġtransporte":4583,"ĠcomunicaÃ§Ã£o":4584,"Ġregras":4585,"ĠDireito":4586,"ĠEduardo":4587,"enÃ¡rio":4588,"edores":4589,"Ã©gio":4590,"edes":4591,"Ġ1950":4592,"ĠFin":4593,"ĠNor":4594,"Ġtrabalhou":4595,"Ġ1979":4596,"tu":4597,"ires":4598,"quela":4599,"Ġanteriores":4600,"rava":4601,"Ġajudar":4602,"ĠClub":4603,"Ġestadual":4604,"Ġorden":4605,"Ġderiv":4606,"Ġoficiais":4607,"Ġabertura":4608,"ÃŃtulo":4609,"Ã©st":4610,"ĠInv":4611,"Os":4612,"iental":4613,"Ġbot":4614,"ĠSha":4615,"Ġdesenh":4616,"Ġceleb":4617,"umas":4618,"ÃŃmbol":4619,"oco":4620,"Ġcriou":4621,"ratÃ©g":4622,"80":4623,"ĠquÃŃm":4624,"ĠLos":4625,"ĠadministraÃ§Ã£o":4626,"!!":4627,"ismos":4628,"issÃµes":4629,"Ġvalores":4630,"fl":4631,"Ġtratamento":4632,"table":4633,"ĠEp":4634,"ĠRegiÃ£o":4635,"Ðµ":4636,"ordeste":4637,"Ã¢nea":4638,"ĠÃ³":4639,"ĠrÃ¡dio":4640,"Ġfa":4641,"Ġsust":4642,"cha":4643,"ĠCatarina":4644,"ĠPos":4645,"Ġpresid":4646,"estra":4647,"Ġcasou":4648,"ĠDaniel":4649,"nes":4650,"ĠLima":4651,"Ġbaixa":4652,"ĠTro":4653,"Ġinclusive":4654,"Ġ1974":4655,"emat":4656,"ĠTeatro":4657,"Ã³m":4658,"ĠMonte":4659,"Ġesfor":4660,"Ġbol":4661,"ĠOlÃ¡":4662,"ĠAÃ§":4663,"ĠIorque":4664,"ount":4665,"Ġcarro":4666,"ĠmissÃ£o":4667,"ĠprÃªmio":4668,"ary":4669,"undos":4670,"Ġdecidiu":4671,"ĠSalvador":4672,"olit":4673,"ĠPen":4674,"irma":4675,"Ġrod":4676,"Ġromance":4677,"ĠveÃŃc":4678,"ĠSite":4679,"ĠtÃ©cnica":4680,"Ġtorno":4681,"Ġremo":4682,"ĠRam":4683,"Ġprodutor":4684,"Ġlemb":4685,"Ġtit":4686,"anal":4687,"ĠSerra":4688,"ĠFaculdade":4689,"uco":4690,"urar":4691,"duÃ§Ãµes":4692,"itz":4693,"Ġparticipar":4694,"ota":4695,"BA":4696,"ĠFontes":4697,"ĠvisÃ£o":4698,"Ġdigital":4699,"iologia":4700,"ĠGer":4701,"edido":4702,"ĠExt":4703,"rei":4704,"Ġsemanas":4705,"02":4706,"MD":4707,"Ġemissora":4708,"ĠbritÃ¢nico":4709,"hÃ£o":4710,"Ġfederal":4711,"Ġsou":4712,"Ġpedido":4713,"Ġveio":4714,"ĠMi":4715,"ĠseleÃ§Ã£o":4716,"Ġ1975":4717,"ĠFevereiro":4718,"ĠsuperfÃŃcie":4719,"Ġmagn":4720,"Ġmsg":4721,"Ġoriginalmente":4722,"Ã³st":4723,"ĠCharles":4724,"Ġult":4725,"ĠLeon":4726,"Ġacresc":4727,"Ġfazem":4728,"ĠBatalha":4729,"Ġesport":4730,"ĠdomÃŃnio":4731,"Ġefeito":4732,"Ġfrequentemente":4733,"Ã§ado":4734,"ĠCiÃªncias":4735,"Re":4736,"ĠAntes":4737,"ella":4738,"Ġregular":4739,"ĠAna":4740,"ĠreferÃªncias":4741,"tando":4742,"ĠJun":4743,"ĠLo":4744,"Ġmotor":4745,"Ġcicl":4746,"GC":4747,"Ġcidad":4748,"ĠopiniÃ£o":4749,"Ġinfer":4750,"Ġcort":4751,"Ġ1976":4752,"ĠCristo":4753,"ĠRoberto":4754,"orme":4755,"Ġobteve":4756,"MA":4757,"Ġexpress":4758,"orrer":4759,"ĠMich":4760,"Ġestas":4761,"Ġ1978":4762,"ci":4763,"ĠanÃ¡lise":4764,"sal":4765,"Ġcomposto":4766,"Ġrealizar":4767,"Ġpopulacional":4768,"Ġamigos":4769,"Ġefet":4770,"avo":4771,"atas":4772,"ĠVe":4773,"Ġ1981":4774,"Ġsejam":4775,"istÃ£o":4776,"Ġlocalidades":4777,"Ġrapidamente":4778,"ous":4779,"Ġcaptura":4780,"NotÃŃcias":4781,"ĠRic":4782,"Ġaeron":4783,"ville":4784,"itiva":4785,"lig":4786,"ĠBiodivers":4787,"Ġfaixas":4788,"ocra":4789,"perial":4790,"pp":4791,"ĠEstad":4792,"Ġcomuna":4793,"Ġraio":4794,"ĠAtÃ©":4795,"Ġmasculino":4796,"Es":4797,"ĠnÃºmeros":4798,"ĠCivil":4799,"Ġalunos":4800,"Ã³is":4801,"empor":4802,"Ġproduzido":4803,"eceram":4804,"Ġ70":4805,"Ġprefeito":4806,"ulada":4807,"Ãµe":4808,"tagon":4809,"wood":4810,"ĠArte":4811,"valho":4812,"ĠTre":4813,"ĠOt":4814,"Ġautoridade":4815,"ĠHot":4816,"urou":4817,"Le":4818,"Ġtele":4819,"Ġnecessidade":4820,"Ġmensagem":4821,"Ġamar":4822,"lim":4823,"ĠdoenÃ§a":4824,"Ġartes":4825,"pages":4826,"Ġextrem":4827,"ĠUniversity":4828,"ĠPapa":4829,"idÃ£o":4830,"itam":4831,"ĠNeste":4832,"Ġaust":4833,"Ġrock":4834,"99":4835,"att":4836,"ĠElenco":4837,"Car":4838,"ĠRon":4839,"ser":4840,"Ġnames":4841,"ĠligaÃ§Ã£o":4842,"Ġouv":4843,"ĠWest":4844,"Ġindependente":4845,"ipo":4846,"pi":4847,"Ġenvol":4848,"RA":4849,"ĠmÃŃn":4850,"ĠAmaz":4851,"amba":4852,"ĠGuil":4853,"Ġestou":4854,"Ġjulg":4855,"dados":4856,"ĠmudanÃ§as":4857,"Ġastero":4858,"Cam":4859,"Ġdela":4860,"Ġrelev":4861,"Publicado":4862,"ĠcomeÃ§aram":4863,"ĠturnÃª":4864,"etura":4865,"ĠconstruÃŃdo":4866,"Main":4867,"itais":4868,"ocl":4869,"eia":4870,"ĠMov":4871,"ĠClass":4872,"Ġsobreviv":4873,"Ġtend":4874,"ĠAer":4875,"Ġfrancesa":4876,"ĠFI":4877,"only":4878,"Ġsecret":4879,"ĠexperiÃªncia":4880,"ĠCastelo":4881,"Ġmapas":4882,"iba":4883,"Ġstable":4884,"Ġliga":4885,"asta":4886,"Ġba":4887,"ĠLor":4888,"Ġbr":4889,"Ġvide":4890,"ĠIlha":4891,"ĠRichard":4892,"ascul":4893,"Ġplata":4894,"ĠParanÃ¡":4895,"Ġesteve":4896,"Ġmedalha":4897,"Ġcontinuou":4898,"Ġ90":4899,"ĠFa":4900,"Ġvoz":4901,"ĠPac":4902,"Ġnovel":4903,"Ġutiliz":4904,"ĠBur":4905,"Ġsabe":4906,"ĠAlegre":4907,"ĠfamÃŃlias":4908,"Ġinim":4909,"Ġbrasileiros":4910,"ĠPaÃŃses":4911,"Ã³gica":4912,"Ġpoucos":4913,"Ġilust":4914,"Ġcosta":4915,"ÃŃbl":4916,"ĠindÃºstria":4917,"ĠnÃ³s":4918,"ĠKar":4919,"osc":4920,"ĠPereira":4921,"Ġtotalmente":4922,"Ġescrever":4923,"Ġoficialmente":4924,"ĠFerro":4925,"ĠeleiÃ§Ã£o":4926,"Ġdesses":4927,"Ġstablepages":4928,"var":4929,"Ã³rnia":4930,"Ġproduto":4931,"Ġdetalh":4932,"nÃ£o":4933,"ĠPhil":4934,"Ġnamespace":4935,"envolv":4936,"Ġsemelhante":4937,"Ġexce":4938,"Ġfen":4939,"ĠpeÃ§as":4940,"Ġselecion":4941,"Ãºsica":4942,"Ġcompositor":4943,"Ġcarta":4944,"urada":4945,"orth":4946,"ĠmÃ£o":4947,"Ġali":4948,"ĠOp":4949,"ĠAdminist":4950,"Ġcomprimento":4951,"ĠMerc":4952,"jeto":4953,"Ġextra":4954,"Ġjornalista":4955,"Ġnormalmente":4956,"ĠEstatÃŃsticas":4957,"tware":4958,"Ġdiretamente":4959,"ĠPress":4960,"Ġth":4961,"mann":4962,"ĠSport":4963,"ĠSaÃºde":4964,"ĠsequÃªncia":4965,"Ġcondado":4966,"ĠFundaÃ§Ã£o":4967,"ĠbÃ¡s":4968,"acia":4969,"och":4970,"Ġ)":4971,"ĠpolÃŃticos":4972,"Ġ#":4973,"ues":4974,"Ġcombate":4975,"ct":4976,"ĠpÃ³s":4977,"Ġpert":4978,"Ġtenham":4979,"rafo":4980,"oll":4981,"Ġfigura":4982,"ĠRecords":4983,"Con":4984,"De":4985,"Ġsinal":4986,"ÃŃdia":4987,"Ġdesconhec":4988,"off":4989,"ĠmÃ©dio":4990,"error":4991,"ĠOpera":4992,"VD":4993,"Ġconsider":4994,"ĠOrgan":4995,"gen":4996,"ĠTorn":4997,"ĠLife":4998,"Ġbiblio":4999,"enses":5000,"SS":5001,"Ġ1973":5002,"Ġ1972":5003,"ĠSociedade":5004,"tal":5005,"ĠIsabel":5006,"arou":5007,"PA":5008,"Ġapresentou":5009,"Ġsing":5010,"Ġeduc":5011,"ĠMach":5012,"EC":5013,"Ġinser":5014,"ĠCer":5015,"ĠtÃ©cnico":5016,"sen":5017,"ĠirmÃ£os":5018,"Ġ36":5019,"nos":5020,"ificada":5021,"seg":5022,"Ġ1977":5023,"ĠÃ¡rv":5024,"Ġevitar":5025,"70":5026,"ji":5027,"eminino":5028,"Ã©rea":5029,"Ġess":5030,"Ġred":5031,"ĠsÃŃmbol":5032,"El":5033,"ĠCe":5034,"Ġefeitos":5035,"ĠTim":5036,"Ġfilm":5037,"Ġhaver":5038,"Ã¢mica":5039,"Ġleva":5040,"ĠEditora":5041,"plo":5042,"Ġpassando":5043,"Ġantigos":5044,"uso":5045,"igh":5046,"iocese":5047,"any":5048,"Ġconforme":5049,"Ġfinalmente":5050,"ÃŃss":5051,"date":5052,"Ġcores":5053,"ĠComissÃ£o":5054,"ĠTodas":5055,"Ã³rmula":5056,"ioso":5057,"che":5058,"Ġ1968":5059,"Ġmandato":5060,"Ġespect":5061,"rÃŃc":5062,"ĠPass":5063,"Ġentrar":5064,"ĠdÃ³l":5065,"ĠAbra":5066,"ĠSÃ©r":5067,"Ġpreocup":5068,"Ġinfant":5069,"Ġpot":5070,"ĠArtes":5071,"Ġporta":5072,"ocrÃ¡":5073,"Ġdupla":5074,"Ġobjeto":5075,"ĠNasc":5076,"ĠChamp":5077,"Ġcerto":5078,"erican":5079,"Ġformado":5080,"Ã³nia":5081,"Ġ500":5082,"Ġinternacionais":5083,"ĠcrÃŃticas":5084,"idar":5085,"Ġtentativa":5086,"Ġrealmente":5087,"ĠMartin":5088,"ĠCalifÃ³rnia":5089,"Com":5090,"Ġvar":5091,"Ã©ia":5092,"ĠConv":5093,"ariam":5094,"ĠEntretanto":5095,"Ġtecnologia":5096,"Ġusa":5097,"Ġadequ":5098,"enida":5099,"Ġviagem":5100,"Art":5101,"arca":5102,"iros":5103,"ropolit":5104,"board":5105,"Ġpesquis":5106,"ĠHistÃ³rico":5107,"ĠTodos":5108,"Ġpotenc":5109,"Ġ1964":5110,"Ġsimplesmente":5111,"Ġprotagon":5112,"rid":5113,"ycl":5114,"ĠStates":5115,"ĠpeÃ§a":5116,"ĠThomas":5117,"ĠGro":5118,"Ġglob":5119,"Ġcontexto":5120,"Ã³polis":5121,"Ġ1930":5122,"ĠmÃ©dico":5123,"iclop":5124,"ny":5125,"ĠAndrÃ©":5126,"graf":5127,"2010":5128,"Ġdando":5129,"Ġ1969":5130,"esp":5131,"ĠOuro":5132,"ĠNet":5133,"ĠGol":5134,"ĠversÃµes":5135,"orou":5136,"rich":5137,"ats":5138,"ĠseÃ§Ã£o":5139,"Ġnaturais":5140,"Pro":5141,"intura":5142,"Ġgradu":5143,"Ġnegoc":5144,"Ġviaj":5145,"ÑĢ":5146,"Ġplanej":5147,"ĠcÃ©lulas":5148,"ĠVan":5149,"ĠÃ¡ra":5150,"ĠRet":5151,"ĠProc":5152,"ĠSom":5153,"ĠestratÃ©g":5154,"iamento":5155,"Ġvon":5156,"Ġexter":5157,"panhia":5158,"ĠCongresso":5159,"ĠAntonio":5160,"Ġnota":5161,"Ġreform":5162,"ĠvÃŃt":5163,"ĠEspec":5164,"Ġimped":5165,"FC":5166,"ĠgÃ©n":5167,"Ġfeitas":5168,"ÃŃcil":5169,"chi":5170,"Ġprovoc":5171,"king":5172,"ĠParticip":5173,"ream":5174,"ĠprisÃ£o":5175,"ĠMark":5176,"Ġpartidas":5177,"postos":5178,"ogrÃ¡fica":5179,"Ġcompanhia":5180,"Ã³i":5181,"ovo":5182,"ĠEt":5183,"ĠexpressÃ£o":5184,"90":5185,"ĠSel":5186,"Ã³logo":5187,"Ġatra":5188,"Ġencontram":5189,"portun":5190,"Ġtaxa":5191,"Ġprom":5192,"ĠAngeles":5193,"Ã¢ncias":5194,"Ġlugares":5195,"Ġfala":5196,"ĠDistrito":5197,"lor":5198,"ions":5199,"ĠFilm":5200,"Ġpreserv":5201,"Ġcorte":5202,"Ġtrata":5203,"Ġdipl":5204,"ĠcomÃ©rcio":5205,"rina":5206,"ĠmÃ¡qu":5207,"ĠHarry":5208,"oph":5209,"Ġlar":5210,"Ġparal":5211,"ĠEstre":5212,"ĠSistema":5213,"Ġbenef":5214,"atus":5215,"ĠRodrig":5216,"ĠIsrael":5217,"ucle":5218,"Ð½":5219,"ĠprÃ³xim":5220,"ĠvÃ¡l":5221,"Ġperdeu":5222,"ĠFerreira":5223,"ĠTribunal":5224,"rato":5225,"Ġdiscut":5226,"isp":5227,"mith":5228,"Ġtemas":5229,"ĠFederaÃ§Ã£o":5230,"Ġpublicada":5231,"ĠinstituiÃ§Ã£o":5232,"Ġetapa":5233,"burg":5234,"oto":5235,"ĠlÃŃnguas":5236,"Ġ\"(":5237,"Ġincorpo":5238,"Ġpequenas":5239,"Ġhumano":5240,"Ġcomem":5241,"Ġhistori":5242,"ea":5243,"osas":5244,"ernamb":5245,"ĠCatÃ³lica":5246,"Ġcasas":5247,"Ġentra":5248,"ĠcÃ³digo":5249,"ĠirmÃ£":5250,"ogle":5251,"ĠdÃº":5252,"fa":5253,"uls":5254,"ecto":5255,"iante":5256,"Ġinvas":5257,"ĠAssembleia":5258,"ÃŃram":5259,"Ġcoorden":5260,"ĠmÃ©todo":5261,"ĠWeb":5262,"CO":5263,"ĠPeter":5264,"asculino":5265,"Ġusados":5266,"iloto":5267,"89":5268,"gest":5269,"Ġutilizada":5270,"ariamente":5271,"ĠAir":5272,"ĠPode":5273,"Ġbel":5274,"fera":5275,"Ġparceria":5276,"eck":5277,"ake":5278,"Ġ00":5279,"Mar":5280,"ĠChe":5281,"ĠSaint":5282,"eco":5283,"ĠNGC":5284,"Ġbeb":5285,"mina":5286,",\"":5287,"ĠEstud":5288,"ĠCastro":5289,"Ġentend":5290,"ĠdifÃŃcil":5291,"assem":5292,"ĠLeague":5293,"Ġ1971":5294,"2011":5295,"Ġcontato":5296,"iev":5297,"quis":5298,"Ġlinguagem":5299,"Ġacess":5300,"ĠPraia":5301,"Ġpassagem":5302,"ucion":5303,"ĠVI":5304,"Ġconhecidos":5305,"Ġcir":5306,"ĠCity":5307,"Ġaddf":5308,"categorydate":5309,"irstcategorydate":5310,"Ġaddfirstcategorydate":5311,"ĠInternet":5312,"Ġ1967":5313,"entou":5314,"ĠVale":5315,"ĠpublicaÃ§Ã£o":5316,"pet":5317,"Ġenf":5318,"ĠOrig":5319,"ĠPrÃŃncipe":5320,"issa":5321,"Ġsuppress":5322,"Ġcart":5323,"Ġplantas":5324,"Ġobjetos":5325,"errors":5326,"Ġsuppresserrors":5327,"Ġrepet":5328,"Un":5329,"Ġpud":5330,"irl":5331,"Ġerro":5332,"ĠCarvalho":5333,"ĠIta":5334,"Ġbranco":5335,"Ġadapt":5336,"ĠBrasÃŃlia":5337,"Ġmarido":5338,"Ġaltitude":5339,"ĠIsto":5340,"ĠextensÃ£o":5341,"reau":5342,"Ġrit":5343,"ĠprogramaÃ§Ã£o":5344,"Ġfalar":5345,"ĠCorre":5346,"ship":5347,"ĠMora":5348,"ĠMai":5349,"Ġguer":5350,"iverso":5351,"ĠHam":5352,"Ġassumiu":5353,"Ġnessa":5354,"ym":5355,"ĠPÃºbl":5356,"ĠDepartamento":5357,"ĠDesenvolv":5358,"Ġferram":5359,"ĠBus":5360,"Ġliteratura":5361,"icou":5362,"Ġdirec":5363,"Ġmotivo":5364,"Ġaconteceu":5365,"Ġredes":5366,"Ġmusicais":5367,"ĠhistÃ³rias":5368,"ĠGeneral":5369,"Ġobter":5370,"ĠJustiÃ§a":5371,"stein":5372,"Ġdep":5373,"Ġoportun":5374,"Ġmeados":5375,"ashington":5376,"Ãºn":5377,"Ġgrego":5378,"Ġ01":5379,"Ġcompart":5380,"Ġhaviam":5381,"Ġmunicipal":5382,"Ġclara":5383,"ĠObrig":5384,"Ġnove":5385,"Î¿":5386,"ĠGuilher":5387,"arte":5388,"itava":5389,"Ġrefere":5390,"Ġsubs":5391,"gica":5392,"olina":5393,"Ġbispo":5394,"Ġconden":5395,"Ġprocessos":5396,"adeiro":5397,"Ġfix":5398,"Ġtabela":5399,"Ġrealidade":5400,"Ġdiminu":5401,"Ġazul":5402,"adura":5403,"low":5404,"ĠprÃ³xima":5405,"Ġcompletamente":5406,"ĠHon":5407,"ĠDef":5408,"Ġrespectivamente":5409,"own":5410,"uvent":5411,"Ġ1940":5412,"Ġcarreg":5413,"ĠSug":5414,"Ġmarcou":5415,"ĠpressÃ£o":5416,"ĠBiodiversity":5417,"ĠgestÃ£o":5418,"Ġdesapar":5419,"Ġpintura":5420,"Ġveg":5421,"ĠAÃ§ores":5422,"itivos":5423,"ĠfÃŃsica":5424,"ĠEstadual":5425,"ĠNesse":5426,"ĠExistem":5427,"ĠFe":5428,"elli":5429,"Ġsoldados":5430,"ĠCompanhia":5431,"ĠFamÃŃlia":5432,"Ġrepro":5433,"Ġapareceu":5434,"ĠdÃ³lares":5435,"ertas":5436,"Ġpsic":5437,"Ġ1945":5438,"ĠCategory":5439,"ĠRu":5440,"ĠMot":5441,"Ġimprensa":5442,"Ġliberdade":5443,"Ġsed":5444,"ecia":5445,"ĠSeus":5446,"FI":5447,"med":5448,"orro":5449,"ĠmemÃ³ria":5450,"Cl":5451,"Ġquart":5452,"Ġrua":5453,"Ã¢ntico":5454,"Ġvisual":5455,"tivo":5456,"Ġproib":5457,"Ġmer":5458,"ĠPalÃ¡cio":5459,"ĠBlack":5460,"Ġamericana":5461,"ĠoperaÃ§Ã£o":5462,"ĠindivÃŃduos":5463,"Ġanteriormente":5464,"ĠoperaÃ§Ãµes":5465,"Ġautores":5466,"Ġpequenos":5467,"peÃµes":5468,"Ġconflito":5469,"lov":5470,"Ġpublicou":5471,"Ġnacionais":5472,"Ġclaro":5473,"Ġdesempenho":5474,"ĠAlexandre":5475,"ĠtradiÃ§Ã£o":5476,"umes":5477,"Ġprefer":5478,"itch":5479,"ĠNaÃ§Ãµes":5480,"itados":5481,"Ġpresentes":5482,"Ġpermaneceu":5483,"ĠLove":5484,"Ġdizendo":5485,"single":5486,"Ġlog":5487,"udou":5488,"Ġletras":5489,"ĠserÃ£o":5490,"men":5491,"vÃ£o":5492,"oviÃ©tica":5493,"Ãī":5494,"ĠindÃŃg":5495,"Ġcic":5496,"ĠCens":5497,"ĠmÃ£os":5498,"Ġtira":5499,"ronze":5500,"Ġintroduz":5501,"Ġby":5502,"Ġapont":5503,"acial":5504,"eder":5505,"rif":5506,"ebra":5507,"Ġcomuns":5508,"Ġå":5509,"data":5510,"Ġcorrespond":5511,"Ġministro":5512,"Ġadic":5513,"Ġestrel":5514,"Ġcategorias":5515,"97":5516,"ii":5517,"Ã©rias":5518,"riel":5519,"Ġinfluenc":5520,"ĠquestÃµes":5521,"Ġteor":5522,"ĠapresentaÃ§Ã£o":5523,"Ġhora":5524,"ensa":5525,"TP":5526,"rup":5527,"Ġatuou":5528,"Ġabsol":5529,"urs":5530,"erado":5531,"Ġrealizou":5532,"Ġdesaf":5533,"Ġexec":5534,"ĠvÃ£o":5535,"Ã¡cia":5536,"ĠKe":5537,"vis":5538,"86":5539,"Ġnavio":5540,"ĠMass":5541,"Ġempreg":5542,"ĠConde":5543,"ĠGlobal":5544,"Ã§ada":5545,"Ġles":5546,"Ġdiagrama":5547,"Ġvirt":5548,"ĠtÃ©cnicas":5549,"Ġarmaz":5550,"ĠBureau":5551,"EL":5552,"itÃ¡ria":5553,"Ġfizeram":5554,"ÃŃdeos":5555,"yr":5556,"Ġreais":5557,"mento":5558,"ÃŃdio":5559,"Ġ1966":5560,"ĠconstruÃŃda":5561,"Ġhumana":5562,"Ġadvog":5563,"Ġitaliana":5564,"ĠSousa":5565,"ĠgeraÃ§Ã£o":5566,"2006":5567,"Ã©lio":5568,"Ġapresentar":5569,"ĠcÃ³pias":5570,"2007":5571,"ĠXVIII":5572,"Ġrisco":5573,"feira":5574,"ĠtraduÃ§Ã£o":5575,"Ġdim":5576,"Ġmadeira":5577,"ĠUru":5578,"isse":5579,"ĠFab":5580,"Ġtrabalha":5581,"Ġparticipantes":5582,"deia":5583,"pia":5584,"vers":5585,"ĠsaÃŃda":5586,"Ġ1965":5587,"Ġsexual":5588,"Ġros":5589,"Ġfundamental":5590,"eph":5591,"Ġwikip":5592,"ĠBandeira":5593,"ĠCaval":5594,"Ġdesf":5595,"ĠInternational":5596,"Ġquis":5597,"ĠAugusto":5598,"Ġfundado":5599,"bro":5600,"Ġcodice":5601,"Ġelabora":5602,"Ġequival":5603,"Ġposto":5604,"Ġregime":5605,"ĠinstituiÃ§Ãµes":5606,"Ġ35":5607,"entas":5608,"Ġmetal":5609,":!":5610,"ĠMer":5611,"ury":5612,"obo":5613,"ĠRad":5614,"ĠBranco":5615,"els":5616,"pes":5617,"Ġpaz":5618,"Ġfinais":5619,"ĠcomposiÃ§Ã£o":5620,"Ġjorn":5621,"Ġquarta":5622,"ĠTrata":5623,"aticamente":5624,"ĠgalÃ¡x":5625,"rÃ£o":5626,"entais":5627,"ĠDesenvolvimento":5628,"bio":5629,"ĠBom":5630,"Ã³cios":5631,"Ġdescoberta":5632,"lesc":5633,"ĠGuilherme":5634,"ruÃ§Ã£o":5635,"Ã´metros":5636,"ĠNat":5637,"ĠCinema":5638,"ĠCampo":5639,"Ġguitarra":5640,"ĠHan":5641,"Ġapresentado":5642,"Ġaberto":5643,"rade":5644,"irit":5645,"Ġentrevista":5646,"Ġespecific":5647,"ruturas":5648,"Ġperda":5649,"Ġformada":5650,"ĠRoc":5651,"ĠJoaqu":5652,"unes":5653,"76":5654,"Ġesquerda":5655,"ĠSco":5656,"ĠpolÃŃcia":5657,"iosa":5658,"Ġtextos":5659,"Ġprofissionais":5660,"ĠVerde":5661,"Ġafet":5662,"icidade":5663,"Ġauto":5664,"ĠWashington":5665,"Ġsucess":5666,"ĠAlgumas":5667,"ĠSw":5668,"ĠJa":5669,"ĠTw":5670,"endas":5671,"Ġpassaram":5672,"itoral":5673,"cher":5674,"Ġmateriais":5675,"Ġsei":5676,"ÃŃfico":5677,"ĠJan":5678,"Ġ1962":5679,"ingo":5680,"ĠÃģsia":5681,"eliz":5682,"ĠRodrigues":5683,"Ġaus":5684,"Ġdessas":5685,"ifer":5686,"85":5687,"Ã©rito":5688,"RO":5689,"Ġacho":5690,"ĠDVD":5691,"Ġafirma":5692,"Ġprata":5693,"ãĢ":5694,"anhÃ£":5695,"ĠreligiÃ£o":5696,"rigo":5697,"Ġprecisa":5698,"Ġpossibilidade":5699,"Ġ$":5700,"Ġsecund":5701,"iti":5702,"ĠAqu":5703,"ĠSing":5704,"ĠEstÃ¡":5705,"essem":5706,"ĠBru":5707,"ricultura":5708,"meida":5709,"Ġdispos":5710,"ĠGran":5711,"Ġmudar":5712,"Ġproteg":5713,"ĠprincÃŃpio":5714,"ĠPesso":5715,"Ġdelas":5716,"ĠdÃ©cadas":5717,"over":5718,"ĠnÃºc":5719,"inguÃ©m":5720,"ĠCu":5721,"otos":5722,"Ġderrota":5723,"2009":5724,"Ġlevant":5725,"Ġcolocado":5726,"ĠLetras":5727,"naval":5728,"ĠPlay":5729,"Ġformar":5730,"Ġpossa":5731,"ĠCorpo":5732,"dora":5733,"imb":5734,"imp":5735,"Ġcomportamento":5736,"Ġsonora":5737,"taÃ§Ãµes":5738,"Ġdescoberto":5739,"ĠRus":5740,"Ġpromo":5741,"ison":5742,"ĠPredefiniÃ§Ã£o":5743,"ĠGomes":5744,"gues":5745,"ĠciÃªncia":5746,"ĠAwards":5747,"ĠAfonso":5748,"Ġrecorde":5749,"ĠMaur":5750,"Ġfutebolista":5751,"ĠestÃ¡dio":5752,"ĠPet":5753,"aixos":5754,"ĠOutras":5755,"Ġ_":5756,"Ġord":5757,"ĠjaponÃªs":5758,"Ġdesl":5759,"??":5760,"ĠPrimeiro":5761,"ĠÃĵ":5762,"andro":5763,"Ġmim":5764,"ĠMay":5765,"pal":5766,"88":5767,"75":5768,"96":5769,"iÃ¡rio":5770,"utaÃ§Ã£o":5771,"Ġcena":5772,"americana":5773,"Ġbaseada":5774,"ĠAlc":5775,"Ġdesp":5776,"2008":5777,"ĠSP":5778,"ĠPark":5779,"pat":5780,"ĠCampos":5781,"ĠGros":5782,"Ġlarg":5783,"ĠsÃ©culos":5784,"Ġtentar":5785,"ĠDar":5786,"Ġfat":5787,"ĠVerÃ£o":5788,"Ne":5789,"ĠNatal":5790,"ĠSur":5791,"Ġpersegu":5792,"ĠsatÃ©l":5793,"ĠTerc":5794,"ĠEngenh":5795,"ĠCensus":5796,"Ġrecus":5797,"sem":5798,"ĠSeb":5799,"ases":5800,"idados":5801,"isf":5802,"Ġcult":5803,"ĠMur":5804,"ĠLinha":5805,"Ġencontrada":5806,"Ġcandidato":5807,"ensÃµes":5808,"Ġmenores":5809,"lamento":5810,"Ã¡stica":5811,"ĠDevido":5812,"RE":5813,"di":5814,"ĠGonÃ§":5815,"ĠprÃ³prios":5816,"ansÃ£o":5817,"Ã³qu":5818,"Ġ1963":5819,"Ġcorrida":5820,"Ġtalvez":5821,"Ġdesenvolvido":5822,"ĠMadeira":5823,"AL":5824,"jor":5825,"CB":5826,"mira":5827,"Ġcontinua":5828,"Ġletra":5829,"ĠLogo":5830,"ĠTaÃ§a":5831,"Ġlevar":5832,"ĠdiferenÃ§a":5833,"ĠCirc":5834,"fab":5835,"iria":5836,"Ġqueria":5837,"Ġcontempor":5838,"ĠLee":5839,"ĠcrianÃ§a":5840,"Ġanunciado":5841,"ĠMÃºsica":5842,"Ġinternet":5843,"amen":5844,"pse":5845,"uldades":5846,"ĠMem":5847,"ivelmente":5848,"Ġaqueles":5849,"rante":5850,"Ġpeso":5851,"Ġtemos":5852,"Ġrusso":5853,"ecimentos":5854,"usc":5855,"Ġlocaliza":5856,"inados":5857,"Ġidio":5858,"Ġcerim":5859,"Ġsusp":5860,"ĠRaf":5861,"TO":5862,"ĠVitÃ³ria":5863,"Ġfogo":5864,"ĠCro":5865,"ĠCla":5866,"ĠSon":5867,"Ġbomb":5868,"Ġconsiste":5869,"Ġfamoso":5870,"cer":5871,"Ġvelho":5872,"Ġcompon":5873,"Ġilhas":5874,"ĠAlberto":5875,"Ġdeco":5876,"aba":5877,"cÃ£o":5878,"ĠalcanÃ§ou":5879,"ĠTax":5880,"Ġseriam":5881,"ĠÃ¡lbuns":5882,"Ġencontrado":5883,"ĠEstes":5884,"Ġconvers":5885,"ĠDias":5886,"ĠRevoluÃ§Ã£o":5887,"PS":5888,"atÃ³ria":5889,"Ġplanta":5890,"Ġcity":5891,"Ġtenho":5892,"Ġterre":5893,"ĠLin":5894,"ĠVictor":5895,"ĠVo":5896,"ĠRog":5897,"riqu":5898,"Ġrem":5899,"Ġgrau":5900,"ustria":5901,"Ġ32":5902,"ĠSÃŃtio":5903,"Ġvoltar":5904,"ĠprÃŃncipe":5905,"ĠSuÃ©cia":5906,"Ġ02":5907,"Ġbra":5908,"Ġpil":5909,"Ġindustrial":5910,"ĠAlmeida":5911,"Ġconcelho":5912,"riÃ§Ã£o":5913,"ĠXVI":5914,"ĠIndepend":5915,"Ġestrela":5916,"Ġpotencial":5917,"ĠEstaÃ§Ã£o":5918,"Ġestrelas":5919,"Ġisol":5920,"Ġintelig":5921,"Ġnaveg":5922,"ĠPS":5923,"Ġmovimentos":5924,"ĠEstÃ¡dio":5925,"Ġpeix":5926,"ĠTempo":5927,"ĠVis":5928,"Ġsangue":5929,"imar":5930,"Ġtopo":5931,"ĠdefiniÃ§Ã£o":5932,"66":5933,"uela":5934,"ĠIb":5935,"Ġpaul":5936,"ĠConstant":5937,"ĠLago":5938,"ĠChile":5939,"Ġportugueses":5940,"ĠpÃºblicos":5941,"Ġretorno":5942,"Ġnossa":5943,"Ġpassag":5944,"yclop":5945,"Ġescolha":5946,"Ġregistro":5947,"Ġplan":5948,"Ġsetor":5949,"bon":5950,"ĠScho":5951,"ĠVocÃª":5952,"2012":5953,"Ġdireto":5954,"sul":5955,"ibus":5956,"Ã¢neo":5957,"gh":5958,"Ġemit":5959,"Ġserviu":5960,"ĠSara":5961,"Ġreino":5962,"Ġtreinador":5963,"portes":5964,"Ġcrise":5965,"Ġabs":5966,"98":5967,"ĠOce":5968,"AC":5969,"izant":5970,"presidente":5971,"astia":5972,"Ġsuficiente":5973,"ĠSmith":5974,"ĠPic":5975,"Ġespeciais":5976,"ĠJardim":5977,"Ġrainha":5978,"Ġataques":5979,"ĠCada":5980,"ĠEntÃ£o":5981,"Ġmodelos":5982,"ĠLev":5983,"ĠgravaÃ§Ã£o":5984,"Ġrebel":5985,"ĠDE":5986,"orf":5987,"aceae":5988,"Ġimig":5989,"ĠAmor":5990,"ĠalemÃ£":5991,"Ġ1958":5992,"ĠKing":5993,"ĠBanco":5994,"aves":5995,"Ãºnc":5996,"inÃ¡ria":5997,"ĠOcidental":5998,"uaÃ§Ã£o":5999,"ĠTÃŃtulos":6000,"2013":6001,"Ġcompleta":6002,"ĠOscar":6003,"Ġdeixando":6004,"ĠRoy":6005,"ĠConst":6006,"ild":6007,"Ġ1920":6008,"Ġescala":6009,"Ãł":6010,"inÃ¡rio":6011,"estas":6012,"ĠNorm":6013,"77":6014,"vas":6015,"Ġvolume":6016,"zer":6017,"ĠoposiÃ§Ã£o":6018,"Ã§ar":6019,"Ġprofund":6020,"ĠPlant":6021,"Ġadolesc":6022,"ĠquilÃ´metros":6023,"Ġpiloto":6024,"Ġinferior":6025,"hen":6026,"pest":6027,"Ġliter":6028,"Ġqueda":6029,"Ã¢nd":6030,"ĠPernamb":6031,"ĠLi":6032,"Ġ1961":6033,"lÃ¢ndia":6034,"inou":6035,"ĠtransmissÃ£o":6036,"ĠnÃŃveis":6037,"ians":6038,"ĠAre":6039,"ĠRicardo":6040,"ĠfundaÃ§Ã£o":6041,"ĠHall":6042,"ĠCre":6043,"ĠexposiÃ§Ã£o":6044,"Ġbandeira":6045,"Jo":6046,"rian":6047,"Ġposse":6048,"Ġdaquele":6049,"Em":6050,"Ġmorto":6051,"Ġteste":6052,"pectos":6053,"Ġparque":6054,"Ġdestes":6055,"ĠMarinha":6056,"poss":6057,"Ġpropriet":6058,"SÃ£o":6059,"Ġpad":6060,"ĠJim":6061,"ĠdisponÃŃvel":6062,"ball":6063,"ultado":6064,"orno":6065,"Ġvinte":6066,"aixada":6067,"MS":6068,"Ġec":6069,"adrid":6070,"2005":6071,"Ġescal":6072,"ĠGoi":6073,"ĠSuperior":6074,"%).":6075,"ĠSac":6076,"Ġapos":6077,"tom":6078,"Ġtelef":6079,"Ġambas":6080,"li":6081,"Ġaprend":6082,"Ġplaneta":6083,"Ãªnia":6084,"Ġlatim":6085,"Ġjude":6086,"esto":6087,"Ġnormal":6088,"icano":6089,"Ġfilosofia":6090,"ĠPeru":6091,"ĠatuaÃ§Ã£o":6092,"tac":6093,"Ġreconhecimento":6094,"ĠTop":6095,"azz":6096,"Ġacidente":6097,"Ġdeclarou":6098,"Ġvoto":6099,"Ġatend":6100,"ism":6101,"ĠproteÃ§Ã£o":6102,"Ġresto":6103,"ĠObrigado":6104,"Bot":6105,"bit":6106,"95":6107,"clam":6108,"ors":6109,"qÃ¼":6110,"Ġdireita":6111,"Ġnavios":6112,"ĠServi":6113,"ĠFreder":6114,"Ġbe":6115,"inga":6116,"Ġgram":6117,"ĠMill":6118,"Ġcursos":6119,"inn":6120,"Ġrodo":6121,"Ã§ou":6122,"anismo":6123,"Ġconsum":6124,"uck":6125,"Ġperform":6126,"Ġdescrita":6127,"ĠConstituiÃ§Ã£o":6128,"utenÃ§Ã£o":6129,"Ġestrada":6130,"ĠRem":6131,"Ġiria":6132,"Ġcasal":6133,"ĠCant":6134,"Ġtroca":6135,"Ġcima":6136,"Ġevid":6137,"Ġnobre":6138,"Ġcampos":6139,"Ġdeus":6140,"ĠQual":6141,"ĠCoreia":6142,"Ġdepartamento":6143,"ets":6144,"ĠnotÃŃcias":6145,"?)":6146,"Ġreinado":6147,"rick":6148,"Ġproduzir":6149,"ĠJuan":6150,"Ġcomprom":6151,"Ġconcurso":6152,"ĠLegisl":6153,"Ġsurgiu":6154,"ĠPi":6155,"oura":6156,"ĠRibeiro":6157,"Ġpatro":6158,"Ġlist":6159,"Ġvencedor":6160,"Ġconquista":6161,"ĠcatÃ³l":6162,"nome":6163,"ĠPubl":6164,"Ġelog":6165,"ÃŃna":6166,"ĠPap":6167,"Ġbanc":6168,"Ġdefend":6169,"Ġsolic":6170,"ĠHenry":6171,"Ġadap":6172,"ĠNational":6173,"Ġsegue":6174,"col":6175,"ĠÃģustria":6176,"Ã©sar":6177,"Ġafast":6178,"Ġafric":6179,"anteve":6180,"ĠIB":6181,"Ġmistura":6182,"Ġadqu":6183,"ĠTex":6184,"ĠIP":6185,"tel":6186,"orÃ¡rio":6187,"Ġmorre":6188,"ĠsoluÃ§Ã£o":6189,"Ġfeitos":6190,"Ġtub":6191,"ĠverÃ£o":6192,"orizonte":6193,"Ġmortos":6194,"ecidos":6195,"tra":6196,"oland":6197,"Ġqueb":6198,"gia":6199,"edral":6200,"ĠacadÃªm":6201,"ĠindependÃªncia":6202,"ĠtÃŃp":6203,"Ġtrilha":6204,"ĠcomeÃ§o":6205,"enciais":6206,"Ġatlet":6207,"Ã©ticos":6208,"Ġ03":6209,"ĠPalm":6210,"Ġconduz":6211,"ĠÃ¡guas":6212,"Ġpodemos":6213,"âĢ¦":6214,".:":6215,"Ġmel":6216,"Ġchegada":6217,"Ġarran":6218,"rum":6219,"Ġmeios":6220,"landa":6221,"rÃŃ":6222,"vidas":6223,"Ġnosso":6224,"Gu":6225,"Äģ":6226,"Ġhospital":6227,"ĠNev":6228,"ĠSi":6229,"2004":6230,"ette":6231,"ĠLÃŃn":6232,"Ġconcl":6233,"ĠTri":6234,"Ġ1944":6235,"ily":6236,"reiro":6237,"ĠpÃºblicas":6238,"%.":6239,"Ġleis":6240,"Ġpesquisas":6241,"bert":6242,"Ġtropical":6243,"ĠmÃ¡ximo":6244,"Ã©mio":6245,"Ġapel":6246,"ianas":6247,"Ġnovela":6248,"entado":6249,"Ġextre":6250,"ĠSino":6251,"ĠGreg":6252,"ĠutilizaÃ§Ã£o":6253,"onom":6254,"OL":6255,"agos":6256,"Ġpun":6257,"Ġ1943":6258,"Ġintitulado":6259,"ĠexpansÃ£o":6260,"Ġcomplexo":6261,"ĠÃĢ":6262,"ĠLop":6263,"Ġdiante":6264,"andal":6265,"aldo":6266,"ÃŃÃ§a":6267,"ĠLuis":6268,"ËĪ":6269,"Ġdesenvolver":6270,"ÃŃnas":6271,"tro":6272,"uÃ¡rio":6273,"ĠcondiÃ§Ã£o":6274,"ĠTraduÃ§Ã£o":6275,"ĠcrÃŃticos":6276,"ĠrealizaÃ§Ã£o":6277,"Ġexplora":6278,"Ġincom":6279,"ĠLar":6280,"ĠSebast":6281,"ĠLouis":6282,"ĠCamb":6283,"odos":6284,"ĠRosa":6285,"ĠEgito":6286,"ĠJornal":6287,"irem":6288,"Ġabrig":6289,"ĠMesmo":6290,"obil":6291,"Ġ1959":6292,"Ġbateria":6293,"estrutura":6294,"Ġfundador":6295,"emplo":6296,"Ġsala":6297,"Ġpedra":6298,"Ġmuita":6299,"ĠAvenida":6300,"hal":6301,"Ġcastelo":6302,"Ġexterior":6303,"ĠVerm":6304,"Ġorg":6305,"ĠChampion":6306,"ĠUs":6307,"Ã¡logo":6308,"ĠHug":6309,"Ġcurta":6310,"uventude":6311,"ĠBrown":6312,"Ġantigas":6313,"ON":6314,"Ġautomaticamente":6315,"aros":6316,"Ã©sia":6317,"Ġeditores":6318,"ye":6319,"yo":6320,"ĠDuque":6321,"ĠBor":6322,"Ġregul":6323,"oqu":6324,"ĠSenhor":6325,"Ġjogar":6326,"Ġnucle":6327,"87":6328,"Î½":6329,"Ġideal":6330,"ĠContudo":6331,"Ġnascimento":6332,"ĠTecn":6333,"ediÃ§Ã£o":6334,"Ġproced":6335,"ĠMax":6336,"ĠpalÃ¡cio":6337,"Ġestudantes":6338,"Ġherd":6339,"Ġautoridades":6340,"Ġvocais":6341,"Ãºlt":6342,"Ġcomputador":6343,"ilos":6344,"ĠRÃ¡dio":6345,"Ġcomerciais":6346,"ĠMarco":6347,"Ġconseguir":6348,"ĠPraÃ§a":6349,"sch":6350,"Ġencontro":6351,"Ġatuais":6352,"radores":6353,"ĠWill":6354,"ĠDisney":6355,"ĠbritÃ¢nica":6356,"ĠPolÃŃcia":6357,"Ġmelhorar":6358,"Ġficando":6359,"Ġmanteve":6360,"ĠSud":6361,"ĠterÃ¡":6362,"ĠForÃ§a":6363,"Ġwith":6364,"ĠEuropeia":6365,"Ġten":6366,"ĠvÃª":6367,"Ġmex":6368,"ĠFar":6369,"ĠEspÃŃrito":6370,"rary":6371,"amentais":6372,"Ġmeta":6373,"ĠCÃ©sar":6374,"ĠMadrid":6375,"ĠaplicaÃ§Ã£o":6376,"ĠJoaquim":6377,"Ġconsist":6378,"rimÃ´nio":6379,"icada":6380,"ĠTrÃªs":6381,"ĠSobre":6382,"ross":6383,"Ġrelacionados":6384,"ook":6385,"win":6386,"ÃŃrus":6387,"ĠDent":6388,"ĠCultural":6389,"92":6390,"eus":6391,"Ġbronze":6392,"Ġtaref":6393,"EM":6394,"Ġpassageiros":6395,"ĠMartins":6396,"Ġdocumentos":6397,"Ġformou":6398,"Ġnaquele":6399,"ĠAno":6400,"Ġhuman":6401,"Ġproduzida":6402,"ĠalteraÃ§Ãµes":6403,"ĠBrit":6404,"div":6405,"Ġcres":6406,"Ġpropriedades":6407,"Ġfoss":6408,"Ġvolt":6409,"cons":6410,"ĠMary":6411,"ĠPopular":6412,"Ġcintura":6413,"essores":6414,"Ġplac":6415,"bes":6416,"Ġdada":6417,"ÃŃsticos":6418,"Ġdiplom":6419,"Ġaprove":6420,"Ġconsenso":6421,"aras":6422,"icago":6423,"ĠmÃŃdia":6424,"Ġhabil":6425,"Ġrodada":6426,"udes":6427,"ÃŃba":6428,"Ġtestes":6429,"Ġquadro":6430,"ĠHospital":6431,"Ġverde":6432,"Ġpergunt":6433,"Ġencer":6434,"iew":6435,"Ġvendas":6436,"Ġutilizar":6437,"ĠLon":6438,"uru":6439,"ricas":6440,"ratado":6441,"Ãĥ":6442,"Ġaquele":6443,"itantes":6444,"ÃŃns":6445,"Ġcenas":6446,"Ġindividual":6447,"Ġsag":6448,"Ġconvoc":6449,"Ġdentre":6450,"rota":6451,"ĠÃ¡c":6452,"bres":6453,"Ġfotos":6454,"ĠDig":6455,"ĠLy":6456,"IB":6457,"ĠfÃ¡b":6458,"Ġclima":6459,"Ġmedidas":6460,"ĠBre":6461,"Ġang":6462,"67":6463,"ĠAgu":6464,"Ġato":6465,"ĠMend":6466,"fede":6467,"Ġrecebe":6468,"ĠGrÃ©cia":6469,"deal":6470,"Ġsituada":6471,"Ġrealizadas":6472,"Ġutilizados":6473,"Ã¡ter":6474,"Ġbon":6475,"Ġassassin":6476,"ĠPel":6477,"Ġpoeta":6478,"alidades":6479,"ĠRot":6480,"Ġ1942":6481,"Ex":6482,"ĠAmerican":6483,"Artigos":6484,"Ġsofreu":6485,"US":6486,"Ġmm":6487,"ĠPrincip":6488,"Ġvan":6489,"Ġlago":6490,"ĠmatÃ©ria":6491,"Ġ37":6492,"inÃ§Ã£o":6493,"Ġchamados":6494,"Ġinterv":6495,"Ġsoftware":6496,"Ġecl":6497,"ĠTest":6498,"ĠPrem":6499,"Ġtrono":6500,"tudo":6501,"ĠOficial":6502,"ĠAlves":6503,"Ġconvenc":6504,"Ġcompleto":6505,"ĠevoluÃ§Ã£o":6506,"Ãºr":6507,"ĠVeja":6508,"ĠresistÃªncia":6509,"Ġconsegue":6510,"Ġmesmos":6511,"ensis":6512,"ĠJud":6513,"Ġmuseu":6514,"Ġespecificamente":6515,"ĠStar":6516,"ĠShow":6517,"field":6518,"Ġvet":6519,"Ġperi":6520,"Or":6521,"Ġganhar":6522,"iosos":6523,"ĠFIFA":6524,"Ġweb":6525,"Ġvoo":6526,"Ġargument":6527,"Ġtomar":6528,"olÃ³gicos":6529,"Ġlevando":6530,"xa":6531,"ĠviolÃªncia":6532,"ĠDer":6533,"Ġtempest":6534,"Ã©ries":6535,"Ġrios":6536,"ontade":6537,"dez":6538,"Ġaspectos":6539,"ĠocasiÃ£o":6540,"ika":6541,"Ġdistint":6542,"arqu":6543,"Ġrenov":6544,"edida":6545,"Ġpossibil":6546,"ĠJoseph":6547,"Ġromano":6548,"Ġconstruir":6549,"Ã¢ntica":6550,"ĠPrÃªmios":6551,"Ġarquitetura":6552,"Ġpropag":6553,"ÃŃsmo":6554,"ere":6555,"ÑĤ":6556,"Ġsofr":6557,"ĠUN":6558,"Ġ38":6559,"Ġplataforma":6560,"ĠSk":6561,"Ġorqu":6562,"Ġdefens":6563,"Ġ1954":6564,"rÃ¡fica":6565,"Ġadqui":6566,"ĠSenado":6567,"Ġprovas":6568,"ĠjurÃŃd":6569,"Ġvenda":6570,"ĠHill":6571,"ificados":6572,"Ġverbo":6573,"ĠDesc":6574,"Ġevent":6575,"Ġvariedade":6576,"Ġ45":6577,"ocol":6578,"Ġarmazen":6579,"ĠYo":6580,"Î¹":6581,"Ġtentou":6582,"ĠSand":6583,"ĠFlores":6584,"Ġvermelho":6585,"ĠFri":6586,"Ġideias":6587,"Ġnatal":6588,"Ġterem":6589,"Ġ1956":6590,"ring":6591,"yd":6592,"Ġapresentam":6593,"ĠestaÃ§Ãµes":6594,"ĠBob":6595,"Ġrefor":6596,"Brasil":6597,"Ġadministrativa":6598,"ĠSÃ³":6599,"ĠÂ·":6600,"ĠSoviÃ©tica":6601,"ĠOutro":6602,"Ġadvers":6603,"Ġeditar":6604,"Ge":6605,"Ġpec":6606,"ston":6607,"ĠmanutenÃ§Ã£o":6608,"ĠolÃŃmp":6609,"aut":6610,"Ġvul":6611,"ĠObras":6612,"Ġjogou":6613,"Ġaborda":6614,"Ġrival":6615,"Ñģ":6616,"Ġnam":6617,"ĠIv":6618,"Ġjud":6619,"Ġvil":6620,"Ġ1955":6621,"Ġpopulares":6622,"UC":6623,"Ġchega":6624,"Ġarque":6625,"Ġcompartilh":6626,"acho":6627,"Ġasteroide":6628,"Ġdesenho":6629,"erb":6630,"Ġconsc":6631,"ĠcontribuiÃ§Ãµes":6632,"Ġculturais":6633,"ĠAngola":6634,"Ġfrom":6635,"ĠDat":6636,"ĠMulher":6637,"Ġare":6638,"Ġviu":6639,"Ã´nicos":6640,"ĠPou":6641,"Ġquestion":6642,"Ġ300":6643,"quÃªs":6644,"Ġdram":6645,"ĠEncyclop":6646,"ĠSchool":6647,"Ġfortes":6648,"ĠpÃ©":6649,"Ġinglesa":6650,"ĠâĨ":6651,"ĠRodo":6652,"Ġpreso":6653,"Ġcontou":6654,"ĠDois":6655,"une":6656,"Ġdiss":6657,"imbra":6658,"94":6659,"ĠGold":6660,"endÃ¡rio":6661,"ĠcoleÃ§Ã£o":6662,"93":6663,"Ġagu":6664,"ĠCommons":6665,"Ġfesta":6666,"Eu":6667,"ĠexecuÃ§Ã£o":6668,"ĠForam":6669,"Ġatingiu":6670,"Ã³veis":6671,"Ã¡cil":6672,"ultados":6673,"Ġacaba":6674,"ĠHoje":6675,"ĠfÃ£s":6676,"Ġ1948":6677,"ĠDoc":6678,"ĠTelev":6679,"ĠNav":6680,"izam":6681,"ĠNesta":6682,"Ġestudou":6683,"Ġretornou":6684,"domin":6685,"ĠContin":6686,"ÃŃria":6687,"Ġconfig":6688,"BS":6689,"Ġsair":6690,"Ãģ":6691,"Ġmoderna":6692,"ĠIrlanda":6693,"Ġkg":6694,"ĠFilip":6695,"Ġroup":6696,"ĠJackson":6697,"ĠFC":6698,"Ġencontrados":6699,"fÃ©":6700,"Ġimag":6701,"Ġjuntos":6702,"Ġreforma":6703,"teriormente":6704,"ĠStud":6705,"Ġvale":6706,"uo":6707,"TE":6708,"Ġenv":6709,"Ġcusto":6710,"Ġregra":6711,"ĠMuitos":6712,"ĠeconÃ´mica":6713,"ĠSinopse":6714,"No":6715,"itiba":6716,"itaÃ§Ãµes":6717,"Ġfortal":6718,"arch":6719,"Ġfazia":6720,"Ġemerg":6721,"2001":6722,"Ġverbete":6723,"ĠBerlim":6724,"lar":6725,"ĠfrequÃªncia":6726,"Ġgravadora":6727,"Ġ1941":6728,"the":6729,"ĠhistÃ³rica":6730,"ĠDay":6731,"Pa":6732,"Ġtradicionais":6733,"itÃª":6734,"ĠninguÃ©m":6735,"68":6736,"Ġur":6737,"Ġplanos":6738,"ĠterritÃ³rios":6739,"net":6740,"Ġtraduz":6741,"Ġviver":6742,"oroeste":6743,"Ð¾Ð":6744,"Ġshows":6745,"Ġroteiro":6746,"Ġcontinuar":6747,"Ġconde":6748,"emit":6749,"ricidade":6750,"Ġidentidade":6751,"ĠVirg":6752,"vin":6753,"ĠPs":6754,"rilh":6755,"ĠSat":6756,"Ġprol":6757,"olÃ³gicas":6758,"dom":6759,"ĠEP":6760,"ĠRy":6761,"Ġenciclop":6762,"ĠFun":6763,"Ġfran":6764,"ĠdisponÃŃveis":6765,"peÃ£":6766,"ĠLes":6767,"eirÃ£o":6768,"Ġprej":6769,"GE":6770,"zi":6771,"Ġquinta":6772,"Ġanalis":6773,"site":6774,"Ġregistros":6775,"ĠKim":6776,"ĠNob":6777,"ĠMara":6778,"ĠcapitÃ£o":6779,"Ġconstante":6780,"ĠinvestigaÃ§Ã£o":6781,"raria":6782,"Ġsegundos":6783,"Ġcaixa":6784,"ĠBÃŃbl":6785,"Se":6786,"ĠAnn":6787,"ĠScott":6788,"Ġpromover":6789,"ĠintenÃ§Ã£o":6790,"Ġpodendo":6791,"Ġcomandante":6792,"Ġmeia":6793,"ervo":6794,"Ġquinto":6795,"Ġchegando":6796,"ĠSuas":6797,"Ġestruturas":6798,"uminense":6799,"Ġmontanh":6800,"91":6801,"Ã³vel":6802,"ĠRafa":6803,"jetivo":6804,"Th":6805,"Ġpovos":6806,"ĠFol":6807,"Ġfins":6808,"ĠRece":6809,"Ġdesej":6810,"icia":6811,"Ġobrigado":6812,"At":6813,"ĠprÃªmios":6814,"ĠSuÃŃÃ§a":6815,"Ġelemento":6816,"ĠJog":6817,"ĠChampionship":6818,"Ġcru":6819,"ĠColÃ©gio":6820,"ĠAlto":6821,"rupÃ§Ã£o":6822,"Ġale":6823,"ĠLeÃ£o":6824,"Ġ1939":6825,"ÏĦ":6826,"ĠEspecial":6827,"ĠLit":6828,"ĠBarcel":6829,"ĠVenez":6830,"Ġturno":6831,"pop":6832,"Ġolhos":6833,"ĠPredefini":6834,"uÃ§Ãµes":6835,"ĠOutra":6836,"Ġ1957":6837,"eng":6838,"Ġreserv":6839,"nibus":6840,"Ïģ":6841,"Ġbanco":6842,"Ġorto":6843,"ĠalemÃ£es":6844,"ĠSouza":6845,"Ġsupera":6846,"ĠMÃ¡rio":6847,"ĠCarl":6848,"Ġgostaria":6849,"ĠcoraÃ§Ã£o":6850,"ĠRap":6851,"Ġimplement":6852,"65":6853,"Ġcre":6854,"Ġanimal":6855,"ĠCabo":6856,"ronomia":6857,"ĠAndre":6858,"teza":6859,"chas":6860,"quete":6861,"ĠfusÃ£o":6862,"Ġquadr":6863,"ĠrepresentaÃ§Ã£o":6864,"Ġdeixa":6865,"ĠFund":6866,"Ġsaiu":6867,"peus":6868,"tero":6869,"ĠBay":6870,"Ġtop":6871,"dol":6872,"ĠPortuguÃªs":6873,"ĠConstantino":6874,"ĠsubstituÃŃdo":6875,"ĠsÃŃmbolo":6876,"Ġevol":6877,"ĠProjeto":6878,"ĠÃļ":6879,"Ġcm":6880,"icana":6881,"adoras":6882,"ĠÃ¡rabe":6883,"ertain":6884,"cr":6885,"Ġluc":6886,"entino":6887,"ĠCearÃ¡":6888,"lei":6889,"Ġnascido":6890,"inter":6891,"fal":6892,"Ġsenhor":6893,"uven":6894,"ĠAFI":6895,"Ġsobretudo":6896,"Ġcoro":6897,"ocracia":6898,"Ãªnt":6899,"Ġpalco":6900,"ĠfenÃ´m":6901,"ĠFlora":6902,"Ġconver":6903,"ologias":6904,"Ġruas":6905,"ĠBelo":6906,"2003":6907,"ami":6908,"72":6909,"Ġach":6910,"2014":6911,"ĠcarÃ¡ter":6912,"ĠveÃŃculos":6913,"ĠOu":6914,"Ġvontade":6915,"ĠfÃ¡cil":6916,"Ġfar":6917,"erica":6918,"Ġtrabalhadores":6919,"prim":6920,"ĠcenÃ¡rio":6921,"Ġtorc":6922,"Ġfossem":6923,"unas":6924,"Ġsuje":6925,"teis":6926,"ĠvitÃ³rias":6927,"Ġdeterminado":6928,"ĠposiÃ§Ãµes":6929,"Ġanex":6930,"ĠIdade":6931,"Ġatua":6932,"ĠRegional":6933,"Ã§ul":6934,"Ġmig":6935,"dy":6936,"ĠBlu":6937,"Ġindica":6938,"ition":6939,"Ġtornaram":6940,"Ġlegal":6941,"Ġciclo":6942,"ĠAdv":6943,"Ġbandas":6944,"ultos":6945,"ĠFM":6946,"ĠBiblioteca":6947,"Ġcred":6948,"Ġgar":6949,"ju":6950,"ĠMarcos":6951,"Ġanti":6952,"ĠÃ´":6953,"Ġglobal":6954,"ration":6955,"ĠpoderÃ¡":6956,"Ġassinou":6957,"bel":6958,"tec":6959,"Ġocidental":6960,"Ġ33":6961,"Ġequipa":6962,"ĠduraÃ§Ã£o":6963,"ĠpÃ©s":6964,"Ġimediatamente":6965,"Ġdetalhes":6966,"andes":6967,"urt":6968,"ĠÃ¢mb":6969,"ĠZel":6970,"Ġ1946":6971,"ĠfÃŃsico":6972,"ĠWol":6973,"Ġ?":6974,"Ġler":6975,"Ġporto":6976,"Ġvert":6977,"ĠTÃ©cn":6978,"Ġtitular":6979,"ĠHorizonte":6980,"Ġexpand":6981,"Ġdit":6982,"ĠPrograma":6983,"Ġaumentar":6984,"ĠmatemÃ¡tica":6985,"ĠNight":6986,"essora":6987,"ĠÃ³rgÃ£o":6988,"ÅĤ":6989,"inth":6990,"ministro":6991,"Ġvant":6992,"64":6993,"Ġobject":6994,"ocar":6995,"ĠnÃºcleo":6996,"Ġ1947":6997,"ĠBritÃ¢n":6998,"Ġficaram":6999,"ĠorganizaÃ§Ãµes":7000,"Ġsil":7001,"Ġacontece":7002,"uar":7003,"ĠMichel":7004,"ĠPom":7005,"ĠUnidas":7006,"ĠPier":7007,"Ġvira":7008,"ogrÃ¡fico":7009,"ĠOrganizaÃ§Ã£o":7010,"mat":7011,"ĠAlf":7012,"Ġcapela":7013,"Ġrelativamente":7014,"ĠtÃ©r":7015,"Ã¢metro":7016,"ĠnegÃ³cios":7017,"Ġadministrat":7018,"azer":7019,"ĠProduÃ§Ã£o":7020,"din":7021,"Ġescolhido":7022,"Ġengenheiro":7023,"lie":7024,"ĠCome":7025,"ĠreuniÃ£o":7026,"Ã´nimos":7027,"ft":7028,"Ġtran":7029,"ĠConf":7030,"vido":7031,"Ġanual":7032,"azar":7033,"Ġassuntos":7034,"ĠPernambuco":7035,"ĠSho":7036,"ĠprÃ©dio":7037,"CI":7038,"ĠhipÃ³t":7039,"empo":7040,"Ġfacto":7041,"ĠSpec":7042,"ĠlideranÃ§a":7043,"Fl":7044,"Ïĥ":7045,"nce":7046,"Ġcompost":7047,"Ġdesenvolveu":7048,"Ġdrama":7049,"Ġavent":7050,"Ġ1953":7051,"Ġvou":7052,"ĠrecÃ©m":7053,"Ġpoderiam":7054,"Ã³prio":7055,"Ġtemporadas":7056,"ortaleza":7057,"Ġeditora":7058,"2002":7059,"ĠLuz":7060,"AP":7061,"ĠBig":7062,"ĠCaracter":7063,"ĠpadrÃµes":7064,"Ġregional":7065,"Ġentretanto":7066,"ĠempresÃ¡rio":7067,"pot":7068,"Ġcara":7069,"ĠGust":7070,"ĠItal":7071,"posiÃ§Ãµes":7072,"ĠLatina":7073,"ĠPia":7074,"Ġusadas":7075,"Ġgolpe":7076,"100":7077,"ĠcolaboraÃ§Ã£o":7078,"raram":7079,"Ġpraticamente":7080,"ĠPesqu":7081,"Ġdisputou":7082,"onha":7083,"ĠEncyclopedia":7084,"Ġexemplos":7085,"otes":7086,"ĠVicente":7087,"ĠPosteriormente":7088,"eda":7089,"84":7090,"Int":7091,"Ġterror":7092,"Ġimplant":7093,"Ġreligiosa":7094,"Ġcerta":7095,"ĠCampeÃ£o":7096,"ĠPonte":7097,".--":7098,"Ã³sito":7099,"Ġestiv":7100,"Ġchegaram":7101,"ĠcaracterÃŃstica":7102,"Ġrecebido":7103,"!\"":7104,"ĠDados":7105,"landÃªs":7106,"ĠFilipe":7107,"Ġapag":7108,"masculino":7109,"antemente":7110,"ĠJon":7111,"ione":7112,"Ġpros":7113,"alhas":7114,"Ġsep":7115,"Ġenorme":7116,"ianismo":7117,"ĠBR":7118,"ĠIlhas":7119,"EI":7120,"Ġrelacionamento":7121,"tic":7122,"work":7123,"ÃĥO":7124,"ĠDen":7125,"Ġperder":7126,"indows":7127,"ĠfuncionÃ¡rios":7128,"ĠImpera":7129,"ush":7130,"Ġadvogado":7131,"ificou":7132,"lad":7133,"ĠJef":7134,"Ġvag":7135,"ĠinfÃ¢ncia":7136,"ĠInteg":7137,"amengo":7138,"Ġequipamentos":7139,"ĠHomem":7140,"adrÃ£o":7141,"Ġespalh":7142,"Ġmotivos":7143,"ertainment":7144,"ĠLÃŃngua":7145,"ĠMachado":7146,"Ġmit":7147,"ĠassociaÃ§Ã£o":7148,"meras":7149,"Ġcarga":7150,"Ġprazo":7151,"ĠclÃ¡ssico":7152,"Ġ1938":7153,"ĠRay":7154,"Ġamost":7155,"Ġtenta":7156,"ĠLibert":7157,"Ġconsiderados":7158,"ratos":7159,"Ġtratado":7160,"ĠlÃŃderes":7161,"ĠLim":7162,"Ġcrime":7163,"Ġlocalidade":7164,"Ġcomunidades":7165,"ĠRev":7166,"ĠCaso":7167,"ĠmÃ©todos":7168,"Ġ1952":7169,"ĠSilv":7170,"Ġparcialmente":7171,"geral":7172,"nasc":7173,"ivis":7174,"Ġestudar":7175,"Ġlibert":7176,"ĠrÃ¡pido":7177,"ĠLanÃ§":7178,"ĠirÃ¡":7179,"Ġperde":7180,"Ġrecentemente":7181,"Ġconsult":7182,"ali":7183,"ĠOx":7184,"ÃŃmica":7185,"ĠascensÃ£o":7186,"ĠaÃŃ":7187,"ĠresidÃªncia":7188,"Ġjan":7189,"ĠVista":7190,"list":7191,"Ġextremamente":7192,"Ġpron":7193,"mon":7194,"ĠbilhÃµes":7195,"ĠCoimbra":7196,"itadas":7197,"Ġentender":7198,"Ġpintor":7199,"Ġfrase":7200,"PR":7201,"ĠGabriel":7202,"ĠLibrary":7203,"egal":7204,"ĠChicago":7205,"Ġadquir":7206,"iliares":7207,"Ġga":7208,"ĠCara":7209,"Ġ1951":7210,"ĠligaÃ§Ãµes":7211,"Ġprest":7212,"Ġtrecho":7213,"Ġlimite":7214,"ĠTar":7215,"Ġ04":7216,"Ġtrip":7217,"thur":7218,"ĠMarcelo":7219,"jecto":7220,"Ġferrovi":7221,"ĠCatal":7222,"Ġcorrente":7223,"Rio":7224,"ĠcompetiÃ§Ãµes":7225,"urgia":7226,"ĠRub":7227,"Ġintera":7228,"ĠEstudos":7229,"enov":7230,"dere":7231,"Ġlocalizados":7232,"Ġchamou":7233,"Ġpp":7234,"ĠEstas":7235,"Ġcore":7236,"ĠEsses":7237,"Wik":7238,"grÃ¡fico":7239,"tambÃ©m":7240,"ĠprincÃŃpios":7241,"Ġencerra":7242,"ĠDiscografia":7243,"Ġsustent":7244,"ĠMaior":7245,"ÃŃnsula":7246,"Ã´nicas":7247,"ty":7248,"ĠPot":7249,"Ġmad":7250,"Ġreje":7251,"elson":7252,"Ġpreciso":7253,"uper":7254,"Ġib":7255,"Ġfrag":7256,"abase":7257,"ĠcomÃ©dia":7258,"real":7259,"ĠReis":7260,"Ġrealizados":7261,"Ġinov":7262,"aso":7263,"box":7264,"Ġgast":7265,"ĠPequ":7266,"Ġatingir":7267,"reet":7268,"ank":7269,"ĠcritÃ©rios":7270,"ĠBoa":7271,"ouro":7272,"ĠGirl":7273,"ĠJr":7274,"ĠcÃ¡l":7275,"ĠcolocaÃ§Ã£o":7276,"ipÃ©l":7277,"Ġembarc":7278,"ations":7279,"Ġmostrar":7280,"ĠMato":7281,"TI":7282,"chos":7283,"Ġsimilar":7284,"Ġessencial":7285,"Ġcontendo":7286,"ski":7287,"Ġplant":7288,"ĠLivro":7289,"ĠSantiago":7290,"Ġarquivos":7291,"ilton":7292,"Ġti":7293,"ionalmente":7294,"ĠÅ":7295,"ĠperiÃ³d":7296,"ĠSr":7297,"pus":7298,"ĠinvÃ©s":7299,"2015":7300,"ission":7301,"ĠKa":7302,"Ġconhecidas":7303,"Ġreconst":7304,"pin":7305,"Ġign":7306,"Ġdor":7307,"uca":7308,"pla":7309,"ĠCarioca":7310,"Ġpul":7311,"ĠShe":7312,"Ġ400":7313,"Ġescravos":7314,"Ġexibido":7315,"dex":7316,"presa":7317,"eibol":7318,"Ġprob":7319,"Ġtestem":7320,"ĠOriental":7321,"Ġgo":7322,"Ġdiscipl":7323,"del":7324,"Ġimpacto":7325,"ĠSecretaria":7326,"atural":7327,"ĠLopes":7328,"ipes":7329,"Ġonline":7330,"ĠinvasÃ£o":7331,"mail":7332,"Ġleitura":7333,"Ã³cia":7334,"Ġprofessores":7335,"ĠLan":7336,"Ġbizant":7337,"arÃ£o":7338,"onomia":7339,"icam":7340,"Ġpoderes":7341,"ĠFigu":7342,"Ġconsol":7343,"ĠsÃ©t":7344,"Ġvac":7345,"ĠDam":7346,"Ġrecente":7347,"Ġdito":7348,"Ġexistentes":7349,"Ġpermitir":7350,"Ġuniversidade":7351,"Ġparticularmente":7352,"Ã¡culo":7353,"Ġgente":7354,"Ġdificuldades":7355,"ple":7356,"Ġ48":7357,"Ġprincesa":7358,"atar":7359,"ĠGram":7360,"Ġtorre":7361,"Ġsovi":7362,"iversÃ¡rio":7363,"ĠDatabase":7364,"ĠRomano":7365,"Ġvencer":7366,"Campeonato":7367,"ĠtrÃ¡s":7368,"ĠTorre":7369,"ĠRecife":7370,"Ġjudeus":7371,"ĠBento":7372,"ni":7373,"Ġcad":7374,"ĠÃ¢mbito":7375,"sk":7376,"ĠGeorg":7377,":\"":7378,"Ġ;":7379,"ĠRodrigo":7380,"oclipe":7381,"ĠgÃ©nero":7382,"ĠprÃ³prias":7383,"ĠTorneio":7384,"Ġsuspe":7385,"mor":7386,"Ġoriginais":7387,"Ġ1949":7388,"ĠEngenharia":7389,"inÃ©":7390,"Ãºst":7391,"ĠGrÃ£":7392,"ĠIns":7393,"ĠResultados":7394,"ĠAtlÃ©tico":7395,"Ġdestino":7396,"Ġaldeia":7397,"ĠmilhÃ£o":7398,"Ġbreve":7399,"ump":7400,"Ġoce":7401,"itamente":7402,"Ã©lgica":7403,"identes":7404,"ĠBarros":7405,"Ġmicro":7406,"ted":7407,"Ġponte":7408,"Ġmanifesta":7409,"ĠSerg":7410,"Ġsuporte":7411,"Ġpediu":7412,"ĠPÃºblico":7413,"ape":7414,"Ġtemplo":7415,"Ġtrou":7416,"ĠÃģl":7417,"Ã´mbia":7418,"erdo":7419,"amo":7420,"ĠLucas":7421,"Ġsituado":7422,"Ġchamar":7423,"ourn":7424,"Ġinfantil":7425,"Ġterrest":7426,"icialmente":7427,"BT":7428,"ĠcontÃŃn":7429,"Ġutilizando":7430,"orit":7431,"Ã©culo":7432,"Ġrequer":7433,"ĠBÃŃblia":7434,"ĠXVII":7435,"ĠVasco":7436,"oque":7437,"ĠFort":7438,"ĠMinistro":7439,"Ġchama":7440,"imedia":7441,"ĠVenezuela":7442,"ati":7443,"ĠKo":7444,"Ġ978":7445,"Ġfrac":7446,"Ġ1936":7447,"Ġfrut":7448,"ceae":7449,"well":7450,"Ġmarcado":7451,"Ã©trica":7452,"Ġpredefin":7453,"ĠHav":7454,"ĠmÃŃnimo":7455,"Ġbater":7456,"ĠAeroporto":7457,"Ġartilh":7458,"hr":7459,"Ġfatores":7460,"ody":7461,"Ġroub":7462,"Ġmestre":7463,"ĠÂ°":7464,"Ġfr":7465,"Ġpessoais":7466,"Ġvisita":7467,"Ġerros":7468,"Ġromanos":7469,"asto":7470,"ĠTab":7471,"Ġresponsabilidade":7472,"Ġconsecut":7473,"Ġbloqueio":7474,"Ġsignificado":7475,"ĠEconomia":7476,"ĠsatÃ©lite":7477,"ĠlocalizaÃ§Ã£o":7478,"ĠÃ´nibus":7479,"Ġsemif":7480,"wan":7481,"Ġcop":7482,"bilidade":7483,"Ġintelect":7484,"idez":7485,"Ġgrat":7486,"Ġsubt":7487,"Ġdeleg":7488,"abe":7489,"ĠWindows":7490,"ĠAdministraÃ§Ã£o":7491,"Ġrepresentando":7492,"ipÃ©lago":7493,"ĠMunicÃŃp":7494,"Ã¡stico":7495,"ĠaÃ§":7496,"Ġsemelhantes":7497,"ĠRevista":7498,"Ġ1934":7499,"ĠDinamar":7500,"ĠintroduÃ§Ã£o":7501,"Ġso":7502,"range":7503,"mentos":7504,"Ġpele":7505,"Ġvere":7506,"ĠEdward":7507,"Ġjaponesa":7508,"ĠÃ³rgÃ£os":7509,"Ġ34":7510,"ĠGreen":7511,"Ġund":7512,"Ġinstrumentos":7513,"ĠFÃ³rmula":7514,"Ġox":7515,"stem":7516,"ĠUE":7517,"Ġdura":7518,"ĠOriente":7519,"ket":7520,"ĠWat":7521,"Ġfundou":7522,"rÃ©s":7523,"ĠmanhÃ£":7524,"ĠHal":7525,"Ãªme":7526,"Ã³cio":7527,"Ã³gico":7528,"ĠcomeÃ§ar":7529,"uiz":7530,"62":7531,"rin":7532,"emÃ¡tica":7533,"ĠreaÃ§Ã£o":7534,"Ġterreno":7535,"idro":7536,"ĠEns":7537,"Ġpensamento":7538,"ĠUrb":7539,"Ã³so":7540,"elhas":7541,"ĠAires":7542,"Ġtela":7543,"Ġarquivo":7544,"Ġtomou":7545,"ĠMosc":7546,"rista":7547,"ĠFortaleza":7548,"Ġatmos":7549,"Ġacum":7550,"ĠPaz":7551,"Ġincent":7552,"ĠgraÃ§as":7553,"ĠOne":7554,"Ã©rico":7555,"Ġ1937":7556,"83":7557,"ĠMendes":7558,"Ġtransport":7559,"ĠWiki":7560,"NU":7561,"ĠinstalaÃ§Ã£o":7562,"79":7563,"Ġpeg":7564,"ĠMorte":7565,"ĠDeput":7566,"ĠmÃºsico":7567,"Ġprefeitura":7568,"ĠÃ³p":7569,"ĠWalter":7570,"Ġeliminar":7571,"Ġviveu":7572,"EP":7573,"Ġserve":7574,"ĠUr":7575,"Ġromana":7576,"ĠCP":7577,"atu":7578,"ĠFlamengo":7579,"serv":7580,"Ġoportunidade":7581,"ĠdoenÃ§as":7582,"Ġmoral":7583,"Ġcancel":7584,"ario":7585,"ĠedifÃŃcios":7586,"DA":7587,"icionÃ¡rio":7588,"ĠMargar":7589,"ĠPelo":7590,"Ġeng":7591,"can":7592,"oft":7593,"mond":7594,"Ġjard":7595,"Ã¡via":7596,"Ãºcar":7597,"Ġdocumento":7598,"Ġoferece":7599,"Ġaberta":7600,"ĠCria":7601,"ances":7602,"Ġboas":7603,"NÃ£o":7604,"Ġdial":7605,"ĠocupaÃ§Ã£o":7606,"Ġparada":7607,"Ġcard":7608,"Ġexcel":7609,"Ġhistoriador":7610,"ĠPinto":7611,"oni":7612,"Ġequil":7613,"ĠAos":7614,"antos":7615,"Ac":7616,"Ġbens":7617,"bat":7618,"Ġcren":7619,"ÃŃsica":7620,"ĠpossuÃŃa":7621,"Ã§u":7622,"anÃ§o":7623,"ĠprÃ³ximos":7624,"ĠBÃ©lgica":7625,"ĠSeguranÃ§a":7626,"Ġcasado":7627,"ĠGrosso":7628,"Ġsexta":7629,"kin":7630,"ĠBaixos":7631,"Ġvolunt":7632,"ĠVice":7633,"inger":7634,"Ġcaminh":7635,"ĠinterpretaÃ§Ã£o":7636,"ĠaudiÃªncia":7637,"Ġestabeleceu":7638,"ĠBarcelona":7639,"enz":7640,"ĠDomin":7641,"ĠBruno":7642,"ĠGuarda":7643,"ku":7644,"randa":7645,"ĠTerceira":7646,"Ġrever":7647,"ĠcomentÃ¡rio":7648,"ĠRoss":7649,"ĠMetropolit":7650,"ĠcÃ¢mara":7651,"Ġholand":7652,"ĠFluminense":7653,"ower":7654,"ĠcidadÃ£os":7655,"ĠsecretÃ¡rio":7656,"ĠpossÃŃveis":7657,"ĠAdam":7658,"Ġbola":7659,"use":7660,"Ġtivesse":7661,"'t":7662,"81":7663,"Ġfolhas":7664,"ĠreduÃ§Ã£o":7665,"ĠopÃ§Ã£o":7666,"Ġautoria":7667,"Ġmilhares":7668,"Ġjornais":7669,"Ġmargem":7670,"Ġigrejas":7671,"ĠmuÃ§ul":7672,"Ġanc":7673,"inthians":7674,"usto":7675,"ĠBeat":7676,"ĠdomÃ©st":7677,"Ġvaz":7678,"Ġfi":7679,"Ġestran":7680,"ĠCompany":7681,"fredo":7682,"ilhas":7683,"Ġdestas":7684,"ĠadaptaÃ§Ã£o":7685,"Ġeuropeu":7686,"Ġpertence":7687,"ĠJoe":7688,"ĠMedicina":7689,"ĠPolÃŃtica":7690,"Ġ1933":7691,"Ã¼r":7692,"Ġorganizado":7693,"Ġindicado":7694,"Ø§":7695,"ĠBorg":7696,"ĠindivÃŃduo":7697,"Ġeleg":7698,"Ġaeroporto":7699,"Ã©lia":7700,"Ġtrabalhando":7701,"Co":7702,"ĠClassificaÃ§Ã£o":7703,"71":7704,"ĠavaliaÃ§Ã£o":7705,"%)":7706,"ĠagrÃŃc":7707,"culos":7708,"ĠBook":7709,"wiki":7710,"ĠmantÃ©m":7711,"ici":7712,"Ġconsumo":7713,"burgo":7714,"ilia":7715,"ilaÃ§Ã£o":7716,"adeia":7717,"Ġpretend":7718,"cal":7719,"ĠChris":7720,"Ã©ticas":7721,"ĠJÃºn":7722,"Ġsingular":7723,"ĠAssocia":7724,"ET":7725,"berto":7726,"Ðº":7727,"Ġseres":7728,"Ġestabelecer":7729,"ises":7730,"reta":7731,"ĠFonte":7732,"futebol":7733,"ĠVia":7734,"ĠFut":7735,"74":7736,"Ġpatroc":7737,"inete":7738,"Ġdoze":7739,"ĠBart":7740,"ĠAli":7741,"prÃ³prio":7742,"ĠColÃ´mbia":7743,"ĠeconÃ´mico":7744,"ĠInformation":7745,"ds":7746,"ĠLink":7747,"ĠdanÃ§a":7748,"Ġcapa":7749,"ĠindÃŃgenas":7750,"fogo":7751,"Ġbusc":7752,"ĠsÃ©ries":7753,"Ġintegrantes":7754,"Ġvin":7755,"Ġcanad":7756,"organ":7757,"onc":7758,"pecto":7759,"oga":7760,"Ġautora":7761,"Ġalimentos":7762,"ĠIMD":7763,"Ġiniciativa":7764,"Ġvive":7765,"Ġhttps":7766,"ĠSupre":7767,"bita":7768,"abeth":7769,"inf":7770,"ĠVill":7771,"Ġseguido":7772,"Ġbairros":7773,"emitÃ©rio":7774,"Ġpeda":7775,"Ġpista":7776,"ĠVel":7777,"unÃ§Ã£o":7778,"ĠTen":7779,"Ġguarda":7780,"Ġ*":7781,"Ġta":7782,"ady":7783,"Ãºncia":7784,"ĠProt":7785,"Ġdefender":7786,"ĠDesta":7787,"Ġocorrer":7788,"Ġ1932":7789,"Ġramo":7790,"oli":7791,"alt":7792,"atÃ³rias":7793,"ĠSegu":7794,"bar":7795,"ĠJones":7796,"Ġhumor":7797,"Ġfranceses":7798,"Ġlonge":7799,"ĠaviÃ£o":7800,"Ġneut":7801,"CC":7802,"Ġaustral":7803,"ĠBell":7804,"orada":7805,"ĠcrÃ©d":7806,"Ġpion":7807,"ĠGrand":7808,"Ġcoleg":7809,"ĠArthur":7810,"zy":7811,"ĠmÃ¡quina":7812,"Bill":7813,"cebispo":7814,"ST":7815,"Ġverdadeiro":7816,"Ġpoucas":7817,"rimÃ³nio":7818,"%,":7819,"61":7820,"82":7821,"doeste":7822,"ĠColle":7823,"Ġgreg":7824,"Ġposterior":7825,"ray":7826,"ĠCiÃªncia":7827,"Ġbrig":7828,"Ġimpress":7829,"Hist":7830,"lan":7831,"Ġespacial":7832,"ĠQuanto":7833,"ĠHouse":7834,"ĠEntertainment":7835,"ĠresponsÃ¡veis":7836,"ĠWay":7837,"ĠTrin":7838,"onna":7839,"Ġentrev":7840,"Ġagricultura":7841,"ĠHip":7842,"ĠAmericano":7843,"core":7844,"Ġeuropeus":7845,"Ġtempestade":7846,"Ġhe":7847,"ĠApar":7848,"Ġfuncionamento":7849,"Ġfiguras":7850,"ĠfÃ©":7851,"ĠCorn":7852,"Ġ1935":7853,"grafias":7854,"ĠUruguai":7855,"ĠServ":7856,"ĠdiferenÃ§as":7857,"ĠNick":7858,"ĠVide":7859,"Ġservir":7860,"Ġatletas":7861,"ĠficÃ§Ã£o":7862,"ĠMaran":7863,"ĠKat":7864,"Ġpast":7865,"aixÃ£o":7866,"Ġpasso":7867,"Ġdescrito":7868,"Ġgarantir":7869,"Ġtraduzido":7870,"Ġresg":7871,"Ġrepresentante":7872,"Ġpan":7873,"Ġce":7874,"ĠartÃŃstica":7875,"ĠMedalha":7876,"emburgo":7877,"ĠDemocrÃ¡":7878,"Ġingress":7879,"Ġencontrou":7880,"ĠSteph":7881,"ĠHow":7882,"MG":7883,"Ġtonel":7884,"ĠPortanto":7885,"ĠgÃªneros":7886,"Ġcoop":7887,"ĠcrÃŃtico":7888,"Sh":7889,"ĠNews":7890,"Ġpiano":7891,"ĠEssas":7892,"uch":7893,"ĠFeminino":7894,"ĠPortal":7895,"izaram":7896,"Ġescritos":7897,"Ġcandidatos":7898,"ĠVolta":7899,"Ġmedalhas":7900,"Ġperspect":7901,"itter":7902,"ieta":7903,"Ġconcord":7904,"ĠCorinthians":7905,"ĠprÃ¡ticas":7906,"Ġengenharia":7907,"Ġultrap":7908,"alves":7909,"Ã¡ce":7910,"ĠgÃ¡s":7911,"Ġconvidado":7912,"Ġinvad":7913,"IL":7914,"triz":7915,"ĠRocha":7916,"Ant":7917,"Ã§amb":7918,"peonatos":7919,"Ġmoradores":7920,"Ġvc":7921,"Ġapaix":7922,"Ġalvo":7923,"Ġcarros":7924,"ello":7925,"Ġinterna":7926,"iritual":7927,"Ġdanos":7928,"ulto":7929,"1999":7930,"69":7931,"ĠMovimento":7932,"Ġurbana":7933,"uva":7934,"Ġdisponibil":7935,"Ġfatos":7936,"ĠTy":7937,"Ã³grafo":7938,"?\"":7939,"ĠInfant":7940,"Ġvaga":7941,"Ġrecentes":7942,"Ġpapa":7943,"revendo":7944,"Ġcoz":7945,".).":7946,"ĠmÃ¡xima":7947,"ĠPoder":7948,"63":7949,"Ġajudou":7950,"ĠFernandes":7951,"Ġassumir":7952,"Ġcombust":7953,"Ã³quia":7954,"idi":7955,"ulou":7956,"ĠhistÃ³ricos":7957,"Ġchave":7958,"ose":7959,"Ġoit":7960,"ĠVers":7961,"2016":7962,"Ġcabo":7963,"Ð»":7964,"Ġbranca":7965,"Ġdisputada":7966,"anz":7967,"ĠChec":7968,"Ġpena":7969,"ĠOeste":7970,"ÃŃtico":7971,"ĠfilÃ³so":7972,"Ġgaro":7973,"ĠSum":7974,"ĠcristÃ£os":7975,"Ġgravado":7976,"Ġlabora":7977,"ĠLong":7978,"Ãªx":7979,"ĠdanÃ§":7980,"ricos":7981,"Ġmediev":7982,"ĠMost":7983,"retanha":7984,"quesa":7985,"ĠUlt":7986,"Ġantec":7987,"ĠCarolina":7988,"ĠRevol":7989,"Ġentidade":7990,"ropri":7991,"ĠWilson":7992,"ips":7993,"Ġcav":7994,"ĠTime":7995,"Ġcorrig":7996,"ĠtÃ³p":7997,"73":7998,"ĠZona":7999,"gada":8000,"Ġsai":8001,"Ġpraia":8002,"Ġinteresses":8003,"ĠAtlÃ¢ntico":8004,"uega":8005,"ĠIra":8006,"pto":8007,"ĠexploraÃ§Ã£o":8008,"Ġrelacionadas":8009,"Ġconex":8010,"ĠTexas":8011,"Ġlados":8012,"Ġfestival":8013,"Ġ1918":8014,"ĠTimes":8015,"Ġfamosa":8016,"Ãºl":8017,"Ġexperiment":8018,"Ġhosp":8019,"ĠNordeste":8020,"Ġchef":8021,"Ġindividuais":8022,"greg":8023,"Ġquiser":8024,"Ġalfab":8025,"Ġrenda":8026,"alÃ©m":8027,"vedo":8028,"ĠartÃŃstico":8029,"ĠGoogle":8030,"Ġpredomin":8031,"ĠOrto":8032,"Ġsenador":8033,"ĠCra":8034,"olh":8035,"Ġconselho":8036,"Ġformando":8037,"Ġmest":8038,"mont":8039,"iscal":8040,"Ġproxim":8041,"Ġbor":8042,"etn":8043,"ĠJÃºnior":8044,"Ġultrapass":8045,"ĠBad":8046,"Ġuns":8047,"ĠBraga":8048,"Ġend":8049,"Ġnotas":8050,"Ġpermitindo":8051,"ĠSuggest":8052,"Ġlimites":8053,"ĠSta":8054,"Ġuniverso":8055,"ĠAÃ©rea":8056,"Pr":8057,"Ġhonra":8058,"Ġadministrador":8059,"ĠsÃŃtio":8060,"ĠStan":8061,"tam":8062,"Ġnordeste":8063,"ĠinÃ©d":8064,"sey":8065,"ionado":8066,"etria":8067,"Ġamplamente":8068,"fim":8069,"Ġfloresta":8070,"ery":8071,"ĠNap":8072,"ĠNelson":8073,"ĠUp":8074,"ĠDinamarca":8075,"ĠSuggestBot":8076,"Ġdenominado":8077,"Ġabra":8078,"Ġconfund":8079,"Ġpermitiu":8080,"Ġfluxo":8081,"Ġguard":8082,"ĠAgÃªncia":8083,"not":8084,"ĠGonÃ§alves":8085,"ĠApresent":8086,"Ġespanhola":8087,"ĠVII":8088,"Ġatores":8089,"utas":8090,"Ġseguindo":8091,"ĠGoiÃ¡s":8092,"ĠNorth":8093,"Ġsemi":8094,"ragÃ£o":8095,"Ġreper":8096,"ĠSoares":8097,"ambigu":8098,"ĠLÃº":8099,"Ã³tica":8100,"ĠinÃº":8101,"ĠSÃ©rgio":8102,"ĠlÃŃqu":8103,"IV":8104,"ĠEuropeu":8105,"________":8106,"Ġdiferenc":8107,"Ġpri":8108,"ÃŃncias":8109,"Ġdescreveu":8110,"Ġconect":8111,"ĠAgora":8112,"ĠEsporte":8113,"ĠTaxonom":8114,"ines":8115,"ĠProfessor":8116,"ĠpÃ´":8117,"erm":8118,"ĠParaguai":8119,"ĠHigh":8120,"agn":8121,"Ġamericanos":8122,"ĠCollege":8123,"Ġduque":8124,"ĠHung":8125,"Ġlav":8126,"ĠMedia":8127,"Ġdebate":8128,"Ġefic":8129,"ĠEstrada":8130,"ingos":8131,"Ġquadrinhos":8132,"ĠJoh":8133,"ĠCuritiba":8134,"RS":8135,"ĠCho":8136,"elaÃ§Ã£o":8137,"ĠDefesa":8138,"Ġformam":8139,"ED":8140,"uth":8141,"ĠList":8142,"Ġagrad":8143,"Ġimposs":8144,"ĠPens":8145,"ĠColl":8146,"ĠDiretor":8147,"ĠpartÃŃc":8148,"mais":8149,"ĠvÃŃtimas":8150,"Ġfantas":8151,"Ġtimes":8152,"ĠImperial":8153,"ĠGrav":8154,"ĠRoyal":8155,"aza":8156,"edentes":8157,"Ġconflitos":8158,"ĠdÃºvida":8159,"Ġcompra":8160,"Ġagreg":8161,"ĠMÃ©d":8162,"Ġseguiu":8163,"Ġrural":8164,"rogas":8165,"Ġmodern":8166,"Ġrevelou":8167,"Ġfamiliar":8168,"Ġ39":8169,"ĠdenominaÃ§Ã£o":8170,"Ġusou":8171,"Ġdiscos":8172,"roc":8173,"Ġq":8174,"iform":8175,"ĠGio":8176,"ĠConfede":8177,"ategoria":8178,"Ġpromovido":8179,"ĠCampeÃµes":8180,"Ġdecreto":8181,"AT":8182,"ĠAlm":8183,"Ġutiliza":8184,"ĠEscÃ³cia":8185,"Ġimperial":8186,"Ġincluir":8187,"ĠIrm":8188,"Ġelevado":8189,"Ġfacilmente":8190,"Ġsinais":8191,"Ġexclusivamente":8192,"iÃ³n":8193,"ces":8194,"fund":8195,"kins":8196,"Äĩ":8197,"ĠSl":8198,"ĠSÃ¡":8199,"ĠPerfil":8200,"Ġpartidos":8201,"ĠRecepÃ§Ã£o":8202,"Ġassinatura":8203,"ĠNoruega":8204,"ĠOk":8205,"undiais":8206,"Ġarma":8207,"Ġfeminina":8208,"ĠÃŃ":8209,"Ġresist":8210,"quet":8211,"ĠGaleria":8212,"Ġcurto":8213,"heim":8214,"Ġpossam":8215,"fÃ©u":8216,"ĠWW":8217,"itage":8218,"Ġconsag":8219,"Ġ09":8220,"Ġlinks":8221,"ĠWilliams":8222,"ĠFox":8223,"Ġcontudo":8224,"Ġformal":8225,"Ġdefinido":8226,"ĠEncont":8227,"Ġdesejo":8228,"ĠTam":8229,"Ġclasses":8230,"izador":8231,"Ġinterrom":8232,"futebolista":8233,"ÃŃam":8234,"Ad":8235,"Ġestiver":8236,"Ġpodia":8237,"Ġ1929":8238,"Ġtoneladas":8239,"now":8240,"Ġacredita":8241,"Ġsud":8242,"ĠParÃ¡":8243,"ĠCuba":8244,"ĠPrefeitura":8245,"ĠCos":8246,"Ġfaleceu":8247,"Ġproteger":8248,"ĠcÃ´n":8249,"unta":8250,"Ġaquela":8251,"Ġlong":8252,"ĠpraÃ§a":8253,"Ã¢ng":8254,"Ġproduziu":8255,"Ġcivis":8256,"ĠIMDb":8257,"Ġcalor":8258,"Ġcarnaval":8259,"Ġigualmente":8260,"IM":8261,"kes":8262,"ĠpromoÃ§Ã£o":8263,"ĠcomentÃ¡rios":8264,"ĠHit":8265,"Ġferramentas":8266,"gueira":8267,"rano":8268,"ĠaprovaÃ§Ã£o":8269,"ĠFrederico":8270,"ĠSong":8271,"ĠÃ¡rvores":8272,"ridge":8273,"americanos":8274,"ĠDra":8275,"bi":8276,"Ã³rica":8277,"Ġmoderno":8278,"ĠgalÃ¡xia":8279,"Ġvence":8280,"Ġgig":8281,"Ġcartas":8282,"Ġdenominada":8283,"ĠjustiÃ§a":8284,"ĠCle":8285,"erante":8286,"ĠEstende":8287,"Ġcorpos":8288,"Ġinfra":8289,"Ġrevistas":8290,"Ġ05":8291,"restling":8292,"ĠMol":8293,"Ġdiscurso":8294,"Ġdireta":8295,"ĠnecessÃ¡ria":8296,"Ġcobertura":8297,"Ġjuntou":8298,"Ġfoco":8299,"ĠalcanÃ§ar":8300,"ĠKn":8301,"Ġcontinente":8302,"liga":8303,"ĠquÃŃmica":8304,"Ġmedic":8305,"Ġacha":8306,"ĠRainha":8307,"Ġaves":8308,"Ġflorestas":8309,"Ġvocalista":8310,"Ġcerc":8311,"Ġexat":8312,"mino":8313,"ĠmÃºsicos":8314,"Ġreconhecido":8315,"ĠSouth":8316,"Ġordens":8317,"Ã§amento":8318,"ivais":8319,"down":8320,"ility":8321,"Ġcanais":8322,"ĠÃ¡cido":8323,"Ġparadas":8324,"Ġ1910":8325,"ĠVieira":8326,"ĠAnos":8327,"elly":8328,"ĠmÃºlt":8329,"ll":8330,"Port":8331,"ĠesforÃ§os":8332,"Ġinterval":8333,"Ġcomemora":8334,"iri":8335,"ĠDal":8336,"ĠHeritage":8337,"Ġprodutores":8338,"ason":8339,"Ġaulas":8340,"ĠGot":8341,"ĠindicaÃ§Ãµes":8342,"uÃ¡ria":8343,"phy":8344,"ĠconclusÃ£o":8345,"ĠHab":8346,"htm":8347,"rata":8348,"Ġquin":8349,"etti":8350,"ĠUniversal":8351,"Ġenviado":8352,"ĠÃ¡rvore":8353,"500":8354,"ĠBow":8355,"Ġmostrou":8356,"AF":8357,"ĠJov":8358,"Ġobst":8359,"ĠWhite":8360,"Ġdesemb":8361,"Ġgravou":8362,"âĢĶ":8363,"ĠaniversÃ¡rio":8364,"Ġartic":8365,"ao":8366,"itivas":8367,"ĠPÃºblica":8368,"Ġexterna":8369,"face":8370,"ĠexceÃ§Ã£o":8371,"esi":8372,"entor":8373,"ĠWall":8374,"1998":8375,"ĠHy":8376,"Ġmarcada":8377,"inadas":8378,"ĠHolly":8379,"Ġabre":8380,"Ġexceto":8381,"ĠpapÃ©is":8382,"jar":8383,"ĠMelo":8384,"ĠpresidÃªncia":8385,"Ġestrangeiros":8386,"ĠchinÃªs":8387,"ĠDigital":8388,"aire":8389,"Ġusam":8390,"Ã³leo":8391,"atina":8392,"ĠAlbert":8393,"UN":8394,"orc":8395,"Ġ49":8396,"Ġdividido":8397,"Ġvendeu":8398,"ĠLic":8399,"Ġpobre":8400,"Ġinaugurado":8401,"ĠSus":8402,"Ġtelenov":8403,"ussÃµes":8404,"Ġresolver":8405,"Ġcontratado":8406,"ĠausÃªncia":8407,"ativamente":8408,"Ġhistor":8409,"ĠelÃ©trica":8410,"Ġequivalente":8411,"arquia":8412,"iety":8413,"ĠMike":8414,"Ġmomentos":8415,"Ġcarne":8416,"Ġproporcion":8417,"Ġnumeros":8418,"ĠesforÃ§o":8419,"ÏĤ":8420,"Ġagente":8421,"Ġtreinamento":8422,"Ġtrem":8423,"Man":8424,"ĠTeix":8425,"Ġretom":8426,"Ġtropicais":8427,"ĠReceb":8428,"Ġexplos":8429,"Ġeconom":8430,"ĠSantana":8431,"ĠanimaÃ§Ã£o":8432,"ĠJord":8433,"Ġtentando":8434,"Ġpress":8435,"ĠAk":8436,"Ġperf":8437,"ĠRafael":8438,"idal":8439,"ibe":8440,"ĠLew":8441,"ĠsituaÃ§Ãµes":8442,"Ġparlam":8443,"ĠBab":8444,"ĠFu":8445,"Ġrac":8446,"Ġdinastia":8447,"ecidas":8448,"apor":8449,"yer":8450,"ĠFoot":8451,"ĠÃºltimas":8452,"Cont":8453,"ĠEug":8454,"Ġretirada":8455,"Ġje":8456,"Ġ1917":8457,"ĠcapÃŃtulo":8458,"Ġ1914":8459,"estos":8460,"ĠespÃŃrito":8461,"key":8462,"ĠCorte":8463,"Ġassassinato":8464,"ĠGame":8465,"ĠrevisÃ£o":8466,"Ġaeronaves":8467,"ĠâĢł":8468,"ĠrazÃµes":8469,"Ġrepresentantes":8470,"Ġeg":8471,"Ãºmeros":8472,"ĠTay":8473,"Ġcump":8474,"ĠAndrade":8475,"Ġvindo":8476,"rud":8477,"itÃ¡rios":8478,"Ã³nica":8479,"ĠcomissÃ£o":8480,"Ġencontradas":8481,"arreg":8482,"Ġdiagn":8483,"Ġcolocou":8484,"Ed":8485,"Ġwiki":8486,"Ġpred":8487,"Ġreflet":8488,"Ġcron":8489,"Ġinsetos":8490,"ĠZelÃ¢ndia":8491,"Ġpersonalidade":8492,"ĠespaÃ§os":8493,"tores":8494,"ĠÃ©t":8495,"load":8496,"ĠWood":8497,"visÃ£o":8498,"Ġsobera":8499,"ĠPri":8500,"Ġpaulista":8501,"ĠSebastiÃ£o":8502,"ĠJohnson":8503,"ĠUFC":8504,"Ġonda":8505,"ĠuniÃ£o":8506,"\"\"":8507,"Ġendere":8508,"quad":8509,"ĠClÃ¡":8510,"Ġdesloc":8511,"Ġenviou":8512,"ipedia":8513,"Ġmostrando":8514,"ĠTrabalh":8515,"eo":8516,"Ġteat":8517,"Ġbis":8518,"Ġarco":8519,"2017":8520,"ĠArquit":8521,"Ġcaiu":8522,"Ġbiol":8523,"ĠKenn":8524,"ĠinstalaÃ§Ãµes":8525,"ĠLÃ¡":8526,"doso":8527,"ĠPT":8528,"ĠEric":8529,"Ġvs":8530,"Ġbaix":8531,"Ġconceitos":8532,"Ġreflex":8533,"Ġdistritos":8534,"Ġindo":8535,"Ġdescreve":8536,"Ġsamba":8537,"Ġreligioso":8538,"ĠhorÃ¡rio":8539,"Ġjuda":8540,"Ġpedir":8541,"acos":8542,"Te":8543,"Ġdubl":8544,"ĠconsequÃªncia":8545,"ĠSendo":8546,"etano":8547,"ĠPacÃŃfico":8548,"enia":8549,"Ġpossivelmente":8550,"ĠNig":8551,"urais":8552,"ĠAnim":8553,"Ġrob":8554,"seis":8555,"ĠcomparaÃ§Ã£o":8556,"ĠNessa":8557,"Ġcentros":8558,"ĠPrÃ©mio":8559,"ĠOpen":8560,"ĠTeam":8561,"Ã³tico":8562,"ĠMcC":8563,"ĠtransferÃªncia":8564,"ĠTurquia":8565,"ĠAmerica":8566,"ĠEc":8567,"ĠTratado":8568,"Ġorganizada":8569,"ĠFranco":8570,"Ġ120":8571,"Ġestando":8572,"Ġexecutivo":8573,"Ġgelo":8574,"ology":8575,"sta":8576,"ule":8577,"Ġ1922":8578,"Ġvendido":8579,"Ġvandal":8580,"Ġverdadeira":8581,"ĠEvang":8582,"Ã§ados":8583,"achada":8584,"ĠCaracterÃŃsticas":8585,"ĠcafÃ©":8586,"Billboard":8587,"ĠToda":8588,"ĠMÃ©dio":8589,"Ġ42":8590,"ĠSev":8591,"rilha":8592,"Îµ":8593,"ĠespecÃŃfico":8594,"Ġassociado":8595,"ĠMTV":8596,"Ġcriando":8597,"Ġrecord":8598,"Ġflor":8599,"Ġrenome":8600,"Ġaeronave":8601,"ĠsÃ¡b":8602,"ĠâĢĺ":8603,"2022":8604,"Ġclassificado":8605,"Ġbrasileiras":8606,"icismo":8607,"Ġsoz":8608,"Ġobjetivos":8609,"ĠCass":8610,"estro":8611,"Ġcresceu":8612,"ped":8613,"Ġsubmet":8614,"argas":8615,"Ġ1919":8616,"Ġexibida":8617,"DB":8618,"ĠLaw":8619,"ĠDecreto":8620,"ementar":8621,"raft":8622,"Ġativo":8623,"Ġgeom":8624,"ĠCÃ³digo":8625,"Ġorb":8626,"ĠDescriÃ§Ã£o":8627,"ÃŃrculo":8628,"rus":8629,"Ġjo":8630,"Ġ150":8631,"plan":8632,"Ġmedicina":8633,"ĠdivulgaÃ§Ã£o":8634,"Ġnaquela":8635,"Ġespet":8636,"ander":8637,"urus":8638,"ĠexpediÃ§Ã£o":8639,"arta":8640,"ĠPerson":8641,"Ġ(-":8642,"ister":8643,"ambiguaÃ§Ã£o":8644,"ĠlegislaÃ§Ã£o":8645,"IT":8646,"Ġnaz":8647,"ĠÃįnd":8648,"Ġestend":8649,"ĠGonz":8650,"ĠTaxonomy":8651,"ĠPolÃ´nia":8652,"ĠrelatÃ³rio":8653,"Ġmesmas":8654,"Ġcrimes":8655,"Ġsacerdo":8656,"ĠCri":8657,"ĠNome":8658,"Ġimpres":8659,"Um":8660,"ivado":8661,"ĠGuinÃ©":8662,"ĠCatedral":8663,"Ġimigrantes":8664,"aios":8665,"ĠpreÃ§o":8666,"Ã¢nio":8667,"Ġampla":8668,"Ġsimult":8669,"Ġatuar":8670,"Ġabsor":8671,"ĠCunha":8672,"Ġ47":8673,"Ġapresentada":8674,"Ġcomponentes":8675,"etal":8676,"ĠQuem":8677,"ĠCapitÃ£o":8678,"Bl":8679,"ĠChristian":8680,"uga":8681,"back":8682,"zevedo":8683,"ĠTecnologia":8684,"dire":8685,"ĠBlo":8686,"ĠEliz":8687,"izade":8688,"Ġrepublic":8689,"FL":8690,"bil":8691,"Ġcro":8692,"ĠlÃ³gica":8693,"ĠFrancis":8694,"IO":8695,"äº":8696,"Ġredire":8697,"Ġreserva":8698,"Ġnomeadamente":8699,"rÃ¡ficos":8700,"Ġhel":8701,"Ġabriu":8702,"metragem":8703,"Ġvideoclipe":8704,"Ġmoviment":8705,"Ġu":8706,"Ġ55":8707,"Ġcontar":8708,"Ã´mica":8709,"ĠManch":8710,"Ġindependentes":8711,"Ġtratar":8712,"ĠJÃºlio":8713,"ĠLive":8714,"Ġapresentando":8715,"Ġcriados":8716,"Don":8717,"âĢĭ":8718,"ĠCapela":8719,"ĠJerus":8720,"etrÃ³leo":8721,"tados":8722,"led":8723,"ĠCarta":8724,"soc":8725,"ÃŃnd":8726,"ĠfÃ¡brica":8727,"ĠTeixeira":8728,"utor":8729,"Ġfortemente":8730,"tim":8731,"ĠdescriÃ§Ã£o":8732,"Ġ1928":8733,"Ġtrav":8734,"ĠraÃ§a":8735,"avier":8736,"ĠEdiÃ§Ã£o":8737,"Ġaltas":8738,"Ġ75":8739,"Ġemprego":8740,"andemia":8741,"Ġresultou":8742,"Ġesteja":8743,"ĠPreto":8744,"VID":8745,"ĠParlamento":8746,"ĠMapa":8747,"ution":8748,"Ġresulta":8749,"Ġ64":8750,"ĠYe":8751,"inense":8752,"Ġsuf":8753,"ĠPira":8754,"ĠÃģlb":8755,"ĠexperiÃªncias":8756,"nch":8757,"Ġpse":8758,"Ġaspecto":8759,"ÃŃv":8760,"Ġ1931":8761,"ĠBuenos":8762,"unn":8763,"Ġposso":8764,"Ġpublicados":8765,"Ġexpul":8766,"ĠBut":8767,"ericanas":8768,"Ġpadre":8769,"adia":8770,"Ġasseg":8771,"icipais":8772,"tivas":8773,"Ġcoluna":8774,"Ġactual":8775,"ĠApenas":8776,"Ġrevolucion":8777,"onÃªs":8778,"Ġhem":8779,"Ġconhecer":8780,"portivo":8781,"Ġdissol":8782,"Ġfrota":8783,"Ġexpres":8784,"ĠMiranda":8785,"CBI":8786,"Ġdrogas":8787,"add":8788,"Ã¢nicos":8789,"Ġlojas":8790,"ĠMaca":8791,"ĠperÃŃodos":8792,"Ġchamadas":8793,"ĠconcentraÃ§Ã£o":8794,"hu":8795,"Ġrepresentar":8796,"ĠIN":8797,"clu":8798,"Ġdescendentes":8799,"Ġcens":8800,"ĠNCBI":8801,"ĠPaula":8802,"Ġplay":8803,"ÃŃfer":8804,"Ġlevado":8805,"ĠAssociation":8806,"Ġ06":8807,"Ġpinturas":8808,"Ġesporte":8809,"ĠGod":8810,"Ġpoesia":8811,"ĠUF":8812,"ĠBatista":8813,"ĠlicenÃ§a":8814,"Ġcanto":8815,"ĠinclinaÃ§Ã£o":8816,"ĠLÃŃb":8817,"Ġsolar":8818,"Ġavi":8819,"ĠConceiÃ§Ã£o":8820,"ĠdocumentÃ¡rio":8821,"ĠFrancesa":8822,"esco":8823,"Ġexistente":8824,"ĠBarbosa":8825,"omen":8826,"teros":8827,"Ġclientes":8828,"Ġhabilidades":8829,"ĠTrabalho":8830,"Å«":8831,"1997":8832,"ĠSociety":8833,"Ġinimigos":8834,"AB":8835,"En":8836,"Ġbatal":8837,"tex":8838,"Ġmatriz":8839,"Ġmam":8840,"ĠWikimedia":8841,"ĠEng":8842,"Ġbiblioteca":8843,"Ġtan":8844,"ĠDesign":8845,"aw":8846,"ĠHu":8847,"ken":8848,"Ġsudeste":8849,"avera":8850,"Î·":8851,"Ã¡ut":8852,"cast":8853,"Å¡":8854,"ĠveÃŃculo":8855,"Ġcadeia":8856,"Ġviria":8857,"Ã«":8858,"Bo":8859,"xual":8860,"hl":8861,"Ġutilizadas":8862,"Ġexatamente":8863,"ividades":8864,"ĠMate":8865,"feminino":8866,"Ġpacientes":8867,"à¸":8868,"onder":8869,"Ġcumpr":8870,"jÃ£o":8871,"Ġinstru":8872,"Ġsignificados":8873,"ĠServiÃ§o":8874,"Ġnoroeste":8875,"Ġconheceu":8876,"ext":8877,"Ġposicion":8878,"ĠlanÃ§ar":8879,"Ġelet":8880,"Ġderru":8881,"ĠFacility":8882,"Ġoriental":8883,"rinho":8884,"ÃŃmetros":8885,"ĠCup":8886,"ĠMuitas":8887,"Ġdista":8888,"Ġprotagonista":8889,"Ġcatal":8890,"ĠdaÃŃ":8891,"Ã³x":8892,"pont":8893,"Ġdesempenh":8894,"Ġgrega":8895,"ĠKong":8896,"Ġtocar":8897,"lado":8898,"âĢľ":8899,"ebook":8900,"Ã¡vio":8901,"Ġface":8902,"ĠVin":8903,"Ġlivres":8904,"Ġæ":8905,"ĠArn":8906,"Ġcrescente":8907,"ĠÃºtil":8908,"ĠStreet":8909,"ĠorientaÃ§Ã£o":8910,"ĠCanÃ§Ã£o":8911,"ĠXIII":8912,"ĠMestre":8913,"ĠLus":8914,"here":8915,"ĠCircuito":8916,"junto":8917,"Ġguitarrista":8918,"ĠSag":8919,"Ġhomenage":8920,"Ġsorte":8921,"edas":8922,"pero":8923,"Ġaparecer":8924,"Ġlou":8925,"ĠJeff":8926,"Ġassistente":8927,"ĠcientÃŃfico":8928,"Ġopt":8929,"ĠMicros":8930,"Ãªmica":8931,"Ġcrimin":8932,"ĠComunidade":8933,"ĠclÃŃn":8934,"Ġgerais":8935,"ĠFilosofia":8936,"aneamente":8937,"Ġprejud":8938,"Ġ1926":8939,"ĠFelipe":8940,"Ġ1912":8941,"ĠKu":8942,"ĠtransiÃ§Ã£o":8943,"Ġexistir":8944,"ĠKarl":8945,"atual":8946,"ĠincÃªn":8947,"ĠdÃ©cimo":8948,"olar":8949,"Ġdecide":8950,"Ġmargens":8951,"Ġcarb":8952,"Ġtomada":8953,"Ġplural":8954,"orrente":8955,"ĠParaÃŃba":8956,"Ġsalv":8957,"Ã¢ncer":8958,"ĠcerimÃ´nia":8959,"ĠTak":8960,"Ġjuiz":8961,"uas":8962,"enÃ§Ãµes":8963,"ĠTav":8964,"Ġadmit":8965,"ĠGuer":8966,"Ġalternativa":8967,"ĠgravaÃ§Ãµes":8968,"ĠexibiÃ§Ã£o":8969,"ĠalteraÃ§Ã£o":8970,"Ġinstrumento":8971,"Ġdificuldade":8972,"Ġdividida":8973,"ĠPierre":8974,"Ġ1924":8975,"Ãªut":8976,"Ġtrouxe":8977,"estes":8978,"ĠKan":8979,"ĠdecisÃµes":8980,"Ġpolicial":8981,"ĠLondon":8982,"ĠMano":8983,"Ġfabric":8984,"Ġaltamente":8985,"Ãºng":8986,"Ġreferir":8987,"ĠcaÃ§a":8988,"ĠMos":8989,"Ġmente":8990,"ĠlanÃ§a":8991,"RJ":8992,"ĠBota":8993,"ÃŃvia":8994,"ĠImperador":8995,"Ã©ricas":8996,"ĠInstit":8997,"Ġenvolvendo":8998,"Ġatravess":8999,"ĠAlexander":9000,"Ġmedo":9001,"Ġjulgamento":9002,"Ġespiritual":9003,"Ġpreto":9004,"ĠnotÃ¡vel":9005,"Ġcomet":9006,"ĠapariÃ§Ã£o":9007,"Ġinteressante":9008,"ĠDiego":9009,"Ġlateral":9010,"uvenil":9011,"ĠSteve":9012,"Ġconfer":9013,"ĠComitÃª":9014,"Ġportal":9015,"Ġavis":9016,"ĠBarra":9017,"Ġriqu":9018,"ĠGost":9019,"post":9020,"Ġderrotou":9021,"ÃŃbrio":9022,"iner":9023,"Ġanf":9024,"ĠintervenÃ§Ã£o":9025,"Ġacel":9026,"Ġaparentemente":9027,"Ġsucessor":9028,"ĠdiÃ¢metro":9029,"ĠmÃ©dicos":9030,"ĠvariÃ¡vel":9031,"ĠBraz":9032,"Ġnerv":9033,"ĠGÃªn":9034,"Ġprofessora":9035,"Ġ44":9036,"ĠÃģlv":9037,"ĠNik":9038,"ĠAct":9039,"ĠTeresa":9040,"IP":9041,"Ġsaud":9042,"avi":9043,".;":9044,"ĠOh":9045,"ĠCanal":9046,"Ã¡culos":9047,"dent":9048,"iaram":9049,"Ġinterpretou":9050,"Ġprobabilidade":9051,"ĠJam":9052,"ĠIsland":9053,"yll":9054,"itivamente":9055,"ĠSÃ©culo":9056,"unk":9057,"ĠRepresent":9058,"ĠPC":9059,"Ġesclar":9060,"endente":9061,"Ġintegral":9062,"ĠTomÃ©":9063,"ĠBernard":9064,"Ġroupas":9065,"ĠUEFA":9066,"Ãĩ":9067,"Ġline":9068,"Ġportas":9069,"ĠMaranhÃ£o":9070,"ĠGet":9071,"ĠOff":9072,"Ġdeterminada":9073,"ĠcristÃ£":9074,"ĠMoscou":9075,"ĠRepublic":9076,"mi":9077,"ĠapresentaÃ§Ãµes":9078,"Ġperformance":9079,"ĠvÃŃdeos":9080,"ĠÃ³rbita":9081,"ĠJerusalÃ©m":9082,"Ġenredo":9083,"fica":9084,"essÃµes":9085,"ble":9086,"Ġ46":9087,"SO":9088,"ĠHay":9089,"rÃ©ia":9090,"Ġambiental":9091,"Ġple":9092,"Ġdeveriam":9093,"sche":9094,"ĠDio":9095,"Ġran":9096,"unh":9097,"1996":9098,"ĠpublicaÃ§Ãµes":9099,"Ġreiv":9100,"ĠQuad":9101,"ocos":9102,"ournal":9103,"yle":9104,"ĠVinc":9105,"ĠFormaÃ§Ã£o":9106,"Ġ43":9107,"sel":9108,"Ġdurou":9109,"ĠSir":9110,"Ġexplic":9111,"Ġprivada":9112,"Tube":9113,"ĠSun":9114,"ĠLug":9115,"./":9116,"Im":9117,"Ġcura":9118,"ĠsÃ³l":9119,"ivar":9120,"Ġpropostas":9121,"far":9122,"contin":9123,"Ġdistingu":9124,"Ġsatisf":9125,"egas":9126,"Ġsug":9127,"ĠGard":9128,"Ġexer":9129,"Ġocorrido":9130,"ĠMoÃ§amb":9131,"Ġdefinida":9132,"ĠInicialmente":9133,"Ġreceberam":9134,"ĠForma":9135,"idata":9136,"Ġ52":9137,"Ġnormas":9138,"Ġmode":9139,"ĠOxford":9140,"Ġderrotado":9141,"ĠFound":9142,"Ã¢mico":9143,"ĠLivre":9144,"estaÃ§Ã£o":9145,"ĠVat":9146,"enes":9147,"ĠAP":9148,"Ġcentenas":9149,"ĠCapital":9150,"ĠHungria":9151,"Ġdefinir":9152,"Ġrestantes":9153,"istos":9154,"Ãªncio":9155,"Ġrecebendo":9156,"ÏĢ":9157,"Ġincon":9158,"Ġofens":9159,"Ġretrat":9160,"Ã±a":9161,"oros":9162,"Ġinteiro":9163,"ĠConserv":9164,"Ġloja":9165,"Ġzonas":9166,"ĠÃŃndice":9167,"mel":9168,"Ġsudoeste":9169,"upi":9170,"ĠÃ³leo":9171,"ĠhipÃ³tese":9172,"Ã©us":9173,"ĠFÃ¡b":9174,"Ġcalc":9175,"Ġconfront":9176,"ĠInglÃªs":9177,"ĠameaÃ§a":9178,"ĠJohann":9179,"Ġfornecer":9180,"Ġerrado":9181,"rate":9182,"Ġposteriores":9183,"2018":9184,"Ġfunciona":9185,"Ġvantagem":9186,"iff":9187,"ĠYoung":9188,"ME":9189,"ĠprovÃŃncias":9190,"Ã³lico":9191,"imental":9192,"ĠCarn":9193,"Ġatos":9194,"ĠEspanh":9195,"ĠeconÃ³m":9196,"Ġrecomend":9197,"apt":9198,"ĠUsu":9199,"Ġarrec":9200,"ĠÃŃndios":9201,"Ġfura":9202,"ĠanÃºnc":9203,"Ġpopularidade":9204,"ĠBernardo":9205,"ittle":9206,"ĠaÃ©rea":9207,"Ġpagar":9208,"Ġescultura":9209,"arl":9210,"ĠTit":9211,"Ãµem":9212,"Ġexcent":9213,"Ġcho":9214,"Ġreligiosas":9215,"irou":9216,"Ġenterra":9217,"Ġlevaram":9218,"arque":9219,"Ġrecurso":9220,"Ġdescobre":9221,"ĠresoluÃ§Ã£o":9222,"ĠLeop":9223,"reiras":9224,"Ġrig":9225,"Ġsp":9226,"Ġ1927":9227,"Î¼":9228,"ĠTaylor":9229,"Ġrestante":9230,"Ġevang":9231,"Ġparticiparam":9232,"Ġfis":9233,"Ġperigos":9234,"Ġeleitos":9235,"Ġaparecem":9236,"Ġdescobriu":9237,"diÃ§Ãµes":9238,"ied":9239,"Ġaflu":9240,"Ġrenunc":9241,"ĠObserv":9242,"Ġcostum":9243,"idel":9244,"Ġestaduais":9245,"Ġagentes":9246,"ĠpontuaÃ§Ã£o":9247,"Ġpermanente":9248,"Ġproduzidos":9249,"Ġrelacionado":9250,"ĠGiov":9251,"ĠaplicaÃ§Ãµes":9252,"ĠBBC":9253,"Ġacord":9254,"Ġcorreto":9255,"ĠPadre":9256,"Ġvelha":9257,"ĠmissÃµes":9258,"Ġmortes":9259,"ĠpopulaÃ§Ãµes":9260,"Ġfabrica":9261,"ĠBotafogo":9262,"unst":9263,"Ġatras":9264,"Ġadultos":9265,"Ġinverno":9266,"xx":9267,"eri":9268,"egro":9269,"Ġmotores":9270,"Col":9271,"ĠimpÃ©rio":9272,"Para":9273,"Ġtido":9274,"Ġ41":9275,"Ġligado":9276,"hist":9277,"ĠnaÃ§Ã£o":9278,"Ġtroc":9279,"Ġconseguiram":9280,"Ġocorrem":9281,"ĠSor":9282,"ĠClubes":9283,"elle":9284,"imarÃ£es":9285,"ĠTony":9286,"heu":9287,"ĠvÃŃtima":9288,"rÃ©sc":9289,"Ġvolumes":9290,"chen":9291,"Ġabordagem":9292,"ÃŃticas":9293,"Ġafirmando":9294,"ĠHolanda":9295,"ÃŃnia":9296,"Ġsuic":9297,"Ġaltos":9298,"ĠSm":9299,"ĠAj":9300,"ĠVar":9301,"Ġarquiteto":9302,"Ġapaixon":9303,"Ġsuperiores":9304,"ĠGall":9305,"Ġ08":9306,"Ġcolegas":9307,"Ġaprec":9308,"2019":9309,"Ġcargos":9310,"panhas":9311,"reu":9312,"ĠHard":9313,"Ġmensagens":9314,"Ġcolonial":9315,"Ġadicionais":9316,"ĠForte":9317,"Ġficam":9318,"Ġexcentricidade":9319,"ĠRamos":9320,"Ġnegros":9321,"ĠOriginal":9322,"rust":9323,"Ġinsc":9324,"Ġinfin":9325,"estino":9326,"Ġradio":9327,"ĠProvÃŃncia":9328,"tua":9329,"ĠAud":9330,"Este":9331,"emy":9332,"ĠPela":9333,"ĠaparÃªncia":9334,"ĠBem":9335,"ĠBall":9336,"ĠBarÃ£o":9337,"Ġfotografia":9338,"Ġfases":9339,"umental":9340,"Ġergu":9341,"Ġtiver":9342,"Ġabrang":9343,"Ġempate":9344,"Ġmapa":9345,"Ġnave":9346,"erd":9347,"Ġarre":9348,"opa":9349,"ĠAfric":9350,"Ġfoc":9351,"ificadas":9352,"ĠDC":9353,"Ġcapazes":9354,"ĠBrig":9355,"Ġprision":9356,"orrentes":9357,"asco":9358,"ize":9359,"ĠXII":9360,"Ġaviso":9361,"Ġtrinta":9362,"iat":9363,"enberg":9364,"ĠdestruiÃ§Ã£o":9365,"Ġmatar":9366,"ĠpotÃªncia":9367,"ĠEnsino":9368,"formas":9369,"Ġ1911":9370,"asa":9371,"ĠTib":9372,"acidade":9373,"Ġexternos":9374,"rome":9375,"elar":9376,"odia":9377,"ĠAmazonas":9378,"ĠCardoso":9379,"Ġviagens":9380,"Ġdedicado":9381,"ĠYouTube":9382,"ĠHans":9383,"Ġtum":9384,"ĠFred":9385,"ĠlanÃ§ados":9386,"Ġeventualmente":9387,"SC":9388,"ĠLua":9389,"Ġcorresponde":9390,"ÃŃzes":9391,"Ġcolocada":9392,"Ġcertos":9393,"ertaÃ§Ã£o":9394,"rot":9395,"Â»,":9396,"Î»":9397,"Ã§am":9398,"ĠBos":9399,"orrÃªncia":9400,"Ġcerteza":9401,"Ġreligiosos":9402,"Ġmontanhas":9403,"Ġadicional":9404,"ĠPouco":9405,"si":9406,"ĠSÃŃria":9407,"ilares":9408,"Ã³b":9409,"Ġnecessidades":9410,"rÃ³p":9411,"ĠdiscussÃµes":9412,"ĠTudo":9413,"Ã³gio":9414,"Ġemoc":9415,"ĠLula":9416,"ĠFic":9417,"Ġgrave":9418,"ĠOperaÃ§Ã£o":9419,"ĠConsidera":9420,"ulados":9421,"ĠpropÃ³sito":9422,"Ġleite":9423,"aral":9424,"viaÃ§Ã£o":9425,"ĠcontribuiÃ§Ã£o":9426,"ĠHollywood":9427,"fam":9428,"ĠFazenda":9429,"ĠFried":9430,"ĠCy":9431,"Ġfamiliares":9432,"Ġfest":9433,"itante":9434,"Ġpav":9435,"Ġdesm":9436,"Ġregress":9437,"Ġdetect":9438,"ĠPu":9439,"ipos":9440,"ĠXIV":9441,"ĠevidÃªncias":9442,"dica":9443,"ĠVargas":9444,"ĠYour":9445,"Ġbases":9446,"ĠinÃºmeras":9447,"Ġuniversidades":9448,"ĠPalmeiras":9449,"Ġbordo":9450,"Ġenfrentar":9451,"Ġneu":9452,"ĠFis":9453,"Ġ1913":9454,"Ġcomputadores":9455,"idd":9456,"Ġrequis":9457,"ĠNam":9458,"Ġfuncional":9459,"Ġdesenhos":9460,"ĠLeste":9461,"Ġ07":9462,"Îº":9463,"Ġ59":9464,"Ġabrir":9465,"Ġelevada":9466,"ĠâĢĭ":9467,"ĠSci":9468,"idou":9469,"Ġgosta":9470,"Ġalternativas":9471,"eal":9472,"Ġvivem":9473,"pan":9474,"riÃ§Ãµes":9475,"velmente":9476,"Ġgosto":9477,"Ġitens":9478,"Ġbrilh":9479,"onto":9480,"Ġetapas":9481,"ĠMÃ©dia":9482,"gueiro":9483,"Ġteriam":9484,"Ġcastelh":9485,"ĠMoÃ§ambique":9486,"ĠConhec":9487,"1995":9488,"ĠRelaÃ§Ãµes":9489,"Ġescolher":9490,"ĠciÃªncias":9491,"Ġprivil":9492,"ĠTai":9493,"ĠHistory":9494,"ĠAcred":9495,"Ġcustos":9496,"Ġpudesse":9497,"Ġsalas":9498,"Ġcanadense":9499,"Ġ1925":9500,"Ã©reo":9501,"ĠFaixas":9502,"iforme":9503,"Ġproven":9504,"Ġinaugurada":9505,"Ġbeleza":9506,"ĠvÃŃrus":9507,"veja":9508,"ĠsessÃ£o":9509,"ĠrevoluÃ§Ã£o":9510,"ĠFerra":9511,"ĠmolÃ©c":9512,"Ġcoroa":9513,"ĠIll":9514,"ĠMir":9515,"Ġress":9516,"Ġexplicar":9517,"adi":9518,"Ġtiro":9519,"ÃŃqu":9520,"gado":9521,"ĠconstelaÃ§Ã£o":9522,"Ġretornar":9523,"ĠCruzeiro":9524,"ĠElizabeth":9525,"Ġaceita":9526,"Rev":9527,"Ġnossos":9528,"Ġzero":9529,"Ġfazenda":9530,"Ã³logos":9531,"Ġaprendiz":9532,"ĠJuventude":9533,"Ġdescobrir":9534,"Ġdeterminar":9535,"Ġcapit":9536,"Ġchuv":9537,"ĠbritÃ¢nicos":9538,"ĠGovernador":9539,"ĠconservaÃ§Ã£o":9540,"ĠPost":9541,"ĠFrancÃªs":9542,"Ġdan":9543,"essas":9544,"ĠStone":9545,"ĠGuimarÃ£es":9546,"Ġdisputado":9547,"ravam":9548,"Ġatleta":9549,"vora":9550,"ĠPhilip":9551,"feita":9552,"Ġcontas":9553,"ĠLiteratura":9554,"Ã³stico":9555,"ĠLut":9556,"rons":9557,"otas":9558,"ĠKen":9559,"ĠBelÃ©m":9560,"Ġhaja":9561,"ĠAcho":9562,"Ph":9563,"Ġconhece":9564,"Ġmata":9565,"ĠdeclaraÃ§Ã£o":9566,"sub":9567,"Ã§ando":9568,"ĠMadonna":9569,"Ġ65":9570,"Ġretirar":9571,"ĠNatural":9572,"ĠIsa":9573,"Ã³pteros":9574,"ĠAbraÃ§os":9575,"Ġlargura":9576,"Bretanha":9577,"ronto":9578,"Ġsexto":9579,"ĠGama":9580,"Ġambient":9581,"Ġbloco":9582,"Ġtio":9583,"Ġsites":9584,"roz":9585,"Ġ1921":9586,"ĠPR":9587,"ĠindicaÃ§Ã£o":9588,"Ġbrancos":9589,"Ġlitoral":9590,"ĠFase":9591,"DE":9592,"Ġrevolta":9593,"Ġidioma":9594,"Ġfator":9595,"ĠcÃ´nsul":9596,"ĠCart":9597,"Ġembaix":9598,"Ġsintomas":9599,"Ã³quio":9600,"hol":9601,"endÃªncia":9602,"ĠÃ¡l":9603,"Ġ51":9604,"ĠopiniÃµes":9605,"izadores":9606,"Ġrecusou":9607,"ĠSystem":9608,"ocrata":9609,"ĠdimensÃµes":9610,"ĠBis":9611,"ĠestrÃ©ia":9612,"lot":9613,"Ġenvolve":9614,"Ġpain":9615,"ÃŃnios":9616,"Ã´mico":9617,"ĠLog":9618,"ecom":9619,"Ġestabelecimento":9620,"ĠfenÃ´meno":9621,"Ġajust":9622,"mica":9623,"Ġencom":9624,"ĠconsciÃªncia":9625,"ĠMÃ¡r":9626,"Ġharm":9627,"jac":9628,"Ġnegro":9629,"ifa":9630,"Ġpouca":9631,"MP":9632,"ĠNi":9633,"ĠNeto":9634,"ĠPesquisa":9635,"Ma":9636,"Ġcamada":9637,"ĠmÃ¡quinas":9638,"Ġaliados":9639,"ĠCax":9640,"Ġdesper":9641,"ligaÃ§Ã£o":9642,"Ġ1900":9643,"ĠTon":9644,"redores":9645,"Ġfilos":9646,"hat":9647,"ĠLoc":9648,"ĠCov":9649,"Ġperdendo":9650,"Ġregionais":9651,"ĠTob":9652,"Ġcertas":9653,"Ġintitulada":9654,"ĠBrad":9655,"Bar":9656,"Ġcorrespondente":9657,"Ġdestaca":9658,"Ġiniciar":9659,"Ġferramenta":9660,"ĠExecut":9661,"fos":9662,"ĠDor":9663,"Ġpeixe":9664,"Ġaluno":9665,"ĠLas":9666,"Ġparedes":9667,"ĠMicrosoft":9668,"ĠclÃ¡ssica":9669,"Sal":9670,"Ġprojecto":9671,"edy":9672,"atem":9673,"ĠÃģrea":9674,"anni":9675,"inando":9676,"Ġmantendo":9677,"idaÃ§Ã£o":9678,"ritas":9679,"Ġdefic":9680,"ĠLocalizaÃ§Ã£o":9681,"Ġbrinc":9682,"Star":9683,"ĠPav":9684,"turas":9685,"1992":9686,"ĠHelena":9687,"raqu":9688,"ĠNum":9689,"ĠColumb":9690,"ĠdesignaÃ§Ã£o":9691,"ĠestratÃ©gia":9692,"ĠVermelho":9693,"piraÃ§Ã£o":9694,"Ġpagamento":9695,"Ġhidrog":9696,"more":9697,"Ġpensar":9698,"ĠPublic":9699,"ĠBase":9700,"Ġgravada":9701,"Ġurbano":9702,"ĠCON":9703,"ĠLewis":9704,"enciado":9705,"Ġmuda":9706,"cool":9707,"viado":9708,"Ġeleitoral":9709,"Ġmontanha":9710,"impÃŃ":9711,"ĠdÃŃ":9712,"Ġartific":9713,"ĠGarcia":9714,"Ã©e":9715,"Ġinterno":9716,"1994":9717,"Ġfirm":9718,"Ġsurpre":9719,"Ġestudante":9720,"ĠdirecÃ§Ã£o":9721,"aki":9722,"ĠForÃ§as":9723,"Ġconsiderar":9724,"ĠLegislativa":9725,"Ġdisputar":9726,"ĠSamuel":9727,"ĠJunior":9728,"estar":9729,"ĠSÃ©rvia":9730,"ĠâĢĭâĢĭ":9731,"ĠVIII":9732,"cept":9733,"fel":9734,"Ã´nias":9735,"Ġestabelecido":9736,"ĠCB":9737,"Ġbaixas":9738,"ĠKir":9739,"ĠpetrÃ³leo":9740,"Ġlutar":9741,"Geral":9742,"Ġauxiliar":9743,"Ġmental":9744,"urno":9745,"Ã©rsia":9746,"Ġgovernos":9747,"Ġmarcas":9748,"ĠViena":9749,"Ġpior":9750,"ĠCamar":9751,"reat":9752,"ourt":9753,"Ġandar":9754,"ĠMess":9755,"Ġreduzir":9756,"ĠHitler":9757,"ĠpredefiniÃ§Ã£o":9758,"itudes":9759,"ĠBrian":9760,"ĠAlice":9761,"ĠinscriÃ§Ã£o":9762,"ĠHugo":9763,"Cor":9764,"ä¸":9765,"Ġdono":9766,"ĠvariÃ¡veis":9767,"Ġ1923":9768,"ĠCE":9769,"Ã¡pol":9770,"Ã¢metros":9771,"Ġtrazer":9772,"ĠfÃ³rmula":9773,"arias":9774,"ĠVelho":9775,"ĠrÃ©":9776,"ĠHarris":9777,"Ġprogress":9778,"ĠtendÃªncia":9779,"Ġcontam":9780,"ĠCOVID":9781,"Ġpassam":9782,"Ġcientistas":9783,"Ġmundiais":9784,"ĠSpe":9785,"Ġritmo":9786,"ĠDiocese":9787,"ĠGroup":9788,"Ã³rida":9789,"Ã³pio":9790,"Ġirreg":9791,"ĠFootball":9792,"kh":9793,"Ġcitado":9794,"Ġfib":9795,"ĠPlano":9796,"Geografia":9797,"ĠDuarte":9798,"ĠâĨĴ":9799,"Ġperspectiva":9800,"wart":9801,"Ġcomprov":9802,"Ġcompreend":9803,"Sa":9804,"Ġ()":9805,"Ġrend":9806,"Ġconquistar":9807,"ĠNar":9808,"Ġ=>":9809,"ĠEsqu":9810,"My":9811,"Ġinimigo":9812,"Ġmoda":9813,"ĠBranca":9814,"rativos":9815,"Ġmotiv":9816,"fia":9817,"Ġras":9818,"Ġargumento":9819,"Ġadquiriu":9820,"ĠÃļlt":9821,"rÃ©scimo":9822,"ĠegÃŃp":9823,"ĠTorres":9824,"ĠMeu":9825,"ĠRan":9826,"Ġabast":9827,"Ġcinemat":9828,"ĠHotel":9829,"ĠBert":9830,"ĠcÃ¢m":9831,"cepÃ§Ã£o":9832,"ĠRelig":9833,"Ġjoga":9834,"ĠVerbo":9835,"Ġconsideradas":9836,"ĠcirculaÃ§Ã£o":9837,"Ġfaculdade":9838,"ĠNegro":9839,"ĠPessoa":9840,"iveram":9841,"ĠproprietÃ¡rio":9842,"ĠGin":9843,"Ġestaria":9844,"Ġrevela":9845,"ĠfÃ³s":9846,"Ġparede":9847,"ertido":9848,"Ġturismo":9849,"Ġhabilidade":9850,"Ġdescul":9851,"Ġsupl":9852,"ulÃ¡rio":9853,"ouri":9854,"etaÃ§Ã£o":9855,"Ġconceb":9856,"ĠinteligÃªncia":9857,"ĠArch":9858,")\",":9859,"intendo":9860,"ĠcÃ¢ncer":9861,"ĠLight":9862,"Ġreis":9863,"estina":9864,"Ġocorreram":9865,"ĠseparaÃ§Ã£o":9866,"Ġestatuto":9867,"ĠcÃ©u":9868,"Ġfasc":9869,"oy":9870,"Ġdeputados":9871,"ialmente":9872,"Ġderam":9873,"Ġcub":9874,"erca":9875,"Ġoper":9876,"ĠHong":9877,"Ġmedieval":9878,"rÃ´n":9879,"rob":9880,"Ġmagnitude":9881,"ĠRadio":9882,"mal":9883,"oridade":9884,"Ġfachada":9885,"eman":9886,"mod":9887,"Ã´nios":9888,"Ġpermanece":9889,"Ġdigitais":9890,"ĠFez":9891,"ĠDeb":9892,"Ġdirigiu":9893,"ĠSÃ©":9894,"ĠCongo":9895,"ĠcampeÃ£":9896,"ĠMunicÃŃpio":9897,"Ġlus":9898,"Ġtermina":9899,"Ġteorias":9900,"ĠSecretÃ¡rio":9901,"Ġcausou":9902,"ĠSimon":9903,"Ġrepresentou":9904,"ĠProp":9905,"Ġconfirmou":9906,"ĠPonta":9907,"Ġgin":9908,"cript":9909,"app":9910,"Ġcardeal":9911,"Ġiniciais":9912,"Ġbur":9913,"Ġassociados":9914,"Ġmanip":9915,"ĠTurismo":9916,"Ġenvolvidos":9917,"adrez":9918,"Ġcausar":9919,"Ġfeliz":9920,"ches":9921,"Ġhotel":9922,"Ġcomumente":9923,".),":9924,"Ġnao":9925,"idada":9926,"Ġ1915":9927,"ĠrecuperaÃ§Ã£o":9928,"Ġrebaix":9929,"Ġsubtrop":9930,"ĠGostaria":9931,"Ġcolocados":9932,"ĠidentificaÃ§Ã£o":9933,"Ġreferido":9934,"ĠPublish":9935,"Ġtera":9936,"Ãºrb":9937,"ĠtransformaÃ§Ã£o":9938,"ĠJacob":9939,"Ġnuclear":9940,"ĠRou":9941,"Ġcasada":9942,"ĠEspa":9943,"Ġabund":9944,"Ġintermed":9945,"Ġsig":9946,"ĠClar":9947,"Ġtarefa":9948,"Ġcompostos":9949,"Ab":9950,"PT":9951,"Ġdoce":9952,"Ġmodernos":9953,"ĠVietn":9954,"Ġmi":9955,"Ġtelenovela":9956,"gÃªn":9957,"oo":9958,"prÃ©st":9959,"ocrat":9960,"Ġsegura":9961,"ĠagÃªncia":9962,"espÃ©c":9963,"Ġcujos":9964,"ĠassistÃªncia":9965,"SA":9966,"itÃ³rio":9967,"emplos":9968,"ĠAdol":9969,"Ġdesv":9970,"Ġprotesta":9971,"ĠprÃ³ximas":9972,"Ġperfil":9973,"ilhos":9974,"ĠMam":9975,"ĠBest":9976,"ĠÃ©tn":9977,"Ġconter":9978,"ĠOceano":9979,"wer":9980,"ĠAlta":9981,"ĠAnth":9982,"Ġgraus":9983,"ĠconfianÃ§a":9984,"gred":9985,"Ġorn":9986,"Ġargumentos":9987,"ĠconstituiÃ§Ã£o":9988,"iantes":9989,"Ġalgorit":9990,"Ġleve":9991,"pson":9992,"Ã³dulo":9993,"ree":9994,"ĠComics":9995,"ĠnegÃ³cio":9996,"Ã¡gua":9997,"ĠDO":9998,"Ġinativa":9999,"oston":10000,"Ġitalianos":10001,"ĠEspera":10002,"ĠSar":10003,"Ãºjo":10004,"Ġdestacam":10005,"Ġatmosfera":10006,"osh":10007,"ĠLP":10008,"ĠRoger":10009,"ĠextinÃ§Ã£o":10010,"Ġcircuito":10011,"Ġcelular":10012,"Melhor":10013,"ĠCN":10014,"ĠCord":10015,"Ġaceitar":10016,"Ġmural":10017,"Ġperdido":10018,"ĠexercÃŃcio":10019,"campeÃ£o":10020,"esses":10021,"ĠnotÃ¡veis":10022,"ĠAlt":10023,"Ġculto":10024,"ĠcatÃ³lica":10025,"Ġsucedido":10026,"Ġflex":10027,"Ġ54":10028,"Ñĥ":10029,"Ġconcluiu":10030,"Ġdispositivos":10031,"ote":10032,"ĠComunicaÃ§Ã£o":10033,"vid":10034,"ĠinfluÃªncias":10035,"Esc":10036,"day":10037,"ĠvocÃªs":10038,"ĠintegraÃ§Ã£o":10039,"Ġeixo":10040,"ÃŃlica":10041,"ĠBair":10042,"rana":10043,"ĠMarques":10044,"cor":10045,"Ġdepende":10046,"rey":10047,"ĠRecebeu":10048,"ĠBulg":10049,"ĠRol":10050,"ĠStudios":10051,"ĠIsl":10052,"ĠLibertadores":10053,"ĠsÃŃ":10054,"Ġmando":10055,"ĠMario":10056,"ĠConferÃªncia":10057,"ificador":10058,"Ġtrama":10059,"Ġpropaganda":10060,"Ġpasse":10061,"Ġvento":10062,"ĠprovÃ¡vel":10063,"ĠDeputados":10064,"idge":10065,"ĠErn":10066,"ebre":10067,"achar":10068,"ĠEast":10069,"Ġproemin":10070,"obra":10071,"log":10072,"ĠHero":10073,"Ġsubstituir":10074,"Is":10075,"ilho":10076,"Ġestilos":10077,"ĠExiste":10078,"Ġimpedir":10079,"ĠFilipinas":10080,"Pl":10081,"play":10082,"ĠYan":10083,"ĠDireitos":10084,"ĠNetwork":10085,"alhÃ£es":10086,"Ġaquis":10087,"Ġilum":10088,"arth":10089,"Ã¡sia":10090,"ĠAraÃºjo":10091,"Ġbi":10092,"Ġabord":10093,"ĠenciclopÃ©dia":10094,"Ïī":10095,"itaram":10096,"ĠFlÃ³rida":10097,"Ġenfrentou":10098,"Ġrecomenda":10099,"kov":10100,"Ġidentificar":10101,"Ġassociada":10102,"Ġmostram":10103,"ĠNoite":10104,"ĠWikidata":10105,"Ġpandemia":10106,"ĠMand":10107,"Ã³rter":10108,"Ġcandidatura":10109,"ĠQuatro":10110,"Ġmetropolit":10111,"Ġpeixes":10112,"ĠmarÃŃt":10113,"Ġ250":10114,"Ġmorrer":10115,"Ġ1916":10116,"ĠIraque":10117,"arde":10118,"romo":10119,"Ġincap":10120,"ĠcombinaÃ§Ã£o":10121,"ĠComunista":10122,"urados":10123,"manda":10124,"Ġpesquisadores":10125,"amas":10126,"ĠWell":10127,"ĠtÃ©cnicos":10128,"ĠSpecies":10129,"Ġterminar":10130,"Ġmorta":10131,"Ġfundadores":10132,"ĠRenato":10133,"Ġpref":10134,"1990":10135,"oldo":10136,"Ġnotor":10137,"dutor":10138,"ĠMuito":10139,"Ġfornece":10140,"Ġpergunta":10141,"DO":10142,"illo":10143,"ĠMira":10144,"Ġvinc":10145,"Ġestrelado":10146,"ilv":10147,"ferm":10148,"ĠFacebook":10149,"eiÃ§Ãµes":10150,"ĠÃ³t":10151,"ĠRuss":10152,"ĠcalendÃ¡rio":10153,"Ġclaramente":10154,"Ġabst":10155,"Ġbenefic":10156,"Ġgab":10157,"manos":10158,"Ġcolega":10159,"ĠAzevedo":10160,"Ġganha":10161,"Ġinterpretada":10162,"tures":10163,"ĠConstantinopla":10164,"Ġnele":10165,"ĠUl":10166,"ĠAnna":10167,"Ġacontecimentos":10168,"Ġante":10169,"ĠCampinas":10170,"ĠNAS":10171,"ĠClara":10172,"ĠBrook":10173,"ĠNintendo":10174,"Ġbras":10175,"ĠZÃ©":10176,"ĠPrata":10177,"pha":10178,"isconde":10179,"Ġsoci":10180,"ĠBoy":10181,"Ġtese":10182,"Ġexplica":10183,"inaÃ§Ãµes":10184,"identais":10185,"iscos":10186,"ĠMateus":10187,"rafos":10188,"Cap":10189,"ĠCou":10190,"ribuiÃ§Ã£o":10191,"ĠnotÃŃcia":10192,"iko":10193,"viamente":10194,"Portal":10195,"ĠPetro":10196,"Ġapost":10197,"Ã¢nicas":10198,"ĠespecÃŃficos":10199,"atÃ©":10200,"Ġprecisam":10201,"brasil":10202,"Ġestamos":10203,"Ġcompat":10204,"New":10205,"Ġlhes":10206,"ĠMud":10207,"Ġsuport":10208,"enciamento":10209,"Ġ56":10210,"ĠEditor":10211,"itÃ©":10212,"Ġclassificou":10213,"Ġrealiza":10214,"Ġextremo":10215,"Ġdemo":10216,"ĠVilla":10217,"ĠTermin":10218,"ĠBerg":10219,"omot":10220,"Ġconcordo":10221,"ĠJenn":10222,"Ġdesenvolvida":10223,"Ġstatus":10224,"rosa":10225,"ĠequilÃŃbrio":10226,"Ġfiscal":10227,"Ġencarreg":10228,"ĠFoto":10229,"Ġorigens":10230,"Ġ1908":10231,"ĠraÃŃzes":10232,"Ġreporta":10233,"ĠLac":10234,"ĠIX":10235,"Ġcompar":10236,"Ġtentativas":10237,"ĠMonteiro":10238,"PE":10239,"1993":10240,"ĠchÃ£o":10241,"Ġsucessos":10242,"Ġonze":10243,"Ġcliente":10244,"ĠLux":10245,"Ġdign":10246,"able":10247,"Ġaprender":10248,"ĠInvest":10249,"ĠVitor":10250,"Ġapart":10251,"Ġapropri":10252,"Ġintegrante":10253,"ĠconstituÃŃdo":10254,"Ġextinta":10255,"Ġoperacional":10256,"ĠPio":10257,"ĠNapole":10258,"Ġquente":10259,"olos":10260,"ĠBir":10261,"ĠRui":10262,"ĠnaÃ§Ãµes":10263,"cin":10264,"aris":10265,"igan":10266,"rie":10267,"jetÃ³ria":10268,"Ġconstituem":10269,"Ġmecanismo":10270,"ifÃŃcio":10271,"guesias":10272,"Ġrevelado":10273,"Ġbru":10274,"ĠTeve":10275,"Ġrestos":10276,"cios":10277,"inst":10278,"ĠBrand":10279,"ĠCastela":10280,"row":10281,"ĠCole":10282,"UL":10283,"Ġbast":10284,"omos":10285,"Ġapoiar":10286,"ĠTemporada":10287,"ĠGas":10288,"ĠKon":10289,"ĠnecessÃ¡rios":10290,"Ġhistoriadores":10291,"DF":10292,"icon":10293,"ortes":10294,"ĠSof":10295,"ganÃ§a":10296,"Ġculturas":10297,"iras":10298,"lah":10299,"ĠFilmografia":10300,"ĠfilÃ³sofo":10301,"ulaÃ§Ãµes":10302,"ĠvariaÃ§Ã£o":10303,"Ġfranquia":10304,"ĠGustavo":10305,"umi":10306,"rindo":10307,"ocas":10308,"Ġpren":10309,"Ġfamosos":10310,"ĠOrch":10311,"ĠcompreensÃ£o":10312,"UR":10313,"cep":10314,"renÃ§o":10315,"Ġdesignado":10316,"Ġpresos":10317,"ĠÃªx":10318,"ĠInic":10319,"ĠRobin":10320,"ĠComÃ©rcio":10321,"Ġrepresentam":10322,"ĠMoreira":10323,"rativo":10324,"Ġia":10325,"ĠCarlo":10326,"ĠBolÃŃvia":10327,"ĠBispo":10328,"ĠGood":10329,"ĠdepressÃ£o":10330,"Ã³rgia":10331,"Ġfama":10332,"ĠdivisÃµes":10333,"wikipedia":10334,"ĠBet":10335,"utu":10336,"ĠescritÃ³rio":10337,"Ãªmeas":10338,"ĠsubstituiÃ§Ã£o":10339,"ĠDentre":10340,"ĠConfederaÃ§Ã£o":10341,"ĠWrestling":10342,"Ġ53":10343,"ĠTraduÃ§Ãµes":10344,"Ã¨re":10345,"Ãºp":10346,"Ġacervo":10347,"Ġdedicada":10348,"Ġcavalo":10349,"ĠHunt":10350,"Ġhumanidade":10351,"ĠPad":10352,"duaÃ§Ã£o":10353,"ĠAR":10354,"igaÃ§Ã£o":10355,"ĠUR":10356,"Ġdaquela":10357,"Ġentidades":10358,"Ġisl":10359,"ĠAtlet":10360,"Ġfundos":10361,"Ġalma":10362,"Ġconcerto":10363,"ĠSupremo":10364,"ugh":10365,"Ġcasar":10366,"Ġgravar":10367,"Ġvias":10368,"Ã¡sio":10369,"ĠFora":10370,"ĠChart":10371,"Ġdispositivo":10372,"ection":10373,"ĠCambridge":10374,"Ġcarbono":10375,"missÃ£o":10376,"Ġgr":10377,"erada":10378,"ĠClark":10379,"Ġrele":10380,"Ġeurop":10381,"daÃ§Ã£o":10382,"Ġincluiu":10383,"ĠaÃ§Ãºcar":10384,"ĠAlfredo":10385,"Ġtort":10386,"roduÃ§Ã£o":10387,"Ġpovoado":10388,"Nova":10389,"ĠPovo":10390,"ĠBak":10391,"ÃŃlico":10392,"ĠEstou":10393,"Ġasteroides":10394,"ĠFord":10395,"Ġanualmente":10396,"ĠÃ¢ng":10397,"Ent":10398,"cent":10399,"Ġsalvar":10400,"ĠNuno":10401,"ĠUsuÃ¡rio":10402,"ĠAtenas":10403,"hip":10404,"ĠHaw":10405,"ĠTu":10406,"ĠST":10407,"plic":10408,"Ġassinado":10409,"ĠAL":10410,"Ġescreve":10411,"Ġovos":10412,"Ġ85":10413,"ĠmÃ¡g":10414,"ressÃ£o":10415,"Ã¡rb":10416,"liv":10417,"ĠMix":10418,"Ġsugere":10419,"ĠAsh":10420,"ĠAlan":10421,"ĠAzul":10422,"ĠeletrÃ´nico":10423,"Ġrecuperar":10424,"equ":10425,"ĠFÃŃsica":10426,"ĠExpress":10427,"oney":10428,"Ġsant":10429,"ĠRick":10430,"Ġmodalidade":10431,"Ġmunicipais":10432,"ĠSaud":10433,"ĠUA":10434,"Ġmanusc":10435,"Ġcos":10436,"espera":10437,"Ġvent":10438,"Ġescritas":10439,"ĠMeio":10440,"Ġimpression":10441,"Station":10442,"ĠSBT":10443,"Ġressal":10444,"Ġconvite":10445,"Ġtirar":10446,"Ġrelevante":10447,"ĠMaia":10448,"ĠsucessÃ£o":10449,"roco":10450,"ĠFons":10451,"agon":10452,"Ġterminando":10453,"zar":10454,"Ġmesa":10455,"ĠLen":10456,"2020":10457,"ĠdescendÃªncia":10458,"Ġcausas":10459,"NO":10460,"Ġ%":10461,"Ã©mica":10462,"ales":10463,"Ġvermelha":10464,"Ġconjuntos":10465,"Ġsubord":10466,"ĠManoel":10467,"Ġcontribuir":10468,"copa":10469,"Ġlatino":10470,"ĠCount":10471,"ĠABC":10472,"Ġmajor":10473,"ĠFight":10474,"ĠInformaÃ§Ã£o":10475,"Ġagress":10476,"eirista":10477,"Ġprofundidade":10478,"Ġvamos":10479,"adoria":10480,"ĠArtigo":10481,"egan":10482,"Ã³nimo":10483,"Ġsurge":10484,"ĠLeonardo":10485,"ĠcorrupÃ§Ã£o":10486,"ĠOrqu":10487,"Ġganhando":10488,"Super":10489,"ĠBomb":10490,"Ġdefende":10491,"ĠaviÃµes":10492,"ĠDream":10493,"Ġconcep":10494,"ĠFront":10495,"ĠparticipaÃ§Ãµes":10496,"Ver":10497,"ĠOd":10498,"rs":10499,"ĠViol":10500,"Ġfilhas":10501,"Ġconvidados":10502,"Ġpilotos":10503,"evin":10504,"IG":10505,"ĠRE":10506,"ĠRTP":10507,"ĠWolf":10508,"ĠNascimento":10509,"ilde":10510,"Ġlux":10511,"Ġdirecion":10512,"Ġcontrolar":10513,"jÃ¡":10514,"Ã³ide":10515,"Ġrelatos":10516,"rÃ¡ficas":10517,"ox":10518,"Ġacontecer":10519,"glas":10520,"idiano":10521,"elheiro":10522,"Ġverificar":10523,"ĠincluÃŃdo":10524,"Ġfinanceira":10525,"plas":10526,"Ã¡rqu":10527,"ĠAqui":10528,"nascido":10529,"Ġderivados":10530,"ĠIndependÃªncia":10531,"Ġreconstru":10532,"Ġadministradores":10533,"Ġargentino":10534,"ĠpartÃŃculas":10535,"Ġtransferido":10536,"Ġselo":10537,"Ġcampanhas":10538,"ĠAmericana":10539,"Ã¢neos":10540,"Ġcoloca":10541,"ĠLourenÃ§o":10542,"ĠGib":10543,"Ġencontrava":10544,"ĠParana":10545,"Ãºne":10546,"Ã©nia":10547,"ĠBraganÃ§a":10548,"ãĢį":10549,"anna":10550,"ĠemprÃ©st":10551,"inia":10552,"ĠCristina":10553,"elado":10554,"Ġatuando":10555,"tions":10556,"len":10557,"ãĢĮ":10558,"CE":10559,"ĠSic":10560,"Ġamizade":10561,"Ġmission":10562,"Ġabol":10563,"ĠOlimpÃŃ":10564,"Ġcontrov":10565,"ĠAdjetivo":10566,"Ġnut":10567,"ĠMant":10568,"ĠFrance":10569,"Ġ1890":10570,"Ġdemanda":10571,"Ġtemperaturas":10572,"Ġponta":10573,"ĠMagalhÃ£es":10574,"ĠinauguraÃ§Ã£o":10575,"Ã©dios":10576,"ĠAnderson":10577,"Ġsitua":10578,"Ġalcance":10579,"ĠLorib":10580,"round":10581,"Ġpedras":10582,"ÃŃssimo":10583,"Per":10584,"Ġbons":10585,"Ġrota":10586,"ĠNicola":10587,"usÃµes":10588,"Ãªnis":10589,"ĠcatÃ³licos":10590,"ĠVÃ¡rios":10591,"ĠDesemp":10592,"Ġpronunc":10593,"Ġboca":10594,"Ġdoutrina":10595,"Ãºlio":10596,"Ð²":10597,"Ġsimbol":10598,"ĠCoelho":10599,"ĠgrÃ¡fico":10600,"Ġenx":10601,"rens":10602,"Ġexpect":10603,"ĠTelevisÃ£o":10604,"Ã´lei":10605,"iola":10606,"uki":10607,"Ġcamisa":10608,"Ġpolit":10609,"Ġdefendeu":10610,"1991":10611,"Ġcolor":10612,"ĠAssis":10613,"ĠRac":10614,"Ġconstruiu":10615,"ĠAdria":10616,"Ġesportes":10617,"dig":10618,"Ġja":10619,"Ġdecis":10620,"ĠlesÃ£o":10621,"atÃ³rios":10622,"ĠTrad":10623,"Ġpossuir":10624,"mus":10625,"ĠReb":10626,"Ġsignificativa":10627,"ĠCav":10628,"Ġpede":10629,"ĠMuse":10630,"Ġeliminado":10631,"Ġdomingo":10632,"ben":10633,"iers":10634,"ĠVil":10635,"Ġelite":10636,"ĠgalÃ¡xias":10637,"quistÃ£o":10638,"kan":10639,"zas":10640,"ĠparÃ¢metros":10641,"ĠnomeaÃ§Ã£o":10642,"Ġcostas":10643,"analto":10644,"ĠFra":10645,"Ġ600":10646,"ĠPlan":10647,"Ġdependendo":10648,"ĠStephen":10649,"rof":10650,"ĠLand":10651,"ĠKent":10652,"Ġnomeou":10653,"Ġocupou":10654,"ids":10655,"ĠimpressÃ£o":10656,"ĠChico":10657,"Ġdizem":10658,"ĠesperanÃ§a":10659,"ĠespecÃŃfica":10660,"Ġacerca":10661,"Ġquadrados":10662,"Ġterrestre":10663,"Ġdaqu":10664,"onf":10665,"Ġpratica":10666,"izava":10667,"Ġescolar":10668,"ĠconexÃ£o":10669,"Ġporte":10670,"ĠMatt":10671,"ĠDavis":10672,"rÃ¢neo":10673,"Äį":10674,"ĠsÃŃmbolos":10675,"ĠIndon":10676,"Ġcedo":10677,"Ġcontava":10678,"ĠSeries":10679,"ĠTok":10680,"top":10681,"ĠhÃ¡b":10682,"ĠinÃºmeros":10683,"Ġpoliciais":10684,"anger":10685,"ĠdÃ©cima":10686,"Ġfestas":10687,"ĠRita":10688,"ĠLav":10689,"ĠPedra":10690,"Ġreconhecida":10691,"cara":10692,"dist":10693,"ĠBelas":10694,"ĠDuas":10695,"uegu":10696,"ĠinspiraÃ§Ã£o":10697,"ĠSpr":10698,"ĠCarol":10699,"ĠCoraÃ§Ã£o":10700,"Ã©rebro":10701,"Ġconsiderou":10702,"cur":10703,"ĠinclusÃ£o":10704,"Ġprocurar":10705,"ĠwikipÃ©dia":10706,"Ġnotoriedade":10707,"Reg":10708,"ĠNBA":10709,"ĠUniverso":10710,"ĠcapÃŃtulos":10711,"ĠobservaÃ§Ã£o":10712,"Ġ800":10713,"desambiguaÃ§Ã£o":10714,"Ã¢neas":10715,"olha":10716,"ĠFiguei":10717,"Ġsoma":10718,"ĠaustrÃŃ":10719,"Ġligada":10720,"1989":10721,"Ġespectadores":10722,"SE":10723,"lav":10724,"edeu":10725,"rip":10726,"Ġintervalo":10727,"Ġprimo":10728,"Ġconfronto":10729,"ĠmÃ©dica":10730,"Ġarcebispo":10731,"ĠSex":10732,"eller":10733,"omÃ©":10734,"uge":10735,"ĠAntec":10736,"Ġmoeda":10737,"Ġcomida":10738,"ĠFantas":10739,"Ġpermanecer":10740,"Pol":10741,"Ġpico":10742,"Ġorganizar":10743,"Ġdiscutir":10744,"alho":10745,"ranÃ§a":10746,"Ġcontos":10747,"ĠGP":10748,"Ġcadeira":10749,"ĠAy":10750,"Ġ1906":10751,"Ġuniversal":10752,"ĠArena":10753,"ÙĦ":10754,"Ġvisitantes":10755,"Ġeuropeia":10756,"Ġpost":10757,"ĠExemplos":10758,"Ġterritorial":10759,"Ġoferta":10760,"Ġverdad":10761,"Ġquinze":10762,"oba":10763,"jan":10764,"Ġensa":10765,"ĠmatemÃ¡tico":10766,"Ã¸":10767,"Ġjustific":10768,"ĠrecepÃ§Ã£o":10769,"ĠEquador":10770,"ĠNunes":10771,"Ġarb":10772,"Ġacusado":10773,"ĠNem":10774,"ĠequaÃ§Ã£o":10775,"Ġatacante":10776,"crÃ¢nia":10777,"ĠMata":10778,"ĠnegociaÃ§Ãµes":10779,"Ġditadura":10780,"Ġsubsequ":10781,"Ãºria":10782,"Ġresultando":10783,"Ġinterpretar":10784,"Ġsh":10785,"ĠAM":10786,"ogrÃ¡ficas":10787,"ĠMP":10788,"Ġlistas":10789,"ĠBillboard":10790,"Ġrepresentado":10791,"Ġá":10792,"ĠMÃ¡":10793,"Ġquaisquer":10794,"postamente":10795,"ĠFonseca":10796,"uti":10797,"Ġpaciente":10798,"Ġinternas":10799,"ĠCheg":10800,"ĠMineiro":10801,"die":10802,"ĠcÃ¡":10803,"ĠJaime":10804,"Ã¢ngulo":10805,"quist":10806,"ĠAlv":10807,"Po":10808,"ĠavanÃ§o":10809,"Ġlimitada":10810,"ĠtensÃ£o":10811,"ĠcampeÃµes":10812,"Ġordenou":10813,"ĠClÃ¡udio":10814,"just":10815,"Ġpresidencial":10816,"Ġlider":10817,"ĠLab":10818,"Ġmeus":10819,"ĠCapit":10820,"ĠDomingos":10821,"Ġcastelhano":10822,"ricaÃ§Ã£o":10823,"Ġsum":10824,"ĠTrop":10825,"Ġcriadas":10826,"ĠvegetaÃ§Ã£o":10827,"fan":10828,"Ġcriador":10829,"Ġaparente":10830,"Ġnativa":10831,"ĠPho":10832,"landesa":10833,"Ġsurgimento":10834,"ĠProgram":10835,"Ġdestacou":10836,"Ġimpostos":10837,"Ġplataformas":10838,"tais":10839,"Ġbiografia":10840,"Ġbic":10841,"Ġrevis":10842,"ĠVolume":10843,"UCN":10844,"ilÃ¢ndia":10845,"Ã³rum":10846,"Ġdescrever":10847,"Ġescritores":10848,"Ġsingles":10849,"Ġenviar":10850,"ĠParte":10851,"Ġresponder":10852,"Ġefica":10853,"Ġguerras":10854,"ĠtradiÃ§Ãµes":10855,"ĠQuint":10856,"aya":10857,"Ġquero":10858,"Ġrussa":10859,"Ġdorm":10860,"Ġproclam":10861,"eig":10862,"ĠBoston":10863,"Ġpobres":10864,"Ġving":10865,"Ġaquilo":10866,"Ġcomprar":10867,"ĠcardÃŃ":10868,"Ġesco":10869,"ntese":10870,"ĠSav":10871,"Ġbancos":10872,"entu":10873,"Ġpermitem":10874,"govern":10875,"Ġbacia":10876,"Ġisrael":10877,"Ġprodutora":10878,"imir":10879,"ĠopÃ§Ãµes":10880,"Ġtecnologias":10881,"ĠeletrÃ´nica":10882,"ĠBag":10883,"Ġsinc":10884,"ĠespanhÃ³is":10885,"bras":10886,"Ġdoutorado":10887,"CD":10888,"ift":10889,"Ġwikipedia":10890,"ĠFundo":10891,"uroc":10892,"Ġligados":10893,"ban":10894,"Ġqueim":10895,"ĠEnredo":10896,"Ġcobre":10897,"Ġvigor":10898,"Ġmecan":10899,"ĠTwitter":10900,"ĠKal":10901,"Ġarquitet":10902,"Ġmultipl":10903,"ĠpreparaÃ§Ã£o":10904,"ĠalimentaÃ§Ã£o":10905,"tis":10906,"ouch":10907,"ĠMarvel":10908,"ĠXavier":10909,"ĠpatrimÃ´nio":10910,"ĠcombustÃŃvel":10911,"ĠWP":10912,"Ġindicada":10913,"ĠMacau":10914,"Ġfogu":10915,"Ġacert":10916,"Ãºmero":10917,"ĠFilme":10918,"sky":10919,"ĠbÃŃbl":10920,"Ġgregos":10921,"quita":10922,"Ġquebra":10923,"ĠIndustrial":10924,"Ġaumentou":10925,"ĠâĪ":10926,"On":10927,"reiros":10928,"ĠBour":10929,"ĠCir":10930,"ĠCaetano":10931,"Ġtras":10932,"ĠFr":10933,"ĠAcesso":10934,"Ġpreen":10935,"Ġatacar":10936,"Ġfilmagens":10937,"ĠIvan":10938,"Ġgratu":10939,"eli":10940,"ĠGeÃ³rgia":10941,"ĠCorr":10942,"ĠHerm":10943,"html":10944,"Ġiniciada":10945,"ĠCenter":10946,"arcial":10947,"ĠFinlÃ¢ndia":10948,"Ag":10949,"Ġativa":10950,"ĠElimin":10951,"rona":10952,"Ġpromet":10953,"Ġmete":10954,"Ġfronteiras":10955,"oÃ§Ã£o":10956,"Ġ58":10957,"Ġhomosse":10958,"Ġintelectual":10959,"ranha":10960,"Ġconhecimentos":10961,"ĠDoutor":10962,"Ġchinesa":10963,"Ïħ":10964,"Ġafro":10965,"portiva":10966,"ache":10967,"ĠHuman":10968,"Ġcausando":10969,"Ġcoinc":10970,"ĠDol":10971,"Ġsubstituindo":10972,"xos":10973,"Ġventos":10974,"ĠUcrÃ¢nia":10975,"Ġtribos":10976,"ĠDouglas":10977,"ĠONU":10978,"...)":10979,"ĠGiovanni":10980,"ĠPert":10981,"Ġoferecer":10982,"ĠTrofÃ©u":10983,"ĠInfantaria":10984,"ĠGh":10985,"ĠMik":10986,"ĠFire":10987,"ĠTÃ³quio":10988,"ĠNascido":10989,"ĠGordo":10990,"ĠdeverÃ¡":10991,"Ġreformas":10992,"Flora":10993,"Ġatender":10994,"ĠpreÃ§os":10995,"agar":10996,"Ã³gicas":10997,"Ġlutas":10998,"ĠacusaÃ§Ãµes":10999,"Ġinspirado":11000,"Ġregularmente":11001,"Cal":11002,"gÃ¡":11003,"Ã³gicos":11004,"Ġassume":11005,"ĠDifer":11006,"Ġrestaura":11007,"Ġparecer":11008,"Ġambientes":11009,"ĠbraÃ§o":11010,"ĠWWE":11011,"ĠincÃªndio":11012,"inz":11013,"ĠSn":11014,"Ġouvir":11015,"Ġrefug":11016,"Ġcujas":11017,"Ġcine":11018,"Ġpublicadas":11019,"ĠPatrimÃ³nio":11020,"ĠBroad":11021,"ĠMarte":11022,"ĠnecessÃ¡rias":11023,"teu":11024,"Ġexistia":11025,"Ġestabelecida":11026,"ÃŃamos":11027,"ĠDown":11028,"Ġsofrer":11029,"ĠViv":11030,"Ġrodovia":11031,"ĠDos":11032,"edidos":11033,"ĠalianÃ§a":11034,"Ġcuidado":11035,"ĠdÃ£o":11036,"onesa":11037,"erados":11038,"Ãºva":11039,"Ġobservar":11040,"Ġespecialista":11041,"Ġdeuses":11042,"ĠSete":11043,"Ġatitude":11044,"ĠInterior":11045,"ĠSingles":11046,"raph":11047,"ravÃ©s":11048,"Ã©rs":11049,"damente":11050,"ĠDiscussÃ£o":11051,"Ġ57":11052,"Ġnegra":11053,"ĠThom":11054,"ĠFreitas":11055,"ĠmÃ¡s":11056,"ancip":11057,"ĠParticipou":11058,"ĠMarcel":11059,"ĠBac":11060,"ĠToc":11061,"ĠClasse":11062,"Ġtransmitido":11063,"MDB":11064,"ĠDil":11065,"ĠWin":11066,"ĠPrincesa":11067,"ĠContinental":11068,"ĠTendo":11069,"ĠVivo":11070,"abelas":11071,"Ġliberal":11072,"ĠExternas":11073,"Ġtempor":11074,"Ġespecialistas":11075,"Ġolho":11076,"Ġesquerdo":11077,"iformes":11078,"ĠEngl":11079,"ĠsÃ©timo":11080,"Ġoxig":11081,"Ãļ":11082,"Ġorbital":11083,"ĠproduÃ§Ãµes":11084,"Ġvieram":11085,"ĠChap":11086,"Ġherdeiro":11087,"Uma":11088,"ĠVlad":11089,"Ġmarcando":11090,"Ġpercurso":11091,"ĠJane":11092,"Ġanime":11093,"ĠFrente":11094,"Ġpodiam":11095,"Mus":11096,"ĠPlayStation":11097,"icologia":11098,"Ġsueco":11099,"ĠPlane":11100,"Ġprolong":11101,"Ġpares":11102,"ĠinteraÃ§Ã£o":11103,"ĠindÃŃgena":11104,"iles":11105,"Ġconsigo":11106,"ĠPictures":11107,"Ġreport":11108,"iral":11109,"ther":11110,"adj":11111,"ĠIUCN":11112,"ĠTan":11113,"istro":11114,"Ġpoema":11115,"Ġdesfil":11116,"ĠpreocupaÃ§Ã£o":11117,"LA":11118,"Ġclim":11119,"ĠcomeÃ§am":11120,"Ġsabia":11121,"Ġancest":11122,"He":11123,"Ġpoemas":11124,"Ġcampeonatos":11125,"ĠAndrew":11126,"rimin":11127,"ĠVou":11128,"ĠToronto":11129,"Ġcorridas":11130,"ĠEduc":11131,"Ġolh":11132,"Ãºcho":11133,"ĠMiller":11134,"Pal":11135,"sito":11136,"Ġgerar":11137,"ĠMis":11138,"ĠRica":11139,"ĠmecÃ¢nica":11140,"ingue":11141,"Ġvapor":11142,"Ġdesist":11143,"ĠAstronomia":11144,"Ġparar":11145,"ĠTeoria":11146,"mirante":11147,"ĠEpis":11148,"urch":11149,"ĠInÃŃcio":11150,"Ġacrescentar":11151,"Ġrico":11152,"Ġterminal":11153,"ĠIBM":11154,"taram":11155,"elm":11156,"Ġtribo":11157,"ĠSuc":11158,"Ġparticipa":11159,"ĠEscrit":11160,"ĠCec":11161,"nco":11162,"iane":11163,"Ġrica":11164,"Ġintensidade":11165,"ĠAstero":11166,"Ġcontando":11167,"abo":11168,"Ġensin":11169,"Ġvirtual":11170,"Ġsufic":11171,"Ġvendidos":11172,"Ġgoogle":11173,"Ġcondenado":11174,"Ġdevia":11175,"outh":11176,"Ġtarefas":11177,"ĠPrincipais":11178,"ĠAB":11179,"Ġaprovado":11180,"Ġabsoluta":11181,"ossa":11182,"Ġmara":11183,"ĠBuc":11184,"ĠconfusÃ£o":11185,"Ġatuava":11186,"Ġdemit":11187,"jetos":11188,"ĠGuy":11189,"Ġagrup":11190,"ĠJogo":11191,"Ġfalando":11192,"Ġequipas":11193,"ĠPenÃŃnsula":11194,"ĠKevin":11195,"Ġentrega":11196,"Ġdirigida":11197,"Ġfarm":11198,"ivada":11199,"ĠMajor":11200,"ĠNeves":11201,"Ġlenda":11202,"Ġentregue":11203,"Ġrum":11204,"Ġjuntar":11205,"Ġcantar":11206,"vendo":11207,"ĠPeix":11208,"ĠDJ":11209,"feta":11210,"ĠcolÃ´nia":11211,"oman":11212,"ĠPolit":11213,"ĠconfiguraÃ§Ã£o":11214,"ĠMoura":11215,"Ġhi":11216,"Ġchuva":11217,"Ġblog":11218,"Ġingressou":11219,"Ġjam":11220,"ĠAC":11221,"ĠPai":11222,"ĠJay":11223,"ĠdÃºvidas":11224,"ĠAntecedentes":11225,"imundo":11226,"ugos":11227,"Ã³ricos":11228,"uguÃªs":11229,"Ġcil":11230,"ĠatribuÃŃdo":11231,"Ġcavalos":11232,"ĠMarie":11233,"Ġintegrar":11234,"Ã§adas":11235,"Ġbac":11236,"ĠjuÃŃ":11237,"iguidade":11238,"Ġexclu":11239,"Ġconcertos":11240,"ĠEM":11241,"Ġdemol":11242,"ĠconstituÃŃda":11243,"ĠVoleibol":11244,"Ġaumenta":11245,"uou":11246,"ĠGrÃªmio":11247,"ĠBanda":11248,"Ġcarioca":11249,"Ġpalest":11250,"ĠConte":11251,"Ġacreditava":11252,"ĠExemplo":11253,"ĠDirec":11254,"Ġexcelente":11255,"ãĢį-":11256,"iminal":11257,"ĠLÃ©":11258,"ĠTeod":11259,"Il":11260,"ĠLord":11261,"ĠBenjam":11262,"Ãį":11263,"ĠHor":11264,"ĠKelly":11265,"Ġdiversidade":11266,"Ġenvolvido":11267,"riram":11268,"ĠAh":11269,"ĠOi":11270,"Ġprecip":11271,"Ġfinalidade":11272,"Ġbanh":11273,"Ä±":11274,"Ġdatas":11275,"shire":11276,"ĠTestamento":11277,"Ġ1905":11278,"Ġconstitui":11279,"ĠfilosÃ³f":11280,"atra":11281,"ĠAmbos":11282,"ĠOm":11283,"ĠWarner":11284,"ĠproteÃŃnas":11285,"Ġfugir":11286,"'.":11287,"rik":11288,"Ġacompanhado":11289,"ĠAda":11290,"itro":11291,"ĠGestÃ£o":11292,"ĠfabricaÃ§Ã£o":11293,"orar":11294,"Ġchance":11295,"Ġcompletar":11296,"Ġamostra":11297,"cht":11298,"ĠConn":11299,"ĠHart":11300,"Ġorganismos":11301,"pping":11302,"Ġ1909":11303,"Ġcompromet":11304,"Ã©lica":11305,"eres":11306,"Ġminhas":11307,"istente":11308,"Ġrespond":11309,"ĠMath":11310,"ĠDiÃ¡rio":11311,"Ġreta":11312,"ĠEventos":11313,"ernidade":11314,"Ġempat":11315,"ÃĹ":11316,"ĠaÃ§o":11317,"Ġcanh":11318,"ĠAN":11319,"ĠfazÃª":11320,"ercial":11321,"ĠsoluÃ§Ãµes":11322,"ĠDireÃ§Ã£o":11323,"trans":11324,"onial":11325,"Ġmaneiras":11326,"ĠeletrÃ´nicos":11327,"ĠmanifestaÃ§Ãµes":11328,"Ġ1907":11329,"etta":11330,"Ã©ns":11331,"actos":11332,"viÃ¡ria":11333,"Ġfot":11334,"Ġextens":11335,"ĠcÃ©rebro":11336,"aster":11337,"Ġassent":11338,"rast":11339,"iant":11340,"ĠEmp":11341,"Ġleitor":11342,"ĠSher":11343,"inheiros":11344,"ĠdecrÃ©scimo":11345,"jeÃ§Ã£o":11346,"Ã³tipo":11347,"ÃŃso":11348,"Ġescoc":11349,"ĠCoronel":11350,"gregaÃ§Ã£o":11351,"ogen":11352,"ĠcomeÃ§ando":11353,"hack":11354,"Ġsindic":11355,"Ġmorreram":11356,"gi":11357,"Ġmor":11358,"ĠMendo":11359,"Ġexcess":11360,"ĠMap":11361,"ĠLanÃ§amento":11362,"rense":11363,"Ġtelevis":11364,"Ġativos":11365,"Ġjaponeses":11366,"ĠestÃ¡tua":11367,"Ġaceitou":11368,"ĠpÃ¡t":11369,"ĠLittle":11370,"Ġjardim":11371,"ĠadiÃ§Ã£o":11372,"ĠMilÃ£o":11373,"Ġprotegida":11374,"Ġredirecion":11375,"Ġriqueza":11376,"Ġquadros":11377,"ĠAngel":11378,"ĠimpossÃŃvel":11379,"Ġmemb":11380,"Ġestudiosos":11381,"Ġalterar":11382,"Ġaclam":11383,"nesto":11384,"Can":11385,"ĠDNA":11386,"ops":11387,"ÃŃfica":11388,"web":11389,"Ġave":11390,"ombo":11391,"Ġamiga":11392,"ĠSE":11393,"design":11394,"Med":11395,"Ġcombat":11396,"ĠcÃ©lula":11397,"ĠMult":11398,"Ã³via":11399,"Ġdistintas":11400,"Ġsupostamente":11401,"Ġparentes":11402,"Ġvotar":11403,"Ġcircunst":11404,"Ġbuscar":11405,"Americano":11406,"ĠreproduÃ§Ã£o":11407,"Ġanel":11408,"Ġinde":11409,"ĠPinheiro":11410,"atch":11411,"Ġlidar":11412,"Ġeleita":11413,"ĠcomposiÃ§Ãµes":11414,"Ġdesn":11415,"Ġmosteiro":11416,"iense":11417,"ĠCÃ³r":11418,"Ġbud":11419,"Ġconsiderando":11420,"Ġdenunc":11421,"Ġgoleiro":11422,"Ġcorreta":11423,"Ġquerer":11424,"ĠherÃ³i":11425,"ader":11426,"1987":11427,"Ġfinanceiro":11428,"Des":11429,"Ġoi":11430,"ĠconstruÃŃdos":11431,"Ġderrotar":11432,"ĠcritÃ©rio":11433,"Ġcordas":11434,"Ġdefine":11435,"ĠTs":11436,"Ġondas":11437,"Ġrelacionada":11438,"Ġparticulares":11439,"zinho":11440,"ÃŃgio":11441,"ardia":11442,"Ġnomeada":11443,"Ġeditado":11444,"leos":11445,"ĠatraÃ§Ã£o":11446,"ĠAntiga":11447,"Ġtaxas":11448,"ĠocasiÃµes":11449,"ĠexposiÃ§Ãµes":11450,"ĠanÃ¡l":11451,"ĠAgost":11452,"ĠaquisiÃ§Ã£o":11453,"indic":11454,"Ġexporta":11455,"Ġdob":11456,"ĠMana":11457,"Ġmantido":11458,"Ġvender":11459,"Ġestradas":11460,"Ġmonumento":11461,"zan":11462,"aborou":11463,"ĠBaixo":11464,"eranÃ§a":11465,"Ġsimilares":11466,"Ġindire":11467,"Ġsonho":11468,"nov":11469,"ĠFesta":11470,"Ġcolocando":11471,"Ġinvestimentos":11472,"ecos":11473,"Ġdefinitivamente":11474,"Ġservidor":11475,"ĠMetropolitana":11476,"Ġfutura":11477,"ĠcÃ³pia":11478,"Ġinvestimento":11479,"bour":11480,"ĠincluÃŃa":11481,"ĠJovem":11482,"icados":11483,"ĠLÃºcio":11484,"Emb":11485,"Ġpretende":11486,"ĠCasc":11487,"Ġjogando":11488,"rul":11489,"ĠorÃ§amento":11490,"ĠAntigo":11491,"ĠÃ¡rabes":11492,"Ġsujeito":11493,"eme":11494,"Ġcuidados":11495,"Ġadmira":11496,"ĠCeltic":11497,"Ġasi":11498,"Ġseriado":11499,"ĠLagoa":11500,"Ġextinto":11501,"Ġinterface":11502,"ĠvariaÃ§Ãµes":11503,"ĠEstrela":11504,"ĠlaboratÃ³rio":11505,"ĠMaz":11506,"ĠComeÃ§ou":11507,"suc":11508,"iden":11509,"Ġsurgiram":11510,"Ġduplo":11511,"Ġfon":11512,"ĠMetr":11513,"ĠMagn":11514,"Carioca":11515,"get":11516,"ĠPIB":11517,"ÃŃticos":11518,"ogue":11519,"ĠsemelhanÃ§a":11520,"ĠMulheres":11521,"Ġcod":11522,"ruc":11523,".âĢĿ":11524,"udia":11525,"Ġdisciplina":11526,"ĠZo":11527,"Ġpesca":11528,"itarra":11529,"ĠElas":11530,"Ã¡quia":11531,"Ġiniciado":11532,"Ġidiomas":11533,"Ġbaseados":11534,"Ġdinamar":11535,"elizmente":11536,"Ġinterromp":11537,"ĠTavares":11538,"Do":11539,"ĠMasculino":11540,"ĠEurope":11541,"Ġintuito":11542,"Ġcomentou":11543,"ĠmÃ¡r":11544,"Ġamarelo":11545,"ĠÃģlvaro":11546,"It":11547,"ĠDrag":11548,"Ġaposent":11549,"ĠAtletismo":11550,"ĠPires":11551,"Ġdezenas":11552,"ĠCatar":11553,"Ġculmin":11554,"ĠÃ³b":11555,"Ġaula":11556,"ices":11557,"ĠavÃ´":11558,"ĠIBGE":11559,"Ġplacas":11560,"ĠtÃ³pico":11561,"Ġtes":11562,"ĠTig":11563,"Ãºsculo":11564,"planada":11565,"ĠcÃŃrculo":11566,"HistÃ³ria":11567,"ĠestÃ¡gio":11568,"ĠGuad":11569,"Ã©nio":11570,"Ġroda":11571,"Ġrespondeu":11572,"ÃŃferos":11573,"vias":11574,"ĠCategoria":11575,"Ġorquestra":11576,"gru":11577,"ĠAnne":11578,"Ġespecializada":11579,"Ġescritora":11580,"ĠespecÃŃficas":11581,"ĠAsteroide":11582,"ĠVera":11583,"Ġdesast":11584,"Ġadicionar":11585,"ÃŃsa":11586,"ĠPower":11587,"Ġcontinuaram":11588,"Ġtribunal":11589,"ĠCaxias":11590,"Ġirregular":11591,"ĠSofia":11592,"fri":11593,"Ġtecido":11594,"famÃŃlia":11595,"ĠCorreia":11596,"ĠSky":11597,"ĠGales":11598,"Ġreuniu":11599,"ĠimplementaÃ§Ã£o":11600,"Ġnor":11601,"ĠLady":11602,"Ġamist":11603,"Ãºmulo":11604,"Ġmonte":11605,"ĠgraduaÃ§Ã£o":11606,"Ġpositiva":11607,"ĠVascon":11608,"ĠconsiderÃ¡vel":11609,"ĠHoward":11610,"BR":11611,"cap":11612,"Ġlimitado":11613,"ĠcatÃ³lico":11614,"ilvÃ¢nia":11615,"ĠÃĤ":11616,"Ġverbal":11617,"Ġ1904":11618,"cluindo":11619,"uis":11620,"ĠKam":11621,"ÃŃssima":11622,"Ġvirtude":11623,"Ġamplo":11624,"hard":11625,"ĠSony":11626,"Ð´":11627,"1988":11628,"iÃ§o":11629,"Ġplaca":11630,"orreg":11631,"Ġconfirmado":11632,"Ġmencionado":11633,"Ġlaterais":11634,"Ġacabar":11635,"Ġartilharia":11636,"conhec":11637,"ĠPlat":11638,"ĠMarsh":11639,"Ġrefl":11640,"ĠProte":11641,"ÃŃndrome":11642,"Ġcitar":11643,"andra":11644,"Ġestacion":11645,"ĠHeart":11646,"Ġinstalado":11647,"Ã³lio":11648,"Ġplanejamento":11649,"ĠautorizaÃ§Ã£o":11650,"estado":11651,"ĠPin":11652,"ĠMatriz":11653,"oj":11654,"tadas":11655,"ifique":11656,"cedeu":11657,"ingen":11658,"ianÃ³polis":11659,"Ġaprovada":11660,"ĠpreservaÃ§Ã£o":11661,"Ġ66":11662,"Ã©f":11663,"Ġ1000":11664,"Ġcontinuidade":11665,"ĠRibeira":11666,"HF":11667,"ĠEnd":11668,"Na":11669,"ĠJason":11670,"Ġdesenvolve":11671,"ĠidÃ©ia":11672,"ĠirmÃ£s":11673,"rocos":11674,"Ġintim":11675,"Ġprotestos":11676,"ĠHamilton":11677,"ĠDesempenho":11678,"Ġescav":11679,"Ġindicar":11680,"Ġliderou":11681,"\"?":11682,"Ġindiano":11683,"Ġhard":11684,"ĠSitu":11685,"Ġautonomia":11686,"Ġsetores":11687,"Ġnativos":11688,"ĠadversÃ¡rio":11689,"ĠExpl":11690,"Ġolhar":11691,"Ġfechado":11692,"ĠCarnaval":11693,"ĠElect":11694,"Ġduplas":11695,"olor":11696,"Ġrecon":11697,"ĠInstitute":11698,"ĠRi":11699,"ĠLud":11700,"ĠRose":11701,"Ġapelido":11702,"ĠvisÃŃvel":11703,"Ġvizinhos":11704,"ESP":11705,"itan":11706,"abulÃ¡rio":11707,"assa":11708,"Ġocupa":11709,"Ġcumprir":11710,"Ġenerg":11711,"Ġrecrut":11712,"amÃ¡":11713,"ĠdisposiÃ§Ã£o":11714,"ĠSound":11715,"ĠBei":11716,"Ġ95":11717,"orizont":11718,"ĠBul":11719,"ĠBack":11720,"ĠCond":11721,"ĠOrquestra":11722,"mai":11723,"ĠfreqÃ¼":11724,"ĠdimensÃ£o":11725,"ĠBry":11726,"Ġcolunas":11727,"ĠexplicaÃ§Ã£o":11728,"Ġplacar":11729,"Ġfruto":11730,"ĠArquitetura":11731,"%),":11732,"Ġtornam":11733,"ĠgÃ©neros":11734,"Ġment":11735,"unhas":11736,"ĠimplantaÃ§Ã£o":11737,"ograf":11738,"Ġitem":11739,"Ġlegislatura":11740,"Ġprossegu":11741,"Ġmarcar":11742,"Ġtransformar":11743,"ĠAbraÃ§o":11744,"uan":11745,"Ä«":11746,"Ġlongas":11747,"ĠBank":11748,"ÃŃrio":11749,"echal":11750,"Ġcen":11751,"Ġnela":11752,"Ġpositivo":11753,"ĠBusca":11754,"Ãºb":11755,"ĠMacho":11756,"ĠLivros":11757,"lando":11758,"strias":11759,"Ġescre":11760,"Ġimper":11761,"ĠRyan":11762,"ĠGi":11763,"Ġinteiramente":11764,"ĠKy":11765,"Ġrespostas":11766,"Ġassal":11767,"ÃŃlios":11768,"bÃ¡":11769,"ĠÃŃnt":11770,"Ġconstrut":11771,"ĠVeneza":11772,"ÃŃodo":11773,"ĠincluÃŃda":11774,"ĠChin":11775,"Ġselecionado":11776,"lag":11777,"rendo":11778,"ĠColumbia":11779,"ĠtrajetÃ³ria":11780,"ĠPatrick":11781,"iami":11782,"Ġcristal":11783,"ĠDecl":11784,"Ġevolu":11785,"ĠcrenÃ§a":11786,"deias":11787,"ĠSilveira":11788,"ĠlÃŃquido":11789,"ĠsubespÃ©c":11790,"ĠgeogrÃ¡fica":11791,"ĠNÃ³s":11792,"Ġfalha":11793,"Ġhosped":11794,"Ġcurios":11795,"ĠLaura":11796,"ĠBlue":11797,"Ġmong":11798,"ĠDÃ©c":11799,"ĠDeix":11800,"hop":11801,"Ġregistrado":11802,"ĠErnesto":11803,"ĠTransporte":11804,"Ġentrevistas":11805,"Ġjamais":11806,"tr":11807,"rong":11808,"Ġdemocracia":11809,"Ġinterpretado":11810,"ĠGrandes":11811,"udos":11812,"ĠDemocrÃ¡tica":11813,"ugaÃ§Ã£o":11814,"Ġreproduz":11815,"Ġranking":11816,"ĠDark":11817,"Ġproposto":11818,"Ġgerou":11819,"ĠclÃ¡ssicos":11820,"sing":11821,"ĠSid":11822,"ĠViana":11823,"ĠEslov":11824,"Ġprojetado":11825,"ĠAmar":11826,"Ġdecidir":11827,"Ġpartiu":11828,"ĠSolar":11829,"fei":11830,"Ġparlamento":11831,"Ġvisando":11832,"Ġentraram":11833,"ĠBandeirantes":11834,"ĠrÃ¡dios":11835,"ĠPopulaÃ§Ã£o":11836,"ouros":11837,"Ġequipamento":11838,"Ġ1903":11839,"Ġclassificados":11840,"Be":11841,"Ġescrevendo":11842,"iosas":11843,"ĠStory":11844,"etts":11845,"ĠremoÃ§Ã£o":11846,"ĠMec":11847,"ultor":11848,"ĠArist":11849,"Ġconven":11850,"ĠNapoleÃ£o":11851,"ĠSO":11852,"ĠAmazÃ´nia":11853,"ĠcemitÃ©rio":11854,"Ġasas":11855,"Ġexemplares":11856,"ĠGreat":11857,"Ġrebeldes":11858,"ĠmuÃ§ulmanos":11859,"Ġfel":11860,"Ġescond":11861,"Ġcamadas":11862,"ĠCoroa":11863,"Ġcalcul":11864,"Americana":11865,"Gen":11866,"Ġsons":11867,"ipa":11868,"Ã©reas":11869,"Ġvidas":11870,"Ġentreg":11871,"ĠIrÃ£":11872,"Ġoceano":11873,"Ġsimultaneamente":11874,"efic":11875,"iquei":11876,"ives":11877,"ĠComando":11878,"Ġradical":11879,"fase":11880,"Ġsemifinal":11881,"ĠinstruÃ§Ãµes":11882,"rix":11883,"Ġobtido":11884,"Ġmolec":11885,"Ã§on":11886,"Ġumas":11887,"ilhÃ£o":11888,"ĠcrÃ©dito":11889,"ĠIndonÃ©sia":11890,")\".":11891,"ijo":11892,"mm":11893,"ĠCob":11894,"Ã¡bia":11895,"ules":11896,"ĠBast":11897,"ĠDet":11898,"ĠdemocrÃ¡":11899,"And":11900,"chefe":11901,"ĠemergÃªncia":11902,"ĠSanc":11903,"agner":11904,"ramas":11905,"Ġ->":11906,"ĠConcordo":11907,"ĠperseguiÃ§Ã£o":11908,"Ġvivos":11909,"right":11910,"ĠCasou":11911,"Ġsegmento":11912,"annel":11913,"Ġ1901":11914,"Ġjeito":11915,"Ã¢nsito":11916,"sw":11917,"Ġnaval":11918,"Ġvinho":11919,"Ġhect":11920,"ersa":11921,"ĠanÃºncio":11922,"Ġ1889":11923,"ĠendereÃ§o":11924,"Ġconstantemente":11925,"Ġmediante":11926,"Ã¡ctica":11927,"acre":11928,"Ġjuventude":11929,"ĠprofissÃ£o":11930,"ĠMars":11931,"ĠMarÃŃa":11932,"Ġaprendizagem":11933,"ML":11934,"Ġmix":11935,"ĠparÃ¡g":11936,"ĠStad":11937,"Ġcompetiu":11938,"1985":11939,"Ġnarrativa":11940,"Ġtabelas":11941,"ĠCient":11942,"Ġvog":11943,"ĠDessa":11944,"ĠGuard":11945,"ĠIntel":11946,"ĠidÃªnt":11947,"ĠJacques":11948,"Ġlas":11949,"ĠRey":11950,"Ã©rpre":11951,"Ġdesconhecido":11952,"riam":11953,"ĠEleitoral":11954,"ĠTemplo":11955,"ipse":11956,"ĠSocialista":11957,"ĠFinalmente":11958,"ĠÃ³pera":11959,"Ã³dromo":11960,"VA":11961,"ĠAD":11962,"imens":11963,"Ġconquistando":11964,"ĠprecisÃ£o":11965,"Ġdiocese":11966,"Ġhabitat":11967,"ĠRoman":11968,"Ġacrescent":11969,"Ġutilizam":11970,"erias":11971,"Ġgas":11972,"Ġrochas":11973,"Ġliteral":11974,"Ġexecutado":11975,"ezas":11976,"ĠcristÃ£o":11977,"Ġbaterista":11978,"ĠRico":11979,"Ġanarqu":11980,"Ã³rcio":11981,"ĠCaro":11982,"tre":11983,"Ã¦":11984,"Ġperante":11985,"ĠFree":11986,"Ġyou":11987,"wi":11988,"iler":11989,"Ġgraves":11990,"roup":11991,"ĠconferÃªncia":11992,"Ġconfi":11993,"ĠRomana":11994,"ĠSinÃ´nimos":11995,"ĠNegra":11996,"ange":11997,"ĠPant":11998,"ĠBeach":11999,"ĠTown":12000,"Ġescapar":12001,"Ġrelevantes":12002,"Ġcoronel":12003,"ĠES":12004,"amina":12005,"Ġvencedores":12006,"Ã¶r":12007,"ĠliterÃ¡ria":12008,"ĠVaticano":12009,"ĠBla":12010,"Ġsugest":12011,"ĠNobel":12012,"For":12013,"ĠPatrimÃ´nio":12014,"Ġenfat":12015,"ĠcomputaÃ§Ã£o":12016,"Ġ1891":12017,"ĠJustin":12018,"PP":12019,"fi":12020,"ĠLt":12021,"Ġfict":12022,"Ġgan":12023,"ĠfÃŃsicas":12024,"ĠrelevÃ¢ncia":12025,"Ġrosto":12026,"ĠServiÃ§os":12027,"ilat":12028,"ĠVig":12029,"aron":12030,"astero":12031,"Ġbact":12032,"Ġinex":12033,"Ġhabitats":12034,"ĠJournal":12035,"Ġmorf":12036,"eleÃ§Ãµes":12037,"iller":12038,"rÃ¡fego":12039,"Ġoportunidades":12040,"Ġprivado":12041,"1983":12042,"ĠPiauÃŃ":12043,"ges":12044,"achus":12045,"ĠHome":12046,"ĠTes":12047,"ĠContra":12048,"ĠBruce":12049,"ĠcontemporÃ¢nea":12050,"ĠolÃŃmpico":12051,"Ġpura":12052,"ocolo":12053,"eva":12054,"paro":12055,"Ġjes":12056,"Ġax":12057,"Ġafil":12058,"ĠagrÃŃcola":12059,"ĠRiver":12060,"ĠLam":12061,"Ġmenina":12062,"ĠconstruÃ§Ãµes":12063,"ĠKh":12064,"Ġ78":12065,"Ġretorna":12066,"Ġesquema":12067,"Ġvandalismo":12068,"inae":12069,"evo":12070,"ĠpermissÃ£o":12071,"Ð¸Ñ":12072,"rÃŃvel":12073,"ened":12074,"Ġmenino":12075,"Ġvoos":12076,"Ġleitores":12077,"ĠMusical":12078,"Ġopon":12079,"Ã©ias":12080,"ĠMunique":12081,"Ġatira":12082,"Ġâľ":12083,"Ġgarota":12084,"ĠfÃªmeas":12085,"ĠInverno":12086,"Ġprocedimento":12087,"ĠAnthony":12088,"Min":12089,"idiocese":12090,"Ġblocos":12091,"Ġimprov":12092,"ĠlanÃ§aram":12093,"klist":12094,"oth":12095,"mag":12096,"Ġtempl":12097,"Ġgira":12098,"Ġori":12099,"Ġiguais":12100,"Ġcontribuiu":12101,"ĠreuniÃµes":12102,"elt":12103,"Ġfundamentais":12104,"Ġestrangeiro":12105,"Ġdeg":12106,"ĠChefe":12107,"eleito":12108,"Ġinfl":12109,"Ġdedicou":12110,"Ġidos":12111,"Ã³rdia":12112,"Ã¡sticas":12113,"Ġmarcados":12114,"aranja":12115,"ĠSS":12116,"opher":12117,"Ġpoderoso":12118,"Ġexerceu":12119,"Ġhidro":12120,"Ġreman":12121,"sea":12122,"ĠImprensa":12123,"Ġdestruir":12124,"Ġessencialmente":12125,"Ġseca":12126,"Ġdiverg":12127,"Ã¥":12128,"ource":12129,"ĠLabora":12130,"oral":12131,"Ġsubdiv":12132,"Ġpatri":12133,"tivos":12134,"Ã©le":12135,"empre":12136,"ĠauxÃŃlio":12137,"icus":12138,"Ġprimeiramente":12139,"deram":12140,"ĠJoana":12141,"Ġileg":12142,"ĠAngra":12143,"Ġfalecido":12144,"ĠsubstituÃŃda":12145,"ĠprevisÃ£o":12146,"ĠMargarida":12147,"avy":12148,"Ġvereador":12149,"Ġcristianismo":12150,"Ġliderado":12151,"ĠconcepÃ§Ã£o":12152,"rÃ´":12153,"ĠCad":12154,"Portugal":12155,"Ġcem":12156,"iografia":12157,"Ġaper":12158,"ĠaÃ©reo":12159,"Ġintegrou":12160,"ĠmÃºltip":12161,"ĠOhio":12162,"Ġnit":12163,"utt":12164,"ĠporÃ§Ã£o":12165,"Ġorganismo":12166,"Ġtransformou":12167,"Ġprevisto":12168,"ĠLind":12169,"Ã³sitos":12170,"Ġtriun":12171,"ĠocorrÃªncia":12172,"ĠMello":12173,"Ġcereb":12174,"Ġbasta":12175,"ĠGrammy":12176,"imologia":12177,"ĠDur":12178,"Ġacamp":12179,"ĠAbreu":12180,"Ġvende":12181,"Ġantrop":12182,"quetebol":12183,"asteroide":12184,"Ġperigo":12185,"Ã§ois":12186,"ĠhistÃ³ricas":12187,"Ġader":12188,"Ġcontrad":12189,"ĠdeclinaÃ§Ã£o":12190,"ĠCorporation":12191,"Ġderrub":12192,"Ġfrio":12193,"ĠÃ¡udio":12194,"ertida":12195,"Ġconstitucional":12196,"vey":12197,"ĠAnat":12198,"metros":12199,"IR":12200,"ĠBoas":12201,"ĠLinux":12202,"ranga":12203,"ember":12204,"ĠMetal":12205,"ĠArquipÃ©lago":12206,"Ġagl":12207,"ĠconteÃºdos":12208,"ĠRaul":12209,"ĠDispon":12210,"ĠSemin":12211,"Ġapre":12212,"Ġenvia":12213,"ĠdeclÃŃnio":12214,"pede":12215,"ÃŃcies":12216,"ĠSalÃ£o":12217,"Ġadolescente":12218,"ather":12219,"Ġparecem":12220,"ificando":12221,"Ġesperado":12222,"Ġadequado":12223,"ĠprimÃ¡ria":12224,"Ġingleses":12225,"Ġenvolvimento":12226,"Ġcirurgia":12227,"ĠSampa":12228,"ÃŃdios":12229,"Ġtenente":12230,"rÃ³":12231,"Ġ72":12232,"ĠafirmaÃ§Ã£o":12233,"ĠradiaÃ§Ã£o":12234,"gy":12235,"jado":12236,"icando":12237,"ĠCompl":12238,"Ġficava":12239,"ĠData":12240,"Ġsert":12241,"Ġfederais":12242,"ĠBorges":12243,"Ġcompil":12244,"Ġperceber":12245,"role":12246,"ashi":12247,"ĠLiberdade":12248,"omem":12249,"ravo":12250,"Ġpatente":12251,"Ġviajou":12252,"ĠØ":12253,"ident":12254,"eiga":12255,"ĠFall":12256,"Ġvagas":12257,"ĠÄ":12258,"ĠBulgÃ¡ria":12259,"GO":12260,"Ġinformou":12261,"offs":12262,"ĠGerm":12263,"Ġaventura":12264,"obili":12265,"ĠGuan":12266,"Ġderiva":12267,"ĠGonÃ§alo":12268,"Ġreclam":12269,"Ġraramente":12270,"ĠSala":12271,"ĠCaio":12272,"\"(":12273,"wig":12274,"ĠBeira":12275,"ĠrepÃ³rter":12276,"Ġcientista":12277,"Ġfinanciamento":12278,"ĠDona":12279,"ĠIg":12280,"Ġvertical":12281,"Ġetn":12282,"ĠbÃ¡sico":12283,"ĠMaurÃŃcio":12284,"Ã³ticos":12285,"Ġnobreza":12286,"ĠpropÃ´s":12287,"ionar":12288,"Pres":12289,"ĠRegimento":12290,"ĠresidÃªncias":12291,"pu":12292,"ĠforÃ§ado":12293,"ticas":12294,"ĠResta":12295,"ĠVenc":12296,"Ġexecutar":12297,"Ġ1870":12298,"Ġmarinha":12299,"Ġemissoras":12300,"ĠFriedrich":12301,"kt":12302,"Ġbei":12303,"ĠindÃºstrias":12304,"ĠfaÃ§a":12305,"Ġlarga":12306,"ĠMachoCarioca":12307,"ÅŁ":12308,"Ġcurtas":12309,"ĠSarah":12310,"ĠDescob":12311,"ridade":12312,"wick":12313,"olia":12314,"ĠÃģgua":12315,"Ġocupar":12316,"Ġsop":12317,"Ġocupado":12318,"Ġdon":12319,"Ġhost":12320,"Ġcontraste":12321,"ĠeconÃ´micas":12322,"Ã²":12323,"UF":12324,"ixos":12325,"Ġrurais":12326,"ĠMuseum":12327,"Ġtol":12328,"ĠMÃ©rito":12329,"ortos":12330,"Ġliderada":12331,"Ġdescendente":12332,"Ġpostos":12333,"ĠÃģlbuns":12334,"ĠExter":12335,"ĠnavegaÃ§Ã£o":12336,"itÃ¡vel":12337,"ĠSig":12338,"Ġimun":12339,"Ã©tricas":12340,"Ġcerco":12341,"Ap":12342,"Ġcurva":12343,"Ġnecessariamente":12344,"ĠLob":12345,"loyd":12346,"Ġadolescentes":12347,"All":12348,"incial":12349,"Ġvencendo":12350,"ĠastrÃ´n":12351,"Ġnoruegu":12352,"Ġeuros":12353,"ĠApo":12354,"Ġestende":12355,"ĠSyd":12356,"alin":12357,"anim":12358,"Ġdirigir":12359,"ÎŃ":12360,"retos":12361,"ĠFÃ¡bio":12362,"Ġindustria":12363,"Ġesg":12364,"ĠMarquÃªs":12365,"Ġcord":12366,"celos":12367,"Ġencerrou":12368,"anti":12369,"ĠCharlie":12370,"ĠBatt":12371,"Ġbarco":12372,"Ġmitologia":12373,"Ġconsta":12374,"ĠParal":12375,"Ġdeixaram":12376,"ĠtÃ©rmino":12377,"ĠVideo":12378,"queira":12379,"Ġraiz":12380,"Ġtrechos":12381,"ĠBull":12382,"ĠconsequÃªncias":12383,"Ġprisioneiros":12384,"lhes":12385,"ĠTerrit":12386,"entares":12387,"Ġburoc":12388,"Ġescudo":12389,"ĠDead":12390,"ĠCabral":12391,"tÃ³rios":12392,"Ġdesenvolvidos":12393,"arani":12394,"ĠComb":12395,"Ġtransl":12396,"ĠTi":12397,"ĠRav":12398,"ĠLov":12399,"azine":12400,"ĠProfiss":12401,"ËĲ":12402,"Ġroteirista":12403,"Ġeclesi":12404,"ĠNaz":12405,"ĠabraÃ§o":12406,"ĠMace":12407,"Ġarbit":12408,"Ġmover":12409,"ĠExper":12410,"Por":12411,"ĠMÃ¼":12412,"ĠNuma":12413,"Ã¡ssico":12414,"ĠID":12415,"Ġregistrada":12416,"Ġintroduzido":12417,"Ġramos":12418,"Ġsintet":12419,"Ġatendimento":12420,"Ġvitor":12421,"Ġbasicamente":12422,"inam":12423,"Ġcass":12424,"reak":12425,"ĠruÃŃnas":12426,"ĠAustral":12427,"ĠfuracÃ£o":12428,"ugosl":12429,"Ġcoloqu":12430,"Ġfaziam":12431,"Ġ68":12432,"ĠtripulaÃ§Ã£o":12433,"terap":12434,"ĠhÃºng":12435,"ĠExposiÃ§Ã£o":12436,"sonaro":12437,"dices":12438,"Ġescolhida":12439,"ĠsuÃŃ":12440,"Ġmilho":12441,"Ġjardas":12442,"Ġmeteor":12443,"Ġ62":12444,"Ġcair":12445,"ĠEnviado":12446,"Ġsubsp":12447,"Ġdown":12448,"ĠQuinta":12449,"ĠExp":12450,"Ġnobres":12451,"Ġapresentador":12452,"ĠDonald":12453,"ĠCron":12454,"âĻ":12455,"ĠMariana":12456,"ĠÃģra":12457,"Ġabriga":12458,"CH":12459,"XX":12460,"inÃ¡rios":12461,"ĠOS":12462,"Ġprovis":12463,"Ġfacilitar":12464,"ĠLot":12465,"Ġlitera":12466,"Sp":12467,"Ġdescont":12468,"ĠState":12469,"ĠPerc":12470,"Ġexterno":12471,"ÃŃsio":12472,"Americanos":12473,"Ġfui":12474,"entura":12475,"Ġabandonou":12476,"tz":12477,"rod":12478,"Ġneer":12479,"ĠAnc":12480,"Ġsubmar":12481,"Ġcompanheiros":12482,"Ġpaisagem":12483,"ĠJimmy":12484,"Ġindicando":12485,"jou":12486,"tus":12487,"aste":12488,"Ġprogresso":12489,"Ġnossas":12490,"Ġimpuls":12491,"Ġ76":12492,"bach":12493,"wo":12494,"Ġsobrinho":12495,"ĠcolÃ©gio":12496,"imenta":12497,"Ġnascida":12498,"Ġsignificativo":12499,"inador":12500,"ĠNeu":12501,"Ġarist":12502,"Santa":12503,"ĠCrit":12504,"quel":12505,"qued":12506,"Ġvinha":12507,"Ġcomprou":12508,"rativas":12509,"iang":12510,"ĠbenefÃŃcios":12511,"Ġalfabeto":12512,"ĠÃ¡lcool":12513,"ĠSap":12514,"ĠJur":12515,"Ã©mios":12516,"yth":12517,"Ġalinh":12518,"Ġdecorrer":12519,"querque":12520,"Ġquartas":12521,"ĠPolÃ³nia":12522,"mil":12523,"elia":12524,"Ġeleitores":12525,"anes":12526,"ĠApol":12527,"1986":12528,"apso":12529,"Ġmachos":12530,"ĠBia":12531,"ĠArquivo":12532,"ĠLinks":12533,"Ġida":12534,"ivid":12535,"ĠBi":12536,"ĠFont":12537,"Ġvisitar":12538,"ĠdiÃ¡rio":12539,"Ġneto":12540,"Ġmostrado":12541,"ĠarquipÃ©lago":12542,"oper":12543,"Ġpartid":12544,"ĠcÃ¡lculo":12545,"Ġparlamentar":12546,"Ġdomic":12547,"ĠconcessÃ£o":12548,"Ġretirou":12549,"ĠrepÃºblica":12550,"Ġcombater":12551,"ĠCristÃ³":12552,"sp":12553,"Ġé":12554,"ĠMS":12555,"Ġcondic":12556,"Ġexame":12557,"integ":12558,"Ġreferida":12559,"udaÃ§Ãµes":12560,"ĠBairro":12561,"Ġ\")":12562,"Ġpira":12563,"ĠMex":12564,"Ġpedidos":12565,"Ġselv":12566,"Ġrelevo":12567,"ĠEver":12568,"Ġsementes":12569,"Ġcondec":12570,"ĠavaliaÃ§Ãµes":12571,"Ġentendimento":12572,"betes":12573,"Ġconsideram":12574,"Ġsentir":12575,"ĠBey":12576,"ĠTun":12577,"ĠCarmo":12578,"Ġsentimentos":12579,"Ġmonito":12580,"ĠXXI":12581,"Ġlinear":12582,"ĠsoviÃ©tico":12583,"ĠOlimpÃŃadas":12584,"ĠApple":12585,"ĠcontÃŃnua":12586,"ĠTele":12587,"Ġpassos":12588,"Ġ88":12589,"ĠLeandro":12590,"ĠCrÃ©d":12591,"Ġcompanhias":12592,"ĠKos":12593,"Ġpositivas":12594,"biter":12595,"Â´":12596,"Ġemancip":12597,"Ã³metros":12598,"Ġconcedido":12599,"Ġtecidos":12600,"ĠDiogo":12601,"ĠNaval":12602,"irme":12603,"Ã³pia":12604,"ĠFilmes":12605,"ĠMoraes":12606,"ĠPequim":12607,"bas":12608,"itavam":12609,"ĠMit":12610,"Ġescap":12611,"ĠAllen":12612,"ĠMiami":12613,"Ãºstria":12614,"Ġ1880":12615,"Ġbrancas":12616,"Ġacreditam":12617,"Ġchuvas":12618,"ĠPab":12619,"ĠNenh":12620,"Ġprofunda":12621,"Ġfolcl":12622,"ĠmÃ³veis":12623,"Ã©rcitos":12624,"Ġjornalistas":12625,"grÃ¡fica":12626,"logia":12627,"egr":12628,"Ġpertencentes":12629,"ĠGordon":12630,"Ġrein":12631,"Ġdecidiram":12632,"ĠcaÃ§":12633,"htt":12634,"ĠPais":12635,"ĠCard":12636,"itÃ¡rias":12637,"1981":12638,"Ġretirado":12639,"Ġdesafio":12640,"Ġdesfile":12641,"ĠCurso":12642,"Ġprel":12643,"Ġciclista":12644,"Ġjanela":12645,"boy":12646,"ĠBolsonaro":12647,"Î¿ÏĤ":12648,"gios":12649,"nie":12650,"ĠcÃ£es":12651,"ĠDiz":12652,"head":12653,"ĠespetÃ¡culo":12654,"raz":12655,"Ġcong":12656,"verso":12657,"ĠBrazil":12658,"achusetts":12659,"ĠAbd":12660,"Ġalegando":12661,"ĠestatÃŃsticas":12662,"ĠCaf":12663,"Ġvistos":12664,"ĠQuart":12665,"conce":12666,"Ġparceiro":12667,"ĠAlemÃ£o":12668,"ĠestÃºdios":12669,"ĠAlfred":12670,"nik":12671,"Ġpet":12672,"Ġont":12673,"kk":12674,"ĠBud":12675,"Ġperif":12676,"atemala":12677,"ĠPico":12678,"Ġlac":12679,"Ġfinanceiros":12680,"Ġbatalhas":12681,"iscopal":12682,"ĠNu":12683,"ĠbÃ¡sica":12684,"ĠTrindade":12685,"ĠAtravÃ©s":12686,"We":12687,"tempo":12688,"Ġtorneios":12689,"ĠmodificaÃ§Ãµes":12690,"1979":12691,"ĠJess":12692,"Ġdestacado":12693,"primentos":12694,"ragal":12695,"hum":12696,"Ġsono":12697,"ĠsecundÃ¡rio":12698,"ĠtrÃ¡fego":12699,"ĠQuer":12700,"Ð¾Ð²":12701,"pass":12702,"ĠpÃªn":12703,"ĠHamb":12704,"Ġtransc":12705,"arra":12706,"Ġesbo":12707,"ĠKi":12708,"Ġincorre":12709,"1984":12710,"ĠcooperaÃ§Ã£o":12711,"ĠManchester":12712,"itÃ¡":12713,"ĠEmpres":12714,"ĠAlago":12715,"ĠCR":12716,"Ġcinemas":12717,"ĠsecÃ§Ã£o":12718,"ĠreligiÃµes":12719,"Ġcompanheiro":12720,"Ġrigor":12721,"gin":12722,"Ġrelato":12723,"sim":12724,"Ġapresentados":12725,"lbum":12726,"ĠHouve":12727,"ĠcolonizaÃ§Ã£o":12728,"Ġhectares":12729,"PG":12730,"ĠPE":12731,"Ġobed":12732,"lexo":12733,"ĠBened":12734,"ĠpenÃŃnsula":12735,"tora":12736,"Ġacabaram":12737,"Ġtrabalhava":12738,"Ġsemifinais":12739,"Ġmeninas":12740,"bul":12741,"Ġcai":12742,"ĠMog":12743,"ĠconversÃ£o":12744,"Ġpreparar":12745,"Ġtorres":12746,"mÃ£o":12747,"lau":12748,"ĠExecutivo":12749,"ĠTiago":12750,"Ġgado":12751,"ĠUtil":12752,"Ġmister":12753,"ĠcÃ¢mera":12754,"ondo":12755,"Ġber":12756,"Ġambientais":12757,"ĠDA":12758,"Ġ67":12759,"criÃ§Ãµes":12760,"San":12761,"pÃ©":12762,"ĠviolÃ£o":12763,"ĠGilberto":12764,"igual":12765,"eciam":12766,"Ġdeixado":12767,"Ġfrutos":12768,"Ð¹":12769,"ecÃ§Ãµes":12770,"ĠMarx":12771,"inus":12772,"igi":12773,"Ġ63":12774,"Ġfich":12775,"ĠEspÃ©c":12776,"ĠAgricultura":12777,"Ġurban":12778,"ĠTÃ©cnico":12779,"ĠNASA":12780,"ĠBenjamin":12781,"Ġrib":12782,"rez":12783,"athan":12784,"ĠHop":12785,"Ġportuguesas":12786,"Ġinterpreta":12787,"Ġ1902":12788,"ĠCerca":12789,"tecas":12790,"ituras":12791,"ĠBatal":12792,"Cons":12793,"Ð¼":12794,"eramente":12795,"ĠdistinÃ§Ã£o":12796,"Ġfalou":12797,"ĠConvenÃ§Ã£o":12798,"Ġartificial":12799,"Ġseguro":12800,"Ġescolheu":12801,"ĠbrasÃ£o":12802,"pool":12803,"Ġseguidores":12804,"ĠPrÃ©":12805,"ĠdinÃ¢mica":12806,"eÃ§a":12807,"Ġnomin":12808,"antar":12809,"Ġcircular":12810,"Ġhorizont":12811,"Ġservindo":12812,"ĠMr":12813,"Ġdestinado":12814,"Ġimparcial":12815,"enhores":12816,"Ġexperimental":12817,"ĠcientÃŃficos":12818,"ĠManaus":12819,"ĠCicl":12820,"Ġindicam":12821,"Ġpublicar":12822,"ĠDentro":12823,"Ġuniforme":12824,"gressos":12825,"Ã©simo":12826,"ĠNotÃŃcias":12827,"Ġaplicada":12828,"Ġrecep":12829,"Ġinfraestrutura":12830,"ĠMorreu":12831,"ĠHD":12832,"ĠRoad":12833,"Ġseparados":12834,"Ġalimentar":12835,"ĠsubstÃ¢ncias":12836,"ĠelaboraÃ§Ã£o":12837,"Ġperguntas":12838,"ĠPaquistÃ£o":12839,"ĠHistor":12840,"ĠPeters":12841,"Ġarmazenamento":12842,"hang":12843,"Ġcomentar":12844,"!!!":12845,"ĠAlguÃ©m":12846,"Ġadm":12847,"house":12848,"gs":12849,"incluindo":12850,"Ġestil":12851,"Ã©trico":12852,"ĠRenas":12853,"Ġhumanas":12854,"ĠSudeste":12855,"ĠBy":12856,"apura":12857,"viÃ¡rio":12858,"Ġdivididos":12859,"Ġcertamente":12860,"Ġparalelo":12861,"bell":12862,"Ġabus":12863,"ĠSampaio":12864,"ĠAta":12865,"Ġtreze":12866,"Ġfuga":12867,"Ġdispara":12868,"Ġrelativa":12869,"Ġobjectos":12870,"Ġadotou":12871,"rates":12872,"Ġobservou":12873,"filme":12874,"ĠmÃŃnima":12875,"uiÃ§Ã£o":12876,"ĠTenn":12877,"Ġrecomp":12878,"alena":12879,"ĠOg":12880,"ĠFlorianÃ³polis":12881,"Ġgabinete":12882,"Ġoperador":12883,"ĠRusso":12884,"Ġjanelas":12885,"Ġmedicamentos":12886,"ĠhÃºm":12887,"ĠInÃ¡cio":12888,"Ġincidente":12889,"radeÃ§o":12890,"Ġreperc":12891,"Ġ700":12892,"Ġdominante":12893,"Ġperturb":12894,"ĠJosh":12895,"Ġconjunt":12896,"pado":12897,"ĠTanto":12898,"ĠGames":12899,"ĠquilÃ³metros":12900,"Ġcita":12901,"entre":12902,"Ġcoloque":12903,"Ġchegam":12904,"Ġromances":12905,"Ġdistintos":12906,"ĠArtigos":12907,"ĠGeraldo":12908,"arÃ©":12909,"araÃ§Ã£o":12910,"ĠDivers":12911,"Ġdistante":12912,"Ġremanesc":12913,"Ġcogn":12914,"enciar":12915,"Hz":12916,"ĠEstrutura":12917,"Ġvendidas":12918,"Ġcomponente":12919,"Ġmerg":12920,"fato":12921,"mun":12922,"rett":12923,"Ġquarenta":12924,"cimento":12925,"hon":12926,"imate":12927,"itana":12928,"Ġgraf":12929,"ĠGren":12930,"ĠreputaÃ§Ã£o":12931,"quina":12932,"ĠRab":12933,"urador":12934,"ĠMosteiro":12935,"Ġbrilhante":12936,"Ġgooglehack":12937,"Ġvistas":12938,"ĠSax":12939,"ĠAugust":12940,"vard":12941,"ionÃ¡rio":12942,"Ġdescobertas":12943,"Ġregistrou":12944,"Ġjudicial":12945,"ĠsÃ¡bado":12946,"Ġenferm":12947,"inois":12948,"Ġclassificada":12949,"ils":12950,"ĠDance":12951,"Ġocidentais":12952,"Ġlongos":12953,"dis":12954,"Ġsap":12955,"ĠFlÃ¡vio":12956,"ĠConstitucional":12957,"ĠsubstÃ¢ncia":12958,"ĠdiÃ¡logo":12959,"Ġfos":12960,"ĠPD":12961,"ĠjurÃŃdica":12962,"Part":12963,"eteria":12964,"entamente":12965,"ĠSak":12966,"Ġcaminhos":12967,"Ġcaracteres":12968,"portuguÃªs":12969,"nas":12970,"enzo":12971,"ĠRibeirÃ£o":12972,"Ġdesconhecida":12973,"ĠNigÃ©ria":12974,"bot":12975,"cy":12976,"ĠUCI":12977,"Ġ1896":12978,"Ġintensa":12979,"Ġremover":12980,"ĠproprietÃ¡rios":12981,"final":12982,"Ġcostumes":12983,"Ġbomba":12984,"Ġresidentes":12985,"ĠsuicÃŃdio":12986,"Ġbarra":12987,"ĠMemorial":12988,"Ġibne":12989,"ecomun":12990,"Ġvidro":12991,"ĠAmaral":12992,"Ġrendeu":12993,"1980":12994,"ĠvÃ¡lida":12995,"doxa":12996,"agre":12997,"ĠevidÃªncia":12998,"Ġrepresentada":12999,"Ġpublicidade":13000,"ĠdiagnÃ³stico":13001,"tual":13002,"ĠVelha":13003,"Ġvejo":13004,"ĠMatos":13005,"ĠTodo":13006,"Ġassassinado":13007,"omi":13008,"Ġobtendo":13009,"Ġbrin":13010,"Ġfortaleza":13011,"Ġcot":13012,"alia":13013,"ĠmangÃ¡":13014,"ĠSpace":13015,"Ġ1898":13016,"à¥":13017,"Ġcento":13018,"ÃŃce":13019,"Ġreorgan":13020,"Ġconquistas":13021,"1982":13022,"Ġjornada":13023,"ĠMinha":13024,"Ġ84":13025,"Ġjornalismo":13026,"bus":13027,"Ġdizia":13028,"Mo":13029,"ĠRang":13030,"rass":13031,"tory":13032,"ĠsugestÃ£o":13033,"ĠsessÃµes":13034,"ĠCacho":13035,"ĠJohnny":13036,"ĠTrav":13037,"Ġprimavera":13038,"Ġrevest":13039,"Ġsubtropicais":13040,"Ġachar":13041,"Ġformalmente":13042,"ĠInstitu":13043,"Ġsimb":13044,"ĠThreat":13045,"Ġtransferiu":13046,"Ġsozinho":13047,"ĠTag":13048,"ĠFoundation":13049,"Ang":13050,"ĠVisconde":13051,"ĠcoloraÃ§Ã£o":13052,"Ġtranspar":13053,"Ġsexuais":13054,"Ġministros":13055,"Ġenfraqu":13056,"ĠRJ":13057,"ĠLag":13058,"ĠVasconcelos":13059,"fra":13060,"ĠSign":13061,"intes":13062,"Ġhebra":13063,"ĠsugestÃµes":13064,"wen":13065,"ĠCout":13066,"ĠMorr":13067,"ĠKaz":13068,"ĠArc":13069,"uxa":13070,"ĠMediter":13071,"Ġcomplexos":13072,"dust":13073,"Ġpassagens":13074,"Ġinstalada":13075,"ĠChannel":13076,"ĠiluminaÃ§Ã£o":13077,"etim":13078,"Ġtut":13079,"Ġminim":13080,"Ġsentimento":13081,"opl":13082,"ĠCÃ¡":13083,"ĠLeite":13084,"Ġbasquete":13085,"ĠParÃ³quia":13086,"ĠelÃ©trico":13087,"Ġvencedora":13088,"Ġnorma":13089,"sur":13090,"Ġpersonalidades":13091,"Ġresolveu":13092,"ĠGetÃºlio":13093,"Ġparas":13094,"Ġcantou":13095,"ĠMonten":13096,"ĠrestriÃ§Ãµes":13097,"ĠmolÃ©culas":13098,"Lisboa":13099,"Ġsanto":13100,"ÃŃculo":13101,"Ġcorrentes":13102,"Ġencontraram":13103,"Ġmecanismos":13104,"astas":13105,"ĠScience":13106,"ĠNewton":13107,"NT":13108,"Ġfras":13109,"issem":13110,"ĠMoore":13111,"Ġcontinuam":13112,"Ġvariam":13113,"Ġdiminuir":13114,"ĠCost":13115,"Ġlos":13116,"Ġtornado":13117,"Ġanunciada":13118,"Ġexercer":13119,"Ã©b":13120,"ÃŃder":13121,"Ġapresentava":13122,"ĠBooks":13123,"mad":13124,"Ġotom":13125,"Ġguia":13126,"Ġrecordes":13127,"Ġemig":13128,"Ġavaliar":13129,"azes":13130,"ĠChristopher":13131,"Ġsediada":13132,"Ġencerramento":13133,"lis":13134,"uquerque":13135,"Ġcavalaria":13136,"Ġareia":13137,"UE":13138,"iper":13139,"Ġconstantes":13140,"Ġempreend":13141,"Ġç":13142,"Ġprocessamento":13143,"Ġcombo":13144,"Ġ1895":13145,"Ġinteligente":13146,"ĠagrÃŃcolas":13147,"Ġ×":13148,"ĠCand":13149,"Ġenquad":13150,"Ġmatou":13151,"Ġintegrado":13152,"Ġadotado":13153,"umble":13154,"ÉĲ":13155,"ĠexÃŃlio":13156,"Ġabandonar":13157,"Ã¢ndalo":13158,"ych":13159,"Ġans":13160,"Ġcauda":13161,"ĠobservaÃ§Ãµes":13162,"Ġproximidades":13163,"Liv":13164,"Ġback":13165,"aviera":13166,"ĠDall":13167,"ĠDefin":13168,"Ġ69":13169,"ĠraÃ§as":13170,"Ġfuncionar":13171,"ĠUnidade":13172,"Ġservido":13173,"anca":13174,"oud":13175,"ĠLamb":13176,"Ġorganizou":13177,"Ġreunir":13178,"PC":13179,"ĠFeira":13180,"ĠaproximaÃ§Ã£o":13181,"ĠGregÃ³rio":13182,"Ġexpressa":13183,"\"\".":13184,"Ġenz":13185,"Ġcontinental":13186,"anny":13187,"ĠreÃºne":13188,"Ãªmea":13189,"prefeito":13190,"ĠSerÃ¡":13191,"ĠGirls":13192,"quim":13193,"ĠAragÃ£o":13194,"ĠTol":13195,"Ãºrg":13196,"ecas":13197,"Ġinvent":13198,"Ġligadas":13199,"rell":13200,"tera":13201,"Embaixada":13202,"ĠCum":13203,"etra":13204,"Ġ1897":13205,"ĠBrux":13206,"ĠEspanhola":13207,"ĠDick":13208,"Ġtocou":13209,"ĠTechn":13210,"idaceae":13211,"ĠNich":13212,"Ġrast":13213,"Ġproduzidas":13214,"Ġcrescer":13215,"Î¬":13216,"ĠUK":13217,"ulosa":13218,"ĠconstruÃŃdas":13219,"Ġpsicologia":13220,"Ġafluentes":13221,"ĠCall":13222,"ĠHora":13223,"Ġcompens":13224,"ĠMorro":13225,"Ġcertificado":13226,"É¾":13227,"ĠTemp":13228,"ĠhomÃ´nimo":13229,"ieri":13230,"ĠAlgar":13231,"ESCO":13232,"Ġdeclarado":13233,"Ġpernas":13234,"ĠPanamÃ¡":13235,"Ġjuris":13236,"sor":13237,"presente":13238,"ĠNO":13239,"Ġprost":13240,"Ġconto":13241,"ĠComand":13242,"Ġmercados":13243,"ĠGÃªnero":13244,"ĠProbl":13245,"Ġpertencia":13246,"Ra":13247,"ĠBurn":13248,"Ġnegativo":13249,"Ġlegais":13250,"vision":13251,"ĠÃªn":13252,"ĠVoz":13253,"Ġafirmar":13254,"Ġextraord":13255,"ĠRodovia":13256,"raniano":13257,"ĠFolha":13258,"Wiki":13259,"oluÃ§Ã£o":13260,"ĠConforme":13261,"ancel":13262,"Ġpedag":13263,"Ġpne":13264,"inton":13265,"ascular":13266,"Ġigualdade":13267,"Ġensaios":13268,"Ġvariante":13269,"Ġtorcida":13270,"Ġbizantino":13271,"Ãºsc":13272,"Ġturistas":13273,"Ġcabelo":13274,"Enc":13275,"Ġtorcedores":13276,"ĠpaixÃ£o":13277,"Ġov":13278,"Ġextragal":13279,"Ġalgoritmo":13280,"Ġmandou":13281,"Ã©mon":13282,"ĠacÃºst":13283,"ĠCham":13284,"usias":13285,"ingham":13286,"ĠMarrocos":13287,"ĠEurovisÃ£o":13288,"ĠÃªxito":13289,"ĠÃºnicos":13290,"pel":13291,"ĠRat":13292,"Ġactividade":13293,"ĠOnde":13294,"Ġprocedimentos":13295,"ĠcÃ£o":13296,"guaÃ§u":13297,"ĠOlÃŃmpico":13298,"itÃ¢nia":13299,"Ġesfera":13300,"Ġneve":13301,"Ġimplica":13302,"ĠFranz":13303,"ĠfÃŃsicos":13304,"Ġeficaz":13305,"ramentos":13306,"ĠheranÃ§a":13307,"ĠautÃ´n":13308,"Ġtransmitir":13309,"book":13310,"Ġfalantes":13311,"Ġrecebem":13312,"Ġlevam":13313,"ĠcidadÃ£o":13314,"ĠAjuda":13315,"ally":13316,"Ġtelefone":13317,"vidos":13318,"Ġdentes":13319,"AA":13320,"Ġsequer":13321,"ĠFarm":13322,"ĠLaure":13323,"Ġsociedades":13324,"ĠgrÃ¡ficos":13325,"Ġclipe":13326,"Ġsalto":13327,"ĠHem":13328,"ãĥ¼":13329,"ĠparÃ³quia":13330,"ĠLuÃŃsa":13331,"Ġreconhecer":13332,"Ġquantidades":13333,"Ġconvocado":13334,"ĠpÃ´de":13335,"ĠexplosÃ£o":13336,"Ġactualmente":13337,"ĠHumanos":13338,"consultado":13339,"ĠNicolau":13340,"ĠextragalÃ¡ctica":13341,"Ġnuv":13342,"Ġespada":13343,"lyn":13344,"stad":13345,"Ġconsequentemente":13346,"Ġobjectivo":13347,"ĠSydney":13348,"ĠTat":13349,"ĠAntÃ¡r":13350,"ĠJapan":13351,"ĠSent":13352,"eccion":13353,"Ġtalentos":13354,"Ġdramat":13355,"ĠcÃ³r":13356,"ĠAuto":13357,"AMPA":13358,"Ġmobil":13359,"ĠDuc":13360,"Ġ1893":13361,"Ġefect":13362,"Ġpublica":13363,"adjuv":13364,"eron":13365,"ĠCidad":13366,"Ġreag":13367,"ĠBit":13368,"Ã´nus":13369,"Ġocor":13370,"exo":13371,"ĠAlbuquerque":13372,"Ġtratados":13373,"feld":13374,"Ġmarco":13375,"Ġchineses":13376,"ĠFloresta":13377,"ĠMassachusetts":13378,"ĠsÃ©tima":13379,"eriormente":13380,"Ġsev":13381,"ĠBritÃ¢nica":13382,"Ġmach":13383,"Ġbura":13384,"Ġ99":13385,"Ġaumentando":13386,"Lei":13387,"Ġpasta":13388,"ĠFur":13389,"ĠAlianÃ§a":13390,"Ġ77":13391,"ĠWhit":13392,"Ġconversa":13393,"Ġvulc":13394,"ĠVietnÃ£":13395,"iÃ¡ria":13396,"Î¯":13397,"ivismo":13398,"Ġarroz":13399,"termin":13400,"Ġconseguindo":13401,"Ġmoedas":13402,"äºº":13403,"ĠMeg":13404,"ĠDog":13405,"Ġindustriais":13406,"HO":13407,"ichi":13408,"ĠFigueiredo":13409,"))":13410,"ĠFig":13411,"ĠKer":13412,"formula":13413,"Ġvisitou":13414,"Ġensaio":13415,"Ġraios":13416,"ĠPrec":13417,"Ġinoc":13418,"irei":13419,"ĠMÃ£e":13420,"esis":13421,"ĠCoorden":13422,"ÃĩÃĥO":13423,"ĠseÃ§Ãµes":13424,"ols":13425,"ĠBaviera":13426,"ĠGam":13427,"Ġcantando":13428,"Ġcompreende":13429,"oi":13430,"achel":13431,"Ġcompletou":13432,"Â».":13433,"Ġantecip":13434,"feiÃ§o":13435,"Ġestuda":13436,"ĠTaiwan":13437,"Cr":13438,"ĠKara":13439,"ĠGeralmente":13440,"Ġdisto":13441,"Ġdestacar":13442,"Ġbispos":13443,"ulando":13444,"Ġgama":13445,"laus":13446,"oledo":13447,"ĠdanÃ§ar":13448,"Me":13449,"Ġcunh":13450,"Ġfolha":13451,"ĠholandÃªs":13452,"FF":13453,"ĠintÃ©rpre":13454,"Ġelect":13455,"ĠJosef":13456,"Ġtalento":13457,"ĠSporting":13458,"ĠElis":13459,"iterÃ³i":13460,"Ġanalisar":13461,"ĠÃªnfase":13462,"ĠcitaÃ§Ãµes":13463,"Ġatinge":13464,"Õ¡":13465,"ĠGuatemala":13466,"ĠDomingo":13467,"Ġdedicar":13468,"Ã¡tima":13469,"Ġcoordenadas":13470,"Soc":13471,"ĠPok":13472,"ĠConj":13473,"ĠDave":13474,"Ġestivesse":13475,"ĠOriginalmente":13476,"ÃŃo":13477,"keting":13478,"Ġpic":13479,"ĠAdo":13480,"ĠHid":13481,"Ġalien":13482,"Ġparecia":13483,"ĠArÃ¡bia":13484,"Ġquerem":13485,"ĠrestauraÃ§Ã£o":13486,"ĠbotÃ¢nico":13487,"Ġelogiou":13488,"jamento":13489,"quenta":13490,"ĠfÃ©r":13491,"Ġordenado":13492,"mida":13493,"Ġbara":13494,"ĠconcluÃŃdo":13495,"mund":13496,"Ġalimento":13497,"iosamente":13498,"Ġmanifest":13499,"ĠTomÃ¡s":13500,"Ġprecisamente":13501,"ĠOrigem":13502,"ĠVermelha":13503,"set":13504,"ĠApl":13505,"ĠMembro":13506,"Ġregrav":13507,"Ġbaixos":13508,"Ġ1892":13509,"Ġjustamente":13510,"Ġenvolveu":13511,"ĠMetro":13512,"orrido":13513,"Ġsubstituiu":13514,"Ġesperar":13515,"emento":13516,"ĠPast":13517,"ĠModerna":13518,"1975":13519,"Sch":13520,"ĠTransportes":13521,"Ġlembrar":13522,"ĠlusÃ³f":13523,"quista":13524,"ĠFair":13525,"illy":13526,"ancha":13527,"Ġtransmitida":13528,"Ġpoleg":13529,"Ġaquelas":13530,"ĠPatr":13531,"Ġsangu":13532,"Ġcorrigir":13533,"ĠTrabalhadores":13534,"ĠApost":13535,"Ġgent":13536,"Ġamante":13537,"php":13538,"ĠAmbiente":13539,"def":13540,"ĠKle":13541,"Ġmonarca":13542,"ĠassociaÃ§Ãµes":13543,"ĠOliver":13544,"Les":13545,"UT":13546,"ĠdiminuiÃ§Ã£o":13547,"ĠOrtogrÃ¡fico":13548,"Ġeficiente":13549,"Ġlegado":13550,"aj":13551,"ĠAur":13552,"ĠRiv":13553,"guarda":13554,"ĠAlbum":13555,"ĠpÃ³":13556,"ilio":13557,"Ġregulares":13558,"Ġlutou":13559,"Ġaprovou":13560,"Ġthat":13561,"Ġalterado":13562,"ĠGoiÃ¢nia":13563,"ĠreaÃ§Ãµes":13564,"Ġsobreviventes":13565,"ĠacadÃªmico":13566,"ĠCatalogue":13567,"ĠMetrÃ´":13568,"HA":13569,"ĠemissÃ£o":13570,"ĠBÃ¡rb":13571,"ĠPresidÃªncia":13572,"Ġdella":13573,"ĠMaster":13574,"ĠArmadas":13575,"Ġhierar":13576,"ĠDas":13577,"ĠNÃºmero":13578,"ĠBaÃŃa":13579,"alth":13580,"ĠTais":13581,"Ã¶n":13582,"eganistÃ£o":13583,"Love":13584,"Ġformaram":13585,"Ġcoron":13586,"Ġ61":13587,"Ġcausada":13588,"Ġaplicado":13589,"ĠRous":13590,"Ġaplicativo":13591,"LE":13592,"war":13593,"Ġcomplement":13594,"ciÃ³n":13595,"Ġembaixador":13596,"intur":13597,"Ġentreten":13598,"Ġpolin":13599,"ĠCampanha":13600,"guez":13601,"formaÃ§Ã£o":13602,"Ġaparelho":13603,"ĠLake":13604,"ĠUnder":13605,"artar":13606,"Ġmonst":13607,"ĠRuy":13608,"ecomunicaÃ§Ãµes":13609,"ĠdistribuÃŃdos":13610,"eton":13611,"ĠtrÃ¢nsito":13612,"Ġderivado":13613,"Ġfestivais":13614,"ĠÃ¢ngulo":13615,"ĠgenÃ©tica":13616,"Ġindependentemente":13617,"rence":13618,"ĠMount":13619,"Gra":13620,"imi":13621,"ĠMei":13622,"ĠSaudaÃ§Ãµes":13623,"Ġlimp":13624,"Ġfec":13625,"Ġvas":13626,"Ġengan":13627,"Ġbolsa":13628,"Ġsurpresa":13629,"acote":13630,"rariamente":13631,"ĠferroviÃ¡ria":13632,"Ġvoleibol":13633,"oriais":13634,"Ġleu":13635,"ĠTch":13636,"Ġdeixe":13637,"ĠChaves":13638,"ĠVirgem":13639,"aux":13640,"mu":13641,"ĠCai":13642,"duta":13643,"ĠsÃ³cio":13644,"gredientes":13645,"ĠPil":13646,"Ã©ricos":13647,"ĠrÃŃg":13648,"ĠMatemÃ¡tica":13649,"ĠAgostinho":13650,"hem":13651,"Ġadequada":13652,"ande":13653,"ĠCS":13654,"edro":13655,"tona":13656,"Ġdiretora":13657,"Ġextrema":13658,"ĠBenn":13659,"usca":13660,"Ġxadrez":13661,"ÃŃduos":13662,"enstein":13663,"ĠMid":13664,"elhado":13665,"Ġeuropeias":13666,"ĠoxigÃªnio":13667,"entista":13668,"erano":13669,"ences":13670,"Ġcondados":13671,"ĠcientÃŃficas":13672,"ĠQueen":13673,"Ġmistas":13674,"ĠCesar":13675,"Ġwww":13676,"ĠSC":13677,"Ġprovar":13678,"ĠCavaleiro":13679,"Ġpossibilidades":13680,"ÃŃas":13681,"Ġassemb":13682,"Ġvivia":13683,"Ã³quei":13684,"Ġmestrado":13685,"Cent":13686,"iador":13687,"Ġfome":13688,"ĠBrito":13689,"ĠSocorro":13690,"Ġsacerdote":13691,"ĠThreatened":13692,"ĠComercial":13693,"Ġaplica":13694,"uzil":13695,"Ġ1864":13696,"arro":13697,"Ġhor":13698,"ĠmÃ©dias":13699,"ĠHaiti":13700,"Ġprivadas":13701,"hor":13702,"ĠVÃ´lei":13703,"feras":13704,"ĠalcanÃ§ando":13705,"Ġabuso":13706,"Ġricos":13707,"ĠAfeganistÃ£o":13708,"ĠLegenda":13709,"Ġsenso":13710,"Ġbeta":13711,"Ġtrazendo":13712,"ĠtÃŃpico":13713,"iliano":13714,"ĠQuÃŃmica":13715,"iny":13716,"Ġbro":13717,"ĠKl":13718,"Ġ1894":13719,"ĠJard":13720,"Ġ1860":13721,"Ġ1885":13722,"ĠColÃ´nia":13723,"ĠMalta":13724,"ĠBenfica":13725,"ĠSempre":13726,"ĠconcluÃŃda":13727,"Ġagric":13728,"ĠAberto":13729,"ĠChecklist":13730,"Ġsugeriu":13731,"Ġcineasta":13732,"ĠnoÃ§Ã£o":13733,"iki":13734,"Ġcomplexidade":13735,"rint":13736,"Ġuc":13737,"Ġpagina":13738,"ĠprevÃª":13739,"Ġcolaboradores":13740,"Ġpercebe":13741,"ĠquÃŃmico":13742,"anco":13743,"Ġrespira":13744,"ĠBoe":13745,"Ġafirmam":13746,"ĠuniversitÃ¡rio":13747,"ĠAlexandria":13748,"ĠbraÃ§os":13749,"ĠAmÃ©ricas":13750,"ĠThat":13751,"Ġmasculina":13752,"Ġaltar":13753,"retamente":13754,"ĠSports":13755,"ĠVirgÃŃnia":13756,"arial":13757,"riamente":13758,"Ġregres":13759,"Ġround":13760,"Ġsegmentos":13761,"ĠMilton":13762,"Ġentretenimento":13763,"ĠEta":13764,"ĠVÃŃdeo":13765,"ĠpoderÃ£o":13766,"ĠLuxemburgo":13767,"ĠProduc":13768,"Ġmedalh":13769,"ely":13770,"Ġbrev":13771,"Ã©dias":13772,"Ġnegativa":13773,"Men":13774,"abara":13775,"Ġ>":13776,"ouse":13777,"Ġalb":13778,"ĠWork":13779,"Ġ73":13780,"Ġ1888":13781,"Ġnumerosos":13782,"ĠDisponÃŃvel":13783,"Ġcach":13784,"ĠDj":13785,"Ġracional":13786,"ĠlegÃŃt":13787,"1978":13788,"American":13789,"Ġreduzida":13790,"Rei":13791,"ĠMG":13792,"ĠpercepÃ§Ã£o":13793,"Ġhavendo":13794,"ĠsalÃ£o":13795,"Ġsentiu":13796,"ĠRaimundo":13797,"ĠgeraÃ§Ãµes":13798,"Ġdil":13799,"ĠNasceu":13800,"ĠvoluntÃ¡rios":13801,"ĠPetr":13802,"Ġpobreza":13803,"uer":13804,"Ġcontempl":13805,"Ã³nico":13806,"Ġmos":13807,"Ġjazz":13808,"ĠChip":13809,"antil":13810,"Ġmonarquia":13811,"Ġtradicionalmente":13812,"Ã³w":13813,"ÃŃgios":13814,"ĠDicionÃ¡rio":13815,"ĠIgu":13816,"ples":13817,"eixo":13818,"qual":13819,"Ġsupre":13820,"Ġcentrais":13821,"Ġfotografias":13822,"ĠCac":13823,"Ġost":13824,"Ġpastor":13825,"ĠIndÃºstria":13826,"Univers":13827,"ĠAÃ§Ã£o":13828,"ĠAch":13829,"rasse":13830,"Ġsubstantivo":13831,"ĠProject":13832,"Ġferidos":13833,"ĠcrenÃ§as":13834,"oln":13835,"ĠTexto":13836,"ornos":13837,"Ġgigantes":13838,"ĠPerÃŃodo":13839,"ĠFormas":13840,"Ġè":13841,"Ġbelga":13842,"ÙĬ":13843,"espec":13844,"Ġesportivo":13845,"Ġoral":13846,"erton":13847,"voz":13848,"eni":13849,"Ġreeleito":13850,"ĠJunt":13851,"ĠsensaÃ§Ã£o":13852,"Ser":13853,"bor":13854,"Ġnu":13855,"abilidades":13856,"ĠMada":13857,"Ġdifund":13858,"ĠPerform":13859,"Ġpromoc":13860,"ogrÃ¡ficos":13861,"Ġdownload":13862,"Ġtu":13863,"ĠCaminho":13864,"Ġteclado":13865,"Ġservidores":13866,"ĠcrÃ©ditos":13867,"ĠconsideraÃ§Ã£o":13868,"class":13869,"Ġapresentadora":13870,"ĠMagazine":13871,"lados":13872,"iciÃ¡rio":13873,"ĠMarac":13874,"Ġforem":13875,"Inst":13876,"ĠsatÃ©lites":13877,"ĠcÃ©le":13878,"ĠUb":13879,"Ġarrem":13880,"Ġmagist":13881,"Ġrepl":13882,"ĠJava":13883,"Ġocupada":13884,"Da":13885,"sou":13886,"ĠDun":13887,"ĠexÃ©rcitos":13888,"ĠdomÃŃnios":13889,"ĠBritÃ¢nico":13890,"Ġaglom":13891,"uladas":13892,"rades":13893,"ĠThis":13894,"Ġjunta":13895,"ĠTailÃ¢ndia":13896,"ĠRosÃ¡rio":13897,"erbai":13898,"ĠVincent":13899,"Ġreab":13900,"Ġparticipando":13901,"ĠParanaense":13902,"ĠPÃ³s":13903,"Ġretrato":13904,"Ġexplicou":13905,"ĠAnÃ¡lise":13906,"Ġinfluenciado":13907,"ĠDarwin":13908,"Ġà¤":13909,"Ġ98":13910,"ilhelm":13911,"ĠmanifestaÃ§Ã£o":13912,"ĠliterÃ¡rio":13913,"Ġtrom":13914,"iminar":13915,"ĠsuspensÃ£o":13916,"ĠperiÃ³dica":13917,"ĠCristÃ³vÃ£o":13918,"ĠCidades":13919,"istema":13920,"Ã¡sticos":13921,"Ġpisc":13922,"ornia":13923,"atou":13924,"Ġcoletiva":13925,"alg":13926,"ĠSint":13927,"Ġmau":13928,"Ġcompetir":13929,"Ġacompanha":13930,"ĠmemÃ³rias":13931,"ĠMontenegro":13932,"yan":13933,"Ġseguem":13934,"ĠJuiz":13935,"ĠVictoria":13936,"Ġrat":13937,"ĠNag":13938,"ĠHil":13939,"ĠBilly":13940,"ĠcircunstÃ¢ncias":13941,"Ġinqu":13942,"ÃŃsta":13943,"Ġacompanhar":13944,"Ġcompromisso":13945,"haus":13946,"Ġavenida":13947,"Ġteatral":13948,"ĠEsportes":13949,"ĠDistribuiÃ§Ã£o":13950,"roll":13951,"ĠEnergia":13952,"Ġmudaram":13953,"ĠfavorÃ¡vel":13954,"ĠrepertÃ³rio":13955,"Ġacons":13956,"ible":13957,"Ġaceito":13958,"Ã³lia":13959,"Ġsubter":13960,"ĠHond":13961,"ĠMaced":13962,"ĠUSP":13963,"ĠinvestigaÃ§Ãµes":13964,"ĠPep":13965,"ĠmetÃ¡l":13966,"ĠdiscÃŃp":13967,"Ġvenez":13968,"Ġcompreender":13969,"Sub":13970,"Ġza":13971,"Ġ\".":13972,"ĠNice":13973,"Ġresul":13974,"ĠOrlando":13975,"ĠSupercopa":13976,"ĠpovoaÃ§Ã£o":13977,"Ġbord":13978,"Ġatingindo":13979,"Ġreduzido":13980,"Ġinfantaria":13981,"Ġalter":13982,"Ġrenasc":13983,"Ġnad":13984,"ĠFreire":13985,"ĠpremiaÃ§Ã£o":13986,"Ġpir":13987,"Ġtelesc":13988,"Ġperderam":13989,"ĠemprÃ©stimo":13990,"Ġfrust":13991,"Ġconcluir":13992,"ĠanÃ¡lises":13993,"ĠÃĤng":13994,"istia":13995,"ĠConcÃŃlio":13996,"Ġdesenc":13997,"Ġ1899":13998,"Ġvirou":13999,"ĠbÃ¡sicos":14000,"ĠBang":14001,"ĠOtto":14002,"ÃŁ":14003,"alos":14004,"ĠDut":14005,"ĠtraÃ§os":14006,"ĠrelanÃ§":14007,"Ġinternos":14008,"ĠdocumentaÃ§Ã£o":14009,"ĠPag":14010,"ĠChi":14011,"Ġmodernas":14012,"ĠMovie":14013,"ated":14014,"ĠTru":14015,"ezes":14016,"Ġautomobil":14017,"atia":14018,"Ġadulto":14019,"Ġcolocadas":14020,"chel":14021,"ople":14022,"ectura":14023,"Ġrestaurante":14024,"Ġsignificativamente":14025,"terapia":14026,"Mic":14027,"ĠRand":14028,"ĠLobo":14029,"ĠChurch":14030,"ĠAnal":14031,"Ġtornaria":14032,"Ġpraias":14033,"ĠeficiÃªncia":14034,"Ġtrens":14035,"ĠGuara":14036,"Ġseparado":14037,"Ġdefensor":14038,"hoje":14039,"ĠAndy":14040,"Ġcostuma":14041,"ĠvÃ¡lido":14042,"ĠDiam":14043,"ĠfenÃ´menos":14044,"Av":14045,"Ġentusias":14046,"ĠXbox":14047,"Ġcantores":14048,"ĠdistribuÃŃdo":14049,"itri":14050,"ĠInformaÃ§Ãµes":14051,"ĠvÃ¡lidos":14052,"Ġinterc":14053,"ĠEstatÃŃstica":14054,"Paulo":14055,"SAMPA":14056,"adorias":14057,"ĠLiberal":14058,"ĠLang":14059,"ĠDir":14060,"Ġofereceu":14061,"idem":14062,"ulu":14063,"ĠTrump":14064,"Ã¡utica":14065,"ĠpÃ¡":14066,"ĠBog":14067,"Ġgigante":14068,"ĠLine":14069,"ĠFÃ¡tima":14070,"Ġviviam":14071,"Ġbombarde":14072,"Ġreservas":14073,"Ġofensiva":14074,"Ø±":14075,"Ġup":14076,"Ġlan":14077,"ĠJunta":14078,"Ġperfeito":14079,"Ġentrevist":14080,"esÃ£o":14081,"esearch":14082,"ĠproporÃ§Ã£o":14083,"ĠpÃ¡ss":14084,"ĠCemitÃ©rio":14085,"lines":14086,"Ġadministrativo":14087,"ĠBapt":14088,"ĠGrac":14089,"Ġpedindo":14090,"ĠMatthe":14091,"ĠConvento":14092,"rinha":14093,"iani":14094,"ĠTocant":14095,"ĠVladimir":14096,"ĠCoutinho":14097,"Ã³ides":14098,"Ġsobrenome":14099,"verm":14100,"ĠMediterrÃ¢neo":14101,"ĠFA":14102,"ĠestÃ¡vel":14103,"Ġgerm":14104,"Ġtranst":14105,"doc":14106,"ĠSqu":14107,"ĠBou":14108,"ĠRal":14109,"Ã±o":14110,
[...]
